{
    "input_shape": [
        82
    ],
    "hidden_layers": [
        {
            "shape": [
                140,
                83
            ],
            "weights": [
                "SVgsvJ+SC7tyXMM8wY6svPgEDLsviDE8F6UwPEM0jDwE0Pm74vacPo+mzL3booo84JTQPAOP/TpYL6q8ctm9u69thLvD0lE8puTtu/aL2Dlycma761RTPKOvIT1PfDc99rUwvckos7zm99E86xGCuz+MjDwG1vu85TK8OS/O7zvMXhY8cvNKugKKdLwzGmC8iOf2u9fWK72Gt6A8OpRCO8XHxjs1Rhu+tcy3uxo5yTvmXQE7GyCou82WnjuEywW9bYRePWGfRbtE9fE6j2R8vBrQ07yFvzE8b3/eOvK+vLw978S6zGbWu0FqUbzaK1A7nnxRug+9DbsL1Ca7/zwuO0ewVbjfI/65dj8lvWqYvrsjp427G3t9PXnxNTz9SnW7S3kLPH9pSjsdCFe82wTbOycBrbtlfis8ufUOOx2sHLzGtmy9MH+6O9ntfb4oqoG91AnUu2IWPjsPwnG9UQ/gvFoaXrxzHQ69O+s3Pb0YSL2R6XA8NVRJPMSQp71H9AY90ClEvHY/Gz3Ezji9aqWJPYaEu7xlBkw8vTngu6nY9LsmtFQ+6GsdvJN6Xz0sRDC8WcELOzsBATykYcQ7jTjgO2hqJryUa3s9CCQOPQi5GD120hI9S4KJvHPYyTyJSS08IqeFPJRUjLzDGUK9jmwYPFOdE72+2Iy8EJSCveBTfTtR4f28/gFIu4GUET0BkV69bkEdvSsiQT1WJBY8tUhOuefSx7xQphc8S4bSvGeoczyo8+0823XCu2Shj7p+elm8dnLpO4InAD0eZDO9G/W6vA3LXrxm1768KdClPLL6aLxlhVC9OaCbuwelvjx2nf48jLnDvABCbLy8qxk98reGPedk7rsifds8qxvyOymdDbykCrq8BXnHvYo/Kb5riEW+BYFlPTplYzw+oPO9tBDsvDjcfz3Rgse8OhnAvNZ+Wb1bmpk7bXU4PFDtaz784hi9j6MePaKqX7wq5dm6HAunuxJ9yjzNGn88FEiMPO2/xLuiFCC8HeD7PLKvjj0XLKq6",
                "6TpRPen0GLwZIxM9XhpZPLY/oLzYmnw8PSC4vL8n6DysmAm9JGPEvHvTnDyQXkc9BoRnvbVG/7zG/U082faBvamiHj2UOMc9k+P3vINC4bxQ6Yg9dYHOvBsd3Dvws048FW9TPFic3LzQIAu8cNW1vBjiljpvUS28c4iGvVR+Ar3deqY8+bDxOm2MQD38Sa08/V2qOugxFb07tDY7VsCtO4dxB7xMl+y8BxkZvNpwl70zZNq8r9K2u5dI3zzt5j45ZLDkvMYBB7wOKim7qdePvEZVRzyF0o48dv/uu+hF7TxgUYm+ItBFOytHdbwbji++J04Wurcxd7xUYFm8OhmZPLLj2bzDhwa+oH8LvFhdwL3VSvE8mbrZPMjnzTx0r6C8LEwmvG7U0TzOg5g9XYkJPQ+1QTzCnZW5kuunuwprA70q8Q292yphPUwqcLx+8oI8AqINvP6vHDz2sCe9qixPPCz5A7zcL9a5HuXjO87zKrxb/NC6UQ+tO1qziT3A1Am9o/VQvD15ortz+rQ9qPbYu+2cu7srXSm8H8frO7ZkqbqQvBu+DA+Du8MncbxbLTA6P8+ovKwFgL0Escq6CvSsO3UHsjzBBTM8fMuJPG6Usjvl0Qk8gFZYuzr9WztBiyK8ZP6hPK+aoblCZp68J74tPIe0njuI3Jo8+ZMbPPApqrpHUU08Z9T8Ox4OmrwkZZS8o3VmPNAqejuTvE48b203vAANg7xK4Rk9rxPSO2LkuD0zx5s9ZFsoPkSuEj4cJQq8t+C6vTf/Rr0jxAM7CbcSPHkUNT1EUAM9/jV4vOkf+rpZUfg6o+6YvYSpFD2zez48lQ71O4qDfr1vQb69hmkyPUha9D2H9bA8B06xPLVM9TxAnuc9TfVpvN7bKL2z4eK7f66PPPd7JLx/Cio88HqmvPNmajzONbk6hkaIPCLvQzsXx4c8Jj/JPZfRiD2nxee7JeKUPK17Gb1kOvE7FadEPbeaVLy9l1y7UAlXvIZzhDz427y9wwYJvLH9uDyT/5u9",
                "nQAJPY0Uzzuct7q7ZpQmPDwMm7uC2/G7V1t0vARqETx4+PA8sISAPNJrSDzwdse87/g4vF2cwT3orH48e/UiPQB4Lz2zyVg9oxGgOs7WlDzI6Ki8X+ODOw1LPr1TpZS7inulPP/Uar1oIYI7peBqPQuUB73g08u805mMvhnku72GLCG+06HEvGN84Ly4EuG9rZTxvOqfpj06Mp89UrCKvN2PNr1dCx+9UYuduOSEDr2x49Q7eY/IO+IoAj2JE6+7OrPbPD1zDD6UR+i94lIHvV+aN731En09cz+7vCOHJ7vfhgA9KIy3PLQxQz1sfjC8FfECO5wloTzmtHO9tymcPe3TTDz8VMY8f8inPGfZv7uFJQQ8ZiAsPRHUDL3T8aa8BQ7cu72bhLwmlm49ZhlKPPmRUT3Hnsk8epDku8witryM/H08LHwbvOgGfT3cEzK9k+ujvA2yCT3Kpoo7LrArPI0inT0Khoi8SqWovHr4jTpkM568OW7NPF2BojxpxzQ8LXJWvL+sbLxvSaq89Kr6vHFYzjxeD+C8s6l0vMIhzLwe97a88MGAvK+JgTw9C0+8YPdpvLtYfzteyAI9XJSPuioCrjsXSLe9g1XiPTLtQb3SQsY90kc4vC03wThCXFU9OeWQPH4phbyox3Y8dppTvGGn0731g0Q9EciNvD2Hd7s9i+M6NFJWvaUwlDuTKn48/FCOvvMKa776yZq8xxlpvKlDlD0Q9wE+RfRYvQzWSLyevgK7bBy8PHEz67sd1/063GioNIkdmbpRL+W7XJUavC0libo1c4K8B32nPJuEy73VrgM+NV/wPMVMfDx4tLg85qtRvB2c6DtkGr+9NzHYvGz38Lv8nDo9pBpavMgNrDuxt9k8HdDbuwT8gzxR3nk7hGXhvG/op7lK7W08HN+IuzFfAzqZma65iG+0OwS8xzwF8ck6kq85vIEibrsCFn48i1orvTL3/jy4ZEa8zAmvPQn6ojyz9JC76hyru4M1qjyR6Ni8HazputSeRbzg/vG7",
                "PhvruzxsjDxb5JC7sAy3uwRucr7dEIC9TZywvFm5Oj1B+4i7S+QzO8rqXjzwprc8mOuYvNsmBDzOaQO8B4H+vQBIjL15gx89sD3XvGZFGjySB2m9sBlhPM3KjD27PbE+mSAPvhZnxzvCnRo8tJvVPZ1JRj4gIVW8s3rQO8b0ALw0dYs8c13xvOAooLr4Z/E8Mz5avaakDD2Wbro7aJaCvLKUHrzy5+S8X3ISvuQMBz6qpSO9z5G4O7hUlDx3QaS7KJsPvD3M7TwrqXk91X2vPLNY9Dxf86Y6QzcgPCcaAzxIfao8qo38PK92ITvjtAe8HhZ4vK7+iDoy0Q678a4qugcS4TxP6Gk85MxSOuJA9DwSjwy8QVKLOx81Ezxu92W9lZ7QvAa5Y71PbLU9A2LsOdyJ4DxjzyY8iTk3PB0kZjwu4RI7cx8uvD7V27vJcbg7H4HMvPwXj7lYURw7nIULv651Wz1Q1eM9795SvmI0jj1rCrq9gdTGvVXQhb2KbwU+KZsTPQtZRby70vI8B/UhvY6m6Dy2NcG9JxaLPIRjpruw2+u7RsxnvNz3s71dXoo9BQWdvRJL1LxkCo88ELnUO7ZXhDp7s6G8MIudPPdMEb3EAKW8N+lmPL/uoT36hOi8uOR+vB2upLweXGc8wX2ovJyyDr0dZvg7nEdcPZL/77w+3Zc8I6SzvITTwzzXg+m7caTdPMSiSz1GH2e8h4DPPDP0hrz2Igq8g80JPaYL4ry3gsE87zaMu2CyVTwf5gq8gkWCPOp4kzyxDYg6XMaMvM1vkD2P1x29MgO0OzROnDpIWA87XgmbPTmzmrtgFck8s30dPCIBEbz2icy8aQKEO2jRuTyZ0wU8v3cUOy2o/rtvduw87+gVPX2W7LsHwpu85W+cPA47L7ssGK+9BbUGvQljA75EdZY8FSbcPaCgDT2V2Jg9/hfrvCWQ8jyZkzS9U01jPXQEiLvkrn49vht3PCxr4by2h0K8Mfcpu7H4Gr3UFRm9PpYbPXv8Cz7va1O9",
                "8sKCPRdXXT17GRU9wvFxvQbu+zyfrh29JrRUOc/mKj3IVgU9aTggvqIv4b2X2fy8EHL7vBo2b71UfRu8urouPXNAa7yrJTS92r3Suw0TFL2Gtws9dKZFvIlaRb0tTIc91GgpusKdZjtgU4C6cWcyO6M9wjw7Cto7ez0WPHjW47w3OPQ70YaLPaYZozx0g4i7cvcYvJXVJTxzW008ttGBObW4QT1ZgKG7o04YPP2ERT2mphk94LhZPNcq4DxcTxM8gXW7vKDTRj3AEgy9XdqaPAYptjpQIzO7MlYjPeZ+2rwlvm68TputvKKb+jtSqq08Ac8VO3v21b2Aq5q99kF2PWimDT7DqLE+1BQTvg8m+z0pd2+9YiiuPbYQAL1bpn48qj9ovXix1DuR7BC94gwbPTI+E74AJgw8OyppvGS+4Ty8I4g7JOWFPeikZz1diZa9fQLhPM0qSj1hm8W9HhoTvaP0dzwQtwy91GQiPXObzDx2s009KDuNPEBvdL0djYK9BmhPvPYFjzwytLo8Y9Q1vVIpiDyeUYI9MXImO/THR7zIE4Y9jE+fvahj0DwZ9bO5vYQwvFYlLr1eMiU9m36APJCooTo08fS8saU6vEsavrnTJ/y8pHxyvHVYQrzH84a83JUBO0mitDuxXuK8wy22PXMEMb2Khjk9AJMIvWzk/7s63c68Dnq+PGVcyTxTYoq86MYDPUZD27m8Bao7qiBeu0mQYTu4W0o8UFpZvR7kNbtr0k88jyEiPMMRTToFqYA8ZKYqvhalxz4NFEK+CYs1vYCQbr1GPEk8s0ARPijbNr1X3co7wXozvB6N1rwr8vS6cGYVOhbQWTwujc08sWSUPMQm6Tx8P8Q8GfqqvGQf2D3Cc2A+8ebgvCKPAjtl1xU9NmciPJogsrvwfTs9AyWCvH0az7u58rM7P2BEPSETfL0WhVS9apeyPA7YPDwY5qE8d+cWvImzxzqiuBg9WmkJvVbHXLxTyIO6EcuXvTrnbT2sKKa9oUoHPZqrjrxbGZG8",
                "dDgivMFyvrwkrZO8Acg7vQuIK7zAjYc8fO/LvJbKVbxyT4S7YIwTPaLQJ7xFT/m7uP0AvOJT7LtzCCy8e4AbvM+O1jse6rK7T88+vEp8eDsnR4y8r/6qPJ6VUby3vYC78AXVOzm7lDshfbe8lKCLvK0zPry0WsO89UjaO/t5oLqJyxc8TnsDvEsDuTvaX7i9X8ttO0ZBdjzqxH8/14IuvOh4Vb32MCg/1TZBPea7jDv/0IA+DqYHvrqrHz69kka9NtNpvFmMCzs9Ahe8pfkDvM5xLTuuJjq6r6aEvF9EUL2Hj8a6recwur/fqb31LEW+NHqGuimlcrxiciW7pL6Nu303ODmQKLs8gQByPEznMTyAWD67ERRqvPjKkbtg8iQ7nM14OwkENj27u9S8g1MrO3Y0zTu1G9G8aCAhvHGuKjozu8e8rMg5PCSxGzrEdWy8tyBCPGB4j7tewBm78cbXuuPJ7jvToks8RaDgOu0CCr3/aIu7kGd9Oqb4Vrt7kyY7YdBCO2I65TmRtNE6+dSsOjcEOLxiDDE8TfXQPAM0CryoorG6rn05vKGsubvPVRo74MbnO4nLgTvFy9c8dYAuO40xmDrXf0m6C7zFO0GgurvaEXu8WCuNugFcsT1lr5c+7UgBPz4k7Dw1gTO8Ot6AvGslobwT0kE8X8dBO2xMCj1coD263QdDvVXTJjnz7Ds9ibEsPqoYBr0Cq9k6eo6GO998c71yHvM9obFUvQL3WTx8XO86j09BO0YJCDun28i78fq7OiPajTqIbeG7O8rcuXL+sbkcq707FxBhPJbJgjs3ecW70B+YOxSYELq3uxI8HvIIPR9BdL28adI6VponvLHaTTsnNTw8iOl9u0faMjqRgQ88fOqAu28gpbuPl/a7SeaOOu0vbbrngR89zeikuuYRCbzwFYa7oYRZu6MGubktBJS6oh7jOx2jHrqarnW8YzEvO7o6xjvrF4o4/Z4ZPOQei7x4mjM8sZ1GPIt7ArxJ7wS9RTm5OzOYe7xeSsa7",
                "WfP8OoLUCLszYkY7/e+Eu1RI1DvhFMe7eRQBPZtMubuvtKg6EDKzPev6lD09VmM+28oNvbLLnjvHhHA9hTnBOiaTAD1ly+Q7zGnePLfn8byx2Xc89JDjvBn7mztiJeG8PUOvvPTV5TwKQzI8QpCRuwki/j1cpTu+XTSsu6Xl2ryR5a27KnR4vODmrzykbPE7oYQsOyEEkTyvbAI9JYX3urhD0jqe+wa97sxXOynafD3Kipy7cudcPaJfqrtlpCM8cfPluY4gs7y4Ha060Zhlvd1FBLyod0u91RkXveuAhD16P4k8BPU0Ora2vTsa0lS7XfP/vAnNVL0OZ6Y8ywYbPQbkhTueMXS87x1KuX1h1DyBQ407tWyBO+S7gjuuNZu7JFqNPKTOm7sNJDm93Be+POxMvLwzgj29OValPVVoYLxhIb69naSFvSFZbTuOLWQ8+HDNO2MckjwZ6j68mpc/vKdFZj3GniI9B0zMu7LlNTpIJV69RKoIuhl6rTwhNc49s3mVPG3ICr56xNg91oGBvMlKE755kYE9treOPTmt7Lw9M767xly4ve2wKr3DAiy9PlV5Pc6Qn7x4aJK95KdtPTOoB77auY+8rcmvu9EBHb35pP+9PkjYvei6eTvLyim9xLUju6V5Jb2hnDc8vE09PE5BmL0Kd9I3jk5dPJgOKDxeUXG8amp8u4xCVLzOEQe8A9/0vFKE5ztSpK09rdkuPdcBEj1vSXu8k6F4Ox19tjzG6So9EoUKPV3qBjwajEg7wEPLvOOKebxI+8q7o9z9uw0517vA+KC8fSy2u+RJrzuMsDs8kulEvNazqLvCwR88wAlYO4dWhrYNbO+86eN8uxeKnbsRVNO7c+oTPXl1R7xsd5m73FozuibBibym6hE933a3OzdOgjxyZxW9O8p2O4l8RDvBhDA79HaZvOaSJz2Mxpw7zrKxO9hCEL/pv644UcQtuXte7j7lyTk7WV1mOz5VqblwdWS9tbUNPUmtCbtlxUc6QRQTO4r2Mjvd13K8",
                "oxbougpjSz0XnVk6E/e9O5nFeTvosHg6XlfpvLTZcb1qRnE8xRROO0bmJLsDP4e6CftCOnHIJLlU/425wBWLO7w7TLp0qcw6bAE7OxtDSrtp27O6ZunlvJD66zuzXGw6nFAqu6F4hjxqeNE5Zku5u6/PazsySJc6+X83uzM4qz0MEMM8+3nvOvmMHrv7RKG7s86nOWiEgLp1Ehc7zT7cPcyGXTuCPpE6Xp8KukMe5TqCaZy62IE2u1XVZjpo4x+6NxTBO6d7RDs9UwQ7FyFeOxf7PztCYs07tnBFOzeP7Tp8wE274J/6ui0XNL2AWLo6kXY/ud/klzjmrfC6JPQcO6sKaTzdg4Y6Y2BiPUQCELxPF5Q+G6lOvN62Rz0feBY9xVNwPWh8kbpWySU8r/AyvJzHr7t2aIA7GBF2vc9mRLxbVma9IpYyPfO5wLyu4ps9TEzGvOiAxT3b0bi9Fz4zPYPeRTpv+XM8k54TPHcPirvefyw9f+CIvJmYIbykRmi861yEPL5Z971S2r89FCUGPb9HBr0NSw09Ky31PMCurDzKttS7FZAFvR6nmrr7hQM7BqXmvDzNJj1xfIA911mku/WJ0buLFla9vwDTvJUNDzzNF8e8S+EDvREqHzqX5FC7lV0WvAsiJbxjlB08KdE6vaT2KThrgdC8CBszvNfnID3waZg8hU4rvfTVSzsFSHO8CjxGPC59zLpsNHu7MeggvTER2bzcRR09DIjDPPdRqLuxgx+8a/CnvCQR7rxkzB878gTWuw1aA70zd4+8IKPHO8qQmzyH5Fm+a9DUvFu5ADyEP5k9ll8vupYcSDtGX/I+kDmQPKmQuLv2i6O+/fyDvVP0UL6R2bG7/2YQO4ntg7vqGfA77mO8PaqAvLonSUO96q0ju14ek7xSDyE8fM4GvGah1z339GQ+lpGoPf12nbt2+7S5mCcBO6SdozvnizQ9hXl7PCD3QDu2hm46F3LTuqBS/bqjqyC7EeGEu9WXgD3fgrW9LknvO/ChG7y+Q6M8",
                "tFSHu5W89buEHh08rDXWO6j0HDvaKCW+jcyNvbM1FrtH4bk7/StOPNdGWr0qMCa7paZnOr7Ygb3KQGC7K9PDOa0YVDuQhKu7KhyHOcRHRbzrx4w7zYr3u/nt+juf6rY76LshO4Sg4juB7em7gVgPvANuJLxwVqu7ObqLu5CdhzsRzLa8qWp+u9OiGrv3Cw88RGNdPDSp9TkYSYg6bH4iPID9pj/QBQS+KtBUPkFgFz2qWIa+lsexvS6uMz3Nm9M83Zq8O36NxzykzaM9BbCevJi42r2hE/689Ho5vcDcVr05O0k9+NkXvSfrLz0HeS+9bjicPVnA7TxPS027YpgcPQ4qurw4LD89puinPTPPVjyhpGy8pu2gu+OIJr3KUBK8AqU9PQDHDbyKDzo9YMyJu0l6y7oni+y71gSbPDAIJLx1XJ28wNE+PTQsmz1Mnuc9BSf/O0jeALxAZbo8BsiWPD+LjbuaEOy851UPPR1Vt7o2AsS7Gz2Nuz2PW7ubrOK8swVVO36cWbyMg3c81upaOwjK+DuekDi8nRidvAF2x7x4KTk7NBrEPNhep7wcsbW8MECSuqOqlLzdfs28EUTGvFZmvTykmZs8wrK+O3LzIDzEXvs7cG0qvVM0ZLtg2Mq7L+oZvcQXPLxoWWA7ogvvvYlVg73LqHC9p7Z8PZCeNT1OqfK8tgq6PcpS7TxQelA+TymGPfk8Y73vAjW8AkCBPUDXib07quy84V4KvSSiEryAeoc6kzXsvUrkoz1sry299Kj+PIFGGb1tfvK8iD1iPeva4jw59Ks8q//MPBaUVb01Y3E9iPmcvNSJvTzpsHW8zpMKvXU7hTxsHkK82FiqO2yWFj3O71A9yVFuPAiUQL3jT+S87T0sPeYiAr2DvgM85tT3O3uiEL0S0608Hrj8O+EMIb1Hd1s7bLf4vKMutTt1fm886Ek2vU5/JTxdYls8BeinPO0Mx7wv6Q88kF1EvFDc/ry9RtU8KP8zPDOa9Lp8qAI8JdgQvfjtvTyQvfw6",
                "/2SYO7+GpDkxHzE81g+kPG/MIL2OwPE8BI+rvOyaRjymtUq65hNKPLNIn7qU5rI5ofsFPVXtoTztN2a+Jo2JvVR/Vb5wCcY9KPP6u6W/q71EygY+dajSvYPfnr2qJgi8ZdbkvEE8vbt5gCc9wm7hvHvPCT5QqR46IgI6PFriTTyBI5A8L9KWPehc9Ly3aQO+fRb1vFJl5Tsjs9888s+uPZbfErvuUKE9/8JmPOiLQLxuvi86qZHMOy39CD2gY6y87wOkPDtzuLyEMKO75a6yvDH0HTzVDgS7Lq+IPLhoKTyc+rk8rJiBuzVVJb0pheC6aDBzvVSEqrt2kRy9Pl6iO8N9OjwhXIu8Zaw9PQTUSr1NYsg81V3NPAJ3STxz5Ku8DFmzPCbmI7y3wLG7yqwBvWRh+rkRjsO8YKZbvEPEtztaw829lA8AvEPforx1SSq9OSFsvB8OQDyESFE8bX9eu+I1Ubu58ru83wZYvE5UOztmLEk9ifqmOynXfLos6hI8QDmYPIbCbr2juao7C8HCPVl66L2WJWK+jCZSPpIKt70yFhA9OOIxvhQIJz2SlYG896oAuvrAmj0jEje9y0Z+PFnoOr35Rv+8sP8qPCCYCL3+2tm8PKxUPYSoa70o8Fi814vsvIGDTz3DPzw9ACnoOQVwdDxl/yo8uZthvTn1PTxgfEi9KbF9Oz6iOL3FqpM8JWdbPGAOXrwi8iU94adjvMYrUD20sQ89MihaPf0hRDzsBxY82bJTPeJ29jxz30w9HCYiPbaALT1HP4W68Fvvu/Q7Tbx/3GG7nUwUPAJNvTsyhSe8i48HvIztvjwMV7k7/cZ5PPivSD1GNwm9hlaaPe4cNDtfVhA9yg8YvcO2HD2L5oi8eso7PMvsbDyhUd47LzVQPckj/LycUFC7bEPCu+3br7zzBEm7YaJzu4JvAjzPzYy8pGqfPF2z0btQcqk8jpk0vsNijrwBlL88HBMcPSB0azxNc0M8uMKYvi7KhTp+nkk8GCmjvuBTHLtbc0y+",
                "T4IGPNGeNDyHJzs7950TvUissz2BQWA6t8kpvVHQALoUQLm80QCBPFVPoLusidc9RZtPPsLMiTySckE8pCEbvNOc+rpp8SW8z0e+vRRF1jtwHjM81W3fu3nCHzwNzIC8LKUROZwMEbu7klE9udmSvdWqzzs3MWA5oGU1vPuDZDz1aqQ865vmOnWOzzwYCqM7Zg1UPkfPPb2/g0k7MUPRtQwuNLsQLu496An+u3MRtrvZLnM9nS9Pu0pBCrzwpx+6aMq2O65rLLoa9S87OXEeO3UyCzvLmLQ7lyAcvM+TgDu/Yw48YyS0O0HHNLodLBW80jZVOi2Y2DvxCZA6xQoAPU1tWTrUDrM73LwYvERF/rpxlnK82QWzvNUVFbuhY0U/RGjvuYOWILyy8Qs9kpspPb+VyL3geMw8ZNJKvXYGqDxvm2i7XkkEvR+mCr0H4yY8ShGhvBn1eT2tj9g82EK2PG40lr1PkhG9MnQCPXP/Kb266Xe9yUmBupjPVD39Lts8e/bsPKGvVz3wBKE9NmbZumZgaD2nfHE87J0kPejOyzvcPU2916cLPPpqJD0XjCg8QPG2vA2+AbvcOs48g61GPQr4UzyJR9M8it4oOt5c8LztCGq9nm2JPYYvsTw9Sw69QylcvR61rTzJeoe8GydZumGdl72L5JQ9YJ48PcMYsjz8x4S9UcCcPNkyujpZEOC8cFRPvX0SCrpEWF+6/nOCO1tojLzmGbk8DSPLPBoKyblHBui6T+v0u20H67s+fc67ATeVO07FIbzCQ0W8NjyKvOtRdjzk1go99E5YvO00fztcUe46LqUzPaMUZ70+zze9b/UNPk3rNj5r27y9nJuQO9L3CD7rXfC7P/c4PL6Kj7y1vKk9gB2TPKYLI70akFK8OwCSPb0lxT371ag82gvbuMi5BD2hic+99s+oPj0PF7y5suE7Vca/vJhQk7zTax29lmwLPfSoGj0Lcua8Zz4NvBHLUbzEDAW9OIoGvW39jLv/W4Q96uawu4CiojwMdBW9",
                "zpAhOlow3Dy7qtm8qJo5PdS+NroHsI09zs2ou0WCBj2reVe9fvb2vJ1rKz13Ohg8M40uvC8V/7vNuT28M1i6PHpWzbwB/LC78dwaPIMS/zsJmpM8MuCaO2xfFDv1HsK8xeEEvacJyzn1k8y7jEERvCz0/jsl8Tk8NdYKvPNVLD2BrFY8DYKDuxRXAjyDcNy8nhHivJvshzyR7gE8Pm0DvUXumbxu5My8ZLmuuwfkXrxisxE8jZ2FvQnPgT64LsK9SzPLvK1c7D1f4JO8rrb4PYTAK72x2OI7NgwbvZ2gnTyVHni8cbdoPfKdOj0yKWC9mvvgvdWxpL2Ut2C9rR+MvQpvKj085jA97XWgPOi1Nj0EKtA8ktqIPT0/ljxqaPi85geBu3ScJTorlA67R9+UvAsLuLs3qvi8KtY+PImEp7xk3i28kr19POSTUTyBLR484M5JvYFtvjzHTiu9He1ePbcUir0qS449886Zu0zcqbzscmw9IOk7vLh4/by+MSs9H2ykvDgl2rzO7rQ8VAcOPBMloDyFdF+8f4kEPM6FYLpFUyI9SI38PEyQgbwlT5o8xL0kO2+HXDzImbK7bv65vBn2FD1yoOG8GHgGOd9DZbx9K9+7V2cbutriqLud8OO7PxDHPKDnzzyEYK27rLiuu+/fMLwSfwg8PYwCPK5BjTzAypi9oHFrPVcKjjvTzpC9CcGCvQgmtz1bBY88Z5wnPcZX8jxugFU7QJQVvvApoDyygRS97NQSvaWig70c7rY6SxboPV6SGD1w0ya91Q1mPTzcqbyi8QI9PWs3vUarpzrogPG8aIGgvbcfz7uOQQE9SgSnPBOwIzzhHXe8E4AavcuqFT1NFYC9xPshvRFtI72truK8biTePL5LY71hlSQ9kKc8PSS3nDxinay9XVy3vO0O27yil0A8lbCXu1D2qDrkaRi8P4PYPHT8ETxtxAs8u3G5O0h5DD3bXqW6SukHPVG5gru5mIK8T2dQPDHS8DxNQte7c6fnvECmqzwDEtU5",
                "Y3C0PNgcWjzL6hO9kyuvvD7zhTyxkcK84C7Wu1nY5DwwyeG86SgIvJrzDbzSyKw8Eh6fO6uGXLq5D808cnXuvF+vFTzyRjy8ZjEVPf67db0vWd6+PDGfvltwZjyxIRK9ubUBPbD7Gz0cDZm8rrpNvGiRYLthXL87rp+ovEObWrx3ZQa9r1tivTbxjz3TsUe8zNGlPEh6xTt83YK+UumTu5NRBzxXSri8PzuVuva8DDymQC68UXY3u+AkSLxj3IE8JDNhPPbw07v+L2C8DoNevKMLgDzaAYA7fuHgO5udX7vdIea8EH46PCH4xrxcqzA7h2FHvPo0sjwFSwy9qwghvSyImry6WLW8cGaGupShRTwp4+u6qUBHu0Td8zx9RZ284ZYoPFgb8LtMxbO7xlaCvBIgiTxtF747ZK0lPEU0IbylQQw8Fg4RPB2bsztOd3w77uQavITZz7uuOgY89YnuOzKh4Ls/4hS8w3BPu1U8sjwNFWy7h7BHO/6uljxTdIy7B59pvHIp2TsFnSc6lBQhvTVRmDt16Ic8V6RTvfSrWDzK1KO8t6IkvZ5Ufj3+IEI9oekgvj7m/D2mxdk8+puavD6D6z3IrhQ7ASK1vILsjbsrWdo7sNiUveA6Gb2mQCu8iYy4PViUWz1hhoW+poNXPVV+Cb26iUk9/4EOPpjRCr4RfQy8P4+pOd9dEj1eao08NUwpPfMNWz1CFA8+R4VWutlp4jzeP6S617rUPCO4vzznqZS96j+PPZ9q4rxB0BE7SHQ+PZdmn710POy60aWAvTNKkT3Vr7A7/gGdPXVUXDway/W7guoSvdOIO71WbJq8pirMvNIItrziipI95AeRvITS2jxTZhK81mcYPOVwKbx220G8zdNvuvUP5jvj7lM7QXGbvLvcvTqTh76889WTO4fABz2noPy8y5fyOkaYxTzFHXU7Fj7rvNQqIDxFyeo8HOVHPFh3Fz33tCY8qUvguoiKHzzDAPk+QAMNPoTvCr+Nlu67zwoGPLrEJjy8vuq6",
                "2/jMPOb3YzwHRJI9vrPGOykmW72Cxhe9kbUJvTyi1r2JmaG9+UvOO4n19rtFopG8cpCivfb8Nj6A9Nw7HKW+uvoBSDxdkzS7xsqYOuQGhjwQQvc50XE5vFO9Lzq6B868Q5ZjPOmWNz2Qeii8ywoEPKG5qLzsgDa80p5TuyTyPz2340C9qvmKO/gY6Tz15tk8R8vWPDHs/7q6BPs8dJICvVN9lruGjng7NNxJvD6lA7yFQa+8I1QfvVl9CDo0p9Q66+UhPKxbNjxqYaG8UamdO/UDeLuCVBE8dY/aOmDLvbpjjn+76e9HOsJz/bsvg+M8WVsfPGZC3buSrAQ9mOjivIpmaTy/SSY8zNktPH9e1LtRAyC8nhuDO97ttzuKEYA7wn21vJfOoLxU2GA8btwcvPebh7zHEns7jhDGPK371L29qlM9AdN/vWHRQjqIE3C8sl7TvcSy9btYxZY8/7Z3PAj43TyW4wU+BriPPZNN6L30/QS9M9HnvAIv9LsqbJq+VP9pPPhjq7ztvbG9nKQ/upSptTxc0xy9HShmvPjl3jximCg9oPy+vAscgrufCAQ+ly05vaNCTj1hw+i8Itq0vBClM7mMbUG90M4CvRkj2zydvES9BqmHvAbVgjvSZ6I8UPWWPbZm7bwgQIe9SmM0PEvsirwgsJw5N8q1PI/vT7xSvVC45BZgPNx/dLs5YWc7abqIvAFo77uNUvE8vm+SPHVzpjy8Drg8pP2+O4QuabuqjWG7AAMovH7AbzxL3zm8Jez1vNb8Fb1WgYA8r2Icux7tfz0CEde89qPbO69rJjzFhAO85AuqO9csxLyxBLo83UZIvWT47Tt7S0G9vcDmu+bT1jzvJ+K8DkvgvlIkMj17fiw8R5ngviP2hbx6E4y7FfaFPY7duLwIs+m5HBTwvMFelzzLH0W7Y+D0PHiOHb1RGpa7NSUgOzDoVTyFpPu79zoxPE3kzryXJhu8kLX1vHkHdz7TLJO7ABa7vEKggbtOSku8/W/XvVDX3zwzPAs8",
                "GdetO0eynzw7Vfo7P0ShO9OZsDrLfQq91CWFu9k5NrwsL0Q85LQQPcBCgjzoC7G6dynGvCvexLpBPmU7papGO5TRWz0iHoA7yUcPPE+zzDuPHok9zxululHtW7xFN1y86EBPu7nBPzwEors6a/B1OkHoGbxrWWC8Hpeuun82lzobMXw8iZX6uvD287xWIwU6I5n8u8QTTD3siCe8gZqMOjplyboyffI71aqRPFnfWzv4AgW7y5gGu+OMJDwbQ7Q7KTGHOyDuxLsd7TQ+bHUGPnzs7T2j8QO+2WrtvaTmG72xUz68QwWFPDuGArzhWCG9vNMUvMcgBbw/L1Q9O5YEPdj5ar2GjIK9/X6DPbqPyjspDco91fdzPRAyQD1RUDA8dBs8Oj8U6LtvKlw9PEckPcJrLz0KOpW8lPtVvVit6rulFSc9M+eUPbANOL1PS7o8GOD2PBgeITwCJuG6ctuhvDg0gzwLrHG6e0zNPJSMDb1kSgA9tb+SPc4cK73ZP3y9VvY/PZR5HL0sepO8AgI3vRfDyLuc2pM8vr1SPN+xsbwFxK872oMXvEvl9rxA51Y721iROh++Db0E3JS8xDvkPIqdGT3kv5w79ecHO8AIsTurkiA6W9SMu64WtLwwjme8KT5xvErqjTz5/q+8jnhMPNoGKTxc8yC8MWk8O61chbv7ONa8l1xRPJs7vDsl8MQ83QCvvJBGFL6OyTI9wf/FPA04yr0MQ5E89JSavteloL0/eXM9kat4vR8Htjs2k1s96KBDvWqFNjptGlM9uwPxvaYb8Dw+MM88kcA1PbRRDLx+w7a8HMmuvJLnlb3lezO9BM6+O3nbDD0+TAe91LgNvWig4ju6FhQ7xrqOPG7cObxGXWy6WRw7vUI06T3rwqC8Gn5+ulN7Nrxt0DS8ABMGvKAFej2KlYG9QiGKvfveRL0SH3W9xAy0vZsvX7z9FUe8fQyCOyIlbT1ZAEm9SDzFu8q1hLzmPBQ8z2s8PRcDLz1hvgu929nAvAz1UztMBPa8",
                "qi4CPBu7sLoLr9Y9WzcCu5bqt7uHAre8Gn5SPK3tFD3irNY7KSW4uzy58ztXG5O6LJA3vDdRfruhvz66f0S1OpzCGz17kss7ma+puup8QD1XoWu7di4OPeP+rbz+iQA9Rjy1vMWNnD1MqZo9VdJ5O1yeZj25c4w+JizTvHC+17wN2hm8u0RavbUn/DyH0ZW82xXkvHJkB7yzq4Q9//5EPXxeCz2PpJO9BqmJPa9jEb6UgGo9QbaivCSvhL3poXY6wGmePFvIE73Z5qU8TP5CPNKNNbyTfIK9kOw0PQIIAr3LZYs8hqZLve6jRT0KHCY96rANPE8oBLyb5OE6LlMAvdPDIzsYbA09c72PvUf0hT1qeHQ91PKkvACRMDxhL+m7FQWDPOP0+byeVmq8vMr+PNolcr2OQ2M8JxsFPH+q5zweMQK9VtlhPHEonDwS4R29FlDdvADmer2vxQa90NMvPJBR6LyNzZ483O6UPFuRlrul59E85oVNPRKVM705Iie9vSKdvGCFhbxp09y8HTEbPDDYb7wiw3y8SCEbvJIbljynEee7wZY3vSFNpLyVZAC+dEIsPuOcSj2VBSw+VXLDvN51xjwQcrg9sAnpvKr+YD2wXf28Ud+5va6qpLxOLX28emrdvH+7gr1zuNI9wWvZPFaFlDwt+BW9cMACvhnvRb0CzVS94whdvUBpszwBgR67KxM/vbsA07uTl3o8NqvuPK8xobw1c+Y8FaMKvbpBYDxFiMI8ble5PKntJLwQFso87UwyvWpzOj0EyY+98kJivAgVtjyWLtc6ubYNPBHYeTx/RKc91W1iPWfuA73qtTs8E0TEPKHz8zscqO08EafAumUZhjti3L47KgBzPPZFM7sRv3a5w9WZvKNX2bvkehU8tHPHPNGia72g2li8Di4NvVx4Sz3hClY9DNcAPIcIJT18xc48DgJ4vGs2Ej0WxBS9JyCXvMguETu7CoU8uF3wPEZtvTutxpk71S6GO8BPhrwfzLQ8T8fru1N7S76HQX87",
                "dymeu2yTpL+kWL+8pJCwvPnNQ74i5FK7cUkyvWQnYD4DJ3Q9EMYPPu88G7yUxCI93CsgPWc6R7xSD4m9GP1jO/OcHz0SI4e9gekdvOYBZTqUtsM6ZH1KvY4GG76f2ky9aH8APJJU9boJ3wg7LMlTOq5BvzwZJx87wyQqPHMzxLy1Iwk78N3iu1tf5TstDYu6eMz0vC/EoDyvAQo7vtzoO33U5rxeFxC8pJjiOhStg7yIogG9rVxCuyIvAT2zHig9l4hVul/XUzpvOrG7BmDAvLwLfDyN5Ti7zsc+PfqBsbtd5d87dPUMuLeIljvBsp65dp+cuUsMyjqqQpA7wCILO4a0Dbzd7di7UiRCOLwiyDtthQO899lbOvT6Mjwkgp07G6BYu+SvLLzDwfw7VsjOO5OeqTvSKgs7bG40vIjnm7s/Kx479w71PevGe7u/rv68pl2SPvd0JT2oZUs+wji7PsIOmL0m4DW+fiRMPUJdm70g/KE9gzSeOysiMT6Nyek8qYcuvFVKET39vYa7PG0BvYm6KL5wlU49d8yyvHAomDxTGgu9tVTKvT9loL1YiEk714UjvKBETLwWkpW8JU5gPEn9GT3QCme98JyAvJEUHTwC7fU7tqOCvHVmirxghGk9lbVyvaWv6bvlAuy8wAMOvZjyHjzHsBU8ak9LOQ+cLL3etf27sDSBPZvKFzxzb/o755NCO7Lbqby6QVI95Zd1u0LQVThN5n87oMIDPL01PDyB/1q7mmyuO040GTxDbG47fMUDvPG0KTx5mO85AHysvKDxCzotgiS5WzVdPGD1rLz3RCw8HI1ZPH7Hurkpy7C7TB4WPdYhPrsFqam7b9OPuxfHK7wkxhC8rN6gvP7ACrx/kZE9PRH6vMaUCb0BVJI8RVtYPPmrijxXPo+9TbcIPZel57ytGRY9lK1YPq2DZjwrxSs9le8bu+6gXD1Cktw8yVPmPa0+87sCLIu9K3ysvRWyIT2a+PY8LNTDu9D8LL3Vcbe9bmwgvFq6LTs+tV08",
                "A1+bPCnWDT1xfjc9HOYdvDA3DDvrMAK9w3bsPGQGgzxaFuo82MGou0PSvDwa+GK9e8NnPByn0TxhtN09cZKIvUnTHb04DJ67mF2yu2EHWTzfsEq8mRupu7+6F7mT/5g7khWAPJBAoLyHkL08bTH+OxF3rTxF5My8OvmOvF2A/zszJ9q7/6XmujMGR7zfGgc8vMuPvJ0dZryLGpS5DzypvWxpgbuUWxC8/V2RPCBDHbvU8E48RymOuom5IDymQ088K3prO6700Tm6P/Q81GVBu6IIajvNWHq74TWLPFg9Obw0ZUO+LLJXPehgIb6doR++LAxcPW7G3L20Qts8JUxQvdN8jzxDkw08hZ1EO6qFmr1cNye8SKkgvVyFzL0wH5A8fbzDO8Z2UTmjYpk9qzC9PVAn6zsalpU9pZTcPNdeVrzwyAE+0ue3vGR5CbvgXxc9YXaxPHfOnLxuRxy93f47PDIEvLxsaou91VlpvCh4xryfB9k84sOdPNcmhL2+iwI9oENZvCnICbwLm7S4dsxkvDHdY73o3oI58MS4O7Hv4Ts9P7M8P27OuwRN17z/1d077HqBPLR/E7yOAbE7BRxUPTG8z7wW/568sbwdujY7iryZZNi89Z1vPXqpMDnsUtW8kRyOvTOw3bzHPrW6w7o2vV4RjDziSM88+H5UvSlryrvW+Wo8Ri+BO2QNQzoC3xs8+mlIPJJpTDyg2b08bflBO7jngTsFNhO8Wy6QviI9/D3mRiO+me28vUeaQT7O/FQ+wtMKvgfG8LyuP7S8jsnAvD2+Wb2g3dc7bnKBvdTExrzOXUQ9u80iPY6iTL15Xmi9o1a2vAA+X73WCye+Q/asPDC59jqVbx09D7OPPSpsETvFxwY9ATVuPLRDY7wAZbI8yEjVPGggi70jagi+I8fruEfUCzzeELe8zG2TPF90t7urrdS7M0ofvVJ6Pbzpw7Q8uAiBvVx/jL15rIW97wJfvVjNvLkHAmY8WoJxvFXst7zcc2U8L6KlOIZ6/rvi8tO6",
                "XizuO7a4YjyuyFa7QdywPCiQxLzqO8y7InfSPGhjkLzrwbK7yXHfOmrYC7zt+Fa9Scv4PPqonjzUYF87bYBGO0t3Ib2FNIi8DAS4PB/5R7uk72I8aysivWSqZzzyJY+8AT5xPAVtUDwWQLS78Jd+vJgTyjtCogM7V4q8vHLWRjwKdEY+UQzVvHZ0Hj0dMLO+zsxivSXCvzyhj969pue2PcOHmT0QNVG9tc+0PFXWtzuTHpq8axeePfVsijzHXBO9vbCbvTnz1b10cLo8oQIuPUv/vbzRt0W9axIqO7boojw2U5K7aejyvASV1TsGzEm5zAbOvUYy2bwv5Aw8Ty00vDkr8LsluJC7J2r/O4Hjvj3ej7+9A9VbPFZB07uSoeE8FxsEPDeJgbz4wfq87N4qvJgjvDum5hS9gq60vDfcWrvnrSy7CCGovEd50rxw35M7Kq3hO6baQL0xMgK8xV5TvDQ7yDuVCXI5aonEuuaCCbvDb4s6rP46N+QLJrsDUJG61DH5PFkeQ7pG9Qg8org+vDA20Lt7/4I784GzPD0eZLyNHAI88GEBO+qFhryJPl88KX8LugD7K7uQO3U8iy6DOwZDhj6U3068ZwEsPBnGLD4JDJG7WMZIO2Q/0T5109w72/NDO/t/Cr5QaE69XQP8PKEZqjs+gp08j5ZduuNUrrkx7lE9m/bQO8KDh7zUG0Q77GUfPa2sEbt8yTw6zII6PQGq7D2cR+k9e75BvNIVDzpgPBm7uudNOxUv3r3Bc++8pTq8uZhARrviG4m8w6RJvP7gfTsTd5E7L0ECPVVzoLx1SuS6QU0ovNEPRzx3jci7r760vOLH7bvROy28HiYUvOuSEz0dXOe8odmWub+KaDtqDsQ7cVUbPhljwztb6ca8q9L/vXxg6zoEngy898bYu6Wb4Lor7KC6Iy5aPPR4Kbupxhi7M1WSu4NMALyc3568Sm5qO/kEGLv7VMw8N+iGPJdIZrnKjNe7gnh6ux09sj0I7/A60jc3PE5HHbuntRS8",
                "fr0Lu0BP67w1FZS8vW/ZPkQ0Gb38Wio7gEzqva7+97zhF4Q9MYiEvUhxQ73eHGq9gF7sOlHj6jwzs8A78Tqju98hyDyYt/Y6x5DWPJmGHrhY4fW9wIo4vUl7wzwQDpY8modmPdPTvT3h8Ie93NPDPOIJyzcq0lc92h7QvUu9ObyM9Qm67P3AO+nXvjpZL9i8duc5vK/m/TyT5tA9+esuPXdl37wxsDs9qk/Pu7Cm2DsamEI8b2VZu3SZCTxztr896CoQO1AyE73/roC8wfe3PGiFHL1eHee7Q2ccvH8pvbty5rM88O1EvKrjBz00oLA7i7a+vEip1LxmOfq7OqBfvW/7Cb1HsYS8zByzvGxATjyqr0Y8c2XgvCCN6DlhIqA8rCLiPK8CYjwvQMW7WP5vvHh4/DrsNzw6BFZRPP6zHb0PmCA951GkPMj+g7x1g7I84PVMPPytYL1+7le+WVi1vHmF7DyBq+e8waZBvoi7nL3eyU69D2wJvYfbjTwLcsq90DhLPMhbi7zQ/pC87UgyPRgv7Lzj47W9NrsyvOzHcTucHL08CefLPJoLg73GCGm9RoQKPejexLv4IYs9tb6Mvep2k7y1EAi9wI7xPE0UGDurpVa8fEdmO/1cDLzqkWQ8AKeEvRRDJz01GRm7njM8PLKDoDuw5fy8bOHpPFW6nrxRaFO84RaNvYodXDvL5ti7i0BTvMh4Ij0zcvk8j1DoO/BYDj38CJ89AqUWPMY6XT1u6dG7JHNaPCmRtrvx1Y+86tYpPWsboLtrrBy8IgsRPUVnVj2ciiy8ZQS+PG6QRb2VHhs9gMmsvCy4GT09P4u8WtqHvbpD5DseY908TnKivD0Harzyw8s8cKaUu9HUWjxVWgI9CZdBvDcaproi/Tm9LfO2vGlWfb1jXRE8FoOFvRMkBr3XtWA91EcLvuBDLL3FMbM99lAZPh+aAz6TlMI92KSQvZi/kbvgUgA+amINPX7ECD24pcI90wIuvHdqgL10fEi9ZueePYhNjTytRry8",
                "mmfHPCpkm7x1bqO9fTulO5aoobtNutA8RsGmPO4kpL2vFwu9UDd0PZFt0DoQEv26jeJ3u1Lpp7vSnZC6I2bHPTrQpr1d2KI8jPX2u9WTGD6PO5u8d4V1uzvsabz279i8+ow3PJzgpTpFIZC87Ur0Oxa/qjwqNIK7P8/WPKr0qDvg+i07jFPKvO64JLvaWjs8+BIMvFlArTvbZkY8gVAdPA62mztbgN48V2jPObv0hzuzLuk8UeXHvNQGijzMihO9LvG1upM5GLzSyic8xglmO40+Iz10zxS8jzwwvOc8WDyzll48YVFauyonLD1jPaY7FZVmvbXEz7wSS367NJ5/PeOKoz0TdG29cm8FPvPRqDzAPnM88rYAvbB9G778Uk278rnTvFsBzDvvDSq9+yv/PLGRw7xbuQW9wvmCPfxcNjxEKRE9ILbxOiNQs7t71Ts9AuK7PZJLCT44NXk8FlRJvHmfAz2AjZS70ea2vFA6yTzlqlQ88olkO1XoBrvdjiM83lISu5VdWDs4TSi8pleSPGu2jjuB39M79Q8yvg9bfr1PIYo95WmcPPkntDsfyBE8JL+2O8QACzwPhoQ7M0GOO9QNsryv3G49pX/TvMxHqjzikc+94LFLu3iJPDwnYMu728ymPBMCOTw2CNs6y+pnOmHQxDw2n968Ufv1vLIzgDy4Ofm8VayPugsdtbzaF7w8JEU8PKAhSbpJvxu8CR+svOQVQDtpNH+8mbWEu0e687wkXgE8IsoEvYQN57hs5DQ9Y6juvDxDBT4Emge+uH3wPTcwmT0tT6m926mKvH1UZr2+ZrC7afG9vdXhZzt0bae8rgaBvV2kpj0dToo9VyolPZduYrwSctc9yw8bvQ0zkD6QXHi8FV2/PMziNjxTJsy8X7MSPWSbir30MSe9hicqPRV+iDzM48U8QOFjOvDoOryBdaG8vfh0Pb4+TrtDwGQ8ZAIXu+wzXLshFRI92dqqu+isJj1d3no8+6DnvWxGFLwPmxM9INZOvaaXSDxLWSS9",
                "JAi1POuOW7v/+rA7uIKHu9ZGnLyPpkw9mhzyPCnvGjzwfq88/AJxvIJpM7wXhH07HXXTvCBnTrypXQY9iAkBvFstEDxhMDu8xE1rOwSMnLsPJl88QxPyvArMqjyfMBc79r9XPAtLczxA4eg5o5uyu5xqwTx3Miw9EVapvKY0h7vt4UQ8BuuHvExKi73AYdY+YQGLvXqSPb38aUu80iNTPMmgQbtxBxw6QRR/vDe34L0/ecm6m6rCvFcQRr0jPNU8GEqAPDlG3r2KsRu6GzwRO7nX/bw5JNE96ZjPPf0Ehjs0yt47GZ8BPBAVij0bfyg8D7ADvD+a3DsZ3KE5AE8wO3YV/jx1+Iy8N6owvMlyGrw7QY47PeOMu2wPJrv2pt65cX50u3wRNbyPGfO8pucHPPK1d7yXbI+8HLO6vIL4GT0s1BA8KsOlux6HA7zYqSm6uvx1OyuR7Lz7Ep47EkW6vNdAYLvPoKK5qTIYPfqCfDzT9X47TlYQPEuCRrvENuS7k26nO2ENxjmAWtm6RiyrvDoRtry3Owu84BaRvPYgb7yHzUM8Rk/iPFCWgzvK3xq8/IM5uXMuBbyb5by6s/RxvOe05LuEJpu8P/obvBX24Tr7JD88i24jPjQov7vRFQa8aiIwPxjpaboB4BG8L/gFv1ilxboUXZS6W0BjPd1HwzzuXRk9OAeTO7iuNLxLJUk59kwsuyAIhrziJ/k6kqYtPVbTKzyX4QW8Anlzu/tyJDpVSYu8MUoWveBfwjwz+cM6bkPLu+C67Lnzojo6GteKPAdL9jrvSeQ7X5jlOtvNozqi9Iy63EgBO0zorLqULu28CD4rPSi5H7yfHZ07vc9LvMS1mDu+74A7rPw4O2E+0jubExY6NWjmvSPdZDtG4026S1tlOq2ev7soWBG9O8klO3ZlQjozDXu9Q8mqOgC2IDvnokw7VrQSuysPwjuF2BY6YiozO8eVO7uOEio6f4ALPGfbPzu5hlw7UovruhuPWTz9iXA7bs67ufFnLrrgQ3W6",
                "qTx3PAGVNLsz68w6C9m8u2nsg7vHvjE74XETu6NzDTt7u1Q+xZJUvjosbT1i4ZG9jmkPvaquCjxdnoy9mW2VvG1TZrwSYse9DzWQPVlofr2ru0C8A7s5u7ywlT0YYHM9kK3EvDHjqrz6Nf+8zVp/vYDts7xt49y8Qp5dPQfBFT22JdA9ifyJvQZ9AjzBiIO7SrzkvI5bojpUE3e8J1qvvT/6jb3veAO9jdQbOw0+jjtI6OK4yeE/PCpTDL2QoKg8e5LXO/eGI7z15vc9EDSQPZuQN70KXTU8YQ/ZPFHd87r2IWS8ku6Pu1WrLrw+Tyg9XOY1u91IBb1tTVC86UbrO2fOqzwifzk8RQykvHHsXzzZcCU8aZN9vCbI2DvDapQ7cpXzOx9lZDt1+Aa8S92xO2T7nDo0pXS8eAZ/PLyw3rui1ca8SivAO1RIaryNCqA8U0k+vNT0Rbyx86K8+nB8vJ12Az1+UZw7SNibO9rcwz0l6Ri8fjGzPNJdgb6l2ua9JMxvPQf1uL7148k9hgW3vaB4OD33iE49YP3IPali2z10FZy9ZngSvObFSDsnRmk9Qo+tuzLZQjvIlRw+JI/aPRjf/Lym+zS9GgkQvXQ3171ubyY9CDYSvXVogjwOKk88Lhs7u0lBgDwMdq89Kq7ROptwKjw5fQg8SE+FvLp5SLzrTsU8TOm/PQD4g72l+EE8zEMSvaneiD38tdk7EzkavWBGCj1Otog8YaNwvBNgor0wqQm9e7JbO+TuY7w1nQq8K1UzveA8c7vroTI6S/TAvFuFfzyrOEs8zGNCvBf1QLsE6mo8QXppPBtf3buDkCE8WAyZPN1FijsK3ho90nc7u+quDzyDN0y7NNEZOwK1+7s5knu83TYEuyMS57ztt5M6earXO2rwZzwUATk7sESGO1M5HD1UO4U7QfnfPDHT87yuxh47CysqPgNJjTyzjnI8l9j9vNZurLrDSSE9xB7xPf+xdb3BmA69ZAglvOSQjrx+mE+8JRuKvUSZVz1TOQU8",
                "Kr+XvAdbtjxkjhw7+ky9vABqwDuL5o289xnNvBa9HD6kbmQ8OBNKvDd1rDyiyJO8yy2XPE8DuzzDg6i8j9JzvBNjw7xakw29yWBhPPVSnTyxmvU9zZXjOoH7Grzi2gw9MN9NvD737rrIyY68Kkv0PBctFTzsCs88m8npO0m5Ib13RWO7f/JnvNVA9zvzNjO7USjrPGCC1LwD0UA9FH3huigeubyZf2c8xVQ/OytQBjz0IpG8PLzvuwdVsju6Pa68OOzbu2IJJj3bsDa8Gqs0vBeMID2nI1u6h4ESvZW/+DzzJ6m7XRSqvUipnjutU6S8LZUNPK12ujxyTpc7lVqBvYDHsjvHOYK+Po9eviTMNL7OXQ6+JeJKvMwlnbwyoYO9oIafvOFerTzn/969WYCAvTvdwby2Mr888mKdveFwcL1+CxU7z7CxPfY5GzyMD6y8z73zu0xU1bxBssw6GVybPBvJ/jwj/ZA9uMaYvI2vnLsKCyw80l29vGc9ibyx7Hg9B8E2vPAxjj39QJ67oLkGvIInSzzyuRQ8vuQyPPWK6zzayXa9XEXSPO4CmTsuTLW9W7uJvCAURzxqpoA7jzR0PCrS/bv0CZW8jsAyvb0mIbxL3wM8AGj+vBW/fbzSEC08RSrQu60fGT2dux+8YCDDuxpaJbyv3ZG8udjIPL6ZHLz+vUe8fsR6PBDYq7wWNqM9wrquOpPa1zxiiwk9vRsXPafix7r8PRY8fd9OOyGOETzlId+8Gz5EvGW4ojzKk1e8vNovOkdN1rmMVZG8wIKgu7oXvz6k+Zs8q1qTvRIT+T14xeA9iHuTPaR8VDx1R5W9Uh74vU+bnD3gDHU7F6kjvWr5azy9pzw9M3qVOxMnfDvKxj47yUovuBdK67yAzzu9FokgvRIBPL1nNCu9FHpiPbTLKz1HIOO8bJ6evPC/OTydtHq9MGANPK85AT0vHRq8CF2rPRMWrLxoyIi9CshQvZR9uDx8HRc8Wr2DPUSFejz4Ymg90aOpvZ6eibwZjJw8",
                "jdWWvCsPBj2a+8e8kDlSvI8f5byeDjq9xtbEuftR1jx4TfW8HL8svL2Ggjs4Ymq7bAyNPIL+wbsMFIO8jwmcvHDsKj2Ha5i8yuu9PLjL5jvoYs48VDAcPeazFb3Y0Bs9tzuIPH/Ze7wgrDA8z/FUPAtg9DyVmd+7bXNKPFQfFb0e69s8YT2ru7ZnUz0w/IG7EyUkvTMBVjwL96o8x9Xuvd2rorwpxKu7n1WMPmwQUrxQ6so7xaquPQmkW7vAVZc8fpeivQ11obvJVHS9EZuHOxlai7yqlBw81OYNPMII6Dzh3zo8yVT7vMbMUz26vrO8F51mvANCJ7s5XCy8KTIEvXX0TL4xRCg7U2teO/rcsLlgXIE6qTNrPbR/rbzBaGE8hbXdOhQkXrsmLWK7vmTzu9bbgTtSR3w9ihuLva13tjvw1Za72iGGvZhzirt05ta8ZxkiPH2tILs3Rro6POsjPpeyybx9nNw7zooFufArdzycYfW8auayuxf5JjxqxhA+sQ8TOzzDrjvZz5+6b8DbOdHmE7qEZFG6HVJduov/IbqH8gw8VHCYO3gbtrkptw48cG/MutLt2zy9iCg8UiYZvHycjjun1346NCFRvRc2JLt6aGm7JcD+O+iLgrpQOuc71mm6uzsm9zvMZ1U/5doYvonCTr5lHhs9SJMZvevKhz5kEnI9SegMvCtGuL2nSk29lNv6PIlfLL0gw4+7VydoPf2DtD2CJzS9G/ZWPcXoADw/4rI9rG0CPveFZL3S/4m8tuaDvBqeuDvJFtC7sMkRvYcwqDxiDIS9QI9xvDgamDyMRY+9eWEgPDoVUb1ZfBa8/CVmvCFSKzkyyiu84I5ovGXSLz0K2A88SYb+uqjfz7wNG4I9WGu8vEnt9r2kaJ87CdeXPKTFeTrmD5a6wZfLOx3AjLvc3J+8UJb/PENSizza3Bk94SOCuwWPLryWo5c8hsIlt/VxhzvjLVO82Ka7POpNl7uTFe25ko5kvBgF2bt538c8NjurvLPUjDuv1pq7",
                "UkZOu49YtbsQgbW83sbAvKrR0LtrAQ08QrGaO9n/lLzKzYU8cYpROy5FAj0nSo08hIXoPLCyL74zIhA9W91BPi5b073clwI+2yw7PujSAr0X+RK925kPPVFl/LyiC/c6VWOovLoQir3TSM08JGCmvfMowTzbS5g7d/djPdPaC7xEjY29o+nlPdhFoT07No67ZKxIvLTzKT2tAYM9Pj0xu0iOIL3vH6w7SbnYu+uTVjtZk1U8NTwJvREa/7tEsG88VQoJvSwOVL2HdDm8NOApPaxU7ru2/s48n1OcOwWkoLxj7sq8ovlfvM/4wjyPaqM8adAKPbsYLr2xqCy94GxeO4uxrTzsjvm8A1Y1Opi9hLx0eE+8DNvUOyuVVD2q9ts7oZGwPPfwhrzlSHc6hq0MvZBFpryeDTK8Rlj/OzCAfDyPHu46ZN+PPE2ufz2ngly8PD8QvJR0OTwxFSE8d2KavDaijrxDNpc4pdgrvedNqzr2ce+8i5r3uzhAo7wjRH48Xaw8vrWz5bxCeQY96sJPvJvdvrxAWik8pZ1evLZ35jxgak085dskvQcj4Lwr3DE85kFku2q6hbycKKk9FUc6PWopWjzr/pc8fMYVPIwNprvLaIA+xjt+PXERUL3a/KA8yJGiPOcq4T1cOuo7iVqJu5NG6TwA9Me7aq6rvSJnxT0qszQ++XcQvYW04TzPhSe6lNaMvAdhRDwRTmW8aWO8vM8RkDzIavE7b6LrPCrUfb0A/EM905F3Pdy5Gr0mYII8dtCmuwKQhrxfXoM76ZQWu37DbbzZQNM9JhnivBh9j7w3ebm9LqU2ve5irDzZVOu6/XevO9p7Ib2ZTcm87OJBvO6VarvoICc8m9MLvMJs0zuBtEo72JmUPL2dnDzjbUg8nTDEu8c95DxsgTQ9SS6ePT9pYDqddQM8WRwyvWP0FLwrWfS7ggaWvFyLrLzqez49YRhuvOneuLwcUqk9wbopPA2G+zvMpRO8c1DAO2BFf7zrafC9xL1FPe71S7zg4di8",
                "J8TLPFZrIruq0no91DmSvGyIFTzbl6U9ytQAvcmZpzwG2B493YCsOWbdobuQLXG8WcQuvlVanTwcUhs95Lgdu4VLhjzx4qg9NmzdvEiKi72E23E68VKnPOMggrt3z9W7VnU1PEPzID3XEJi9UJf7ObPTOz2eMka9TKidPFovYrxsDWM9au4kvT6W+rzDQ7M9Fq17PVBajbr+IuM7zxBZPZGloD02uBy7aGmvPPXpHr0/thU9waaTvKjx+7to4ms5D2M9PKjw8btkVMY8jtwvvD/3wzu5K668qxRMvYCIgLzrEBa9l/DjvFtr57vzFEQ8S9irvKqWbTtQf+08hDY5vMDDGj2Bup072dLDPCmBDzxI3PK8U/kiPNHKdj0OJ6M7MwVzPJ09oj9LfAg8od8muCG6nb69sxC81lQ9OiQ3kD6EmmI8bhjoPau1vrsAkhM8exhyOw3BHjxSVse9NPCGu6MxZTxeBA+9o+YuvM41lTxpLx+8PNGJvTzsCL7qyac9JbMRvEjNCzwJpUk7lTWxOyqlZ7yWO/W70Behuxoydjt3YFo7SPElO1b3jbq/Qn670M7hvSqR7z3c3Xe8Ia6+O++f4DxYLdC7pzYwOk291LvgdIu7S2wzu+T4h7xxi2s9MtsNOxD8jjrZisy7HygZuhign7t84Sc7GMB4PHZFHTrPYLm7ioGgOE6rvzpHYBe7idruu7vCt7t1kYw6nKVEOlVhjbtt2tG7DWP6u6j8xboLQs+69U1wvDpquDoaVOc6UEgou5yxZrx79VG7COVVuX2nmzvc/BE8oKKDu5OmdTyG3Ea7xtkfPYMVtbwri8o96ELnvGNn0L2oJZm7Q4yePOAVObsJL2Q9vCemvdHzVD2QzVu8kWEQPWp5UDwRZiq96liKO4Vp8ryy25o953qgvUWNODzRCHG9CKpRPWesID134J48IcSTPQ+UEb0N/gC9xCw/u5JQ0TzqFTW6prBSu0hnJbxuJek8n3/7uwk6RDzEIOs8am77PIrblrxrryW9",
                "37wUvZuqV7yU1lE8kHDUO/7Ik702f089DIewvDdkGLw6UWk89VDhvHCFvzov0I682X8buxc7KT0IrvK8KEhcunVM1rytfIO6fifEu5Rb7r1q3g29Tq6OvXMxrjv2RT+9Y35ZPEr727xYikW84nqxvCfurbwkEqu8f1IAPI1yBD3+2Uy9etxAvKoVajumhDK6ISoSvF0MobxsAKE8pZuTu6z6KD2VFMQ6SjC4PNykxbyRYxw9A1tVve1C0D1EupM6T2wSvcVlKr3MgH+8w7IHvqk8/Lx9bje9P3vHvJRds7sSmQe8RrREPAqhmbzUOeq7fp1JPMFBAD7ulb47SHANPXoEqz0LxCe+6TSQPbcbg73p8gI9q00pvHIdGjzH0qk9tBscPdD5rTxyiEQ8o4qmuqTehD1mYas7SF9zPWhZFb3DsJu7tvCSPPHsfrpvKV29UjRYvVNwZD3/3UQ8FMUnvVMpU7xG/5a8MUT6vBb8QDye1km7dmULvK3WHbuzoy481ektvdYsKDwxGpw8kFYMPZDJ8Ls91uY65VeJPI61BLzx4+C7zFkXvY0v9bqGbrK8+++KvO+nBr34suk8omm3O8VQ4bv3TEQ841YyvO2RaLxVrIM8k35UvD1CHby5zSG8+rlqO45ZFj3cAmA9Z9bKOr36uzx4S6i8vY8TvKnXir3OBcI9lZljvD+njT5nuSG+0ADsPTeDfz4ogwe9ZtpDPd5gHz2GpCi93B0qvFVsxrxEGBK71LL2vK8/nz3VWxm9TbRJu4dnQry0j1S94aEcvTwAgz2q2d094/ijPFekRjwoMCO7PGB/PQeAhbxdw5u8KHK1PIoAkz35wK+8kiylO2oJ9Dwm21M8qWYPuutUIDzqBJY7I66yvbm9iz1Pc/S8vhZjO/z08DyQiSG9megMPUR6W7p+vZO6XGuQPOAftL0c/Kk8HVl2PIoZ4TwNdIi7z751vW3PVLzYfiY926zsPIlPnLw/9Qk8G4miu+yYuLm02hU9LcEivYLhRbzxpo45",
                "S2cuPfKorzyzwYm8uo8ZPXfjCDxc1au82b1IvEtzITxnLU08vH1BPMGzJb1u6LQ7i1JCPRfgAbxez8C8FnQzOyu/3zzDKu+7Z3yUPPzaD716Xia+4UNKPukLDD45ffM89FWtPWlogL0418C7RScJPHUvr7v/H6M8hnwPvV2bxzw7MAm+NjeKPRcE57x/tYe6oMD7vMYagj5+Hku+ptFtvSNWBLxOJz+8LrWzOiOggz3a72M7NfMNvOWAa7uvy/68Wn6mvP5KrzwrYiG9lI2MPTuuOTrgzTY8HbZHO3aiGjw/D3W9r2qWPchx6bw4Tym8DJ0bvbSjTD3AoSQ8BinwvAQLbD3IF5W8OAqkOVftaLxVBNu6ryNtPN1hUDzlt9g8snqxPAixcDwLVz+8iB/OPHKSLzygAcg8SKyJvJfUIz3w04o7JgWyvBlrcTwh+fS7y0Q6vFG4tTp1ByK7Ay8JvZ2ABj1UR567dH6zu0t3g7yDuQq8Cpzhu73frrwYayI8lJqjPGEsMDsgv7Y8VvSUuyOPo7y+sbQ9jkWZPBXEYb3Aq169KW+hvBn6Yr52c5g9x5frPajcET0hIHW7imRPvXGCHDmjTBO+itncvPpSV70EVYS9zw+qPKWUc70muSy87TthvQ6EVr6TjSE9TZRlvf9UAT251W87HmEmPRZ7FL3kLbM7L6PCPIJCGjvFQBw8EbH3PRa9Lz5y2hI8Txnlu6WHiLs8x3A7bQ/2vNAEvTyH9zm9KW8hvdHrnDyqQWq8ke9uvfDRfjziA7K8ZgSQPHhNI73G1qa8JCLTulgymbvNAGo81liFO0lFEb0inxS8tknvvO1RWDz0lgm8MWwDPJa9JrwxoYs8+iyKuxquczzhSB25o5KHvB0Ekr3DkRk7Kto3vDW4LLuGs/67nKcgvbVhDr0CK/C6bNCmvOYgfzzkLIK8xaolvFZnvjxfyhA9mgHNPEvoDjz/iEg87SXFPGgC972zxrw7JvUAPuxG8D1cySI+Ci+kvQQMYL55ipw9",
                "HGJJPcu6tjymhL88FH7TPPjvGz0Z4dk9d2LZPVoz8j2x1Y47JvpqvDB6Fb2+X0u+3TGmPk4/tzxgP2K9O9EGvUTqArwz7w09CeoKvM36FLuzfhA9JrFQO7Z1OL2J+/E51FskPuKpm7lrcWw9zXaVO+qXwrwFszU81dkoPK7auLu3ATK8m8OLuwBXhjxvak698o13u7cABz0pM+G9fg0MPMJVrbtCC4Q7sOKGPHZbhLsjUpO8XKmdPJvzOrw0rhG8TsehvEXOF70hfY48xxU/u5NY7TuPnjc7nu2Yu3pPErs3c+U64OIWPaVFP72g8q68StJePDccOzwAM2q8/xUzPTNoPT1SLuM8AWr6PPv1EbwYjP88ENh4u+DFjTyRZfG8sSK6vEY/TLtgaHI80kuNvjv0hjwWTZM89Pj7vdfDgLyb90S9oU4ivlrhiL0SmaG9zjvfvUtviD1odFy9Q6iePKPcCj1wqAY9UfTnPFYYyLzb96+8YYG1PVuUmr4sMmk+ojiAvZd7SDz9XK89X58ePhZLGL7A2Am7CPr2vOTxDzsAi069PPA3PcIrmj2CPCy+UlVVvB+aKLywXgM811QqvOF/EL3j2m29zSk4PcVtpDtb7bI6Z/wVPdNlWD12Qvs98jkIuotHw72Q5VO8krSiPfrbebsaJQO7LHyauwROOD0pkqW9qEbwPAAQCjz/mNg9IrXqOtaQarziIhE70z0BPOd++LtHCI47599jPAAwvjsz8NU6KYnFuyV+HzoWRBu8XE7Bu9Le8DsalD67T+k9PRy2lTt2vgm8ewo5vaYMGTxRnxo7uecKvUU3YrtP5hC9i7X8PBmLYr1fPVs/YGssPOtIZb0WZ22+BEbEvNqWPb3zcno5EH6LvfbBGT3lozg+IxSkOi08CD6Tn8w9rnYUPdTg3D08BAU+pZDfPNzeIjw1dlq9ixyYvbzNoT4xbNC80Pyrufy98b1Rf3O+YWsNuw8u0TuEUzG8OcvCvKyqiLx/5Ug8jYExvUlybL3ksOO7",
                "KfucPUsIpjtuFxG8mjqdOloyyjyrXNu8GA0KvCrvG7wOtOm8XdsSPXSyRDzEW6c9rQeRvbNk1bqEoX28RZp+PUHrZDzUp7U8MA8SPJwZk7yGsAo8OcSHOpuni7zxPms8SU5qvNg/dDktZZE7CTVpPA4+Frz90VQ7sL6lu8H01DzzgfC7oMipu9IOgTumajI76e4vvVqPQD2OZvM8h6vkO2opvrxK9lm7cDzyu2fLFbxZ/Cm8u/nJvEXZkLwATIG7zIvRusNMbr7/Al+8M44hOklz4T1zYDk8k9TivLBC/TvtYis+MvsNO+ABHz3zhE69/4BvvEw0lryD2xe8vFGxvYfkLr3Ebrm7XU3Yu+uJKL13cYu9xQ7qO/Uys71ZH289G0BpvI9mPj2V9Je9jWrmvN9hB72J2Qi9SW/KvCrpQD32H6k8jDzNPGzR5ruDfKY7xQ1VPZR8HDwKbgQ7JB+VPd8uWb25AQc8NU62vK28erweHDg8khFNvLjb5b2uncU9bV2mPL3Z+jxb0ns8RuEEu0Z5erxibaC8wGWaPHhylrtKFyW9MhK6vDphDD0pI8m8yHIuu1AKPbz3fwg9xLraPHd1CDz0exA9hlIIvVOOkjvpU+e8JByGvItXLT3k1qa80UZfvfhsZ7x25DG8MsAZvQv7cDxrmGi8Lx+vvABhB7xW5Dm77OoPvA41xjwutFY78VAqvuNQoT1cVI276UlmPp2LJr2Q7xM9NPJUPQqKtb1PncA9Tg9FPapUkjwqMis94CqdvZqFfTtJ4ic956j9vVSNCr32JBE9fFBYPaetlL6Cl46+Gy8ivLr//DwSfBO9vZyhvUU7DDtOE++8nwulPAi9nLy32mC7N9JCvXHw+71AjBy7OUo+veZMJL2Rte27oHYOPWh9HL15SzW9+kd7PV9EizwEmms7JYNRPQOzoTzhWBe9KLECvqNwwbwK8748tH65ug5AOz2CtTg8894FuwBmVTxaKlY9wjABPJq1gTwNFLW8R7sDvKfBX70+G365",
                "hUUuPKlO+rtK4Kk7c4BsOwayV7vOEB684g8Pu8fxiLwZONo8JozEO8p+l7saZja9EH2ePBQhbTzkK+K8qLRLPdiDH7yVE8o8B9BqPL8F1TwGKRq97PxtvDEKajxMRbi8hH2/vKOmX704+2y+vsgWvbm2Hj7zHG6+8ds0PirTEzxPrUw8v17LPYZ3ST1zLQM99WEwvUm77z1KW5I8by9gvdu+ET2yiWC92AhHPR/T+D2I6iI92io+vO8Irry2cQS9IAlzvRPobr2iMwa9fX2cvMpqMzvxdmQ8MxfNPKx2i7t0EYo7EDcpPTPddLy2x827nFzTvJFWk7yeQhs9mrfvO5iHcDw8c1m9I/iLPLIU9bvylJU8pqN8PFDRuDvF5wo9yNbYvKShozv47aW8SxT6OzDoDz1skjG9x1IkvV/iX7xDmxU9Gn+TvBLKWTtCywK7RijWO0oTNztSDhU8mxqdO4oADj3VAbu8hCKAuqQKibud+iq7sq0yvctxdjzIcbi7v8YSvBF3sDygGfS6YBaKu6cnNryzB7y8IPq5vExkS7xRfjS9c9UVvHjmUz5jf3U8+/Y3vb0a9D16fbW9yqU0vc6z2LssmGY9aDOOPDj8xD22/zY9VlyGPLlCor0LAeC8EA32PeWIhT1bqIS9i1OSPHaIiru9X649LW4cvu0KA7pzKQI9pUkMPL/HQrze7II9tAmFu/kb2bsCS9K8gRvzvPy1TbyBCNO6CjX8uwCEBr39UiK8XfL5vB/ZXD1esA07zsYpvSlO8TzgJSo8t8LkPE3gmLzfzAc98ZmXPAQJ9jyahcu8XZfLO+Crhby0JQ89mtPku5Ezzzztr6I9G7sIu7VsYTy96Rg7TKTvPMRK1jv5iwe8vJaKvC6NpTwzORy97wmIOyLmKD3bXYa8KNGgO2Iypby1P+K88a8DvBJ3PTta/d288sKLvF0bfry42J66hCERvBI8HrpPuXC6GJAyvTT9CL0wYaE8V50XPcZLD7096aI8MPqdvtRKcz2b3B++",
                "uA8WvbgsPb6N6++9kDefO5CHcj2jXfu8B1DDvDP0RbvrcUQ8ESjnO3++/TwggrK9k09LPSI2or0fixG+tZcvvUi01DyWmuk9VEwXuvmVQL3/97g7kjMMPSWM5zw9+Ns8dgogPMfRxLstami8tlaavKNTWT1iatg9stqgO/hU3DybYSK8C3+ovDyh1jxI8gC9PDtEvfofNLtRkhK9EArdusJvs7xKfbE8XiWYPKo92LxpIkU9ZhnjOrNGAjvIj9w8VK04PbEdZD1xM9o7wBZkvLoWML0QSQi9Q5YwPPUYvLw7iv462rx8PaHZnDz10tQ88JCCvOlmlrwsgjo5NBOPvDSTjruaXYI87G3Ru4CYlrwT7NU85DvavHKGYzzwhxk6kaTPu0qrxTsMXYE8yEJlPDtqeLxiBNi7J9gTu5h8qbv+yzy+SYqkvpEdJj75upc9JIWgvXjVTb1omDi8VRc0PQAgaLvzDiI9s+vYvKccOTwBUPk7EpcBOxbUML1E3tM9/3WEvZn5vDxBE4G8dyrCvIdLJ75pZlq8u/L4vD+0tTsfk1e766pFvAWwqjvKk7Y8qEPBvNnFlLu5Of+7VG72PYJOtjxMLo08EoSxOzATzzsI6/M64VVgvEOxgLoFGaO8fSDtvCgkODttLIC8+GqmPZSPg7y8RNy8YUgdvNtTmTxegjC8R0yTvJJK8jytWm48C1uYvPe8sLyohVk88+Nau6DHlLxX4Mq7o/E8PcQx0Dxpszq85+y0O9/AuLwd7bs7WbzcO+C9hrsGshU8uxonPN3VI7zAGXc8MulyvPOfEr38Rmo8UBBTvE0IYjv0rgu8x1hDO9YZTDyKweK6wYyDPKayyDv4m5a86hGevOW/YL4wMRU9WRZ1PWNcvb4Mnz091dnvvZuGI74wBA+9HM1KvZg0HD6Mdrk7BeCqPVye7DoJ0LK8Kfu1vYzHpTwW9WW8bZbROzbxKz1Gu+E92YEBvT2bZbvkZl282TaEvfIG2L1LY6U8omwCvGK3OjxmpzS8",
                "LunuPHUp0bwbG0c9akS5vRY21jxrAJq8O3ylvAQaFzy/sCQ8IPpDPcAF372PWGY86AqbvOGhIT3fOvO7AHkMvD0XOD0+m2A9i6qcOHAxp72ItRw96uq1OxX+mbwMRvE8JlJsvQ5MZTtiLLo5QtiJPcWDJDvGOdu7tHEOO7R5fTrs2808q42XvHKlgjyJf4A7fyUovAsGFT2YM7488m1hOlF4Kzwd6Ui9AFJjPBa4wLzsCai82eoOPP40WL1bJBO8HZbbu07d2DsyxR28C2/lO1bQ+TsU9Bg7d1hpvk/X070PQ848OO/GPXx7pjygXeQ9NUCAOQsXgT1s7a+8ON2RPAtWiL3eoSS8zEKYPG9bYrwO4T28N+OIvZ1ke7z36nA9eSA1vHcI1z05Yp09REvLPY0NV7w73is9wzi/OmAYqL36uwG8Xaz8uphi27uMio48t3caPW6/0zz2Ctk75WdFPeoPnryplz69L0OkvKq2QbvOcgs9EOXDu7u5br3vn0q9fAyCvP1VkzwGq2Y91bXcvHMvqr2stMS69KAZvDr0Bz2ZmxY83ZrrvJ3+nztfO5w8VRUWvBbcIbzn0Ay8iFFOvHPmpLw0zxQ9jjyvvFwqJrwclqi7YgbFvDVtCDzh9ki9gAw3vMGNdDpAYF+93WlhPBwRoLw9bhS8JMttPPBlSbu5dsA7twV8PHvGXzxtoz48iCjMvMjsiDyBqto89FmWOgoOGDuX0wi+rA9ZPdcP9LzZF9I8UugVPDfgu71RyX29MaALPV/f6Ds/5oS92uenvd4SL7z61Q28yw31PACNoj3+NTS9LvD3vJdelLwBdDK825QwvsnFpz2NDBw99pEZPXko/zx1jPI993kJPulILLwJkUq96BJ5vM6RLT1q9Zy87wYNvvhpLD6ekRo8D91jOqnibLtjMiC8dMHRvASFYL2UB/07GcgvPJMgm7uwRJS9TdcdvZL2Fb7kKqG7V9yQvY8Jibs+NHE8Tcu1PIFQ8DqMzRI88KZkPNjYCz16yji9",
                "1MI1vOzBBL18u4w7iTrKujDYK7vmz6W4HiRXPPs9W7zlmGY79zM4uXJQkjwslBK8NvwbvIWWxLy84BM8fq8xvWtlE71pl588oP4fuyZYDTwXFCg8bvu7u/ucCzvNB8E8RAKYPK63Jb1xBgy97fYuPTHokL1xCeK9EuIjvEI7oz2BSHW+Rx37PeSbxT0oIiM+sgofvq6tUTw82Uc9o7AJPMHUPLoub8g8rJwPvJ7PMT0wQge9rvHvOz0xQr1yc909G1ilPXs1CDxpoJm9neVfu3YwHD0cdss8iwJRPCiViLxBGQE9w3W5uy8NZDuBJ0c+Y1IAPVnR3DwqJb08kKV1OpnBUjsOr6K7PnyJvA8Pnztm8D69ZM6pPO74hToO6W+965mZPSwK/jytETM8frcbvPZva7zPVKM8gYH1u2gGyzyLCnQ7gnJcPJfYrTwTglu9IgUUunX1vDs4Vxo9yevTvD1DfrsQqAm8TkqmvPb9R7vM8YQ7pnMFPU3hhzwYsQw8u/tkPJ6xQztcb7a8IiDFPIIieLwr96u7po0SvDYZ0jxG4bs73fNwvNH8ojw72l28AAWRPLeEUbwUOni8lE0Avv14jb3Dpia9cVYpPgaJYr3OmGI+4Tn5PQqJR7pMKba8go+2PF2ldT0UJ6g8CnEmPM2ySj3CSMs7cuhDvFHDMT3nC0C8e6eBOSoVBjtDBB88DiZfvf3rHr3zS1Y8DrQyvDqS7zyNGje9x3HivMkDxzuIglO9ouqOvBPChL0ZHYE9A/WJPTc6nzzr1WS8IH1xu7uqEj0Kt+2777AUPdx8a72N4Uu8k68gvciIMLyqPhk9kVOnvERvF73fYni8+jWgu+rkw7wJgv27hBjmvMqE5DyvQjI8bfKHvYhB0jtN17g89YaZPY1NhjywqlW8e8ntuoMdfT0E/ri8DbeTO7GCTTpYjB+8eATVuypWvrzhsR+935qMvO3kBrrSUey7dUptPczMKbzP8vE713+FvHUsZrt5EJ27PiQ5u8nskzxFmz69",
                "iBnvu8SXOTyO1vm9AvUqO5rzYL0yP8K8rGxOvJQyaj3Evzs9EMDzvRxL4bzDM8+6bFOLvXFPf72498Q8UD2nvHOX5Tyhmle9Vt7PvPFGsryobS48xpiMPGb0ir5lRJm9qVujPSvbqDxqjYg9h3bAPYJ3bbwZrJA7bko8vUekF71NA229w2KZveiRD77vgqW86GmSPFouxDwMRtI8Pe+cuIDKzbtwa+M8i4n6O3bOWDxAMMe7xYAAPvcm8Ty0Glm9ncm/PHmqVbzAEGK9OxEtvaIrO7s0lLC8gVsvvM5TEz1hIMw6GjixPJlUYL1LREa7K+RMvPUqyTxoQCO8XOgyvHi7NjyXtY081q93O0H0mzweCAI8F74QPLnH1burzXY8HnyJPQdQ1rw3PfS8ZXOgO5h6h7xpJQg9PkBXOnZSwrx/p1u9rsjBPHwJiLoDj5W8bTxXvMeIRj5DYxy91TLVPWujaD3uThs96mIQPjGFsbyOZwo+NJGGPVtcAryHwgo9QkYxu7GHtj1JCYM9AWLHvZ5GNL1QuUA9+s2aPaXx/zxJ3o08IlhMPUmZhD3OajW9rsfEPC6t07yaFbS8MLK+ux0hTL1lJA89AhDhvGYK0LzDMqw8SeyVPbfIFD2XHxe8cD0kvcrZYDzRQRK8dV3oPIiKHDwvtx88/UrAvcgc2jxbGFi6XEuBPZNlIr0OeRU9vgZ/vIPKUDywjBs9WzhwvOewUrw2OOi8+Z2OO/D1D73jBwM8a0thvIGNbLt1vz89CakxPHURrbuMgI094/ZLPVzjjrz8UsU8nhcpPA/2vzzqPaO8RX83PF5sBj1SPx69+ygrPTNjWzy7j+a6FoJqPLNOOT1R5TG8AMUGvQdgsr0j+7W8azx8PORY1rtPpyS8YytGvpp1JL7tm+k8YjKmPc/CMD2jiiK9Uv88PesFs7w4ZF49cqxGvVBWkr0HPKQ80rsSPKb86TwRsRI7OT8WO3c9Bbws3cW67mfnvFesjj2Mt5E9k54BvdNhHL4ok6+6",
                "zB2KO4SZH70j3n29V+rAPCuqIT2RFoy8LBU9PZZ6yLzvx7a80KTPPKp3fT08re66P3bKO/e6oLxFSpe8minjvBhQerx+RGm8ntKgPItfA7xaBea7dJafvV6lzbx91Aw8FIJvPA26Ar131L45sXFrvRQFL7wNkzE90UAwvHr3kruKcLO8/rCbPMkVAj1cKo06q+lzPNFATjvCNGg6ytW2PDHEYLwAqXW9T72XvEKizzyDch69/aDfPBNNRL1cSi07cem1O1CfiTwQTJK8PDIOPak5xbta2Om8xJCIu23PS72gLsU8e9WAPJZQ4ToPF0a+eesoPhP8OD33v8a9inRXvgxHRL7WAua9R6IAPgNDtLqdfIq8zaSFvQSjJLxqEZY8p2+qPEndQr2UbIA89AOyvG5mqD0lcC88xEshvt2tqLunJtS89KdmPAr6xzy8ZPI8Hq6XvIShvTyxVrm6TpqhvPG+gLwDMn08mrZYvLwh7Dw5pHu8BJmGuwOz8bwL5bW87YMGvf0FBLzq+Q68Wc/ZO9nJKjqHc4y8o0mlPZSZkzzifXC8MKmCvNJLOLzfmA29FXQbvVOoGbxMMWQ8Vy+LO4AcsLx4ESs8THiEvLy1WryEyx29GCPwPC09iryrytG8pN1XPI2AKDuoYoI8K9j2O0q4JrxvA7S8pRTxO9F2ijwqM9Y8gDZjPMNI57oCq5C80iqju9jprjryzP+8cTPUu+5aAryeJZG7R++tPKepJrwtXNc70mIBPCbQuTxSmbg6qiHtvMVUsT5zY7y9u60fvnIZWD5aIac9OLoBPKaZgj0R+YG9AdRoPSdqYbwolDk9X6u2PSqk5burSpu83gi1OxRCvLxC89m8vfx2PG76wbxk08K8i7FkPMQTaTuOinU9pBdCvLCRhLxxrgA8EOUvPG0nyDy5PP26GV6DvZq1Mb38jyA9gY8/u2qjnjyrPjA8AhF9vdhjwD1oNJ68XMdjPaWIhj0dI7687cAovVqujTzoyC681ielvJo51b2pepk7",
                "fw5KvHdGBzxDUqc7cwqgvbL4U7yeIdy7iiuHPC/vTzzMqvq7jGOlO0Om9jvVEWC9ottTvKlvJzx+9A08+32TvPPfYrx/iWK8B8c5urZkIjw6FBw8UIpLvJcuC7xcW2i8gCLbuzJtIr1ElFW7TRSLvG5NQ7vE2WQ8mKelO99YCD1888g89mvPPWjFq71/yqC9+J0JvlPxtDv62Ju9tTK5PD06lDvuo8I9LmyhvS/+Ab1C1S297WRFu60sXrzVhZY9eoVquvrShD3leu287uBSPeGT2j0/v5C8pqCYPCtdzDv5tWY9exn8PBVR/7xmHf07ItaWPdAouzv///i8NeOtPccnUT0er/68qVPZPLzWy7qhMvm6kWxWvUcZdzyz48686cLCugtLVr0x3se8Fcy2vEtPaz2nK+A9cnelO2f+GrwiCSA8CPxVvZAoN72R2Sc7854SPO0PoTzD/QW8+g4HPCsqc7zWtfu8Hfqlu7e0x7xhJS08E2SXPNwvkbxAznU79FxRu3nHpDzJazE8bbzrvIp37jx9hKA7CDr8PDJY9zxOLIG8e8Aeu9vDwzyxWX48nPdKvNiKGrxZJfg8aPxovaE8PLxxM6g8VdTTu2Pf0bzwLsa9KR6APUqgW72wpOO9okWzvHSoQ70yvwQ9+lgxPbswCj0jQ7E9gJmKvFNPCr0Bz9O9e0qjvSDH0zyfOzu9uu0UvtlCKj0AiQ49knSCPYynzr5yCKo7jjAjvTIfEj3PEbw9JAY8OZSZRTzw9Lm8IdEZvDNWQ7wYXVQ8SWguPZ2QmDyMBqK965gSPbleyTwHpn09dnaGuYAyx72R/1o98hZ6vHq5SD2eJwQ9OCaIPGfYT7yQyqO9eaytPbzHM7yw04i7GCOLPP8VVLwrtX28LmDcu1BoY7zHPtK7BmUOvIOD7bvlKzA8L9C4PLW3K7t9ZeS7HAkgvbOlbr0fcqw7NpBou9coBT1G8Qa9m6tMvXAOSTwaGyO9xgz/PBpfU72ZhiC9jS/cuvTAnzxdSlI8",
                "gFSqPEWiYTvXmyq8E5YGPIvS1jtLHb87tPuSuy1NJL+cBze+uE2Wvlyp0T1b35g84yCKPAtrGr0KnhA9QqZiPTA2GL06SVO9rNaQvfhfwDoaMmC9nR0PvIHWvru/sse79IPjPJPCLb0VjAC+EkNgPfDCUzy4Igs9QxWCPMzmsz0sUE27AEEJPBE8Aj02Auo6+v97vFDkTzy+QBG82D0XvTSzDr1+XYY7GHMoPC7vNDwgeB08Qw2fuiFwO72Y8T28QONJO0cBfL1d/FI8LXiDPaSVdLtc78M8MdkLPKnbgbxeFx+81PglPG0hITxlNFi93lTrPAt+5TwhKVa7huoOvWERBLwYe8G8tSANvNJ4H7xBP927KoUfu2eXSTw0QAm7zvwSu77yPzyqkNw7Gr4tPcunXz3B3VC8xUiXu0rWor2cYg283NQ0OW9gDDuMZiO8+a5Oua8RsrtqTD08KUsVPZUPAr3qON28lqKBvTig6b5alt8+LJvcvEr8pDzf5A08bXtaPYNhu7veN168MjXhu/b8mjojExW983SKPSYxbTz7XtA8+dzPPcXJ5jwTCHW8WDmlvPbnHb1X8Ey+OCq/u8UjYzzdaGM8Io4QPWN6ojtMXx+8DdyGvEPCIzw1U/s7FoePPCvVELyIWbS7UlUGOkJ4m7rlm2q8B9TMu2qUdrxygJU8MIfbvAU6azu6VAG8mjOSvN09Tr1z1iG89g2XuyAt47nP3j28yxjhO+qXy7wggKK7lpdxPc2/CT2EdA06yiVhu5nmwTlsDIw6TuaYPK/ARLz+QM28KZwMPNSen7s2jSu8kzLFuy5hfzr0eog8UxqjOwIVMzy00ck8aE1nvCyfgLw1/zg8FGUZPKcdAjt9r2k7F2abuw6z4LlRUCo8FugHO0NFozyhAZS7e70zO9INvLsjmJ69WVJOPV5TlrxAlVK9erxIPkJzw72znja9nkNsPb/Be70g7Si98cvvO1/G9rxJUBE80j6Aukqud7wQrOE9gQDwO7vUyTwhVqW8",
                "m6cVPQghcz2IoKY8RlODOvGttzvOeVc9JSQlvVLq7TyGh8e8vzb5vG6+vTv7o7S87AutvByui7waFDM9r+WlPYrOUjuhq7q5eYyUO3t6O7sAsuK7kj2BvT3oHD3jJyW8loytPf8FhL2dA4G9IxgsvU5qfTzZ7TU9RFBvuzFLNjybNZy9IZMhvFr1Mj1sQKm87QqiPG7iNr3n9wg8Sj3uPIBpwTyfLxI8Sb8KPE72mL1J7N08sle1vKhmLT02brI8XwEuvQMq1rwQWvQ8087LvLE0lrxgRzk8zdpnuyTzpjyToD09FRodPHS+kb2/kAg6UYNIPEgMXDlosw+9RWShu1OptDzO8IM8tZIbPkVITzxEntk9gFfjvXbZI71SXKu9LWWmPF4S0LxRBNS9oT9FPIx5JTwNqZA8p1lcPGx+FT3Nt+29+hl5vZasu72MNSS+zTZCOvQeQz2+pcU9aeYpPThV0DpNLGi8prihu74LhTyXgm28paYuPTY6lTyzyM28oYiiPFLiary5Ftk8FHM0uWcdMjzhg1a9P5FwO7KlXbyv3sK6AAWSPLVuAr3bfpE82fYSvC2Jq7va30I9WTxVu8TdSzz/kCY98UE/OxYTRzxzh8C81OWCPaS6Nr39fxs8zSm1uTqOZjzUi9g77sWnuoYsVzznod08WhRDvDdAfzznB6a7R5mzu6N6wTxdBw88M8rjOsrOIbrUHAg79VrQPAzzQz3O5ma8G4MpvL8kdDylDR28w23pOBvaSDzCOxm89Pi8vKIaLLstzkC8bGs2vs71VrxABQ68VMEqPtbG7Dp0SIY8tWROPkrk/rv222E7UgNCPeHAbT1b9PI97npUvBslNTzGN6c7PJEkvGAlDjsIkro7kPHFvKV0mbtcZaa8wUx1PDRfKLxI2xG98ueKveHdhT0Pf2I7Ev0NPIxuFbs9h8C7T9AXvmSCtrx30Q481Hq0O2xqejx1LxE7SpUhvPniqjtZGzG8+SOOu3tCAbxENMg8hn+pvU51AbzSX8S8",
                "u397vL0GoLsZToG7ssFHvM2TOr4aBpi6CDChuwrncDoWetU7uJFdu0byTbxXs747U/wdPMlAxzobsd47McAeuhctObxXm4Q8kIPuugWGtLzO5Uw8qEv/u+2jaT2z+Xo8cl8wvPTJx7nnLBq7yoM2O20gADzyxny8g73CPCDmjTrKeAG8WpDKvHMCbDyUN1M85dTUvFjqlzwjtHu+fRyOvGXtiT0gwoA9LzZMvb1d473mvwg89GRxvKSRIj2WGZ29VfD7PRgdoLxJVta8lEl1vTpcg7wpYhW9VHEjPcFAiLyT4Z88PMD6PYoL971MXx89OSY0PRL/Fj0BkZE9OkitvfR4hLyGxGI8yd2WvBUM8rsjvzc7/eOLvX6W4T0KFJQ7HXejvP0fzTvlqe47LU34up3ty7tgLQs9qiw9O4YKqbw2R/o9o2XiPFu2XLwhUzc8tVhlPFG7Xru70B08YLo8O8pzXjzshEG7llpkvUGxi72NYFa9VkYOvCC7Tz0N41g8k9XHO6SHKTxixfk8Rkk7PGqQUTyJV9i7YBYmPB0khrtV64g7UwdtvAYdTjwL5AI9CEzBOwRGq7pn7w48S+EHvd5JPTz1Yuk7NU3gPDA8Cbxj/z88vl+bu9xeo7t4IUc9MWYQPSx0AT4Khqg9DURqPKW+JL24QMQ8BDe7PdxF0jpuI4e7OKVAPTUkNL0dbdo8Byf1u+9cBb3boqg9UYBEuwLG2j2OYtE846r6PW2l0T3nHUa90IgnPSNEGLyQ/gY9pxMQvd37Mrwzwmg9wd5tPLlCZjuWVbY8in00PM+niTyxkFw9yZVpPFv6jzx6nYi7ttEGPWfYmLw6CuC8xGoPPJ5sCDwmTZO6ugylOituwTwQIZa8BpwWPHbsozuDuM88SRMyPTrVF73hVxe7pvQjPSAUH7xVyAo9EZ6VvL6chzwZrSe9aZmnvIcf6LxrmqK7FaByPWPFtb24oMo78azcvOPEerzaHJe8X0yCPO/Gy7xwujq8sbUVve08EL3Sz2e9",
                "ykGYusCdszwOIKq6yV3UusSxAzuCSiq9kJjmPC0tqzs43+a8gIixvPuipDyRopY7o5T3PIvVNL5YowK9UuuEvAO6Kj2s8Mm8xXH7vHybMrxzQLI80EVZvhj9Lz35lGy9ah9Uu18dTzx0pu04TeUePBSNujyYd7A8XBnovV51t72OQze9WSYrvYiKi729FgE9g42+PSyBGL1VORI9VDiHvEiYJry1Usy7ThcfPEstBT5QmRY8GgWBvBQM3rw/Ngw82V7nO+NC+LucHgK8ROIMvKuF+zzsM+Q7g8kKvErqMj0qDh69Ft9CvEwfgbx7FU472aCsu7yktjzZjhS8oyheO3LDGTxgYOi896HpPCrYn7y1d1U818ssPJZnkT1RzpE812NxvLqQgbyqgNk8liqgvFsZsTy4CN62KGMMvHdr9bwWxDE8yVHAvMrK1jx+mXo8BA7POymxMbz4QYM7B66mvMSTSDttr8u8uqKcuTyBJLxfBro7mgaFPJtYsLyARjU+3bQ/vRixBTzDfTy+uVH/vRIL/Tv12Dm+gWSJuznwqT2Pwq89hUZOPcZ0Mr1yvlU9x/4BPKi2+rp/Lay9P3sSvKLi+7zGEHu97RbKPNpGAzylCqI6eZesPbAI7Tx5GPA8VTnAu+B9ND3PGHi7hADevKJwqzyD3Cq97BqUOedroLz3IEm9a4tWvSE3ULw+k6S8D/cSOTRYhL0zodc9P/NgPa/stbxki/i8p351vW6UUjzTR1Y9Cb1ivPja9rzSVIM9YlzSPCvIVryYixO9qKMZvCySUz1G2eG78TYsPA5sPrwpdWY8gc4OPGo3ijqzaJC8CQJZPImxLzyZAbS86LkkPfZO7Lwd3JC78Tl7vI00KbxXvoc7WO54vFcz9jwJpNo85lZmOjrCwbtHNEM9mTwkvCvXXTyVwji8eNZxPFt62rtVYpE8vKosPOBwYrqAljQ8oZ2Ku6bWVL2+pPW9sJ4HvlNAPr0Pl4Q9u2qUPYQ4brx8o3W9wPfovK0L4r23Tr69",
                "ZXrDPevlgD3srLg8K39GvWHm1Ty6ccg7PNEHPVHUnTv/kk89vzWQPLxChjwkzoM8BJYtvd3Or73ntRI8zQaOPWJSTrxsIak8b+BpPAWc4TrjDQM9fVU/vJvJC7zOONg86YPOPEks2LxIhyA7mLNVvHYaEj1eBXQ9AXE5O9PoMzyWQFy8HyN/PGj9Aj3M1kE9AF3zPI/vIjzcQjQ8jeQBPQO1aTvL3Ys7CQK6uzHMWb2ZvU89Lwo5vFMqnzza9ky9wgCmvI2+EzzHlV68UUCrPPmN3rsm87m5xjMuvRFtKj2Twvc84h7Wu0ddgzyy87A88F5LOgqgFzvEcGS8C3MqO+P+pry2WvA6XPSMOyJpvzs8kXQ89SetvQkCqz7CvCG9S8XCPX5Cnryn0Is7aqFvvR/lnjwuqoE8O/rOvcTxW7smjbC9ByIiveNUxjzwB/Y8S8xSvaDZTT0Rxgi952KbO2Cpkj2H13c9RDgnOsNr+rzWRJg8HJVDPTx45Ly9skw8uC2SuxTbdTzKSE68ujSrvLCB1zy2NA49JBHAPEtvzbvKxrq6Dbp+OzGuCL08wRG81o7QvAF8+zzdVyO8tb7bvMAAujtm4qI8lO8BvRD6sbyeOdw60gH4uiqR1bz/D1u8fFw1vTwuOjzd7Y08To8rO7kFBTyb1g69sMIgvIFMiDyjILm8PJ6XO68QCDzWcBs8czfgurtjDDxQACq9HLC8vLhpqzwT/ZO9USxSvCW6cDzInr28m8VKPQLrXrt3ExA8lQ7qPDtiZjzaULs8LQrqOgHdRDwsZte8XASAvLZAH7w+Sc49rHnyvWwPQ725MQO/ZlmiPX73oDuje7G+RfFLveho9T1KLKk91jtdPWByCT4CDtK8T42vPCS5TT1G0Je9+jPDO0X1KLzmt988x8CdvUXou7u9oBk9PLMIPfZCpr0/f+C93Y5KPMxBjjugE+S7V9jEvALBnjpxFae8XhwFvQKPoTysD5M8Jf8TPf1OszxN1dm7rUbsusgaLD1v7li8",
                "do4xvYlLsjtGLaW8+cfuPKEu+jqrgFu8oMZJvKhVkTwS+zw7PeilvEWMUDtbh3o7IfyIOUI/dDxnl4K8nhnSvDCYrLvteZU7huC/vBP6lzs7fT47G4pavBwkU7xsBC66eeaCvNJsTb3wkFu9e6lZPBWi9LybGha8HjwMvRfdnrxA79c8gQOCvCcOBDwiQCe9BzU1uxutorzxep28rKLlOefXY7zjt8c8AZRrPPu3mzyjl829uATiPRZbJr01L9M9p+kQPQRiTD1QxpC9yAGDPY60BrzgP9O7kunDvdpEejz/WCO9H9fOvFw8pr3ByqU8CXPIOS3B2TxpwK49Aa5MPuW9XzzF1009ZtTxPJxiET7r6aS9SeBBvHUP17zAMQe9y5+FOzFIhD2VFyw9puuBvErfKL2Tfug87eM4PFuUFryNCRg9HZKtvdOiJz2mnTG9WwRFPa+5Hr0o0Ce9bRHtvEm8OD1rEhO8so+JOv4nO7wNmjm9SmBzvOiIKLz4ZSk88djjO3OKRbt9vbs7biEUvfy5vrteFY28P5tmuz7hmryitSO8BZFVui2tILr51TC8PJFcvMTF1rsiaZm6UtWRvNWoBby7un49QPlNvE10Mb0ckyo8HBY5vJorATzS4ba83ebUO3AQu7vvEc67vH7BvF/SVjvI7Tc7Hs4zvvdDur0am328d+MNPt2OFDxpUWo8UpmZPdSm/71rXCs+ijebPaZ6Vzzw/X+8aYUkPVD2ArwXvcc85IqfvSLvAz3xde87J6ZHve8+WTyFVoI7fd2qPT06wT0+ISG6Gsa2uyanQb2nP9c8rk7BveHQCD0kE5y8tHA5PbbCWT3AYPc6e6s7vPTqTr1g8i+8dYsEvXWkg7zb0vM8J8ievOIZyzxzkc68YcgrvPVDBD2Jjyc9ctw9vXd3R7zicZO8UyjevOgCC7187HA7Gx5Zvdti0jy2ezQ89by6vC+qrTxSY5q8yovgPJCauzz1Gx06OOuYPCDAdzzaeW49+3pqPBrUhDt1yxs7",
                "ZobjvB+z6zxXNKa8AAgCvcs+bjwiSXE8PnsgvMfyGjwaIWI7cb+NO2oxxLtP9Fc9GRDqvMfnRL1IS5I8S+yCurvhhLz88Ua+xjBEOBsMBj7E3Lg9piNgPaXpJ76xmJQ+CNMOvRn4zD27KxM7tvSWvcThlD3dMuk9DtnwvTcqXj3KYFQ87lTOu/0IVbsgU+S8zGogPaup3D20MzY8nEDbO6RZnbynRt28OwFKu55gHjwLgWa7NqoaPZekybung8m8bFeCvcPIgzwocWo8aNMfPZK+IbuzYm281qchvCba8DzLpiu905DWOme1TTxnE2c8W5h6OnQckD2cvVE9IBDbO5tG0jyiduo8lrasO0SNqbp0HPY5uwadusVUhTx/HAy9PPEAvdzcRzvxtY28G7yzvOmB7jt0dI284b6iOxsodzxmvEm80b3rOz14kjy7i3O8za2XPEAtTbrnVse7s5lOvCWuhDzKYAc94hUavC2rUzz0Bzc9/UN/On016ruQ2ca8FP71OptDU7xrLZS8ygQ1PIMXD70z3le9BbEwvTckZj7w8so9V0FAvZ+RJj3FWJk9sGYkvehqJD1QbL48668VPsF3XzxnslW8WxF2Pcxhkr3LgHk9wyyzOzGILT3GxU089Visu5EJTbxhTzE9NOlLvQM39b1DFog9oV93PaW0dbwv4yG9Xw3JO1Ora72mijM9VLNuO2LYNb2U5Cm9IaefPPMG0TqDs+q8V4kiPWu75TyFbt889eazuz7YXzwfweg8R9ZEvENd8Lxu0uM7J0z3uz9Y2jt1oIS8a98wvITm0zwBX6E8B/n+PDjQjzyrGcc6iQEovITwY7yE2L08xmtJvLPh5roTxRu8QKk4PGfoqjvY0wE9WLqovP64Fb0B2L88x0zHu34NZbyPu7+8FtOSOtZPubzA5E27r1OxPGz8aDsyjYC6vbaIu+8Yo7zYpFo7DNnavMAiWjxgtHO7HnB/vjU9/L2+ksE8mrYKPWfHYb0iQ6c9P2wcPV/uzr3we7a9",
                "4lYVPTxh773+fNG8qzgWPegdfzw129k67ko9ve1NlD0ys2O9d2KSvUaOx7y7/vY8xEQEvAxe2ruLvKm8nhmSvSUXgz1iSIw8Bz4dPLdLAjykt3w8HORBvBltkz2X0QO+GlpWvAgIX71xV+s6nuRQvHOHkTxzqCg9oC7cvIUBEj2GTQ+51y4Uvr31+LvCHX48VyL4PKaQ6bwvtCe63yDlOVL8AL0/b+k8UTUCPcFZujwlEBI8tZyBPHBO5LwECd+8Cr7DPLQ8hrz4XaA8eZCYPKLRXDyWOIO8I6EtOsVegLzefMc81B+yvGUlFb3s8yg8TNMWvdtczbvLwKk8TvsPPcznCr3M/aY7pd7dvEdl0jyTHrw82ztBO/Q96Ls9tNm8l6y/vCb0kTrH/n68ZK7zPemCDb6EkA08VJuPvSsGnjsoePw70Sl8PCE8ET2rdOa8/O3yO9cGCz0Icya965Ocu3DzIj1pNLs9JxQDPTWFD7w+s6a8v+k1PBfFM76ABvg7h19mu2/7ab3v4Ca8YvB5O+XSzTypusU7DInHO9Uy2zzo0OE8CARLO0R9nTy4yJE8hBntvLl/CD3QDqU8TqDkvNbkUT0yyIO9zXM8PIJznLw9tV08UVVGPBo+yry3J2k9ZPtlvYctbbrCwRu9CUbCvH7zmby5haM9xW6APG79cDtWxwW81J5lvAGJ/juNSDm7HB1eNxlwATzZ8p+8I+4XvflrirwJjN07jsQUvSZusj1KN5i8a9pEPGlqfj07G2K94De2vN7dCDvb0kg7vnZ6PC5aebsG3S47gM6wvB96srz8BfO8y3iSPIPc8DwaZSI8tkltOfMGBb1Pqgq+8rmUPDdnczwi/xG+M7YCPkC4Lr1yIKq60qSkPGEXV73FeBa+fEGRumMgHz1cAQw7udmiPDEj2b1IlqC9oFabPL+0jjxFoHc9VW2BPRU0rzw7VQG8HY3/OyOJkz0SUxm9E9hJvXl6ujx2oTg8MaBVO9WbuzufL5Y9uelHOyiPND3YtNQ8",
                "+9oHPZUw3btmpAQ5z/Nhu/yZrbzNj9484OpfO56lK73VqI89S7gBvq2hn7yAHBW6CAwWvCJfzby8n5w8pUMxOmaFM7yE/f27N/jMu24kGTu7zuo7NtzDu8yFgzzPev48KElluiXjmrw19eE612+6PFZE+DsoxpA7TDbqPCuX9zx2T5k8y1OiPMYUhbwnD64883iEvMIEbzy/hJI7KSmUvIT/T73SiDC8aIEOvTRjIjz2j7M8Cg14vMUZyDy3riM7GsqHvUjr7TiZkUg8q10yvpgSDb3u/qQ9m8tGvcFmUz3wyJm98mp1PfFVt7wd39Y9V09mvZAd5LwYMhU9srcVvsWwzTsdpmA7TAgbu5C6hr6i63y+FEVzvGH5tLypoJG9duQIvtbnAr0FVeM8IX6muxC5WzwkJya7uFWIPc3pPT06V/S8hSZXvQAHeb1KNDO8K+H2u6MO/TpTWIU8w9WNvCCtjDyeKzG88hkjvUkviDztfbQ7n0MAvnQt+bybm108sZnWu9Y4XT1guaY8VDN4vMzLgTyC2lC925uJudx0l7xfGuA8lA5YPHR8Cz1khs483XS6Oa9an7zxGo48GsSmu5hvRTw1wYe8ZUJGOwNUdTzeQTQ8wCpFPDGLMb3Rng29fWUOPI9Wg7zCT+A8DscqvYYoIjx57iK89jTmO3MX1TxRnUW7Gk2PPGEHIrz+08Q7TKswvpw4vjz9sBW8OcugPkmPgL3ijye8EIKKvVKOc73cDzE94/yyPZc77LwjC6+9zlK9vFQJTrxU8hE7MEvfvEKTiD3GuMq9VEgfPo3uJT3HLGe9juPcPCHaiTwzjW89SZSyvKb9Lj1Pzec7KsqUPFQnz7wjZHG8HTzBvSDUnbxe+Dg8O01Ku/1LBj2tuqM7aaCHPPzsYDv2Rkm8DhCxO4crlDq1fTM9PdQKvTMadz10Zw49amucPD+hqTz5RAC8bvsMPEWGjzwj+qI78H6IvD2qWDqKNsq87vV7PD+pA7zrCok8y6atvGuR+Dz+qvC8",
                "VCEQvLkC07mT4r67ZzCvvKb2b7vzD5o8Y6UsOwoUmztfaMU8JtoPPROF+Ls3hry8SgpHu0HrkzsnmEo8f2DTvF+MRT0Ga3q6EPAHu7GcQTyz4C48F2PavHt23714eqO7K5poPdVOq72mj6g97L8hvvyRvr1YpVc98AIOPks2Y735wec8K7IjPeiFB70Xuwc+jnEnvk1zVj3lBIC9lUiFva9MKr1RUSi9rV4BPMkPgT3k/kc83VZfPIpDCT1f8Vi97VOXvIuTOL1RDd+7TkQovM1a4jyj1dG9VPd4PZdZBL1ibqu8tMecPEvwtzsnodk8NR8/uq01PLtX+K286IbEvL0jDTwYZ2c9DlKoPIWsJzwngR69eI8ePJ1uwrwHZKK8BUiNuytjgbzOQDg88K8UvYb3TTy5iAI9b4OoPGpEC72gS8g79kfNvLQIzzwNfhG8gevTO42G0ri4WYC82pg0vNl4Yb0WCsU8pGLHOH7oOL1JKLu6QLmpvFm8FzzBMpY73nw1O5nlSbwZ3bA8LPstvBrE1LqWYgW8swHwO9nojjzBBiY9rhM4PaV4Nbx00YU9XzQ5vqrkXj0cub495yyDvVs3OL6FTnY8pPTgPS3WoT1EcWo8S0PovRwM/70rIiw9PBB8vT84lD1ViiU7SYabvazNoL1yEye9TLLaPHXVFT3Qfj29E48WvTZClrxgFOQ8291UvI0nlzueYz+8ZxoovAbyhb1YolC9MQqROvCft7wOPZo8s4amPEClWDzPgdo9VDLFvNybGD1EfPg8gqWNPT8cpLy9EyS99SDFO4lFrLszIjY8+rblu0dQAL1aWMG7y6cAPfsnGT0qgeW6TNMsPJGtHj2SUp48AzxfOu56lDt3WlS8TXeeOwInxby4BXq7cP/WPAdIcLzzppi8y4+5PELogTz1RA+82FcjPWEAN70wHII8odzru67U+jx4qc88RvC0PFhR2jued767EDbzuyfP7Ty6HdM8kSd8PNWl8zx8am6+YyYyPR+aQDxPINK9",
                "kzbEPHzZLDuVNkU6+4zTPOxeFr1FJhG9owJAPoscDD0tOK87sgECvf1JOb3tvAg9yVm/PKiVoLzz/iK9gXExvRmLX7y+7zC9z/UGPa22crtzJBW9p1NHPfayczyOcw682Q1qvc2VTTxpR0S9KGwpPVntBD2kFCc9osgEPdmcOzx8XKY7heMePdx1JL0RaF+9iEgNvbz8CjyzKoe9U2r9vL+CHzwtORe68z8hu/TIDjsHLOO8ral7PMnt5Tv7KxS8VsdJu8IHSL0il+w6vbKuuzET2jtO6NS829GMuQ5oAbzfK368MK/5O0xDALwoXTc7nPutPDZ0Ojyku7A8zvCrPQTBfzzeRA28XjWXvXTx/TtY+DA8trr2ueZEFzrlTt684iJUu5MfR7zeT+A5kHl0u6PgBT1wvKe9Gc9pvEm17b0M3Aw9rxFEvOSPET6PqQ69WoTSvB2qRj3lbsK9nI2YvbD2Xr14maI8pApNPayAizygVjK93t83vXPqtzy3uoQ6GboRvV2kqz3zugw+9ucKvrt/Sr3kx467IjaUPIgivLySeYc9FqTpvBetGr2vsMS84XlmvXNHO72RymM9weM7vqmyAD02qsO81wsXvFjJkDxeUeM6W1dmu9zvwzvsy5i7duwRvXuK8Dxxudg9xZttPQcxRLy1fHo98rG6u/4Ks7q94ME8MbwIu6BdJztJnc28ojGsPYu8uDxorSU6cEt/vYaxAD011R08pMIXu4U/qjyh7wc88+DiOyzKSzy3WPu7keDwu2gkET2EDBi85q86O+l3gzwyuJW9fZeAvH0Hz7g6jdm8Zg5yPEKrgz1gU6g8i4Oru8ALnjvDlfc8j8dsPO190TupTS885so+Pn/QtT1xclC+0wwduwyhkb6yFSe+mH8jPUhFsLzNQZS7Ow1gO+ekDT7VM5o67Q1RPSBpCD3R66g9tk+HPQ5iPb0Ya9E8goGOvDhf7zxhJe+9N5EZPN5jVLzlAlY9SVacPRWjmLz+oVa8s4DQvPOhgzzg3EY8",
                "9vCXvHgk+Dx5L7M91tBjPH8oFb2u0Du8ollZPdEP57sdAxa9Zw0XPLPMKzudm2i8bxMNPa0Cyz0l6Kg7NoyvO4lpuDtQ4Yo7g85CPbgaBb16SNI72SVkOjZy+7qxEhw9QYP2u1kTrrs4/iS8YJ+svKCFtzw+Nyc8Md9fvABGDTrEkAG8DSY2vNuEHzzqpWe9PKURPWxcLT1JJYQ6jXeEPFz/aj0K29I8ldhYPOUbyjtQLY67afWKPRAIsrwNHb28ON6qvD1BgTqIWnK7cGpYvBSP3jpajP+94P2LPcXtsb2bS/o88jZHPmKxnz0S1rC80WgiPApmmr2z94m8sF5HvBsAIbzZ8MY8Te2pvBIS9D1fqKC9wOdXvc1FTz43GIu9dCeLPJfSzjwKrgW92G6kvS6QiTz6oE09qMJ0vYWQa72EFFq80VAivbsTf7vRwbQ8t1/evLsq0r04X2e97RKDvF2dmLwW7BS7Nxg1vI99fbzRP226nmZ6PR/xcDu881W8gSyjPXMygT2scNg8LaeuPHX/mbzS2bQ8asxVvG3XiryEBRk8Jy9gPCa4TzofhMU8Gh/iO9uDizrbS2W5RQOGvCKglrwaMYK9a+V+vHijW7xZtji7+5JsvILtHjxHS5g8rApbPFB5iTyZUw+8vUiovJqJjzzTLRS8XzNZu/x3Mjy38iG8PcyNvOQZiLx/nJM8Hc8LvGqR3ztBVg28kMWqO1OF270ap788+lJpPPsCBr/RbLM8KnvnvGWNjr63axa9JaRRPOTitj3dwZe724rlPRAAbLydzny91jzivdigYj2c6bs7b/GTvIOvh7yC9H8+ZSu1vUJgLjzkI2Q8wmx/vV6R170DLbC9l/oDPd+r9TuA1Nw7r7b6O6kOmjx8+tO8ulpzO337hj0SyQy9oWTou+fILDzo3XA8LpMiuriyTT2aBHO8dhQWujOMM70sUgG7jxiIO+9OojytZqI9Hr0tu0KOgD2Jqow8ZWv0Oqqn6bpzktA72YBIvIs9x7sJkSg8",
                "21+qO1gUkLzRjTe8RYF+u+WgSzwabCu7oC8avDpzybr3hmi6GbNPO9UU0TyTTd47xCZKO8t9M7xAvDG9liA5PF1+Fb1KsLE73RoKvNqReLxICY67n3+YO+jht7xhVd27JXOjPB989LictZy8je/8PgxP8r0l/aW8XZGwvQhwA70RWpi9ig5lO6flUT0ijYi8VfgFPZa+GLwHZ2+8EA0EPp+Zobx3li68P+fePDlccL3n7va7ti5ePKmR0j7rko8+zXVpusCzNLyZdYI8m55aPXHihDxDBQE851kyPDqD7jwTrRG81HWju6FFPD0mvsY8mKcEvKBtqLw7JXY81iftvAu+cj1EzDm9qCAbPatgwjz2LPK7LvbEvHq7try3djE9w5HyPXG2ND1Qgry7XZiQvP8+HDxmm+O6eWAju4qSqrwwbDW8JJMDPDkqtLwscaS7+zdlu/FVrjv8fAw7bPu4O36Nkrxpfak8sbwavMzFuDw4zjU6WqjZO/Vg0Lw2Y3K7zKPCuw97nTxpm6U9I+zUvIrbCDx8hA27qOwxO47ARDxG1sM8S0hTvN+dQL0gOME8w/Fhu6uuvryFo429gY0FvNS0nTyE14m84VTMPc6B3L0Rkbe8e43pvapiVj4VgqW8aZAJPcvugbwrJbQ9qOUBvUkmjjsFC4+9qhJ+vM+dzjvPcMm6clyYvTkKUru37RK9wh3WO1ZmID3BToe8iBNYPH2yKD3v8aW9+JMKvKECJr2oTO07+IMdvNz9sDyVXyU9KByOvMRHEjw5ZYW8fWt0PF+jgzzqa4i9SuFEvUF7xLwH/s88aoZ4vTf1XDyvBju9txGOvAnLhLsskJg8g96DPX/2Cr1dxwS9iH+qvMk+TTw3Z4K9R6/CPcy/e7zxLBO4gMXvvH6xxrxMcVY8a6SIvChrCT139FY6bAknPWTHljw1xxM8qG4BvUmZ8TzKdsU7eabKvK1lirzzqU67P2+pPKyFqDtnNLk6OxgoO474Oz2MoGa9a6wIvC+UD72WzXC8",
                "+rMrPK4+jr6dEXo9bSArvZ8X9T0VDs69MBDdvS3rND0sCuG9Q0AQPWiT67zSYsE8bj3KO4H6RD2tWBO9lE4YPlpBmD1jzC49cBEDvV1Diju2Mqm8nHRGPdP2ob0tSQg9RS9lvQSkkDyMS8+96CeJPc2RGT1KQ3K8bGzavMWgDjuJAe48bDotvUbAHL3Fp+E9nlmNOuptkLzuv788lWvePGRaAb1IvD08kRFcPTb8QryDj8i9jhJTvSYm2LxPBBs9XXs5PJ9Yw7zxJ6M7SLvaOVnmt7y9yZI5dFtVPJAXlDyQ1+K8WCeVuvNVHD0GPgy9TbUIPVuFj7zINIi9YI/HvMnYbzy1+IO8JgMmPayqk7xeE1w8+Kt6POVzHTtsBdI83p3aPIjeC71RGsK868L8vE2SdDws8xu85yAmPdk/FD08iD29ppJ2vMzsBbt941o8ARQtviZsAD63uB8+oPReOxs/jDz08qA+0Jl9PWa5grz643y9aqIbPcQ1yz0vO5o8UiwWvOq6Bj0fjma9WNbcPJDQu71PWRE9alKvvSbB/73y78O8Dx4dvXa4Q70SL7w8A5lOPf7Y4jnzFxK8Q8rcPIfgILw69L88F30hvVoWqj0h9Zi9+KLBvC1vhzyY4F08ooUWPK0Ic7xHTwq86aogvA6OLrykyzm7/mibPZ58Q70bI3a9NieqvE3+iryBpwE8UBVAOx5xs7q5y3I7irIOusfphru1TuA8Pa2qPBe53rt/nTS8x0zTPKV/mzrUtRs7sIcDvIG2KTyiqL47+vSOPL3RNTyJ6oy87teTvaDHxjxI8tu7Z0p2vGvFOjy9Au679MGdOpQMCzyQbCa6yp8yPfvAsbmF/NI7mMq5PNT7QTsIj9M75SiiOwouwTs6y5a9lhSmPS/GQz2/VtG9lYr6PBQUTL2hJ1E89h6qvVkeRLwiDeK9D7klvfULgL3bJ/U8eY8mvW6FijyvogK+5plPvKvKNzwtizI90AhJOvPgrLsbW/u7bz0hPZSLEDwXZYs7",
                "rf+VPV5he7zxRO67fILsu8V7jLsJsxQ7Zui2u/pAEDx1Yhi8w732u1r2M7yoEYQ7QjBeO1FgBL2MKYY8vq1PvGQzHj3Z3qq9ZUfqOx0MVrozCwO7x6puvBRVxjv1fhm9UzTBvOPISjxKlzE9Ka49Ou9YGDo3tz471ScKPdLTdL04mLU8Y+ISPVAw8rtVwFA5KsYuvNamBrxhU4G873JmPHj26TwTvN87XQ+pOwoopz2gb868uruZPZ/SyT3iiFW94VuJPHowGzxXtqI8yTp0vGSUhrwHSE+8wsasvZX1KD0Nj0y8B8d6u7zb4bw3QMK740PNO/aJgj87N2I8Kt53PYEmmz60G368p9iyvAOCJT6CiTW7Y/+UPTJ5kD1CF8s7H+ZSvNa2NjuuMdK9pqY4vDeO4T3KowA+GnzTPV0eibtVJbk7KYYIvWl0r73+2aK9Yx0JPTlmxDt8HnE8dpzlusNoWTwPstm8Be79ux/mtzqG1SQ8/OkpO12sabwmiDg8YXWMvYV1KT2JIdm6Z5egu9ZaWT0ADUk8D+mNPFOkLz2r1rw6PIU6Owk2RjyUMo09sG6KOzVB4bsNG/w6aR0evKMrXjwjam68MwfGvOBdtLtezSK7z53YOzVTaDs81PU7+ZMPPBvu2Tv7mNk6mCkaulpyiLoETNW8HzugO11LyjoEahO9/zwNPVv06rsID506SrLVO2OnmjxbyA48cNf3ucOXGTwkM6y8WqP3OxaOiTomxGK8R1dtPte7Vb31z5Y8FhB5vqRvLL1LWAm9102zvdcM2j3cGKO9jnMzvZ6SLLxAeFW8R0w3PHj5Ebx/R129YDs2PUKmXTw2zSs7Kt5KPMk+UL28KCK9FX5Zu7kQ3zzU+M48DEygPI7e6T1+P2k9IUsAvcNr9zuoGpI6kpBnPDmqw73NRBC9VCIGOtwSpbwpWcc7Sn4kOaprobpdC7u8VociPemFqDsaPoo7jloAu6EJHLuXw4Y7Y46JPF7GJbyWzhG7t6B1vcawm70L+9o7",
                "FX/lvP62vrzSuNM8KVxHPG+7I71wuBC9bk7POrG10rx5aJc7qIJmPB/shby/A4U7riL+O58wurxrCIi81ySzO2s9YTz42qi8HGWgvDv6Xj2fuYU8r9jdOyuAQ7v3Gue8tuXlPMzPcDxSuTu99CS2u49KErwcZ3a7mC8oPbVSj7wHQB46FwuRvFTUaT3IJ1c+qJ3yPVB9zD3TFxM+Ul9NvAPljjsejgo9Si/HvYDOyDxQ+oU8ZxP1vKdMrr0LI1C9gNEjvey2l7z9WnW93Sg4vZD42jx0epk82CFhvKZ1orxA8tm8C4X6PdqQ7bwkqpU8+LaSOnR7v7wp7ZS8cWodvBUxej0/GKw8vIxHvchSrDylj/e8/IIzvIeQLLxF5So9Zot6PA0LAr0aGuk9T1kXPe5OS7oE+Q08fchFvIr0hbsm2xu+yNyKPBkvvLq1JaK8tHioPINB5L3rSlC8BKeCvK8bFD2BKYK82hsgvCJEnLsbYb+7U4AIPQt+CD07iUk8HMJ5vEaIybyx2+M8Jtp1u4kCHLyStg66QcIVvPfJBTyRIxS7djWMO8OBxbtEw129wZWJOgzJjbshyM+8/H18O8plgDvkGl49wDoHvOct/z1StN+9eBlcPD7y8r378Sa+DctsPXncmr0fFsY5JcMmPV217r0uwZe9NBYWvAiKnD083Qu9CBHLOy7hgr3CIHs9xz0xOL1BjT2D6yK9e/IBvZ1w8jzdU2q8o4E2uk/T5bz9rJ8958iMvPn3RDyKtnQ9xLdEuJwxir20Gfm9kMkRvSy8lLysFBC9ChNEu9Dpxztp4q68KrvyPMqxRb3FZik91SeYvEkFtjzxyVq9Is91PRLjDb3zFlW8wzwmvL1Dv7wXoVM8huRzvD9VS73OD+S7RWopvHGXKLzUWdE8IvEtvWEeMLwSTwW9ppMovPVAUDyDFAa8D1EhPerYHryJDd67JPNdvBeZmbyQ/7u8RLJCuywUdzvDKaS8mqzIPHZn2bvO1ts8PbJdvP/Mkjyeb7a6",
                "12hYPRNIW7yR31U5kRf2Os9RX7ujQvm8VxqFvSQBmT0nkqk9EMAHvaUDiDxXwoI9ZvuSPZs+Ij1nhOM9VS8XvFmQwjvziI+9rGgWOlesGD39q5o8C5+RvFW8VLz4mlk85lDkPNV4jL4xgbw9SudnPdOrdjzSyBQ9Bco7PZniSj3bDdo5N0EjPSXUjrsBcIo9ue9iOx+Pxr0AhcU9djdaPbN5drx+BRA8tMiZvDknH72W0wi8XpxIPWsvPrzi70q8jrfVu13DJ70+rA6+futAvO6qLr21SEQ7w+AEvShRYL1WjMC7k8MCvUPmMz031VE8PU8nvDhwezxkbQ+93KaiuxPQGjlwPUa8kiemOiIb8zww+pE7vy5gvJKWk7u5gHa7EU28PBD3uzyUfmK8NeJ9vOA2iz3pbhu78cBOPSvsnLvym/q7fKexPP9hxrqfOS28xHWzPWfNRDyhTKE8jjyVvFOgnT13SEQ9DekzPEZSnLxO1Jq/Bku7PKR2QDyiXbY+O+i7On7HtLsKdow+g5MLvbJuhz27XOW6bBsSvERgcTwGhK8779QCvkIU8LuTCRY9mAuPOzEKLbpDH5G66ouHu6RWYL3ZN/a9pYuPvKFOWrsB/Vo7TCplO3mWuLsrfea8bj+Wu+CInLyADBA7D3ulOvCUp7sPKXu7UpTSuwQb773YfQY+1KbUu9LyWTz9lw+8njoTu5TPvTvOTfe7GKKaOxVc3Lvx8hQ9RkFXPUBFYTu75Eo6IU8muxlN4zznajK7fPSxO3hU/bxcIOw7ZQkFu8bnNTrTfXU7cgx3O0IhKLv1kFi7KnH6Ou83vDvfOPU6knP3u2HLHzoCOMO5+vGHPOKOULs13aq6Sdhmu2JDBjttxLw8rHISu00IyjnaSey5P2WuOSLapru8Yuy7JOC6uxcZDb2vsRM9xbAGPO1rQT3+Xw89u0nOuygZL747QWG8ulNIvYliNDsugfw9kSWGvGW7vDtyqp68oejTvBiiNT2kDgg9ygaYvCvIv7wSMBK9",
                "gCpSPLtIgLw4RA69K8GwPDG5nzxDIiu+99AivW5LBT1mEIo8pQ8jPLygcr2Sang97vzXPEp9uztU99K6znYRPNJsWDwfXy67nTNMvMm7Kr3I6Go8c0FpvATAY73aKvq6h/p5vHsY9rxKq7i7D3JGuyLFJT7m47K8k7kju2t47Dx4psO8BvnLPdF1ijylbvm7L4oRvVOpjLyW2Ao8ma1hO3WrLLyqvEq8odv1OohG27vw6Wk7lEYbOzCGhTxzUHo87Dm0PHbMRTzknnS82EyWvAZ/nbuAl428NQcPPFPyqz2SVu26uYyiu6uzgDxS54E7ujurOz3jCL2medw8dvySPkVkQb0sYIW7gpCbPU8gDLs0J149AGiHPQHFl7zLRaK9PFWvPW0mbbyMbWW98qLRvN5ZHj1qM0+8ychMPNFtBr4/S7o8aNHBPGsWt70jlrc94+9+vYJlOzspLgs98Y4FPiZPAL6rpSy7UEQkvQQiizwku7U8sKMqPQJfDb0Y/xY9Sx+juyTmUL2x8AM89qZCOg57fzu1nCq+yKqxPYiU6ryVx5Q7I61VPCZiuTz8EAC7TBx/O45qKL1zuy08GCsyveEFJb1OPAe8WCaGPKCh77wX44+9frLjO2jyVDyF03S9dFayPEonFTzt51C8cHutO31cAj2TB227HeiDuc7nGzyiOtC8rlE6u4Dgi72t8E67P8bsOmxG3T2qjhM8Ne3kPNi0WrwICWO8DDbQvAyHuDsangi99nuuPOP8xDwp7Vg8X51mO45rbTykqsy+63kPPS9wiL259Ai9Y/nLvSyDkr3liIS8RmQfPuLyAzzQRIu9K2qAvVQt+Dt6PWW8ZrihPSg5y7y0ZNy8f2GOvIG4tb0WMMq7BgjcvITsED2vt/k8ayxovfyo7Ly2KyY9EsV/vATC9bzW6jQ9kaUKPXeF57t5zMA7RWElPKTF2zx+MjM9RpqbveQovT2xxye8RZTIOzcZKTyEp6a8vrckvEEiUL2quQw7HlDivQDf5rwgEJs9",
                "c+qmvQpNeLzvmCi6GPmQOao1+Dp1Pew73ZMgvUztVL0Gk748LiJtPIs+lTtqGMO8v0rMPHd8VL01i3O9/UQjPfLAfjxB8wy9rgXAvGXbFz3ktlW8yW2qvPUbiLxx9iC5HfXkvEaPwzy6HQs9byiHO/hiKj03NxC96RCfu/ShUb13XgI82LbHOkdW37z9h4S81KbbO8M5cr4dUog91juOvRq2RTxdB9W9XgcGPqnsxr2i41k9kbA2veWQib27brU9mAChvTtUl7ybmEe9mdiPvCxZ/jx+y5E8tH4BPaw+nz0lroO8Fr9HvVxsnj2BA+28Gt9RPUcLsD08+k+9Ss7wPGJbObx7LfK7G1GiPROxH7zM8Z89pj/gPZJHSbx/xQq8b36+PE6OBTpnDN48UeI7PL5HijxWg+u7NZymu5vWtD15arK9rewZvTeqtrwB6r27Fh8VPZsEID2rLhu9QgBLO9f+ib03HLq8MUQKvSRJC70XiBi8gf5ePUvA4rvkT4o7TNA5vNHaBrtaViK9VIaYOtLPAL0kKd47AUAovDPC27ssoIU744aGvGm0HDxqP7K8GVhpvHNkdr2sdQs8UHcTPMgGIrzBzsO6eyc5PUS5fjs+ji+8eYSSPKWBnTwmMm88YYJ8PJzTbj5lxys+0pCfvfK2ib2jtqk9xM8KPLATkLxPULw85T3SvPBe3zuS7uW8Ew2WPB4nqbxn+K27DxdBPDv2PjzlQk69uIqAvGKsID7wI5s8BZNFvTOP77sIQZM9PG+HPeOYhTwcdja9Uo0xPXHe/rtIaBS79EUMvJ+eBD7brYa9Ja7ZvMkYCb3i5uW7FgcYu/m//zwQFkK8j6XZO7CLhjuMZbU7xI26OycGW73VmKI9SN0FPYQdMbyADo+85guXPPYfQbxyRPu7bvCcO2tB/jrFx1E87Y0xPVlysryXm5M7/LBJvHi+l7oO+hY7xzXNuzQtgzz8rLg89sFrvLob3jsMRcY8oUc9u25uT7zGH6870SWAu39L1LyMEvo8",
                "DTmOu6ZeozzxZxK7ythiPPr56rsBcJ48Pg4evbKUfLx/Eqq78RFJuxyHp7wiwbk8EbKmvY07ND0bxYS9v6OhvZGyorxetMA8Q+6UPcPVI7xQ+/88BLeWvBpl77z9Pb67ITZHO4x+Cz3LByS9raB/PCkOj7yCQU88izuJvY/faL1U0vi8KQcRPTFkFrz2mh49EH7au0j4Nj1EIeQ8Hg3bPPULQL11X/Q6tHAQPMN7L772z3w7XeAaPNygCj0dh529WpoPPG2n6DyRaQm9VBIoPbDK1Lx5sLU8/ehFPZQmBT2LYAq9rdILvfbU3zyoTnC8CFO4vBx1c73MH7y8oM5NvG9tBLzqNlk9c5xRPUQeRDxGvnE8ApiLvLkHgbwazXO84PsDPQXdHz1vUks7KcyJPFovQTyeka26A4rTPHcOljz6WTu9LzAXvS2fUz02v5g9k1gyvN/Ca7wGwz68QSuEvDDfGrtHZCQ4zCtjvQrbz7yA9Ik7Q3WSvMQ8370GRRi8A+ZGvWwwx71U5J+8RFPuPSKOoj79PHE9bPfXPZRvNTwJwRW9rp+dPZ6cuTo/nn69Hws0vh01Uj0hHTk9XDQCvJjYw7xYx8U+EFkLvlMKGj2C1TA7vLrSvO6cub2Zh4+8UuOEu+7D4bxrj4W7OcyAPc39PT12geO9MXkjPhVQbj15Ro67F2ZSu5MLFDwQ3ss8Jx8DPXVED70zIrE74+ZnPJdIW7zv+Va7SqSyvWR6KjwDQug9Q1/Ou0so8bso9N08v4m9O1mQqrtzlBm8ANnuvBrqY7pEKaa7CPKnPFU8Ir1lfOm7he8qvMzekLkrsDu75mLUOsIGiDvUL2s7gkFpOye0Ij14AKS7jUAwu/5gZzxoFry8xHl1u2kkeL0tpRQ9VScFPHPE77y+LxG84UjAu1fBMz38Ozo8wkaXPWCRTLx0OPg8S+nZvkwdxz0c5li8huiCvlEkmD3/YAk+HovRvcrFvjxXNsO9GmNjPfHPLD1ygky9WuQfPPAgKr2vbig9",
                "Bh5/PUMXXj3BMDg7+nQVvPhT37zde4m93PUkPetB3bwKpHW86LxsPXxKGLwIAa+9SJyKvKura7vjtfM7NPApvCoOsrzPh0c956RbveWxljyjRwS6FwbPPEMKsDxgfiA91QyaPJOEmTyJv9k8g3xFPJqIhrtQfFs9QkYnPYzNBT2J13s8yz4DPW3wJrzj7i09nIMWPOlKMz2d2As9AWnOvFAhJL3Apke8laMjvMFSXLzY/gM8B4z6u3kYLr1zk4S8hRsfu78T/Lxuumw9vqmcPPGc6LpTXt88wAMQvd7BbjxPHIu8v1UCvaM8EzyCqLG7VVZqPfQ10Dk+ouK8BZmZvPNSDL1KpN07Q7QCPXuIzrz/eOW9L8BEPsRnt7w62EQ+hqIfPgVs3r1TpC4+ipVMPMVmMTygr0u9nU+vPZvFJT1fchI9ykOxvOCbwzwy91q9mDhYPc06/bw8CaI9Lh41vl1EDL62O4O7ZvocvP+S+Ly5dma8nPOTvJUYwrx22mI8MGfoPBD5nrw3fHq84A+dPSJ2Cz0y8mK89c0au27roDwgOiy8f50Qva5L3TyGaSi9zr6PPIZ3aroq0x08N6yjvf5pSj2JqyS9neUevKc4hzxfeWg88Xq1vPFctTtpocO8C72BPLXRCjuAb7+8x4PlO65v4jxV3wA87gDWvDU2s7sf8R85iN8yPAIEk7x29gO6Hh59vN+sFTotAak7U+OHPJ5Qprtk91o8iUsLvfcfTL0/Y5Y83PtrvGEzojyiuio8Jje9uxUgIT3sbmK8CffqPCfhAr2ApaW8Ley8vJJBEb3bkXw++BnKvO9Etb2KDwa9FFsKPaERjr3+nCS9+VVcPbz6Kr3ht1A8suzTO1DsEz3KKAi9Qj49u5dRBj0YPg09l8oBu1PHNT2s9Aq+RUQTvjJZkrw8H0A9G/RVPHjN3btCOac9n0iiOUnzHrwqmpE8AtpTPOqTBrxGEI49B2COPLaFcb3DiUe9DvaJOkoY0jxYOJ+8oU0ruzuZkrvi8Z49",
                "3FGWvLN3E72iYYc8hsuQvKAtxTs/vu08xPmAvBPBcrwnHze8+u2YvKVgpzwejLW7ZwvquzndAr1aFTS8V1kkvIh0tTzxwdo8XeaFO8QkZjoieOC7SzGvudFA5rvEqBc9DAz5O2vA+TvJb8W6qjhmPGP4sTos/aC77DtPu4HGp7ynQqE7uI+tu7Tsv7wGWys7QriqPBxpmbsmBRA9RKEAvT5Z5rzeY1w896PHvQxuh72IRRE89xQrvmKRUj0hsQw8h9gpvjlFBb5c0Xk9mR5mvTt/tj2elR+99Ym2PSdMtLymU5E8ruFqPHHXdrzyOgo8OEk8PX+IYj75Zmo+NLjhPM13rz2V5UU9wyH+Pe4jbL3BPpe8YZ94PPy7jb050ZI8O19aOz5AUb4VPT69iEqkPMyj5zpHakq7IEFwvKkKmDzbzCe9BbUyPfWJKDuvnZO7HW7bPI1akD0PcuG9xQ+IPZLXN7z0P+i7YNhdPUmKo7wFnwK8N5VJPWN7SryepLW7KjcZvNPZID16Lw49uAS0OlT3Tryrsz87sYDGugguGrzJJ7I8vLUHPOnQqLuYfzk4sxAqvH1YMjtK4aI7AGxXuyUsCDy2vSI9g2whvI7OOrz814m8jIZLvLkCrbs7nhC9COXRPPtrpbyL1388hN1QPHnsST1dIpk+yP4EPf500b0gBxc+uaoCvtirGb0TJAY+KEW5PW4GVLx38x69hk6jPRXLHL1dxbQ7ruySO1Ru8byDavi8KtKMPPICeDxtwea73rLaOisK4LzWd/E9zzmDvRiBsDwyH0494U3rvYPwZ71vit+8eOyrPENMUD3iNig98f3TvCXWsrzOs2c8eXZIvVBUZ7wPrSk75QW/u5St5TwdSYO6RlNmPKzXgb396gK9ztVyvYSMILx2MDK8Bm9zPBdROztcW/M8Edc1vZ/SfDyXKps8jN6xPDe3aTtrHAm9etQWvXA2ZLvUHPa8AQ4zvHdrBDxTLR08mXjsuyHmmDxqFZM816VGvFyYJzxcr528",
                "kHaXPBPetzw/8zO9fkjDvP2M+Ds6NzY8QfXuO07EGbvhqGe8i5ItPJ5WA73LC8W8pfEjvHIzgLwXbq48eJbBu8HRVL3j50c+sOuRvdHDg70o89w9CyoDvnlxEL6B8wG8BmhRvRcdaryjDqk8r865vML+NL3LNU48sD7JvbQ6Hj3ppDs9fzGAPWJJYD3nIDA+qmQlPBFKybvErye9YrSzOpfgTDzcRP47Y/SHOzsW9zwMz0g9pug/vUwYNr3jHM09DU6bvdH0/Tvb7KY8LyWTvOc8uzujqQG8nO4KPHAj3zqmiJ077U0GPJ1wfj1jb5W97WsKPiZYZ7vNnbw7GvyfvFaYGbuMT1S9wovRvKsa4jz+fGE6ulr2u2QsJ7wMIiI7DBkjvJtzszxS5Jg8N6IevZAd+7scgv28KqUCvHsok7sjeGk7o6yDvDBs9TtF9uM79+MXPBHmGDytz4Q8peJmPIuWmLwgcvO8GgHKO+F4ajwrmDe8OhuIPDr/kbwp7hC92XjoOKvZKzzaA8+8uWO5PQ=="
            ]
        },
        {
            "shape": [
                140,
                141
            ],
            "weights": [
                "/576uy4PbDwEi7G8xx4vPcToIL1vb/c7Ue2JO/CbEL3pfl08Na0JvfIgJ7uwiq48hnOePO7phj4pWEc9ylApvCm/I72se648SGgtvdzH3rwptXw855myvGA2SDr9dBC85AjQvF0utzxRea88XeoTuku8sj12LBU9zg6APFe/yDwftk+9SSrRPLMGCL1sJDu8pdwdPcyhED30+Rm79SeuvAFM3LsCAHu7ZIx1Or+PvLyQwpW8vIInvChmer2JI788CEPAPMdPmzuEtve8Ezk+PQa0E7ujogG7iUeHvfUuD7xnJYq7eI0cPBaAMruKluw8OG9bvHVoRruF9gA8YicZvfGdnjyJMIW8VZ2XvJNj6rwG2IW9jKEAOxKbqzxi0x29EdE6vdIAXLwGUdM8okiUvYD3Ej0Rxgu94mnyvM/qbbzE7Gs8NiCnO0siEz1peTQ7GjYsPSL/nrxaTRM8Uj3FPOvfzjua2UA87uN3vEEgPLyYcra8o6AePDEyAr1oPZK8szKGvDJtarwKAU69m+GaPKnOaDvE2LS8j3qJvIcylbzWpIO7lKOJvFcBnzwfPx29ljMOPbHboTogH8G8C3XOvLwmIzrBfPQ8UOldPI8WDrzXTRs8xt5CvLNFJbxn7EW9jBEVPQHsojyyUsA84bSOu/oCOb24N1W9Aev2u2301DtCDDq7R8WcvXg7HTyg3MK8D8XqvBDjJL3H2t48OgMqPcdrDz3saG08LW0BvLkDIL1QWCE99VKJvP6Vcrwm1yk9R1l3vSXYc7zPc5267Nw0vJxxkLxZU748FKyEvBJyAr31YFS8fY3uvCpxEb2J2dk7RriqOqMIYjwyLUq80t0Jvra/Fz2z3VO8DYnLPAdbXTyC4BO+tXOSuxFL5TuJfrS8ijRrPLm/HL2oqU89FSVUvfKd8bx1ok69+V0qvCW6VD0iF4A737zsOzpHkD49pbo8ZqJsPHdCajxmYGI8PzFtvcNwDr0o3fg7m437u3Q42ztI9Iu87WlQu6fGY7wdkxK+",
                "obyavJAvEb2fYBW9+4yHPPNdgLz8fa088C4/PZCoPD3i1Xm9DmBaPPGIkr1QD7q7xTnBPKp7Sr3TMB29j5Ucu/tAkbwgKjw9IKwVvLK9RDj8tcm8NrmxPYdVJLwUZUm8OQBHvQnbyDyiRte6tSUmvQzU3bzX9WW8RRT4vCMd0zsyJFq7bGM7PVSMMzt+NuE8KTqiuTx8Sb2cDOm8DchWvCPreDzmbgg9HSkwPA3A/LwpWZ+80YR1PCDT0rzbWym9z4BuPbuVwzzETY08ooh8Pea0orxf7u865Ie7PApipDyA+bM83i3xPGjFUjyPnus7Eb7TPPciRL182lQ9YVrJO3RP3z3711i7CSaDPBe+C72p7iW8Rl5jvPmtVb2r03u9GNCUO2xBJ7weZK68X5cfPvKOLT2B1868bvPFPEk8TbyqlCi9u9CSvFyiNz2rWUk91KWhPEQyQT341M48vP45vOIn67zGFgw/1XJ+O5Z4ULxErYw8QVYCPXaoDr0FUAE9tu0oPETqkzzWhf279zIGPLmrnzw6lx07wjsavbhLZDx8KTY7AJBGvVmvJrxV8fc8vWruvI7zvzs/asA8yS3jPHqPOTqVJlq896jfvKyZkLzSDCQ9wbfhvB8sqry6U6u9I/wTPOo4/Tw8wOO9cnwivPKexz2agLK7CXHXvJ2aUT0/Kyc9unQiPTyovb2EaHK8GUIcPdVUIrztoJ87JNw7PbkYUTt391G8W4SuPAfy1DvGAwQ7BHKmvJDLA703ZV09do0cPRrrEzsRZBK8eF60vBsQRLzm8H48fl1fPXUvMTyNh5M8X623Pa/VO7w4ewK9L0nOu31aFLyO8dS7AP7xvPlfMLxwS4+8AerDvGtc/DoGGUs9BaNAuwLOer2+fL08pUzfPGbNiLxU85m8kZ+nO0tc6by2DgK9ZSpwvJUhfDyiBCG98Te9vDdHVzx1r7O83QgkvYmeTTzMd1A8IL7CvIR6ab1Va788woXoPVxvCDxZC+87opkJvoczjzxHPok9",
                "z2M9PDHcBr0zoHE8N00NvKtdCzvFKys8DCSFO5JfybpHA+s7tgYBPXKLLj3pHaE7+oc+vQiJpD0KUvE7i74ZvRTMOb0fsTs9xFLbvOd5RrxU+7q7Ne3bOwPUmTwaxpA88ygFvL91g7yO2bm87IviPE8vOr24KxQ9IIZ7O87llLvpCLO9skE1vaiwij0aq644qkeDPT0mkrwuEYE9a7Rzu5NlgD3KzUw9i+fSvUOBfLzHvD09yluQvCA8ibyKGRI92eaTPVcWRr38xoO8QRrGvHSrgzxYicK81O7uPLaNBLy5e8Y7UE8PvMULlzwee3E8HlFfPQErpT3lWv475j3bvIqMY7oH3Ms9PIrlvIbeqzzd7X+9aaLTPPkgpzyJt3A8SPxLvYQavzzlBOm8vdjzPL/eBDy6JTw9IvqUvH3+JDxsDJ474WCNPIE2KjxlJjM9SU8sPbni5rymNE+79PZBvem6szzFQqK8IQArPRLEuTxjSAK9TSG6vMvi0zz3TEE8qeiivOIdMjxMHEO6DN0bPZznsjxRN6e8eJerO/+RszxYCK09fV7nPB48q7vZSMg78ZSbPIFkOrtyqgw9oaaVvbl+CbyppAa9g5aQvPeol7z24ne8RvuqvAX8jL3OXHK99cAmPRy9BL79CY27pQhuvF6LB726ddC8mi2yO9ocHDyl3pq8RYg7vOAHnjvwiUe8Q2BfvfuaV72AWkE9G0GiPT4PHL2IGkc976MNPIg3njyBwFc8WmcxO0CrPLxGQkS9mlecuZZFYLoQz7C8u4egPA+UV71nm/O8ldZVPSM/Vj0GqJC94JQMPg2VL7xRTgi96hkwPcqpBb0hk407KPnYuwug07yaZrw7Z8J2PZ0QFz2kDoi8ARLXOxgdD7zp9cg8G9DFvN3sV73HMA49UbogvcO40DvCOIa9CTgivXzhXDv6rbk6U49rvHi617y6Rg6+X8Ayvama+by7LtQ8/B1PuqU1h7nWvxm9yJvgvOrhd7stHCO810JiPT4nnbyfnoY9",
                "8j+ZvWC3dj0nTwg9ebUtPH1ksr3fn2I9FkKBPSF9xzxFg5462P4ovTg6kLs9dyM+8scZugzmWT3M4wm93TR7vCEJSD20tIo9AwKKPfpMw7vj3Q68zBQzPfVCtTpPQci8LJK6vAbMUL3Kdl294RlnPPfuAL1n+NA8asULPR+liz1Blwu8GHj0urWKZzyaxaQ8pV9KvW5GQD15Jdk9G6tRvARPKz35MeI7UyPXPHuJgLoQLWw+yrQaPA9n77ypNos8SCjHPNyDwzy3nYo8Ha1QPIthf7w5g8E8ZBqSPJYv1TzjkAk+w4DWuxSdPrwPcGW8oZE7vRto9zxwwye8YisGPKRiLDzBPCK9EhUZPWrdfTww+q88CaeyPOaQVDyOtFq8maPUvM4zwjw5CKQ7JIgEvEOioD2fDEo9ZtGEvA8G1zrdty49ckZiPVBlKz3pd9885SsdvXTVnrvugIA99fIYOjT1E7046JC8waMxvZprjDvI9dE8bBSUOw4QgrwfXzW7TlLYPKX1yTy4noA8ru0VPZl7rzrmOqe8Cj9UPKkKEr1GrN88rGVIvXIenjybxqo798MVPWNmCb35yY2849GJu9ActrvkDD28/j3OvZE4L73UVie9cf+dvPvAMz2FR9Y8jq/Fum/3+DxLAz+8DYJKvOZ+47r8PrU9kWfVvMihkrsvdYi+3BNkvMuvH7y/pWg8E2ggux5Jbbxs2nY9GTuxvHeH+Dw7FzA9T6/VPC7bobzYXzE9P0SLu1ozazwsXfS7qBO1vLIRUjwbAgs8jhjLvKuG7rsg5Wi7JKk9O4w2Yj2cnto8gn4KvX9Rp73+xqe8J9+xu3nAvrzOmIY5swzQvAzxsjzz3Gs77ruuvISnS72iUNQ923MdvPq5lbwrhaK74O1pPEdqV7x2a1w8xd+AvZx/rbwJHAI9qfTOvIDjuDxd+0+8gEM1O+wj9DvASXw8/wjxO7qrTDwn+8y7KjTHO6zHrrx+SrY8JH09PXY7/buim9K8yWxnvWPL1rvixB08",
                "hvMtPed5jjvXywI8rNN5PE4nDD3+e2y9R1hhvQIzwzzsiO+8hY4mvVYfHL3gviO9k2dTvFCjUTzUtkK8RufvPHcCtrzf8PA8ww/IvA8ZEr1Uwc479nsGPZwY2Dy/Zom7oTfgvC7tiDzcA2O9Zk2EvWHegLzq1yO9j71ivGMJPzt9v8a89TnwO3zyOz1D7ug761FBvScKZjwUaIE8sKC0vPVNYryEAVI9vOAUPU65ULxsCb89nAkwvZZHKr0gT/A7NydXPZdCljyY3oC9EgLQPKrAlL2YH/W80LpzPfdSkbswrgY9+P2DvawYz7yWqtc81uOsvNeZWrtnh+O73UuTPPOKAL0r6y87eNUHPd6t3zxLX0G5vPPVPBm0hLwsNiU9iwjcvGZxybxbsQM9jFkavD37ZL3qkSc+T2uQPUkOTDxL9C48//4xu1YRNj1xPlq9KkW3vD4p3jzxqI49TA0wPaBdD72rbsm8kwW4u5HYCz0ZokY8iuczu5rDvT1raUO8uR0CPKzCCT0nbIK9lG0MvLQHhj1VyIE9lldRvVS5vT2PbUW9icH+Ow7hJLwwBey8jKCRPCiQcz29qnG7ozbjPFLPFDxJPWM8ayzEPAsr4rvkryg9TvOnPINfAT1phfU8WyjaO3bBSrwMjQC7kEBiu9eioToHJaG9hui7PO7P/zwlkda96PI8PHBnLj3b/Z+7umvMvAgfhzzRYJG9BbmMvXD7IjyNXpI83eC4vPPDMjx5DJa8gPi3u0gLLD38Ptm8IamzOwa79btDPuE8H5VMvITnoDyZB4w8yqRiPNrY9zzMDGc7HNd3PC4jkzumm5y5tDyMvA1OHDzdiHo8fCHevN25IT3haYW8wGBTPajbxLzXoPm8ggwLve1pBryrOO68GONRPbjHgj3MKSA8IdtnvYBReb1SghG8Llc9Pfu42DyzQx29vwbUO0S1lzwjENg7MygFPYCAtLyHIti7xwXpvNA3+DxALKS8D6GDvcxAxrsWP268Xab+O4nWn71YLHc7",
                "yY6nvKCJxr1Rjkk8HlxlPOC85Dz1XHc7AN1gvVbcMz3G1LM8pgocPRe4GjwCgGc9DGt0POkmpzqZn9o8dJPuujZXpbyWzUG8ANqCu7lywbyhy3Y8xWt7vCEsvrtnQNC8RFYUvMOLmLzlvSa+V10fvCDruLxiekk9Osbfu6mAaD3l880805bgPCjYfrwSY+A8xxgWO7KS3TzcdUI+8CGzPPvj9rymA8C8iHJkvBDDgjwKxuK8QtN0PaxJTT2Ssxk9cxmEvE+lxTw3QLI9JTVzPI/cLT07ocC8fLO8PJ/4wzxVnsE70zgxPeBwiD1VVSC8hql1PTR0nDuy2CI8g0UaPVHnkzyESI09wREwPTLojDyZ+Dw9uTOEPNFfAbxmtXi8vRgFve3iFL3Sw387MftUPVJ74Dvs1pU45Ri/O/+WTjx3tzM8uJWbO5yiWDzwBRW8SQ2HvaBcgryXDUS9PMy1vMin3btD8gO8TE0dPDQhCLyjffk8S3nAvFBxEbuX3tm8uQ/WPbOsmzsGu/y7V9ENvDgvaLwwInu8C1kqu6o0cr058jY7CG92PCOTJLzJuoY8m2Z5PWfjwLyZVlC7adpnPXYNvDwmLA89sd6PvdykBj6ibh29fFlZPBfH2Lx7lA09X0FovDpf8Lpyqf48GNcRPC3WIT0En6O6/0CLO43/vjzC6QI9pMKGPX77ZjpnQF49UZWnuy2VmL0leqa8E36CvKn8Mb3IJ6k8BRklO9qI6rvyyzO95mQhvGfK1bxPAFg9LFesvJnSjTxN+SC9HX2svVsllD3A+yc9y0QRPaZOsbsSyTy8kGT0Pao4C71gfy28Ko8kPQ0Y9rzP7im9vLgOvS7aqLzPK8o89+RwvJrLsLrcDWU8YoRCPUZ+dD0xNQq/xPhFPJoIaDwSnBK9687kPMfffTycC9E8vSIjvRrlFjyF+Es9aQaDPGsAPL1pNqE9QFZ0vWuv1zxXXqG9RQ1pvTrypLzJgDE86nbVPILKozwrKA69yt/UPWMvCjy9Kbo7",
                "cCiUvAnul7qHKA89XzbOvH4qhrsy5wS9gmsDPXJ4EjyMsqK7j4nnPLV2CTv67jA8JQKAvPjYMTxKE3k62ul5PFjLnLw9RTW8/5mhvIbZ5DyGNEw8FApsPIE2cLw8NLm8nRqdvGzBGb16HhW8WdjOvK87czzFEbi9/5CwPI9BoT2jCU48MXbMu0mPZDx6YMo8JCTuvML2dj3eI428mo5fOF8T4LsCidI9P30HPbX8Jb21pLg70gjrvMULkT31L848OSI/PXmUJz2QfN867tYZu6dXAL0kTiO9rH8TPVki8LxiBYY88WOTPI3MC70uN7s7E1W2O+68rL1rsn09WHnUPLg4G7s365q8U7YsPMFEMzyFYbG8dEhyPZxTgj1MQQk9xsUaPJrmhT1Pa4I8TMSTvGuCUrxpINI8bTuJvKbVHz31Y5Q8iyAKvOYDgr2PO2K8mXcnveBHbry18U88HD2/vAbLBjzN80m9VtJpu1fNfDu3Khg9Q7qmuwzPDz2WaIc6MDY1PcHRHb1+lge7zvuoPf2OY7zeIQc77wSYOmxGsTaESye8oeeEPHKtajyRt4i7Wb0rvXwlGr17U7S7jEjYu5s+NT0J5Bc6TFA9vTq4Kb1XFQq+bgOru707KjzgoZc8WfStPBM5+TwtB7C7HZgVObbCMrw4GB49vgGxPDwDVTxtP1k8r/2HvOyUkbwi+h29CsYaPawXGbuJigO9Mlneu1s2Ubw9jgU97lhJPBIbLb38PqW8FkkmvSR5pTwF8M884OsWO/w8iz5Nmy+9kZamPbM9Cr3UpKY8BpVMvY/OoDt6pcU7jQ6aO2HfuTuSzow87Iy1u5oF+7yRzpc8H3sMvG9gFLyiGCO8uUYZPal15byjrQM9NP8+vD1vDT5Xi4q6b9PHPDtTpDxf9Jo6nQxtPc7gKLwcXT698bQ7PCHeZro/adu8ScX1O3gEyDxLxbI67SC6O4+RxLp2cXE8exm2PFU38rszwrw8ldMZvEZmNDyIiAC6ZBT+PFXP1Ln/nAU8",
                "TAuFvet1JDyPDvw6dRWpvMdhGLtiMpW8XKNJvHCSBTzorOs8XBM/vVF3Xzw+4GY5PdkPujHLZTy1x+q9HbUNvGwYojsyMi09IQmVvdo4D7waamq9y8G+PKHd5ztYj5o9xeNxvK0bUbxNkAs836CnPNzKNDzG/l299/QGPUwbWbwEQRC8LGZ+O45NMT0V1Xo8vJMFPRsSW7vffFu9LfgsPNVNAjwsrcO83eSKvXZ5Lz3I2Jk6cMcEu66HFzuIVcG8CE6BvOy/wzz/pmE8AMODvJ3D5Dyzg4Q8ev+wPCW25TygT0w7EvCCvABASzzf6xq9jmf3vAfeh7sPfvA891mGPdrT1DzDVRy+6dhsOm2VSjy4iIo96J85vZjYCzwTjoQ8j0NMvbMs0L1iFmc8auV3vae3zrzaJts9+NoMvZxeGbyZQge7SIwkvf1XCT1bYsu8evwkPdea4T1LLDE95Fk3u/LLET3xgrY8pJrFvGXCFz4+GFO9B2AbPGEg+zltp5e9ATiFO0sqqTw+8UQ7++G3PCDslzy8WlW8tXd9vF4rrLwT/wc+QdkRPZZxWLwUfK89rKwuPTW40rvcKHC8uuvQvK/JZL35MD89lu/3u/ow5zzligs9VuOVPWH4jrzJLt68JB3NvJAE4DxsImC8EOAdveNf8bxjxI+88I9evJJNmLsDfSC9s043Pac7ZT2NIiy6dT6QvZRpkb0pakU+cZQnPvsDbr0HrqU8NxswPY37DbwEG+S76BJHPAhupbxWs6M81mPAvFltsbyMKQQ9yly/vET2Wbyl71e7TY+JvbsCiT3W5BQ83j83vYkotjyVVaQ80aFxvYZNlzyy/xu98uVJvXnN1bk+5i06qMmeO1N4TDym7g89xoidvKvhvLx9ATs96B2/PLymgz0txIc8vrhCPNFetTsWZY28vkVmvQHEnjvXN7m86o88uyjLzzt8p7u9kKkxPf6F3ryKKY07HZ/5vF60wD2LGQc+lGpTOzZpeDtkq7e7koQIvEafQLvN+o48",
                "GEmqPGdaSDsAiBg9snupO/zhLbqfiWs9ExynPeQ7Br42hNK80x2dvYLEFb0+FQu9f5JTvMITYj2QtOW+ZRa9PDgpf7t17be8C7hKO4QSUb2LyRu9ttCbPPJtI70tawo9h5z5vJkXBbzMV3S8NDKOPRRPJD3YWXS8HAY8vHjoDLxGG5G8aqCzvPbLRTskSKy8JoIFPHNK1rqNqwi8GVYpvXRvSb2RjJ89Em/FPE6n1Towcx68kam/PSwcprxNmma7S95LO06d6jztgm+8RRVNvRiBSjyZ5s28u+KHPYfRFrySvZq8PUNxPE0E0byD97A7hwbYPNsDJzz/R6M8OtEKvVDG6Tu9DxM8o+mEOjFDGz3+iju83qf3PJcMiDvY+Ny7kfZHPdxjpzxhAFo8GOG9vHsG0DyEKUK8SSyrOxPHPb25fbW98pC8u1nqcL2H01Y9t0laPIk/6zzQgd88PKORvGhw07siObA8ixoJvQ9e+LvS/Iq8niyTPcwmjD1Sax49/+IyvTN3Ab0rGow8ZABKO4KcLz1NJIM8ghg0ulGQgzwwWg29WX05PZK2bzx8sVG8zz5UPPdNtT2mRvm7GKKSvIpn4rzTGTq8uwXWPCwGYTzR2Ds94Xs2PF1eeLzUXZg8+zxivPYKaTxNxwy92v1rvbc9jrwATsa85VORvOJ0Bb2Olzs9Mfu5PBDa6Ttv/4A9XFDhugnJMj3h14M71zdrPSeYPr3VoZ48DnpVPUdYrLyt70q9jBCKO1BeKb0Y9Bi9E49KOwFSJb3c2rA9JYXdO14zobzoO0M944RwPcYw6TwLz0C89aLjPCkxYL1p1F2+1wGAvH3oh7zsRH08DESvPHvjLz0ljJK9zNiKvJwgkbn5uUQ9Qj5APZBoL73ruX28NZQnPamkWL3drEs9pZG4vOjb6LsXwWe88O0gPp7OsLxaA+68GAWjvQVorrx/xr49i1+su3wCwTs98eY8eF0DvMq2gz2y3Bc88r6YPXlAyruR4CQ9p0NWvcwDt7w0+SQ8",
                "a4f1vDRMJj0SCYy9qUcxPeusEr2JU1o8OPCePNG/orxh7JI7hyRzvFhp2bzAd9K8HYopvdKHQT1YGcA8ZFarPFSpQT0atEK9wYRLPYcn1jssDgM94TD0vB9d17z+Agc9wtcWvRkdIj1RhxS8hqxeOoN1B7wCHBo9Be3VvAcZP72SQ6S8kpNNuza3FLxnCrK8ZtjVPPBytzu5euq6E6OHPEdTjLw6zhy9XOp2vQhxTrsMPlQ8UTpePDjcpbwPPI68+KHFvH5E4DxBBeG8AvG7Pb2nQL2yp567Gk8FvYSNozzqm1Q7j/CkPAZG4Dtx5Q88ttUHPWV6lLyRbyG9pYwXPfrYhLsutBK8xu+7vGl2n7wRfmM80Z9EvfwMPTsihi+9AfgIPYG4F7wG5V25tL3hvJPnhbxQUgE9yoF0PA2ZgLywZL07dAlLPRXz/zqBwHO8uR+WvIDGtzxcmgi6dEjdu30WeD0/DB09aP/wOwg4ez2ntC+8OUDzO6H59LyCXCG9O/5HPN0bdrx4zNO76QgJPJPA8bxpblK9ExWQPMLb8zwNdcC+kCsJj0hNCA9eRQkPOOIIj/Q2CY9xlgoPgD0Jj2EWCI+gSwgPPF4Jj4foCI+EPAiPbwoIDzVNCI96NQiPkLoIj57YCA8efQgPqSkJj60kCI/qrQiPvsMHj7YwCI8WlwiP/28Ij2R+B49+vQkPQT8Jj9+2B4+E+QiPB50Ij6ZOCI+ZAAkPbLsID9PZBw9FwwcPog4Ijx0rCQ9KFAgPay8Jj9UFCA8JXwkPZeAHDwGvCQ8kAQiPgx8JD7z1B4+SmggPRosIj6gHCA8PEggPj5AIj+d0CA9dTAmPCZYIjwUcCI+V2QgPmoYJD2eECQ+3AwiP1XAIjyRLCQ/gVQiP+1cJD39XCI9OiQePkwkID+wCCI8VuwgP5KwIjyPQCI/0AQmPBbwHD5kbCQ86zAePcGQIj3gACY+gEgkPO68JD6MECY/c5AgPg74HjxupB48wKgkPQqkIj49TCA8BRQmP",
                "pDkID+xzCI9+vwiPMiUJjzw3CI85vAiPI+kIj2b5CI9r3giPBGwID0j4B4/bLQkPjjMJD51wCQ8TTggP1ZIIj8mdBw9xjAePY2oIjxMRCY+ftgePr0gIj5ItCI+8zwePrVsIj8AICY/M5AgPF+8Hj1IkCQ+ISwmPY/oIj1+pCI/myweP1UIID3pbCA+VngmPBVoJDzM5CQ8oiAeP/wEJD+FmCY8fFQiPhBYID0JECY/NnQiPAtQHj3dmCQ8eZQgPmWwIDxwgCI9itwiPqg4Jjw6PCY+MSQe/xjhTPYEXlzvAtma9Xl7OvF1sob3nrRg9ddMuPd64rDzs/EE9lp24PNJLm7ywolE9FCzIPaHe9DqEUAY90lHsPBSH/TxwUZA9R9tqPdiGrTxD+9G8ksZ1u2mQwzyph0K8JoQTu6Rjlrxks8M8qF4xPPcuMj3wj0m71l9RPX6jjbmuSAa8pFrXPGHe+Dx++0c8YGKvPOdv2jveO7Y9mEYzPXaDPDzZqjI4JY0XPQdUm71p+ZQ8lPv0vIk18LxGVe+8yLChPAUDXj0uLMw98ZvEPFzs5DtbiaK8JTuCPB6NKTpFEeQ95SkevbaVpjx1wE48HisCPZdZxb1DhTc96eyAPB0GR73AhHS97TmPPOFzjrlC88O75fWuPIhAjz21WMA7Bf6/PBN2czuMZWo8cKmUu0YQAL0z+Yo93CD4POcccb2HZIs8G5ggvETnhzxcXYG8c3EGO1YnyTtx0tQ83gy4PAoSizzw7D09ozEePZXLiT2OG/88DLBTvPjfcbzJAWE9laoMPFB4+zto0jY9DOEdvd0MWDzZDJg9km1FvG4l/juvhxQ9n4/5u4N+yzwTvX08qB0mPSQKCz0rc/a81+h7PI05jjyA0rU8yB2AvGeaoD16hTM8oREUu50D2Dy1L9a8E4/JPGsQuDwuZ+S8pokdvSI//rsMpa88ZcoQPUev57teObM8cJ74PI8jOb3LczY9pKITuukNED1qqik9qtXDuwwltzx556k8",
                "6NNxPCMGAD0d6RG/5hKHPNvkS7w6ugK9CU8mvX8WCz3h4Ey8GXKIPeuQVT0SubG8+abnO0HdgDyyiTw8EV8tPjfHGL1iCPo8HQQRPKqUJj4HGyw8IQmpvXAlqTxUUqS7FZqaPGshDL1eRoa9ck2UPMTVDj153eA8yLeuvDZ4RzsTqo48tG5/vXnaBD3EwxO98AgQO8IgLrxPTNW8Rw0zvX0LlL2oKJM84uHBvL0LvDtXE167ZbSnvXlLgLzJk9W765UWupoCdr3xiQy8NmEovEmQtbxsSEm+kox/vKkHPb2grkc9I/KUvHWDaTyvoj69vN3gO5KHkrxK+My8/Dj0uq93M758cmc97AmcvOEvaT1r1EM9E4CwO9Ji5TtFEtU8t3BLPdhAg71v2Ng8ScA2veaa87ws2Ju86MX8vMLtEr0jcga95B6QO/sZuruxhG09eFDNu9tTwjyRoBc9tDh5uurbeT2W4ic7M+IZPZW6DDzM+h06KtjKvDyiBD0Frvk7gQUMPZgR+zz7LgI9cIYYOxt9m7yRyKa7CTmcvJeOCj0TnsC8OQXYuwCH5DxSHay8yXQyPMPhnbu43cs8UgJzvKOyzDvzuFS8ig3wu9uh8by+6fi8lneAOv0nPbvCLfs8k2sBvHrICD0LFYS8kiIAvBcNnj3+q0C96LNqu2u35zxh+988iBwjPZghGj3fs389zQWiPM5HF7xch5c8c+S4vMS+RD0j0P27poeIOos5Fj0wzck7jZ+0PJmQl7z1HMU83DkVvPiA5rxnk6g8oqT+O/SZAD0zUoi9COO1vCGrkjosm4m8LdZYPa1zlTzedBK7OWpBPGTcWzu5XrC8VIuQPEEuGD0HB7E9K5F6OxbVhTn0WrK85hcYvf7o/72G+jq73OKeO7YQuDxZlwW92h2EvS8/ET3oUBE922gNvKoujzxwf827KRK6PIV24jt8erG5GdjJOrfBLbtw/sa8p83+uw89k7unFUs9sQg2PfSK3DxVPzg92hQJPECcN70WFc48",
                "FUygO6HlfjxTKP67Xjh4ti94g7wXkGu9unm+POydDD34CPk8Rn0ePVR6BDsONqW8ebWHvRbtOjv1Zgm8JStCPX1g3Dw/zOG8+uAVPSsWBbz5XSu9nK+TPIyrR7zQ5m64SvSpPSf3YT2CQA490xI1PZiL1jztLBW9ktUrvJWpdLzXCxs9h37cvNPg7LsAqWy75H5DvM92gLrp9tQ89hWVPCzGtjz+ydI7LX3JPBE4o7zyIvM84W+GPIETPrtCk6M8q38LPRsYizyg9M48IbVYPXwk8Dvco9u6xShqvXh/G73bs+W8UBpDu72KMr3/bWy9yQq+PYvrhD0UjJ68HFuLOUnZPLxYZug8g1y/vf2/N7yvrSk9nOSKOtL66bwetRu8EAH5vJgqb7z6g0W90YBDPH+WarzAnxS9wo2qOkyg5DyZzr8855XfOhGWlr2moQg8vYljPdXEmDvp28y9cIFDPTCSybvi2sU8UKfNPOp8PbwJiCO+C3XyPJCWlbvV+Bq8f6uSPZSs6btaFJM8TBkXPDCXAT5QdQC8yPdEvVSaA73E9mK9okyQPREsJzz+KRE9hT4JPfTz6j2yK7w9PyCjPVwmqDzUmZy9a35IPZLwBb1t60Y96WeVPKHjpL1+uIW8axavum8muTwVQsI9sgeEu34PSL0grzQ+bCXcPLALrj2c5jg9zkyYPJMTkL2DMSS91hr+vMUK9Ts+lxi7xjiDvFwKnLzFxpK8K7skPCkQVL0IEgq9KL0WvbUmVr3CHf09uvbOO6+EP7yQZKk8K0MgvT3G07wcppm8zwnTPE1gjb1UCY29blmGvGzuwDlG30I9HKMDO6sz1D2x/BA+uXINPB9j2bzbMGi9kkNGvUc2Nz2YEoI7p7F+vLIjDD0yiJ49pnJEPLGIaDxPVzY9MOAnPKZ39LxJ2kO8hLr7O3Zl6jx08+88SzmQuF2Qej1lCCc7f04OPmKp7Ls22EU8kOI7uwUUAz1O0Dm9s7qqPUWbb7tvzU+9lsZ3O9rJHLuB+KI9",
                "Ir6/PEC8hzzdxlQ8L06JPPjyX731ugO9aHjfPKT52rwLvL68e1gzvaCG+LoZ+hm8trniPCKpgT3mTYA8re+9u3e9FD7qMyU9AFkMvZpZNj1bCfU8d/JRvD23BTzTaCS9/L8KO2YelDyzhsa9c0NiPeOypzy1dMA8sZeSPL5kVjteATq9mw1nPOhaCD5Bc1g9TuEwvEFqhjsXa2A99EpJPMPvlTwNknO/wuqBPL1lrjwgd8m8s6eLPKl8Fz0MyQ48sqm7PHL1MD0dgz49oXqLPdpXuzzWn6u8u44kvYPWNLyCICk897wwvU0C9TwKrMy86HvAPGmn47vS80I8c57YPPmWgz2S5Eu9a1riPB9l5zxLKWw8gy1oPR0XID0g+A896uLdPGmvvzyVnBQ+DC4gvObsij2IQoE92/U9PDMgOz6LVOA8LZzlvSuo4T01zkW9WsIxvR4Qw7sgDyg9K9YEPTfkibxcORG9kEnuPKTHfr0CCWQ9KkMfuW1+Cjzha5E8MVWFvfL55bvEElC9W1s3vEBXtrwAuiY9Mfd0vH0Yez3aPxs8GERYuEA6Dj0OuVE73Y9qPHU2pjzob6e8RU4aPoUz2jzDUf06G2P4PPL1GzxzQ+y8MGRVu80WhT0RPja94UjfO9NyhrvR4N85+6q5vNYhP7tEAhc9lymEvKXPKL1VO628RatjvGElE70SIFS8OFpoPXIcl7x2m/+8v/9dvMUqY7x/oNa8kgXiPLWPlT1SGtK8dNuvPQgHJbyl9aw7e2r0uxf2FzxqTUU8T6+aPNyTML0yw9k8S+mdO+irG7znAKk85FVyPSf6BD3Ko5q8Ohhgu9jKUD3dUKs7NyUjvKdy8TyEQVM8q9ONPGQMGbwbWzG8mC8CvXHGYD27Ka68a1i5vXn6MbwCevy8r5cWPASryTw1Tv+8t9UnPXGgTTvvZDs91Xa+vLkaGz0CwLU8+pp8PDUYNjzaUgC+fpJOu6aUgjwx+m299mPHvGnXybzYoIe83HLqu1vCCDya51g8",
                "pz/NPM2eTjy/i2M9fg96vfjNkrxWZDM9d5u5vDU92D1p6IM9inpPPa0Xeb3IG585RWwJPc8OOT3MZpY+4d8iPZwqrLy5u5g7LflmPWfaVjyx3l09JtzJPOvWkbtAGtA97O8KvGGg0z2y8JA9wfJiPO/NUrwvaRY8G2YJvftV77l680694ZdSvYQhpL0G3JM8Or+tPSiQjbxY0ie8ZmIRvfpyuTy9Jo29NYnzPHK4jb0N4JY8aznhPJc98LuXm0k8dgdnvZOEVL2yEtA8hBpuPV3ZMbwmnxU9aH8iPKsVMzsvj7S8JrgfPFWXFr1Q3Is9jjirPKCXPzzb/E+8wNv4PFN+Qrxt6iM8sIpnPKDJLD0YC/E4H2s0PFKHtryR2xQ6+aiZvAi7bDzQZ9Y8/opFvbGqODy68tm7BitIO4LRKz1Edi89BEkOPiQHbjwDkmS91n9GPRLBlLzTWZE8bBicPVSmjDw2IpY6EaF2PNh0qzueoPA7dxM+vcE0GjyuBc08CJqsvC0zGr1u8IA8c5kTvY0jubzaK/68vwQqvI+MybyMLAk8mV2tO6+ImD1zLdW8haVNvDLGDzx3NeU7jmNFvOinorwGDrm7TQxuPLyWfj0TQUS8wAlhvbjbhD0uhK47EFH2u/ErJz0V6E49vlVCPfWQq7xWRjo91xMivbkLDL2vrMg9J2A3PeoMELzU0Bw6wt6YOH7fXD03/fi8vGexu9TZJLzAJS+92TyFPPA3vjxLRkQ9JCEcvS3Xwrv3w6280RdKva/0DD0I2c27SqiOPMuKM7uIqKW90YQ3O8y2n7zQcZe9TzJhvK4YSL3th5w8PFsWPQ2/Xr0SscE8jsgQvd7wIL3bVe09QMcIPKKpTj0acPW8AhhjvSf6QTxsnMG85Wj0PNexxbt8Fka9CnOzPINP6bw90sK8hTjnPIJHhzylFYi91nuBvegsjzv2xnc9F0ZzPezrGLz6SGa7jTshvfzKhTyrFG49UgoqPfwRhzoDtu08JrX0uwl8az09Kxu9",
                "Nv/aPKFm+LxG0d08XV2Lu9zIyLptZTK8jwXRPK/4ezwf5Mi8V+lAvK4OCbvvtd87EtdqvP1DEL0Itww9MLsnvI2x/7z1DIk8aVUEPcU4kbsSAWy89Ho+PH8vCDsVIjy8fe+Yu2cuFD24Us27m8qevIGnJz1MV3s8vQ6ePdCanTxYwtg6vKMZvIx7TD0p3Gg9NeiKvZBe9rx3mpc7nF8yPfdyJr15Niu952wBPQA0LrzLcaQ8MXmkPHITVD2Vky296kpHvUS3uLzmcMc85/iGu38Fqjzub0K9OQ1mu1/DwDz+ofG6ObsAu5zamTxegWE7Ppaou8FwFLx5KAq6IDNcPNcMTL2p0fq8yfnNPPgd4TtTOtk8UhrDvEliEb1Kr7Y8uhQAOzc9EDwjY9k8q/GUPdWE7DwCe/S9KmVSPfz3JT2mYiC+TGI2vW8sOz1Gnkw9nbAQPSgqw7umkmc8Wl0FPc+8Jj2CuXa8O4TgPNmP7Lxmjms8wn+Ju5iDFjxjnD89quR0vW3Kgr1yFa88ZGHXPLx1wDypOYc8sO5IvAhVNjwRl5c8d6ImPJAVUbwMw8m8vZ8cPUiKbDzpmJ28XUZaux3qYbt9zIk4dMfAPJMsOTyTs1A9TwpfvC00ODwY/K+8tJS5vPkmXDzP+lc9F4PHPBaNSL1Kre+8LXkTvNNYQr0Mwqa86yhNOxrK3jwwdrQ8cRB4PCa+/7zh/As9MSCYPU1oaLyV3b28EITlO9Exn7sGTNO9uohbPXhb47yWUhc8glohPCsnqrt1B++8CvctPXjFFrw3DQ88P/VWvUS9W7xeUaS78E6ivKmjk7qygUA9bzU3uzcVmDycqKG8zytLPeXELzxDhHK7vYiHPbWQLzyLK8W8SHDyO9VcWjwU7kI9tTmZvO7IJj1s1DQ9R+dUPEadpTz3AgI9ZqeKvEM/jTsQxfK7nbx5PDQrJLuNDAA8Wk1FPZlXjzw0J7S8wkzAPJz8vbsZSF28CaPGvNK2lb3L1WG7OpwBPakvWT3z+TA8",
                "GHpsvJ/Zljjna/i8xRZOPQ3/7LwldvI7UVwrPS9yEL0+U+i89qV4PQVRfDyg+SY9iIbVOvuwCD2KheM9YUdWPBvMj7wLNhW89Nr+O0d/0jnfvbW8WbNcvFXD9zuo3Im75eDcOzxMsT1f8So9tMYwuuaS3LwSSB++OXeIPNnIP7ogqEk8XoSsusiLNrx7NI68/DnavOM5KD2bRiG991HovD7PgDyv68O9I4KiPLVoh72GcFa8d932PFOaArwASnW9YF94PFobiTxm7bC6uGrjvFVrS70tn448Ier0vFfbyryfkUw9U7aQvFv9Ob3C0Lg9GcHWvHbZYLx7Tiu9CRctvbdRrzuDn2y9v7U2PDVMirx5QRI9z23IuiZMX71vqiO9w+kWveQCA7wlrGK824wUvFBlNTv5QN08i6UavfuJtzsrA8O8oDyOvZaXbL1QqgC9TOw6vMq2GzttvAq9tPD+PKyCBz3WLCU9gQXZO1h2bD1qEii9gIJVPcqMPjyLbhK8OymQPZzL/DsMvnU9tQvou6BkRjzCl6I8786pu/k7Tbv65si8sIbmPSwYnjxKg907gGrLPO/bFDvGiBm8N5mQPL6u+ruxr6o6HXkJvX0WWTyt5AI9NTQgvab5Tj0CjkI9wAIQPC5lNb1X8I27XRXJPAGk4DxV+wU9oqONPV+kUrtrTPg8glCrvBrl87u2CNA84cddvESZPb3xFUM9Z+a6vAsXvzwd7PO79zTPPOMY5byAIfW6QqSWvMbeDjxKMDa7V4jWOw44/zo5LTk9AnXQOupZmjtdaFg9S606Pe2gnb1fqMi8Vf1jO7nw4DyjbhE9Etk5PHL/B73ToJw8aSQPPMgpLztveSM9WFLKO1a9gb1fclg9W07zPXfclbzgowq9fbB9vK6eljxBwQC+TFxZPIH6Cb0gN/K73whcPbwTyTvF0zM99dqyO/p757xPUwy83RtGPZfpmDzZpWA8vczbvOXVaj39DxI9xxfcPafu3L2AX6U7YNgePo99hT2Uscu9",
                "KWy6vAL7szyuzOe8qgRZPb5mZDxDGaY8whdyvIM9nD1HUAO9R0BNPTYKaD0mkro8ombzu6Hd3DqWDfg8LY1pvYOBEz7imdG5+lTrPbs+vrr4Nzw93UiOPXwF/ryJ0T89yyYivI9cOT1ArrW8tEYfvKcnAz1C57s9sHGUPcBmrD0NDPQ7cSciPRCj0zwFXdw9bfzjOxq4BL2oxiU94q2OPEuhhz1R/589aB1EPKWtirzAnew8yC2lPHKGGz1j+eC7W8+XPZgKArzoUpY9X3W3PF9j6Dw2ZZc8NVkLPdw3Lz3fzkC83NFBPCvYSrrZDoG8BSU7PeLyEz2hL+Y8WL1bPQocE72IFnW6L6v7vC5/KTxHpIY9MYYOPGKibDw0Foi8c1woPbwUfDtFlEU9emIwOuBjGrx454g9hOF6PdkoCj1EHBS8axIpvUQF1buiJ2276M8bPXZP1rtSTrI6Bg0rPDr3rTzFFvI8w4IMvA+iL7xPVLu8JARpPJHQoT09Dt09I2pjPNh/PD3GDIy7mbeDPEe+4r1SF1W982dFuw2yRDtVWJk9ynw4vIJ4er0qvgu8cA37Od7yg7n/ayA9iDJEPHLk0DyyTEw9ucVyvNYUkb16dxO9Bm/lOPIUvz1YXTa/7oZUPAI0CDyqm2W90hcHPShQXTscLcy7Qc/APO1heb0tyfi8kJiWO9b8Bb2tQVm7kCocvd4ZNb2ooXC8GPVavZVyoD0IvkY7UIGHvdpOV70H+K28gZX6OwPo4LqUjtm8GEEbPZk3Irs/RPE85cbmPHtWdz2KxoS9MUE/vYUbO7yYpkS9qpsmvDvU1zqz2xK8mZ22O5YRXb1lxbg8IJX0OtAFVjy6eha9+EATvc0xrb2AkkS8wjUGOtRpRD3Mm3G8/WqnPe18dzyWP7W84a0DvK1dobyXWwy99y9DvYHWOL1brp28FP5GPWRq1Lz1mQw9VB8PPW5+hjztefM8JX9Ru0JQEryG+xu8sSpuPN6HFj4mybk7pcgjPISJiDvLx4k9",
                "aZ5nPC6FvbyMQIy8OuCzuw+Laj2UrS299QaiPdq6UzwuX845ZXOLvSqiZj1z20Q81MAKPGokYru0c7E7QwHVPL+pRLwnUpu7XRIPPLStkTwjmDi8ei48vMpS5Lxp2YI7Lv1uu1HW97vzMIs82qm6vIGRijyBwIG8lCM/PYjzlT2n9988OTGJOXbafb0NFSQ98j1pvXbVsTw0Ypu9icbNO4ZgxLzx4oE9ZZcIvCRWMb3yqN68WbofPelYlLz3Isq8PXNoPDPGTr3hpmG9CQZAvCntirxaQ+Y9ImqAvEbmg7w3/wI9nfkbvLItArxT2/O6G5gaPPdOELw8ziM9SPg0vUpltLz+RcA7CpSMvKru7LzFMqQ+HJUNPPr9ITwNqdO76RGAOTj/CL0PrQq8+IxuvfX7Pj2anBQ9YwMHvH0sgrzmXVU9ar9xPGjoTT1eOwg9vfexPHHUTr0idJk8enaLPPavbz0YshS9g1GTuoC1uD3o7fs8p5h0PKUss7x9bAK8P9QhvP6URzysF7k8DgpkPOPAUDzxze69vTOMvFALaz0nY9c9UcayvJX0oz1Qq6G8GqxIvP6GFzzJOVI8c7gvPbBSZz2ejxA7OGEzvEmBBrwid4W7+9D8PFc5Tjz0c409+YH2Ox1eVj0REyI7+UpOPehIxzw3aYg8ghjIPCSgRLyVxQK85YlPvY4UQ7ySWLE8n5NHPIKwYT2Rk249Wx4rvSd2Cj2+Izs8EK7aO0vOXb3juTG8KNQfvGVx87whG848Qn0Xu+i0J7xD1EM9qgknvXDuX7yyqww84olOO52uTL0h5YK9JpC4vO9Dt7zZuWK9csycvPeFv7wzRu87R6/bPIrJRz2CVeA7nBnWPLNL7LwT84k8YStAvazsKLzSpZM9306eveVfNr074Km6YU87vRL1Ar3H4pY8970cvNDjVz2SXZM9/0pSPZ4L0zxrnsY8FFYQvVTloLxaBik9+KIpPXaDxTm7qzi69L0GPCdsDjwDj309l2xDPdM6xrzHHGc9",
                "ySIjvJABSztplG09pcycPGhxhT0Xj1u7h+KIu0UW87xa2uS5HygqvaJXl7sCBE49cbykPEzrLb2H9tE8MssMvRxEUzwtd9m+fOdPvDWZZz31CC+8uFOHPDvoQT1th6c8SIrGvPZ3zzvOtLm7c5IVPTELbzzBMQK8u/mNvH+eJzuiO9S4VaRmPPl+MLwiRhE9vcf5uWXVjL2qpha8qECoOwTNsbxjQxk9pDMkPIG/B7tyJSI96tlyO/qLqztrxU67Wpu9PPZjQb0Eg5O92d91PDEug7x/9949Fe+bOxtJCb2b2Gu9H6fCPPi5CD1fQaE884abO8e5/7yQFp68+XMBvDDQL72TzTm9LLWMPNkB2jvr9qQ7NsWaPUdZHr1TPE+8VtgWPc72MT3XRls7bjS1PV8s0bz9R4671MSUvD8+TjpL2nU9dtpWPX2iOD3uu3U9IF0DvdJXEzvDLAm+XcXtOqIlGj0nghG80VkbPfLSiDvEv4A83QLWPDQoB7wel+G8ch2DPdaIbj1Dmqa8AEMzvH3dET3oO468REraPGSjh7x/sGi8qv2su9oryrx7Vqg8GtGpPBDzsD2iviG8402ePC7yjrueFK68rOAEvRh45LwIcjA9MYQSPaDfojxZVy282QmCvARFSjvU8r69FxlOu2Zq47yA6QS9Ph9TPG83Ej1Fi+w6nudkPMMn9bwT+zQ9HaPkvRTlnj1TVnq7yR4nPbYOb70zdc29xKNyPUvCZDwh6868FeQTPUOEQT2WhSS9VDjTPPlyBb39Qfc6iSTePDcPHT70bBs8BRqEvRpd0j2IH0A94KNOvYoESDlkFIs9qMEJPVri4b21/FW9cljoPPW0IjyIm588uAG9Oylk5rwhBL48fs88vbO1dLslmko8ceg2vVcDTLvT9D29P1SBPa7Otj13ef+8ZMSZvIu+7ryWII276ayaO2rTxLxW4hy9abGGPL752Tw6e928pQ4Cusju1zxTAAq9ZTKpvKAaOz3/Xfo7/z2avaupLb30cxw9",
                "y+NLvTWWozwYA2Y8mkP+vMDskzyJbt28mFUxvC6rqrxfw4i8xbekPGdEGL3tOqi8znBRPcFBA72pPxY6zpMOPUkER73+lMM7AN81vUYjLzrAAUa88q6YvN5ItjwJ8Ac7hpJuu1vdFrz17b882/QmvdDFS71pwXu8B+0CvW0vM73Cukg9bNQTPcxuErsoXwI9PwXduy5VTbxEUYg9RCWgPTxS2DsPcOy8FelPPXnKJzw1V1I8WNsBvbfoV7zbfH08UEzJO6BJkrrbjgU9NTz9vH3Ot7zANUS7B5fvvJ2vbzvAbBo+37iVvKZ2GT1TKxg9a9ypvNESIz16FrS80GyFOqGAObw5+3W8ZJWQO2z5ebz1FIO8lGX3OmNvprvY7va7p42WPN/m0jyf5gW9fRo0vappYz3lzrC7yavUvOYCUzzrNsC8uE2NPG5IETyds0+86izivM3cKD1ztgi8ivpBPYdefzx2SRw9CsoePPIaJ7wp12G9wRQMvUKZODxZPTI9US6xPFki4Tw+bhU9y8dgt0clHDi+kJQ8oSyXO2rzwbymiJe8fb13vJ52d73oDQe+nwIMPOQfAj1rDIy93gxuuzF0bzwKFOS8DHorvNiwQb1pnQ+8evzwOs7Noz0dsQC8ito0vZQXOrx+Qx69vnr4PLbWIj1fx3g8tfidO/Fiv7u/WCm8G8d3PTv+pjwul6c8Dirhu64OpTyJcnq79PXMvGcqNDqD24O8ILqsPLu30DxXGzi9uIfxO/5hYD1A7r08zd7GvMad77yCE0A8NljtPcyHxTuryA69ZuwAPcGklT0rjso8l0WBPbZVCj4Vy8W8aZnrvP2piD15ymi8h663PAPHCz04tsY8L1AkvUkYuLupR/Y8RlVQu6++zru2At28lS4IPMox9DwGKxe9dic2vK13Kr02qN26o3Juu6f1JL2FGja9Ljl1vPJO9bwEP+G84d0GPI0QNT1oywG9oOs9vQSAaD3ofGG8kGoFvcIHNb3tdpY8lu6WvTt8kDxVCTo9",
                "lbtmvOIFo7yuD2C7ODCDO4r6artmzgY7vJNYPIDR1zy6I4S8oqSUvOvtQL3qxaM9ww0gPRrshzoVmRS9Fl5BPCXBhrylW2U7BmqjvL5uV7xB2n68K4O9PMoG7jyo5CC8/nrTPBEzXLxMeKA98skvPX0PAD3zojq9jUU8PHb0QTzsaRa9grluvMkn27zGx9c7qXbivGSnH7tkbKO8HM4bPRRyVDzXd3K91ELsu0UR+DzgZxC8Th2AvGWEhL2fGpG9ioYKvOvHCLzFqKA9QQ0SvbhJ+jvUg4i84DSfu4oxlDz56vi9d+uMvMEiHbsX5AO9UTisupf3ATwf3um8vM7YuygXprw6/qe95XQ4vY+NFb3x7AC9gR2pPVj2OzfzJ6667MX/PHyZuTzmitG8eRbKPOqmQ71LuG69AJ8hvOrE7zxzxn68Mq1TO8nrC71AUic9UylROm2XTDs9lu89SliZO9ECWLwWUBO8rbWCvKpQwzodnrq8zks3PN6ZfTybV+69BFsivZjZzrxwbTi9Hu2UPMZpU7zN4R68OzdgPK+guDuHONq8N3zBvc4l9Dz/Iqe8WbHovEWhOT18iwa8cQzCPEk6BL3DOHa8Yt0dPYczJT1oMhy93A7FPKHB1jti9qE8HqYzPWfmkDzSyUA8URQVPrT2ZDz83hy9AQAlvRiGHT3cTss8X9tgPfF6ZD0b+We7kioBPd9RejzefFw9I9UWvS8y7TwLR687436wPLooFbw4oN08Y9e0vFvNCTwUlVS6tCa/PYrzBLwVQDi83FENvWs5g7s9UHE8S52gPQYCNbtApck89ifFPTUpnDy4S5i7Wn66vZL6tL19FRK9XDK1vVeFdzuaQm+9dk4kvUNhAj0Npzo97E2hveUemjx7duG8kvj4OrHGi7sQQ0Q+ynBUPJPUkTxS3rK9n0EAvfTTQbyxyKm9jBAxvGxdfL0Al9M8HfPyPA3VNDyyS5K8yTZwPfqHEj01E+271bfBvIXUJT1puUU8acMAPZQjNzyTYu88",
                "54NfPaqkjbtPcnC9Km62PL7atLwIg0K+lhFtO3QPNr0mUiS9mpKNvBFdPDzTpdK8UWS2vIOigTzIRPg8rmA5PDL2Uz5y9j29sUARPb+Cpruqpq08vn1IvRzIGLxc3EG8oDiWPDelMry4/xg9C9GJvZTPsTzgAJO815KoO1t/ybtK/KK8lNsFvYDEyrvBr7I8Is7dvNKvFT30gwC9tAFTu/iBB7073wg92akMvMeJ5jkQLyK9HVcBPQfDX7zQLOO6zZg/vOuUizwTx9c7AotlvKsTF73XQ549/L8FvfCJND3PxAw9jwFNPZ/XZDyMY9a78bCEvOGgEbxqDos9tZdWPDkhtbu+X6S7tUSjvKtRErxgGii8dSwLvYhMHr6Hy9y86GjVPBtKiDznfwQ9YJBnPEzgujvA6jk9fGsevHfikTy/UTY9qKC3PNSDpDq30RC81scsu+xjMj13txI8ZViNO5LXm70Rigg8t6IHPV47oL0Uyq06fm+UPBvWcTyO2sU88C1APX4geLz/pCe75o1kPHq8W7yQi8Q8us0fvdSa0rw323c7oNcbveApObxDPRK8deTquxYesbzo1J88H2MUPcdlOT1NDJw7Vf0wPGHZAb1TfJw5hGHkPCIYuTxXLqQ8o0H+vDQmejxaQMk8GzPWvK4PVr3Qq/I8SCSuvHIMazutNrK8isZYPSY3OjvQ+GM7cRmavAcBnL38kqU7lb+cPR227DwKjQe8tSq4vDatmrmYZW49AmhJPJ5NwrwDuJq8Z57YPEM70jxXeVm+JKzGvD3wJrxrZYw877k7vEIOtTzKirW7LxiJPJQw/ryuMw28YLKhPM0Ig7wYfxi8pPgqPFiHbjwa1dC74k+uPPesMr34ZVK7CBubvOv/8Dwv2b68raPauz94Db2Kyri6XS86vZyZeT0nXpQ8LzLLPCoFBT3bCPw9bX2bPFMeKj2/nYO94/JovP81jrvHCr88WbYwvVcdBr3/Wm097mq2vL4IdzyMdiC8GAanPKm1zrtoJlO8",
                "QjvNPLkASDy4jBo7Zs27u2nMGjzO94k4kMnlPEJUAL3Yn8o8pn4SPSzw0bxoA54+aXulu4aJ1LkX7zO9nKyTPH67kbwYeju7hL/1vNUvCr19eHA6zpiYPGzUdrs1jZE9VGm3PKps6LtSyBG8lV8hPEqJODyra288EYHZO2T5t7uM6BW8Antbu355xzz09ya9osK8vErKIL1r/NG8WFRTPJXoPb348R69axcPPRU8z7yTu6k8P8G2OuJtsrx0eoy8FI3IPOC5nDxh4O+7cY+wPEWAWLzCxvE7CmuBvDB/pjyBR7C8MqFTPVfLxLyMsvy8sZjzvHovybr29eU85QEFvRH+LDwAnUI8OhaivIDHjzsLEJW7t5+sPF+jkDyDiwU91AGmvLxgArwiyz488uNEvA1Zhrsj3KU8wxKCvI7POr2o1Vw7bvhHPF4bgz2Y6EK8BYvBulBKjzyAfSA95mTou7hlNj09KDu87U5yPdoWY7x6PzU9/45sPQTupzzLPk6+oO5DPT1qAbs4isW9GQEKvce787zwlXS9CJ1qvasZpr21tGA85BMYPDjJbrzNEpO81UmHvC/kFjrq8mq9uO0QPfWHjT2CrSU8wCODPUDNsr3pI2y7NeGpPcZCVj0SB1k8OL6NPLZLqz1IPNc7HYvZu84ZfT2YOyC885k3PsiOcLpJ+bo9J4GYvYew4rz44dc8mmj+PDApIj3CaAo8xsyGPb2QbzySH9S9fTyLOzFrVr1aGUw8U/tFPMi/8j18N5O8dE8GPnM58jyeTnY7nVNRvQlw3j0RIIU6+MylO8CK/7zd7uG6EkiMPFuUS7toTpU9ijrPPDq/gzxERgS8AvdcPMcwej01XKu8RzUePfqk7z21iEw8HF+7PX37ST2lbFe9yPnjPWU04Tz/cw+85vfUvDJYj739Q7s5m9mUvHRGMrx93a+8/8IavTfsgzuy2e68xvsjPHz7qTs3t2q9+fA0vTl4VrpqQAE8VAQEPUetQTxhFGE7TIcGOzGMnT1romE8",
                "koybPB9VYLzISiM9PcnmPMopDj3RxA+8h3Y/vYbHEj1mGS696hSWPOl/Z7zwhJa8Akt+vTZ9jT18fDO9kHTdPHf7Yb2LRso8IPTWvH3kAz2Krlw8r1upO8wFgz16VJ+8M2wIvVjZtj2MUYu9qZkdvdJ82bnCMw09xRoSvRPPwTvdUJ68Y66TvEbeCzzc7pw72qeKvWBclDwlFgU9RPPSPDYUD71FcJW8fMKYPEOhjTxR1Ri/8mCCPHTmhDzkDLS88EsWPCQnDrwev1G7O6wIPY9vIDzl6mk9ChKSPd/oGb11faC9zR8avTI7M71xbdg8xX02vHEzW7zAlzM9ieHqPGnW1z3RkmC8xjmWvIN9frsj5rS8335sPQLxF71vW6g9XShHvczlFr0VG5065Eb6u4g/yLx6AA69mz5WuvkGJr2tE/g84nF6vN/J1LvozrS9xxVfvE5FGbxAhKs7aVNQvNMfvzwCJIi8wvtDOY7k/DwyoY68aUBYvO8PwL2yzBe8dJpIuszqd7ygFJS8prvcvJ0RGz2gMAC8WvUMPd0f27sOcSM8i5+DPQj4vTz7GxY8YdYXu8FZpjcQH/+8GNeDvTAdEjuQKjk7nM+AvT7RMb2HvkG7wykkO4qMajwNmL48c6tMu76Vi72/xuq8NXGHOgZq4rw1wNA8wn3VvHNiAj29WgO9z2FbPed57jts4dM8nX0XPUJJizwBdra8SEADPfsjhry4V6I8o+R3vLbmATx70S+9h4WyvBnK0LyvhyY82YOZvKG7iDz5ZSm9P2S0PdyhVzwdgIq8hIZPu4/qAL26iQa8wjPLPSEjbbwPhzI9cdmKvIQCm7yVdRy9wWePPBofB70wQBA9AbOpPLZPNL0FHtS7NxvRvDM1wjxW8I48doltvKg/GL25ijc8SgcbPNn69rw+yp+7NzSGO4LmVb38JCA9aCBJPejYoLxbBc48ExLDPMUvrD3qo0E+FE6Bu9QkQT2C/T+933mNPM+MCbwx1IW8HC8BvY7fgD3+rIO9",
                "2C0pPDg82LwvYHS8xe+au7iq67oz4+k8WGOJPfoN8DxbwZc82c0tvbykrjscB3K7Oi0zPagWbT39xic9Pt6BPfGbJjyDCRs9J23tPM/lVD1Xxjg8pY9BPcZcyDy+jRI97355PIdQ8jxA1ds7E6CgPScqgzy/rVk952wUvYvqdjw5tRE9q0dave959TqyQuI93/c6PKE0lDyD3XQ6PySVPPag5r2DaVk9JcK7uuZqwTyv8W+7w2vcuof6Cb1xrP88e4UAvGsZwTyWeM68zbuUPFt/l73t0828U9p2PFElRzwLYOm8IyYxPVvowjvLhEY95lO9uuQpOD2T0ke7ZI6PvJ0HnzyHbxi8iI6gPCViLzrK7FK9yDhwvXWtJr2XZ4u8kyn5PRSlZr0KPpa8J8b6PRelA728HMa8tt6kPeNlabt9ikq9U1bqvGviGbySiLw8geuQOYI10zygSRO9nGGmPC0xvzxadRY8FdcmvAbdmryb67G85Vm9uwJZH7yM0cA7OXKZPd1KnL2nR8O89cINvCw5Q71CzG48f8xRvN3rC7yaSLO9z3ivvGTuybwxyaY6+GcUvW85Nrtw+j681NCCPBlUSb1/ycG75ShJOp6E27ySC5w9/soTvc7eMLyOVGI9xEwOu7kDYzwxrMK4Jg0aOTzmaLto9E+9WT4GvNsDArz4SoM8ruiJO6SKxTw2DBa8jQx/PTTZmL10bqG+Tby8O467MrsFegi9BlwjvSGXXj2oiKU8+Dj2vHqVmD24glU91UYUPZZVQT36LF49IYBavOKgjr3x5J08HNjnvKiX/z0p5vW8tkeKPZmYz7zi7QK9z2FHPY+XUT1u1uY8hl9QvaqEUT7Y8em71RF0u2ZAc7u9kgm9r42FPc6Tibwn2iY+/+MYvXcrIL0i5oA93oxlPBFTpLzDiGC9CMvGvP9eKj1SYri8vgFUvep2xDzqmUO8go4pPRdDCzwHnDG9JTTIPO1vLL0NFc49+ItKPX+QHL2jfSU93hcqvTVqK73gqoA8",
                "H82GvBv7Br1MF5U9TRvsPHD6ITwnuHG8/nkIvMSJfT2cvoO9RSULPXxauT35zqo9kfmDPQoaJb0TF5O9f8IrPeNPYLwv/g08cFynuquMfby53hk9IWE+PNR01LuazZ08upYjvdeK27z+8Yg8LCYyvM2e7D1t1+O8ed4AvijX+Ts++Je8mONHPSB++bv0zZi9Z+GIPHFVNLzwE0E9Xw2hPampUT0C3nM9wT3WutVR0D37Acs8MyYuve2x1bvL68K8iDC1vCOG77tMmqG9opeXPMpOKL2hOkK95PotOygchL0l2bu81ZStPPRTa72j9wY+nHlwvTzUbT0JGBO9Y9dIvCqnq7zPyA69CjaYPLuogbwhGmg7hcMkPaX7+boOAak9gS+IvNg/ZLzqASk9d8R/vGVSAL2Czcu8N7aOu0XnVDtXlpY8pGDtu4QQCT3fTDC/iVzZOwX5Fr3OfR08l/CCvWYuJbyon+y7gk1zPFmZvrxRB0U9woa6vJii6r21LXC989cfO5QZNDz9hD+8QICfPJxDq7xSwi89Zq68PX/ihTyV9wG7YTxZPZIRmjxb7hU8WigEO3ty3ryen947TdkqvVRxaD3SZ508K5m9O5omIjpmrus8bru0vTbJ0LwPiZO9ejNdPMOeozzCeTI96eIhvF2a9bsUlEy8EE0PPSdbwjs6UQG9tzCHPOQIDr0yuJE8Ve8uvTwxFzztFkS8bBI7vZN50Lyt8Cm8MQygvGp/M73DMxo99pLRu9jZHT3s0Vo9P3UZPG2qRT10zqs94VeWvBfZrjukD7w8fF4xvWp+Ijyb0zU8vEUHPVZQyjwBtlC7X1fUPMLaybtgufY9U+lPPW+OBr0oeCo8BMAMPaX4Xj5XAHc8aVG9OrifnTs/g6I9dAQKvVbAl7yEPco7tAA0vMC5fDwpnhU9zpmKPNqk2DuDSpK8krZfvXnvgb2LYhC8eIXkPGlBxDy8hzA97uyAPfW3vjugIyq8gfQwPcpO1Dy3t1u9JChUvGUZ4DwMBd+4",
                "BDZZvXsvpL0TH188biEMvC4jVL0OIwW5i2bZOprCqbx89SU9m/sBvVpw+7yOLNI8ka6AvayZUr1Ly0Q9Kz99O7TjDr38+KK7rRiRvLW/f7z+gLa7rAxwvWOzPr3uPRQ84GwdPfKctzrXgbu8xIMnPHGi77vc30E8eYLIPAtgvjw6ILG+lC+YvFb8XTt1T+48G9PdPDV3ib3hsZo86x56PcO1Drz/K5W8TalOvTzpyTzLxFC9BQ5WvVLr5zpGPBc95Nz+u6i6lLt1upW8UYVvvLfH8TyFecG7nxI6vYRM0bzvFCS8tc7yu2LsC702mw08zit1vW0vr7w0pHm93a5BPKMLOj0FXsm8rsSfPNrwqzzAuAM8r2/fPPVrR72rIwE9sHZ4u92vNTwIcrI8L9/APHu0EjyvhQQ8sczKPGr8lTw+7ey8wb7TvPhsrDyzxUk8J6mCPci0OTyaMl68e8+1vI0PbLzMii+9MJLAvP3MPj29VhS8ldZdPZ5CarzUFvm7XJIhvWL8EbsQVFA9vf4zvUt3L7wuu2U+jFCAvcuOiToyCsc8kPHmPCvDVLr7jTg8CYTDPHCS8jzBOIQ8F0Slva8hWDwnurQ89wDXu/RwCD323Xk95Qenu+D6Ujx6C6M7Ku8HPTUlKj0SlYi8o77VvGF/Y70F9/E8LVCruyWa5TywPxM9DCzIOyH8crwYB908HKZvvBErVroHuz47x3qSvJRmbbzw75C6e9Hmu0pISDxDhYS8JeN/u8WAjLxab8u7/sliPMwPN714IpG9FiqgOwnsBD0FIcu8STHtvE5K6zsBn/c9fOU0PCqbADxPr5A9B2wtvBqPmLsIP4O8ss5GPL4uHzsjxxM99n2kO+K5BL0+JLo8yC9cPfsehb1NoAo8Pvp8PahD+7y0z0m9cP82PJASAz3DEiG+jQZVPSp7A7xzH4a9ZWGlN0y+7jzynRA9M8M4vcckB71HTJ08LEX9uiGYCDvDHa08GoywvXxRdrx0PdE8Jt2vPI+neLxU1kW9",
                "9GCfvbeCoTxkB2682Z29O7nFGD15q1w77D+3uoxfajt9gyW7ehsqvJdwTzu7NmM8/yGcvGJoJD2alU09XVsEvLf/iLxyBza845aru60Jiz0iUfq8br3Ru2C0sDzbfyy92/szPjxyPDw30co8xTaDPTfyrD1l1TK9YaLyvGMOeryzdZ09rQUdvTWejD34q9887Dt+PCQHEb1qUyo7kucXPEbiwT10iwS9dr8jPd4H0j1ykyE7Lw0VvTaEV70MGzG8hUv/vJ5RpL1yaEK8H27qutSOFj2iPXs+9u0yvWe4sDv57GC7hgjMvBq657xcRxi9sviavR0LqDy13wE9wRCjvNcKKT0oq5g8ZfTRuPQGlzwG6ka8WHYivQx7gLsLOCs6Bh+MvOvvkT2K6hM9cD2hu0OUwbxpL+o89ciRPRGRUD0qk5298a8APo8s071V1zE90e0dPfgsx7zH+GU9TiyTPKqS+jx8Plk92pOSPCaAAD2tv9I9V8NePd2udLybQRe9VuvQO3igRj34SKq9rYZEOySgwLzoJJs91nusvZB2er1ff3O9yNEVPZXv7z0Ra9y87bK7PGMmBD3oHH29Krm4PEylLb0+2cW74aNTvLe/AL3UMP08geWDvO904zxXf2y9b8hHPEYYo7if6m2/5j4xO+hVjrt1Jtm8sDqEPETrgryA6bI8zoD6vObgMr0993I948Gjvb20BD3kvTC95IQUPV03BjzOUNa83pxlOw/6Cr0yuJO90JESPUG/mLym93m8/eg3vfDn0LzE3Sc9atAXPZKiCL2nSp28NnbIvIoQ37zPhuI8F6mTPGXjdrs1fja8UKMIvbc8urySevG8kKB7vXZ3oDxJNw+7wpqoPITcc70zNg485Hc9vdWgPDzEO5+9TSpbu2AK6Tx4LRK8nqUjPbVxN72YXDk9LAKfvSJyELzGZy28dU48vQZdiTrAkgg8rfqLvEtqhLrkLJY6xqc5vOJF0byg3Iu9KJtzvYFh6ryuMwq8WjoePToyk7kM8z09",
                "/q/Fuq2M4bsZVqu8UvrtvEBIobwZRGw9c8BcvPjykz31Ans9cm6zvN5qHzy0DIk81CbevLPu0DxzAPi8LxJ1u9FIJT1Sr8Y8O95oPOpyljwmd747RAeGPBX2Db2d5z684vfBuiNlWz11ZJW6xX8xvWlcqbvXOQk8KUEiPO75ujxsJlo9t1LqvK/ZvzoYkZy8OqJPvGxeaDwD/p+8t1KovZp2W7zz0Sa6wSJKPJ+anDz2RUe8FrZLvVvs5ryaXKC8nzZcPPcx9jz7/tC8ngumuxbwQD1zj4q83JPAvdVgOb2JYKK8Qy13PFUjbTzl3mc9u8MQPTtlnjxg7S87k3giPXfLujwySRQ8nQOUvYICAz1HiA47GxiFvUjbnD38Mwa+u8TrPNQw5j3vRa696S7bPNLa8DuOukq9H7KyPLTAJb2SIli9IvbivODpcj1dmjm8NyByPFvBJrsbPhu85labvJa6orzBgPa61d0HPhu8o72HtlA8o1fVvEqnzLx7pB88lgtFPXKJiLzJERS9aaLEvGbrmDyLWUY9gSpOPHcoBL0lEc88eEn3O9kPh7wjSu08MD5KvKES1jvIHiE99LLLO2z07rtjaJ+9K9stPH164DxBpli9ni+FvRZIBj1HF4k90haTPWNinjwUy+a7GkuhvDfU7bxzB5+8nf1OPeiGhjw3Mmo8vR4fPbBb3jwa1iu8NmdYveAcGT0uiDu9UTsFPdJ5bL35IhK9t0GUvAXEqzxXZqU8KQ6ovOugAL1vHT29tYaEvD0rkT1BgJU95YWkvBSX3DuEIIQ8INQiPRZEKD1VHUi84zi/venSFD6zSF48HkjdOzuErL0Q1Sq9YTSnO8sHo7yN6Qc9CdNNPQe3Iz0vkiy92soKPNFOpj0RoX+9vS7zPPtf+DxrbNU77fwRPb2DAD1kEY+9skCJPK76bD36j3Y8Rs3gPH4QuDxO5LU7Z0h4vSfnrj3LW+m8GbTAvJLNe70AyFA8XqK0vftMrjzJKUg8JLjovLNpXjw87sC8",
                "xEJUPSrmJjyEqTQ76P06PShyTDxD8w89er4BPB07GDy6EpS80mQbO5hNJj2v9l89dc4SvSg2a7vUhoM7X6N+PaQeO71CzhM8m+tHvY5SgbzM9bm+pz8rPboH/ry9+A+97Z7UO7IIGz05hxi8rldCvCOU7byb1+g8cHwdvKGKFD0CHpm7ZImMPb29vzyUl06977aUPdtdsDx08yW9OW4gPXxRQrses7Y8VUArvEA9NLwJTSU91NMQvQS/ar1G0BQ8/d21PMD7izyJFSq8etsSvdHULbyNl/I8RRLcu65jHT1HMwu8rbqEPXWIEz3oZVQ8ugFzO2Jshr17FVA9Zsv1vCVJ9jzfhDQ8VOMmPD74Dj0ZNAe9blrsPFaymTwsURi9mExIPCV6MbzVjoi8j9/7PS1YUjncmx28CTcPvO/zC7w49Eg8yshYPb5Tmzyy/w29CZ9TvDTMfzwM8uC8L3cxvZMi8TwWynk8aSkTPb6nhjxOQme81LrPvTtvkj2f/KS8yBL6PNt1kbr0U7s9IOzEPO96cjxiN+Y85AdeveWKGrwkzsU8RlUxPdOIF71RHEu8dtv5PGbuabxJ5IA7AilaPQ45V73tiRA9xJqeu5Kg4Lyltlw8I5QcPC+Coz0duza7g8uZPY8MirwQwWs9uuMGPaNgLDw12iS9Cx/CPG4M7zzRRw49EXClvQwaxjz04Kk8kPI7vWyBhr1RHpi8YoLiPBjSLz2X6LA9BqCSPN8Lcr0INC09vcvXvP4rAT1Fv5M9US42vbPpUb0FCPi7ItehvDg0GDyrEvu6NCstvHH5Ob2s3hm8MgtePEexJrzOnZc9OpUvPLcb7TxGFse8xQt2PdtOQT3hLeu+skfuPAsBSDzRo029lQ1NPIIX0DwsjdA8sDKzPLGJrT0z8A88knEEvdcirjycl/A5rqEdPW1iNDrfQNC8mV7aPKt0hL3UNRy7onD4vNYfSbxODZU8eHcsvP4jHrzeIOc9OSibvILynr0u37O81rMlvJDdDb1uai09",
                "OTUyPOapAL0H3IE9x2MgPfS82buVdsw7+JmZOkcsLD3tAx09RQhGPQt8Bz1yMtA99Y84PUfPHzo5+NK8xpAyvaiO7TtgPrM8wIhavHDRdbzkxJQ9tqYSvA1+J71lJTc8cnMrvfSTLT1mTTc9+XZUPSRSRr3sU8S9SARlPX4azj0eMsa8guSnPCCxpTpuXM89aT0JPQnehr32xHe9mmcsvQafgbxhd347Ux8hvd3PF7sapai9UxS5uuQatD2isSm9AOo8vdwvhr1iB6O8VkdKPVk6Rb2fJB08SAmLPPWyEj2C0ws96QUAPcw+3jwEBDW9q7BZvGU+cbwDiBC9PrZJvcCCM73Cfxi9qjc+vA6cPr2Cgh09YORmPYBLP7seuoO7/O0ZPdo2Dr20CC29y/2XPD4DHj2WLAk9ljYbPfUZoTyRYJU9Q++AvNS9hT2Dp0O8VhdaPc4Izz2ZVQw9rYZ3vPpFE71dWeG8rtfJvOP4Hb3qdyO8YYTRO2WCDDxuUr68wkyyPJd7Pz2oZTu9U5tyvUe4LLooTB+8al6MPGCcUL3lxVc7hIQluyP5pbvNEjO9gS/TPDbRLL0mjzG/snoCvRzH3rkr4CG8o44JvaAfgzyjpsW8XU22PMFcij3SE2E81ThtPSOoMTwWxza8XtcFvlnvUbyPNeW9V2HJPAhihDtdxFe979itPbVMoryjMm28CKsBPRudfzy0H047+BIKPf9+Pb1lbQu8brzyuzuSJ7xnwdE9I40rPQq417ylhgA9zVrWvMSbD71xVui7NQMDPXdKijzphRm8L6otPI29LT2HWFe9qzfqPFQzsTw/55681Vq8PClvxz2CTkc88eMMPXaXV7sKtec7jSSOPbxcBD27VsW89K+YPLQpcDvSfxU9ZgSzPfJjdTx3xni9+L70vMie0LqFcGY90UVQPGPTHj11JdG7N+y6OxRkEj2ug+C8mZW4OipHBbx5WTm9he0PvUgkWr3u8IO8JW2GvX93ozzIT947VgSAPTHgcTygm1W7",
                "+Eg+ufrbeTw3mBG6c0o2PRs4jT0oZrM7N+fCPNQjgrwVNE09s+scvIAspTwujiY9EdyEPXFcX7wJ6BG9kYwDPOHS2rwVYho9cyw5PYfPJLyR/Rq9RS2dvb83NjzKcGm9AWBXPJ3pKT01auI7wMONvBC9Hz3aDhY9qFEIPTxeRj0DPxK8gw24Ozl/gL1k68M8FOyxu7lNa7xyooS8UJEiOyzsjj3L9zI9p27Nu9EBR73pDnc9/YQUPA8yzj0ESY09sDMbvBWgmD2vdjC9j+QUvBaFCr0C1zM8z1t9vUZLpLxMaow9xaY+vNJBJT00e9G+hj0cPL5MCLxjEjk9s79yOOMmCb2yx+E8+tiXO7XZlbgvGIC8AdvBvH3qTz1gBP+8cw5QPF7kwzvEAFI89DnXPDV2VryEdas8bNXhPBaI87prv6e9v8fHOiIDIbtpUGU8S+yau3/cozybm8+8VJRQvJ0ocb1rZ3a8inObvM6/LL2nx987oK6MvfFg1TzxrWY8AsWtPPlG57vlFw69kdioPCQZQTvk/dq8UxeavAEsvTxVOni9hm0KPShb6rwuSDI9DvlzPHdXCr222p282vZdPNYfxjtqE+E8NvmVPD9wBLq/zd+8BVGvO7dhVTx5Jhq91O6SPQOkBzyheJe8EoXCO33HeD2JnxW9b43JvCiUbjx8wgm8lKSYOomNO7yBop29y3jiPCVGnbyNQem8247bvIbYSb3goQI9smYcvKspkLu+B0A8YHEPPMY1QL1z14A86oX/Oy/LST1FhEq7paCjPGftzj3cuP09QWIMPHFxjT2Ugxm8xnG5uixtFry5ErM8whMAvY4m9ryDQvY8ZlMxPP2xSDx+JXM9vlgxvaaAWr0Cofa71kutPM/ONrzwgM08u0HfvCq7RD1CmGY9YbePvK/tYTpghyW7uUsMPZmsOju2SIA8yCCEPJdSHr1v5DC88ilSvbJqCb3Lez08UhUevR0Smz3GkjQ9e7tjPL/RE71heJG94c3nu4foUL0ROYW9",
                "MHw6PeBV1Tsxch88pyGHPYKsFzytP8y7u/xKPQdYqDwhUgu+rKJfvceiYz2Esry71NMivedqvbvLi/U4s6rHO5u1e7wU84K9OkwEPYOFhT0hOIE8Lt6LvOiPDTymdsS8wOICPK1YZr3+LPQ8JdwMPNbxzLzOMQa93J5OPDnnjLxXj6c7RdQuPb3bTL1/0By8hFJJPDxNVTwilRk9Cp+rvC8ri7xCPRq9jfJQuvJvC72yLos7dcCJvOrKE7z55vc87c9ZvNns1bxvSgC8dTQ6vZ2oDD1itFc8fvMfPGlZFruJ1JO9m3YVPYnoxzsB1cM8ZCi0PFrcJj1HuO08CSi+O/8lXTxKe9w8vrpGvXcLir2Oj1y9hUlWvYLSOz0+7ZE8tnI+PfTD0z13cUa9LXToOxtpK72xsvY8IRuPO0TUxjzjNVG8RuijvMr2HL1lpAo9ygIXvSkyhDty/Tg8GrqiPPpG67qIusI8/i/ju7xv7zyzpwS9p6BJvV4xSz2aBzm8D9kTvH8xjLuqmOw74Q9vuzitl7wO78W8IfR2PZNB6Tx9RIg9VdLovN59E72CZHQ88F7QvPj47ry7OC+934itvKKt5bzEo8Y7cHofvUBpGrzKNqe8qYOlvDJvCz1k0+E7sFqUPG4TjbzFGHm8ntzVPGZzFDys+Yu8tiFOvZJdAz1wWn+8b6j3vIBz3bzzsdC8RvvePROCdLt9qsq8+iFPuxFXmr1YoAi9UUpAva3zNDu4Bg+9krP7POCTB7xishu9a3HUvAHsF73Fu4s8YhEkPULd3jx1JNW9FgQIPBg+0DxDAI29xlnSvNvC4bwuvRY8Cpw2PQ41XD3CsOa8KvPsOzQBTDthsoI88PawPcSuNTzUDJo8kP0QPU2KLD1Yegm7aEyTPTm2gzsE3hg9EQMwvWoxgby1YyA+B1cQPPc+tDzOClI8d8fAOuMDnjv3kB+9sexYPOHEAz1E83O9Sbcxu5WP3ToTX4U8DFr/PNnJaL0A1bo9N6NvPAMtgLwcLfq6",
