{
    "input_shape": [
        80
    ],
    "hidden_layers": [
        {
            "shape": [
                140,
                81
            ],
            "weights": [
                "Wb3IPBkRZb3gSwY+E+xAPWhWvrwRGYc9H4wUPYHEujx0wws9PINnPTytCz0Dw8u8wB5OvHkibbw9CpK8uDNAPMFnybt3UUm8Tv8VvbMAEjzASOE7JS4IPdvWPr3w6cQ82iq6PU/owjweSzg9bavZO6OG07zh6yE9DPtcvCvYTT03g0u88d2IPLmVs7x76cG8TsLuvL3wAz5bhBQ9oMmbO97nCb0JJ8g8/m3/O6KlwbzBMcM7IIePvOzLpDwNPxC83p5Lvujdz7w3Dji9R9SCuyoCMr2liQy8e8zNvF0HQ736ArA8T8rCvKhuwLtav5G7lddTPNkvpzycsDW7BPnEPEOfbjz3Lbs7YpwqPcy1gTs66ZY8rxUWvRuPF7zSuY287SmJvG9xUbwQb4o9hP4YvD7T7zv74Oq7262MvBXY7DxZyxm+8P8jPvE+Eb2cF7e9CD+CvrETBj7H5C2+Ehz4unm1vz0Hxvg8RD8cPLMsjz3QHO68bAOjOl43CT12gvw9AboSPYDAuTtvR0g9g3mtvepAS77GN1w8ZuU2u20JNDzE/Yu92swrPL/tfLwRDgI9Q6itPIh38TxW3WO9H3EfvMFQpjzJFT87NGEIPdrhgbzVL5a8J50HvPuqTT3QKtw7HkEXvEYeFD09iFA8BP7vvZM3PbzNkfC8a2IUPfWf3DuqZs28sbwyPEAooLvz0Fa743KgvEw54bzw/q85uJSWvEshdrw5F5W8M52SPHo5ursdFiU8f1C2OtZX3zsdZQW8L/aFO/cgw7uS+3o6+Oy4O9bhDDwsdg07p1bhPBAYeTwvFf88er7TOF61tjw9O4U8tHu/un7QPb05IzG9NDnfO3/xUbt2YFM8b6mUOabEkbyHaPM9BpOXvOh8fr01xsE7MmFnPZf4jz2xt6y9dvsmPWkFSbq1pA48uUhdPP17u72gFQS8r5mbu585oDzi8Bk9qLjhvMhsST6e3yo9i9umvGhHhrznoh29I7qdvdTdsTwZTK48GBlgPCQ/kzxU8vq8",
                "13DAvTIoST1Mwzg9jirEvHv8hDo4sVO7NUKPu35Hjbw8i9i802IHPVdjf7t4DHs94Xd4vBMto7xYa9Y8hKo2vc6xo7vZSUM9jRn4PFq4rroBTDy93OCEvHbRKL3Iufs8A4KrPAO31L1CIyU8XMmJPFlYlTuVabe8qmJKPS666juQCo67jFBgPPeByzvJ6Dw8EHTkvAbFFT32MpU7ntGVu3DRpbyGRuo8fAMXvADEyDxQxpo9CqeuvBtLsTxMaS49ViRtuy1vijtQKNo9rVQDOhSLDjxTk1K9ZHXhvcttI73rl7S90te1vfU8jTuRVSy9xp6kPbW6Fb3GtPW8iK0UvSIsvzvdofA8py/vPGdVnb3U4rW8H6J7vOx5kTquADm+AxVYvcN4lLwVR5c9K55xvVBPhr171gC9MItYvMajHL06z5A8NVrUvLpsDDzXdc+8hYnVPAG+BD1tmok8QQE2vUMKJLxTSzw9eFGxvFCIBT34KXk9sDAPPSfMUru/E1S9X3DUvLp4iLoeohg9N6PNvAJ7KTzdoni8ZQNmvEAxOzwzhy29LRfcPOxfMD0jeoo8HlnePDontrvr/MU8vE2NvKdU0zzALx68Mn1HvE1iOzxX4NA7FyxkO7eOMrr0AZK8uW87PcB247wfiUu8AF9kO20prTsa4w+9RWz/O/Dakj0/tYC8aOD8O0S4nDwV4829VEEGPeWvMD3uaNI+zHorPlzmBT7PoKE+daOFPceEI720Mc49o1q4vWmqpT02vWM7QupavG/HyL1UwkI9TSzfvGCRYbuTgL88gKJWPP6Qc7lLPfo8G0ySPDxQ8busaFK9rtSlvJuykrzrbKe5ly7GPLMm8rwXcbS9KMjivK8TzDsekkw97M3tPC6I9btC2YC8956wO6+Ew7y93RU9+s7WPMbQFL04WRe9WjsNveXVlj2hcvA8RqFzPAhFBrwDXwu9zbUcPX81orvSlVO8d/8IumH1V73Z5va5w966vEfC67x9vSI70j/NvPxcxrupKGE7",
                "ILkavLyvTT3eiVc8ZVtmPMBeq7xS97483aT2Oxva57rQ4ro7+jfJO67TjrwBXUS7SP1zOY2MBTw2w+w8QnMePFwlFL2X8H08MdhzvPm1VTu+IZu9mOyXvUjtT73ypsu9Yb8QvZtbpz225GS98Qc8vF9cp72nlBy8Nv0FPEKvjzx6tke8x0wxvYRCkz0/VvM8SgEwPY2iXb0pDLS8cCMOvBXb2z2G5Os95kbGvV6rGD2XM7m8sEWxPNWNZjzdFmk91y+qPPPU4Dzzr0s8PUMuPcLnMztpEdU8bwumPIbonLtVvKC7Lawtvc41Ib3YB1c8+UwuvbE2lTwIRus8WIglPBV9pjwrVAk8ppX4OxkMYr1lPSq7Ft+quUNnwDzYwm+9k/xGvUVgZry9PBo9tEh+PFW9fTzHsDA98O6UPELJkzwZowc9qQuwvHQdwbxjSOQ8CLQcvHBlSTsRtZG9zeEqPYvURjpS7h26/YyiOhAGb7zCrD29BcaDPPqGkrwGIb88dvZiPGIHTrxiIgA8V21nPAo1Fjy3YBi+1zIfPB1CgTqe8Li+ceCKO6jcgLy+Vxq+KS7WOylON7zxG968wLL3vFwE37ykY6o6nQ81uwvXHDtRVVE8JkUsOxPY8rqWiya7yL8PvNUPtjvesZk7rZSUu0Oh5zmbhOq8VAaAPr5epjuCCti7lRB7u3dRTTt9YqY96EuGOjMCJTuAsFm75VS7O4xlRrvNii+73Z7UN8B6bDzOAqy7y+b3OhHtiTxUbIi90NKuO9r5/rts8YI7VIG0u15+grvyuS6+/i5Vuu3K3bkD1dC5xG1POkJxSLvN8CI5/gQHO3b2wT3bXMi6eEnEOlsTgbvEzuK57o2eOp3kzjpywTS7eJhDO7C1srvs35C6hQ4suuNVYrvatpq7m46ZvF6iVDtgR1W4LKmNO3GNlDoeu4e8H3Hytqa4pbvTYx86mw9+OuwpDDr0yoQ/2rYFvpD+Hr49IWo9ZmDNvYWZ9D1mnVI8a6p4vQVaKb6OXwk8",
                "f2OXPQ7PD73FYZW7HJqFvZm+ZT3Af/M8PI2+PWmBxTzFZTc9lHxWvQDEaT4TQlu9+p+ePJZ1u7ra++27NseVvLBpIz0C+sm7gNGgvClCzTzFf+c8Eu+RPO2qCL3kW4I9mBsMvO6wtrtdJbI7qMtBPI1Zpjw6c5m8LbUNPfU3ZDwZs0C9WZgDvU83cb2k1BY9Tz4XveIDrrsZQhw92prPPNX4LDwnlK+7mfOBufdT8Lstamu86rttvDA3jTs8Xeq8YoglvDYuGDx9KAe8fBX8O6L4vDtYnus7von5OpcngLzLXF08m5XwvOPgfjzVC7+7vP/UO3C1d7zN7YI7x2U/vJ0MjDyHDUu7UcsdvOei2Dx6S7+8MbjIvA07dbunjtm92WRevs4zmrskJYM8MARivUVeeju8uA87LPPTOlxUAz1frEy7dTuhu2wroLwIMlQ8zF7cPHfRaj0nJlo8lC+VO5WQe7ypqyu9cOpcPcaxBT5zN1K9IMEJPtnvWb3QVDc9jNUfPtZWcDwROtm8wfUbvTm8gr10g1w9HSg5PH2mnzwrBXw7XeHjvHxsvbztHaQ82O5nPH3ELj3/ds28s/gNPKAtlbwcPHq86ItXvOWYh7wQqu+83+yOPO7DyjpVbAK967wvvUZenDp4XsK8IRo5vbIa9jpozDi84g3nPL9c6rzUR3i9dYHeu3G/aztrwLA6FORavNFO4LvlTnw8HnH7O3KkaL2JWkG9izdbPFiobDyh4zy9ZadIvCXoszxtjzK88VhuPEqizjvi6PI8kjrTPDQgg7zVh2C8yXudvB/JobqkgAO+st2nPHM5bz2Gcb09U7ZLvrfJ673q5z49iV9tPgTBMb1U4sA9nIb+veeOS720vRw+rnSQvSmpCb2WFTA5YzeOPf/VuTwV7qS9qVJBvevhjDqfJYG51LYgvOCtnjpzQP86yuoWvUwXxzymsea886xgu3EDabzgQCC9+XDXuxT72DtURTg9UB11PJ5CRD1akui84AlZO5ZAijzkfi08",
                "/XbOvCi5jDzxa8U8VEsIvEkiGr0D8ve8Y1l1vEfqKrvNc/W7QtasPKLPszzXBVW9PixwPJ3gjzxcDBM8d0sjvXd7UzwK2IA7/9Xdu3f37Tkb6qS6+KH3ujL/GbwOnJY84mPqO+SLwbu48BY9Wtt/POBSaTtESNC7bPoEOw/UbDyzXWE7nktZvPp08DlFDsI8kHVzvHZdyLwP8kO62SHBvMxjEL34HYO+HiBvvOsrGT7kiIS+qIntPewpMT3dPq68RcjUvKH02jt1r7S94O/Vvf1Zrz1IXKs8ueb4PAlxs7ykI0y9A7jCPKOW5Dm6AZk9+CBSPQRvCj3rsqg8mmZhPDI7SrywJI08JWnevF8Vizp3my47d0KavO6GS7wQJh691ZovvQUY9Lu/bYM88Guyu+05bDpZ3lE81guousBlGT2x79M7CAaXPBorlz2QRo899oVLPKZZY7z9Fto6hivcup2987w9U9G8NPu6OCLg5jxbI+e8PQIEPBbqdb0S+F68dCcWu7kYib34GQI8Cll+u+YgzTw4Mcg8yGeEPCcKmzm6JYo61K+BvCJ9pTtvyMA7be2gPBRTWbpGTmq7HQfuPDm6yDfaQoO8FB1fvIMdRruQmlA9BKIpPMvEh7tg7Gi8YekBvGaeJjwzwXA+jccNPOkK37qmJ5M9NCgXO6ojG76vtV67zyVBvW5DS72WjSW970ZBvSLrRLxCvi29VcRwPS+0mTyia6A8Fe0IvV27rbtopzU9hjKqPTfYBr7H43c9iXk0PPk8b7tYYoE9W2CSPBsNKz2FlMs9q8mfuyxjyDy4yRa8rHZGvmk3uj1aige8gHdYPAK0CLrTi0i86CBmOudKlr04Bxk8uNW7vBt2Jb3SrS47d0j0vEazjr3p7Qs803LAPEJ2i7mVxV+84P6EPDZn0DqIHr48U7+pu0bQADwP2G49jM7NO/O0y7uImAC8JVW3PFcNkzzLv627Ktp+vNp6k7mKhnm7rJ4Du93DtjzFM7i9tYc2u9Kw+TtrOmO8",
                "0psxO+fv4DtV1MU8W2BNPD5OGLxK/oU3Jvt7vAqk9jp7Gia9BAEMPauI1TwF2zk8rP1UvKAZqzyk0ms9WNNjPYBMCru2Sjc9igucvQisZjyYl4a9sIBPPYTx9DzX4JG7YTxZvGtHXT295j69Vl+hu3R9TbtjSig9Wq42PlJsH71H61y9xFBVvRpAkjvJs/Y8WxCIvTp4mDvC2lQ5PzCOPKE/JbtGoJe9XRojPhuSAT6iPoG9a/xjvZ5dE7rryhS7MskhuTNMSLygLly96ykJvSKxkDzx5Bo9MI4EuyuCiTxQVy88FggBPM64YjuVeKw8ZtKQvMOaHzvCqo08fh6AvGJsnL3YD8O8Ti+8u9aGpb2n95Q8x1Q/vY9Ec7vkbP27Xem/OlceOr0l3YM6y4DGO2yaCT0bW2u8NfrFvH+Jybw+Go28hCHhuvWgID0ss5i8tc1RPVbNJzyQWH09RozTOy7VKjxetJi7tDs4PJHCODwgypA9nrBBPE51pbzOWoq96IGKu+YTFTyIXUg+LbpIOy+Bljvvb2S+b+lJug9JSb7MNqW8SxOcvMxeXTq4RlG7ARe2PTkoyzgrWbO65JgEPNhLYDyW+Q68gfSJvO0yCDyMwkY+GX9tPCJJxrne76s7VgN2umQNTzxk3hu+C04ivASQlLpGzx28Mu1dPLLADzsnCxC7EQaTu54I+jzouka8Ef8PvAqPvT3furc86TkyPAJWfjwgRXK7CQqNukFyLTy3+Iq+Tu4jvf0vK7zT/tu7+DCbOgxsML4h2ZS7JT/cui8CVT2fAqK6ROcTPNw7YrzNKR87iTEJvF+TYjh9nAc78nzQO3ExIDyVgWQ7biMGu3XoXDveS2I7SOhhPEi2f7sL5bu7Loqpu35aXLv7ep09I62MOtNG9zvgiji6aviRvGTNMzy/gNo+7g+bvWaohL0bwLW8LtlNPSB1Sz47LGc+E+eWPe8lsT2BE5i7QRtjvavTVT2jZp48ttqnvR6OJ76G0Ye9FD0CPQQvoDx77Qi8",
                "tGO4vc/c1j56nx89R+8EPJTHzzuBDbO9icqtuzQXfjyx8Ig9JWZBvGX3Pj3YyB+9rSwjvhlk7T0BEnI8DabNvB0IkjzUYx+80oVdOwHZxDwqXZO73vIuvfpAZD15aKA8v69HvS22qL21xQo9BIXOvdpPGrzEZqW8d8pNPIr2pbokKPi7LIFYu3Jd9bys9vU6Qgdrua5rjbxCqAE9y0glPWJnsbnsnlK8A7/EvF+Anbz/hSS6RdzMuzMSdbvUgKg8tQaGu8ctXLyCELy76Xk5PY2ybjz/FKS9h2nGvFGB7zx3p948ee4PvJEPUzzZHf+8/SsyvQlzdDwkgUy+FZgkPuOgBz7qdBC96KU0vWd2cz5V3Eu9DAANPY7Ju736PR68TMYzPUFZfr3nt7o7mrFuvbax+r0Ci6q8hlwcvSFwZL3dvFY8tQpTvfcSwb1V+q871AMFPNY7z7x/qqY9YzKBO3KIZbwFXVk9gCt0PAX4pTt6qjo8/wP1PLDleL0y5uS8uKZNOzOs0by9a2C87MGjOi0MFL3KgNE7DxqvvJjdnLzpoYg82c3dvcV/RL2iLru8GqU5PAhUIryQLg28kW8tvVTEeTuV7lC6oUgevPHYOLvNZ9+8q6S+vEjfwjrZ/y+9QLYHvI1iLDwB8ia9K+knuudARryKhEm8qYmcPODYGzxtdQy97DTCu88H5zsbU6q7IGjCvBKekzy8Z6c8FffMO4KCATzhGdi8KtsGvdmGMDwtfEq9gQPjOAdiLjsUQzC+rJuOvEPMDj5Nbg6+7DVHPtazdbyqS6W9LEoSPGSEMj1ks5w9K9orvZFDBD2qUZc89MUfPQEShD1eagy+CmSCvMMLUrzF5fy60p67PkFSI77cFwC8MQPhPFslBzy1sZG9Q6BtPJyLEj29rQg8M8J+vHnRULxmDAG97eeovfqvhjuVszG9Ta2NvR8hmrwUjdU53UaBOuhRqbtrxcC8iO+7vIiOCr2DULc8ImpVPSJMbr0JMrQ8H+vkPTZKljxHZYS9",
                "L948vPEie7xCHcK7CTEUPC4akbxc/OW7AK+zPEPOIztN6LY7fajqO7zkPbwOB8q7D14ePHSoZbyMQBs8gelPO/qKoDy6xde7x/BGuo2bd7wg23e8KTcrvKf1A70xxc48gPKgvO6bIzrEEUQ8KsqWvDHJtjzUZrQ76We/PGj8qTzaHnQ9zE0qvaPZLzzIOao9A/0tvb3OUr0UvBI9KUR/vGaZmr0fjfG91ZpUPbURl7zvqc08/NUbvU87/zwbOLa812gVPUSVFb1bNr09QxsUvfl/5LxGpQq8MBQ7PJU4X7swek88nbdYvfXvjL0ksFG9X8qEupkHxDzBy1q9rDC7PHsDgr1MHy29PsNMPKOCKzwIaxu7b8Lou3XqWT1xqdU8hxwAvs0j/TxFNVc9JGcWvThoyrzKhg293PXYPcdKCblQ0h49SoQUvaZUj7wtNJK9cKhYvME9cz3opEK9KvefvG8eA7yW4yc82NCTuWH3nzsL6AQ8VcZQvf6IDr1WN+07oyWMvJ58T7wpu4C88S3QvPtdhLoRbFm8ervxPILpkzxX4qW9D9uXu9A9ZjtrVlS8O3dpu3jzPzy95CW9nsYIvY3KaDwxEru97IvCPSY8Bz5WaT6+/wW9PXgMcj5f1Rs9Xp4dvgB1g71/K649p9oVPb2UUj138P88mW0+PKfW9zzC4gm97o80vQc5pTw6Y0+9/LapPVp+J75H32K9NwRNPba7+To8Hla9ozwdvXiJAr04WlU85r6dPLyHx7yaB8k7t9+IPf/B+7uBkRi9T4PUPG4dDz3Erp+8BLtdu9DuLL2/5bc8qpVXvLqmKr1mBA29ztCaPOj6xjvLoXW8LC4aPXC9/rgirSW8EJu+PLcxETq8xVE8GP3FPCEQgL3o3Oa82Aanu4TtMjwEOx87tceavI36BbuR1VU7xm9kOyAqz7xtYAW87oeGOg/SkDxNe8070F/BOzn4jryew/Q7Zlm/PGmeETxLIQI9sPIvPI/SLbxHnE48c5MfvC/BobtjKiu8",
                "jAv0PI+JnbtAZ4m+iRc4PFL/nDzRGPw9tsEaPWhWFj3ubq49C+D+PCDOBT0YccG8jgG6u7r6KD28CzS9R3dwvVErTz0gT1u8rWR8vI5qLjzF5JA7lU0sPV03mDwssta7lOI4vSdOtjyvLqK9U638vF67eL0cX5M9PJicPPBcjrvlTXO9KhifvP9c0bzy18m7b3RzveWRHzyABSs9Y/SCvHQylz2vFve8kb3RPN3hU7wS/787yRiCPU7Tqjzm65C9zPEEu3gYdLxnxgg9c9POu5y7Njmx/Fa8/vy9u62zCrwGalw8FKSBPbk2TD1tVj69JlFVPdLWfDmAsnY8FZkBPAMZqLwA0Oc7+pUYPDuaZbvURgS8iMESu+TNB7oYTNc8RSEGvW71ED1cDok8rIy+PIk23TyvBF68ZpC0u8vz47zqwnq8ApP+OE8fN72qAUu9aiCkPSe+sbtI95y9vI51PDSPbLxhjcS9mv2du23/wz0lBBS+HUwKPlG3qruQ5pW96/evvWuftTywJcI9CO4KvQvHijzpf6s9kEAhvaGIGL0EVfQ8CusRvdO+pjpusI89vw97vVkQeLxJyp09OXkGPVB7gTyzGgG8eaAMPHOTHD5gOUs74j2aPQtfB7xcbC48TKQuPCazED3InII8lB+UPMtbwj1oiKa9DYFCPREvkDylJSq9T7tvPD9WC7yU1zc9qtK8PNo/ALw0g666TSXfPMNIQz0z3wQ9TdlUPQu2lTwjBVo9nXYnvSbBKbxJIyW8ULaKvVEYdjx4Gd88Cg/8Oa9y7rzOwp27QwFWOmi18Lu1+EE9Jo/FPHneHTx1hkK7BCalO7DorzzPVIe9bOqLPIzjHz2TPts83ENaPVRUWb3zoIi+XtghPmKkBD68rcO8/+epvM3mAD3OPFi9bhAHvaogc72sjIO9eI9aPOZWK7zuLNK8uPuMvWY0UDwWQoW7WyeDPGRIXD1+SBO8M27EPPuuej78vRS8p+Y3Pdm93Dp3sww9Mg6vu+dqbDvzwTs8",
                "ZgN/u+PGvrvu9xM8ewvNPSZvC76BAyo7ajmlOj5SBb0iaMU7vgqCvK04xTqz5wA7eeOLvGvl3TpoKwG9/63UPInfzrujBTA90c7xvKsw2rsKyyA8Z4gYPKSp/DoiDQg9betwPXmZYTwcIti8ptZCvAXukbu4Fgy9Q/9QvDbRXLsZM7Q8aqKIO3YWw7saJa06zMZPuvuhrjs/Dh89gQiSu/wrH7z0TiE9rwrTPBNEzrypTDQ7P/UCO6/MXLzOUcW8U1rTO4RMBDwb9Po77IhMvEWM0Tr7+CE9Qc40PdyX3r0bfQ8+X07tvIr9Oj2X/Uy8iSdEvTrPKLvnwi89PuqUONfChjzvsSM+PnnuvEWQx73ljva8wO29vDobmb0OIeU8J5WDvu1KRz6e60i7Y7btvLBz3zz1snK8G+BEPOr5rDlIk6I8jPHTPLQlBDyfMYk8JU+zPdczpDy2CD09e1Fhvd6KSDznMlu892mpu6w/trwOyAy94e7DPGBS3jpN8BI8qMNwvCNKAzxQ54W9cr/avS9GlDyo30Y8Rq3CPDrVsLyovo08NLrnOzYtLzvciUS8i12BPGUM5juNfHy8rXHYvHGkHbwRmzS72zjWO8z1kbswkNa7MBILPIxB9rrtHlI8jAQEvRTzRzzpupq8kZEjPBIMID1bPgo8PFUnvDVzS7wE4tK7sdeaPPe8djw8I4+8yYBkvFAuybzd/Y+99D5sPYpApr3fXg28oJiHvmvz+r1MXcA8aBKlPZxyAL1p0OO8yZtaPeCLxDy5IfE9a38fvIQYvjz+x6i9khCivSjDKz0GmDi9Eeq5vWqioDyU3T89XSRQvDXMTTxgDEQ9aNGnu0ttmD116Zg7cLSePPVHnTymEtU5+YzcvapFqL2ep9Y74pK5PM3GjbyAFIQ89EAEvGNiiDzzFUS7sWpfvKNhdzy+Sx+8DBSRveIlkD35hB073ColvLZPvzwSQq88kDIgveodlrwt95E7d2tFu0EOATyemR68oDTnOpQdFDx82gi8",
                "Hfc8PW3o6zv1MKE8e6USPFOFRzsJ/Wq8UUZjPHX8Tr3ij+e6XCr1PB7a17yrXd+87eJkO/vKy7yQ46s7EpCJO+ViKzswHoq86tV6uSDWbjx3R5C843H9Ozc4pzwrjkW8XxO5vOCtwT0xQ2S9Dj3gvYpsObxgwHs8MhgovXrNv7xCYom9+Mi7vP+JaDkbfJI9qqG3u9l9lbvNBNE7jJMUvDl18jtWSzw9ndg+vbt0hzz+AAq9BPwrO6q3Hr0pjbM8lCK5PdLbML2AvAe92z40PaiHJ7vGm/87PXjkPVNO2DxrvcW7gmGSvAIdFTxZrgu8Th2wPCDtLDyRJBo9oMoOPf4Vqrw/ozc7vjoEvQsicbwv2Ya90Cp0vb7roTz7xYO9s726O/p3BDm915g9JjANvZ2TJjwZ0M27htOOvK+78bx9Iu47wqiCvXnRJj1N0hm9ErGZvAb8iTtMqmU7N1meO7U1+bypKwK7oKErvJIeHbyGQPc4uLoCvFXsO73FFDU8QvgNPUsKobsEzuY7M0LXvN4T0Tumeg48BtFlvJh5iDxWuga6DI9tuxZt1Dsvp9485TU+PayrN75CGYu9dOOXvX4s0LzU2wK9G2cSPFhwmbwUmoQ98C1svYOu2L13fr06A5NvPRq2YjynrZS8PmsgvlQNYT5vr6i9xEVkPT1MnbzYShu9y2yavESirbz1fO68gZCUuzYUuby2C4I8w/AvPjkGT70fIpK8BagLPXAICD1NTEU7q1c9u0k9YzyHsHq7i73mvH1D0DxpRoK9ndALulBFlj0LrYw8ou2NvZpcirxz5jI9a/FfPV5HcTx2yP07g61gPIEkpTwdG1u8H8A+PBNli7uEyx29I9X0vHLymjtIEwg8jDkJvAKGdDuDRNs7rrHwu9essrwGNRI9AA6PPEprZLydIg28PiAIPRTN1Ty6aGG9u2xRPBsDELwPJCa9y9cMPKgsBryLbEO7NXU1vdqygbxIvAm+KfyrPLOVLz1IMDw9qFEmvnZ3e73Bb389",
                "K8bnPH+Cpz1QgVe9iQMAvbVwPDq0v868/TTWOymZCb1554Y8zzTMO5Retzxp5/a6c/9Fu0owHL0mwaQ9m+Mbvq6OSz0jEfw7ZGkKPpZzPT3L4jY9Hx4rPCLuET3n5BA9nn+APZASZ7wyEes7PkGsvCcI2LvKQD+8vtu8PE3DRzw/AoK4E9eRvDI0NTyAzNW8udswOhh+2LzYbIG8CfklvMFsXrvcVl68tsh2PEEg2btkT0u4Geqnu37dT72VzlA8/hGmPJF9H715SAG9ZNUBPGObhLryUSu8L9RRPEHsbjvJla67hbVjPEdwbjy3OCw8wzuovCnGXzqdxy471vL2PHfkUzvaITy8XJKqvD+9xTxV2FI8Mbk9vPcvCT0x7/g8hWv2u1iWyDrKF4m9PHwpvewGkju3pc89EZX4vAhfAD1WnYM9K+kVvWbS3Dyu28C7xGiqPB0s1z02m7S7EU50vF3wCL4mjj+9tz9zO8ukCzy4YhQ9Aq7Ku1y3jj3grBE9dkbKvLXT3bzapsy9SMSPvAEd3LuWUzS9Qqp2up8xKDzcpWM9k5SRPMnpnrw2rnY9IZJQvFrZlzyXr9A8bl8xPe/VfL2UcCk8QV/DvBM0oz2hp8a8D7FXvOrw5zvHvuo8rxsevU1q4TqP1yM7m1jyPEqVK7uIEUw7asb5u0SjSz2N/0w8FQErPCb+ZLydg5K9deKGO9KIDDr2GQ+8QJx5PFJbMTzb0Cc8XIzOu0pIZTw1LAA9fdyGvBcKjDxAjzi71loEPVhbn7w3/1I8h0qXPJtQMTv89Y29II0vvB6XlTzHoDG9KGzovO3ORjsINBK+En+APvqIKLxKH0U+T1iKPBObmLzRBro9IcpOPOLiMTvusSS9/D9uu45l3Tzu3UW8A7uyu+S+xjySGyI9BJbYuzoPO7yLq4M9TW0NPeD5qD1mx2M7Zeq9vC7BIzqW/Dk9IxBlPBdytTz0GR29f6ckvICpJjnvZEQ9sTQPvMLfUDwiSgE7QXEVvCzw8DqV14G8",
                "n2eFPMV1ijy78mS8gcw3PIZFI7uk60G9VXjDPYeqcDxhQgA9cxezvFDFOrxSAUW8xeCcvGY2/jtiyZq83EutvJXSkrt7bVW8Jx7puxXlYD1D1m49EceSu36Pjrvlxvm7+zLmO92Bj7vH6ao8bW6PuxFJoTvWpyU8y4cSvPhJD7wE9ZW8wryiO9e7ILyRUVO81+cZvEBRsTtQFCa8zt6RvCKQwDs0jAU9NTCjvB8+BzyTgdI9eeP7PA9Nhz0yHx+90jWgPFvvujnDJp+4lluMPeYfrz2us029JSfaO4KXwbvnRyQ83S+vvd/aOTtOupM8IytXvRHYG70qbXi9Ju1nvSyj/TzkEDA+65MZvezllbwUpUQ9viTuu3gBk7zHr229br47O4vtcT0Mdbq7FL0JvCEDLz26vY+9EfGpu4fgQrxuKYU7hpRGvFX2Pb2AYUg6i8mJvdROq7yflUW9prNuvaU2eb0X9LC8776TPJW7mztEqhG8nO8uvLaFmjym1tq8CMngvFZiVTsVdw09zLicvAB0bjwXnYM9zx8WvOf9P7x2oGM8Z7/uu1V+LT3hNJE8bATVvOzg+roXw+G8OlJuvBYgyTkLBUm84wsKPXuQQDyFWJe9xMy4vFPURTza1487u77SPIpMnDtv2eA83hA7vdt/BL2DpKG934ODO5gd0zs3TK6/XZ77u/dOjbz3aqm+xrU3PDtaoztSe4Q+/O5XPSsoxz21OCm82nWpO1q+ozlfZjq8CF/UvXMN5rmVZKc9DARSPH4YzjuxI3c6W2cUPEooozudNw++pk8KvJs6WrtFlDO8hYqAul6EozvInJU8x/AMPGiQcLu9NVI6H3ovvL0+nDqmjqI7CR+Yuiv1g71/ths82yGLO374ir1s0fo8dwLOO922V7whzdo7LyhEPDjyMbyppLE8PS1rPbnXlrmbD2o7cE0pPOhHVTz17gm8LPkKPCNlrLvlwMi6jccaOxdnjzntEj06yXKMue5Ts7s4gqY7o5QTuYdQdDtI2ge8",
                "hBE5vDyecjvPIAg692yLPKhjOjqISw085NM6ux+fbjuPVwM8UEgPO/8LvDtJgfg65mvVO/wtBbseWsW9r99puxbUFr1yVTE+lGfMPayEij6n4Bw+AGMgvpsdqr3l9Qg9d5QRvdNWbz24Pse989QVPubGir0bVdI7dy4OPBAS4zoOkD69C3oSOgFAtL1xeCY7N3wAPY0xMzvXv8a8N20SPbj717wzmiy9hdqHPJtyQjsroZk7Vvd0PQS+A7xBFZy8GrEwPJfcrLx/BYY664I6vFYCcT2TrBS9gOGlPK8fbD266rc7Bq0IPG/W5rubk6q8BE7OPFFx4Du7FxQ9Q5T9vHB+Ybvn6q08mtloObTWYz1WgwO8duUquzcn+Dyb/TS8wwsevcB6oDuIlWs8oFHGPFXq+DyNZ9i7HG7CPPFleLtO/we9pd/APPnG9Lu+DIC7lNuyPK9D+TvTD2g8U5XMuS0W5zswUoG84srdu9Gr0TuFe+K8UxM2PGMgbrvadPi9wUHzPYYDpz3qigC+WkWVvBE8Kr2hbqe9BITPvbZZTr0L3Vi91/fnPZFQ9DyxtGE8oIB9ulMQ4r38DBm9E0iAvHH6nTzHwBM8lA6zPAWo7728/rI8yoAFvKuTnDyDGAu90BTqPTBQEbsXrSI9O20Hu10qCLujcEQ9sjOHOugZFrydH6A8uMnUvMFE1btTvhW8ZOOWPNmSjbqxKdm8PIMIvTnOgj0Yrt88A1NiOsVk1bycERg9Yw+WveHhiDt0nNa8hBKhPe4Mj7yRk647H9DHPOLf7rkp0DK9AAzGu1GH7bzCLqw8Mt6wO3OkPjzAXDi8wT9MPW8JvTyMpnm8e+IfPRtfc7wQ+Jo9m49wvM9927zp9RQ81E78ucC3TTvOrRa9mggdvKpPUzwEJls9q415u22Etrroi8y8iBeOPMXKm7vav9+96RFiPMLfQb0vjaQ6KmG5PQt4Kjx82qM8ohAnvUVsBDya2uC9Kbg6PVTkgLucNUU9Ez0bPAneiTzA9M69",
                "fcccPRdaMzyPAHo923ERvQ6pTTyVgqi9srNavRKV+TwjlPw8bfldvZxsD7y1Jas8vyfrPFqsWL0+0Hw8pAIAvR4+hb02/Ke9dc2avRi1ST0NEgi9+8ESPLiGrj0CEq69/skyvfPNN73L9fK6vw7NPO0QqTxvw4u8bh5LvUBEBzzOBmO8WHyEvVDx3bynfiQ9dzMRvdQa7TxCCk68OhImPHi4Xz0IuAu98eoHPPcI1DzoYfS8w7OLPBEPkr017oq8NJx0PNjpujxmxMG8mGQlPH9EIDxGTpG7zBKIPV9D4Dwp7nu7ds6NvF99xTswES+8xD+QPPq/dzxalJU6/3ZbPL3IJbt20KG95/VGvKM0Xj2ljYs8VlNIPRgjEDoYWda8pOHYvfgSRz1UNp28LYUtPa2Kcb3baAM8b5i2vNrGOrwrCz09lkUdPUONjbs8I8Q8VWhXvWL8PTyCyxu95JgcvWRFgjxgfT09R19iO7OhLD3bEv+8TO2oOhx2/DwHLaI8XaErvWVciLxN24k8NlRMO557PTzEsns8OoxXO5ZQA70a9zG9r6xsPJ+3UTy7zjk5T1DuOk8ytb3Q44I9eoyqPItsD714/Qs7hdwJvcszG7xcuQa9q8s3PVBkCz2Z4Sw92SmUvMSKurzc5w67kGXXvJdD67x1XZo6K6eYPEYD1byQBlw83kKiPGhdQToxSSy8LGKrugZ1krxJLzE8/La0PDy0pz2Wpw69fe69PJEiCjte5gQ98BQ1PEVKjz3PsCG9hJg4vK40h70YkBm9T0oTPp+VhD0+BFM9IXcJPv9EPL72AEc8pTAwPKAaSbxRdVG9L0bfvHJQJ73wvs+7YjmSPY9H/bzG1IU970uPu37jSL6tiAO8gm9TPDLbXz28D+48T9PJPcwvcD1xj189X3+EvDqXwLwZHCe9P13FvANcmTtIkoa7OggEvlybybtwYQM82+AzPQAk7bz3RIk7bTCIuzlSU7qyGuc84xOdvPUIZjx+vQi9NRsqPSLgir2y3Ew8",
                "j7zcu2kk6rs0PqY7gxyaO4yUWLzNE0E9BwKGus+6Z7usUnw8j/HqvAhS+buvHmm80c55PHBxu7v3qEe9/kW8PCTxIjxqElq8zZNEO/+eqjsTx9o7T7EWPPNRLLyxwPE8GaBbPQ0RlLwx0fw7WzyFvJx0kzt0yqi6a/ysupQK2zvwHAm9bdBmPLPg3zyE2Wm+QjktvUci+7qhtps9banMvQA+wj1WUys8Gkh5OwejKT1uUsc5Fk/9vEL7lLrLxqm9zA8lvUeIhLxus669FgO2vL2wx7xWOr+7L1o+PgDs5D0cnG07+MKAPSZ0HjyrklI9bSYaPLxw4DyItjS9Q0IvvA/Enbw7aMy5xEQyvbOLWr53ki48cgUUvSI64rrki5A7lR98PDOhOr1B28+8qwv0PGX7Kb29q9C6kPyvPVYGQ7x4HQ099xP3u3w5erry0kO8zpKeu2kuhbsrrdW8kJXGvK7Wx7srw5q82/0OvZVrMLsggZK7dvazPBDdGDyEsly8eYLHO/UKszsrS4w7a9tEO/cmlz3Uwj89nr7TPIAKArxdKrQ8A6K4PEyb7LyTLLy8dVZTu26+yDwL1uU752yqOzyU1TwvjPA8HgVavFLs7DwOtwc9+QtfvvU8ujuWIP48TH83PvGL7r18xAA9fZVkvEbEAz0IZ3Y8CnbfuzQxCL38fEo7ubOkui8dszxe7sM8ORUIvDxpVjrB47y8WEV8PWjkgT3vihY98R/JvYaD5Dza0EY93/ORvVEgRTw1EBE9LS4OPTM1aD3apV+8rwgFPIKCib0Zd088Nl15vSy7lrw4++k7VBiuO/qsOjpWhv28++KbPDjW2LwYgi68iIPuvLCvBTwrEIi99BaLPFs9Erta28u7CDIOvBln0Ltr+me8KVmjveoOaLqMTQy8HSGyutppLLwcIwY969vIO7aBPrzTm8u7KefAO9IRC7y84Y+870ryO+P9Nr1qk0u98RRIvKViIzoRmWa9Lzxzuz8zVjyiGbY8NSAIvKHO8rtQVxS8",
                "W8ECvP/LpTvMpqU8nuAwPJ6bFrxye829yh/tvKdPFD3/m6o9dnqiPkkEXL5TMUU9M/gJvdudVz5gQ5U9zDw4vbOhWDu/TK29SU70vUFpnzzDGzE9+HZfvDPI2jsqHs29k7RiPZ8HAj5Xwv45pvwlvRgcb7puIos8Zssju5aWnLzJG/E8EqEXu8P6eDtPPTs8L5IovKBEZz2bbJQ8usPnvMsIbTz2X9w8FU9xPL1RNDxX0468UztWPBbxDD1EmM88ndGHPBbMjTyPrzw9QED7vBdlaLyAzyY9zchNPNMgTzxLAhS8+XBNvLuxNTzj4N86iCMrPPAjuzygQwk9p7MjOw4TDDwLphg7kX1ovGsP4jusy6k7RBauu4/FBT0WTbI8/OvSPPGA7rqT4z08s9irPP3G6jpEjQy8YyAXPH3gwzuIARS8C+A5PDgGNzyqDqg7XWOUu6rOg7xT+u4785iavIPr+b0d6gC9ul0SPftGFD5TDnG8rcCevR/5SDxh+h29UaqBPcs0kr1+RJm8pzyHOlsVMTzD/AU8NfwAPXZv57zCska8pRPquxL2aD2fM7C9QrOdvEGaR7xE8dU8s5SrPG0gXzxyJ2u8Az/4PMNwiLw5MaY9qPYMvf1dfjz3qIk9QPcTPRHNMry1v6A8Fboqvb87XD0GYIo8eg2HO++ypDxabo84eZi0vHtLJj1oEIO8IB/FPDGYvjs/0ga9nOg7Pfm3vLyyjyS9Af+euzLaybwmvzg9ziGJvCC6WLx9R7A8mSIcvOIogrwvYJ08KATaPOjDVD1/ZT48+LoJPSLTDD34nWW9zAUhPMolfz3PwPS6us8nvQRYq7zK/Aw9T6FDOwr+RzvGI8y8t1byury0/bx6jWs8XY77u3Tik7opEru9HNGdPDF77j1IUuM8gAgovTsrKz19uRY8gu7KuyXCeL29+Am9Xi8lvdkupryXyc68rwwiO5nAIL2HGXU8IFhEPYdctr1CE4Y8ZYb5PaOaXL10zQg9Cn7yPS1pRDpEZKy8",
                "YHx+PWXJrz3GDim9PWjyvFrUJbx4l047R1/Cu+tmWT2WsRS7nkiwvGfNiruh4d48BlLhvUCOsLp6eMy8H98PPAj3izzrooq8OY/JuyyXUj0SFwK7FEc6vAgBzLuecrs8qUtiPMsj2TvI40s9vE8VvSMOmLzeeYe7RJQLvCpJObxL0fU8OpgtvJ3JGrxev4U9nJScPMxeWTyk2IE79XkwPL3yjbwRk0M9RvqWuvZUOr2/bVa8o+I+PQ4pNbtr+os7d3qyPMn/OrsBgHA6d8CNPF7piLxleke8fcsavI1xGzwYHQu+9zvlPQTGi72lOTK+PtRzPOtyhb0UQ8C8O+QwPcWsIL2GsA28w6cYvHFs77xm+Ka9I0RKvC9QCj3Qjqe5RHBjPBC2QDyNQLo8fZuFvcGnHr4FRVq9M2BavLxjGz1fVhA9MLwOPImPTLzrk/C7Vz+zvFOjT71OfcM8tYQFPVIpcL0nw+E8wOaFPWl8I71UdYM7hliCO3+JAz0zIYk94WqrPIDME7yJ3LS7PhwevUVWVz26ji28jx59PaSt/rxN44u97YgbvcziMDxBtzs8V4Y+vN5GkzzeB5Q85A6PuxWoFD1tEYW9q/6nPG3BN7vGsEo8JAgAvWKgOj37SgS8L+zYO8pcDjx22/w8ihCMvCxabjwXMTo9EKe3Ox2Ae73V8es8Z21bPMcvoLw+XrW8cX/ePL+yXb2mDry8M5EPvVa0ILwV93e90hQnvdeDOb54olK9FESNPSOQ2rxer8A7ACxGPYuFBT0a7mK9e9xavZyXxrvRmiA8t8ENPUED0bwiyz29EuFSPQPGM7zqZDs9hnSevVCbET5F/Jo9ckWEvJ4Gwrq0pYK9rhMVveCVgL20Qw09pqakPIiMxbx0NtK83AmPPbma4bzpTsk9slXUvA/HxbzFfAg8vqDsvLwLpry8fcq8FbTJPfWmyDzchhk8zY9MPTXV0bxUoVu8eSnlPFLIsbza0Y28Ic0sPWrZxDzgFzC9H//bPMpxDD12P0m8",
                "WWyGvBL78TxYRI68Mu4IveUtBjxy9Qk9FcUCPYissTv9zbq8ek8gvNiAbjwQ0ua7yneXPAxvHj0gNhI4IBykPC5KQTs/DIU8spedvChauTydMfi8sXSJPKWh2bqp/7w8YqvRvAP9WLyRu1i9cenjPT1QBD2Xlj6+k59MPX0fkL1/T2u9mdXnPFaahj0yAMw8XrprvtR/WD19Xow6hrCmu2KhPr2KoZa8JkyXPcGQ/rtWntA8VqQzvX6fiL0SkHI87Jt2Pe16J704wbu9lFUyvTE/kDyl+Em70UG9vLXgA70EDC+9WgbAO446c7zZJRo9wzaAu6K91LwydNs7o2JZu2t4MTxwlY+7rSMJO5ywMbzj+de8vWwRvevjJr1bH6u8DHirujZryDzd+wk9OUT2PBvd97pJUYG7vQFOPSs2uDthnV88TiY7vKoIYjz15B69SsyhvPt6lLuXXhE8pg4ou1D7hTwI9ba88DKcPEtR9jvEWZC8iwG4vMPWqzvUtOE7U9YouvdH37sjr9W8WWkSvBpjODy2FD+9qZVLPLu9k7x5BK87qERGOxORVzw+DqW+LeVivbWqAL6J3ei8yIx/vcURAj3Xb0g9d7RVPs0XoT00LyE9HupIvg5+uDtjJEw8evOBvLd+ET2YcBg7TRStPSUa5LsTlj698PeDvRtNBT5pU/k8lXeZvGwRwTw5GVu9+oIBPexQsLy7YZ68KC3eOXa0Jz3/OVY89amUvSdvBD0SnN+8HTO6PEwyJjxG1+87IMeBvA5bLD0C/SY8pE5FPPuJmzzFtdY9Wcr7OwuKkTy7aDY8gK4AvScevrwBuFi8uLNCPSSZUTup4E49PTU6u9v0w7ylZ4k843o+PLVsqbj7qYU8Bv2KOd8L8jswekY8PPWxPMaDxzwSvfC6az2uPHxe07t0Gh27t9ARvUKso7zIc8I7F8A4PE48W7w3Hp07LqrRu8y97TsCHKs8tUvGPAcZDzwpUxY7sZ9xvK7y4rwxsDK+arANPTs4yj2h8K67",
                "Z3kivU7zZbzbY8I8zyxvPVNN6zzS8K47pRaMPdnXNb1hhVk9IMeQPPnEGz3Gcoq93a62PJSibLnbzqi8dk/MvSnqTzv3uJy9SixsPN34fbyLHLw8unW+vKaiij3gWWA9fcwAPUWPmr31Bdm8rcmTveu6Nj3zkv48MjK6PO+TPLw6PQM9lvwNPKVCIj21pVi8x5EPPeM70D0hmfQ8ge5IvKY1JjzqV8S8NqWyPCBT8TwP44Y8qDByvYPvKrwXzCa7PSKTPC//Uz2GLz49acTsOi442Lss3oq9w8uIvTOk/7z55oi8x/y1ut+c6rt3cDq82HycvKRqqjuQlp+86rXgOyLUTT28Jxw8Mf6OPW1S2zzxe6w7C3FpPK9cfbxQ1qK8uTI0OjiA/bxkA3A9TDCCPOQOvjy4ZQy+BWHQPUJwmT6KjB09giQJPeLTiD1bEQu9RQcBPN76TLwVthW8a1CAPO+1crumf5e8FRWpPFOZz7wet1W8X0O6uwbpAz1J/0Q8PbwTvoR+6z2Yq4q8A+YlvHHWz7y+DrM7zY2wvL26D71xbRm9x2ITPe9Aprx8dac8DTC1POz0qjz3/V08vuRouoEVsDz98gk71UxJPI4n8LshIKw73HLaPPfoszyqzeW8BJkrvY7DED46ZOq8Yz8Xves7NzzO4I+7m5ZGPHxzsbk7itO8OJaBPJOKR7pxLdy7K00EPDDT/TsojNy77Y6/PFkKxjxK8M+7SlAIPAJZPjw1zzC6CIEwvNGeSLwrRgM9O6axu2G4GTwsdRS8zmdJPDIQTj34eOK7SmB7u2P5hjwaIU68xurUO49sdrwI8hS8+1Lyu7iqfb1xVwq9AqqIvEbrzjzLR869vlwKu8Vk9j125wm8s3RyPYEHmbzRRv473hiVu1FI87xK0AQ8G982PLDVZD1E/cU8lNixvMrWcL3gLUi9LrRAPe+PMbw6XeO9lqYDvsh/3DxBp5M988PwvRJKQT3oTnq7IA30PEIZLbutTKy8z0gRvBS8Fr0ynIY7",
                "zsQjPFrTFb2hLsO7Z1oNPApEKr1HBvu6/IMovXFRGb2R4FS8HtSUvA9a6DxFeZc99DvBPKirfjsfocq8nrYPvemwL7xTt/k8GVtEvXj2czwP7tE8UnKbPIIeNT2pHXm606nYvBImID3R7AG9DSRgOxAKBTxrPge8kc3QvITil7x2TxU8/wKGPIH9iry8SZY73spsvc37rroeeK476DgKu9UaSzyzppG8dCoIPEPgVj2NXHG7FNoHPHjBZLyXZfy8ct82vsZQBL4kZRq9tDGoPdswKL7Db768O9AJvXwEgL3O/c281wIAPahvu7kKZC4824CBPR8Lq72Z0Y69fwyuvPoMHj4Iqj87x2k/PMMKQL0KXpa8A2KTPKRBDz0hjDo8F6t7vMD1ETyVDbK8DRvSO3ZRQTwmpCK8GT9avVS0uz3yHuc7K2sUvOchJjyVujM8qcZAvDI0sjz8v0a98conPVCDjjxfJ0O8lPAMPHff5jxDzAc85NvWPFs8jjzVmMg5MgpZvJ4tFL0xAD07To5SvFAmebq0jRg9r0m/PKtlm7zGRca7udMgPVgKnL1yurs9vVMYPZ1wLTwwM088bWJPu+I2arwyzMG6sRMXPFBTxjsArV+8ZTl8PJs087qI4Lo8WOuwO1Fx4jtSbKq7nXVyPU0AjbvNux68x+UOPRivtLtPMUO9PagWPS9lWr0MM3m+H3LQPZl9/b3M/W6+/Pe+ufSvlL3Qh2s93gM6PdT3xD3sF6w8AD9iPMZdmrxzTee9+O2PvLb3kbu03me8MvKPvRoUAT3SaV+7cJKFPY0MjTtH4Jm8whmvPKWvVL1q6OS7H52Au75iLz0Wjmk84/gSPKXWSb0wvfY8AyGkvHIhMzuKCk07UytqvGiyuzuSOw69SaojPQZh3bwdlFg8GONjvI22br09WX68tuy3uxIU8jw0Rx48uxY3vYCQFTzBsV68eTTWvMSwELtqPbw5dH6rvGex4rtNRbM8gXurPApVlru3Nis8AkP7PJNAsjwhTCK9",
                "JRIgO5UF1jzuyWE8tZKJO6tcxDspdR68eMXwuyldGTyVuIE83SEGPPQfB70tgDi8sa42vPl5lbyiqd+8IF91PFxqMzx5Pm+9PZEdu6whdrsOsew8xxWQPW2HiTzDoQm8kQeaumY1Cz1Ubuu9QKmNvUShW73T5iy95HS2vJ2FFryfsWA8tpKUPWOEED3KNSa8qK0HPUFnerwCG2q8zNVFOw6drjwjj5492cFevOXRRj0r3Fa9k6/ovCa1E72IkGm7kVgSPXn+mz2WkKa8qCSGPbtpTjx/sWc93uo1vGA7VLoQitQ88ecZPAlJv7tvLoA940gAPo/qZzn/jda6k1ApPEg3wrwYKVK8UFcRvStMLD2yV7C8ThfNPGTABbyqZv87mX3tPP+f+DxMHAU94Rvzu1OqwzxVDMc8l4lcvTcdET3bdhc9a3l+PHjCurymtBW7y5vyupJSC7wiIUQ9igQBvfOTur0FHAi9CSqbOjDkWLzwk7k880eBPGovHzxQ6ek7wJj2vHovHD0CWxk+KuzdPkVTBz8RVLK8qrg/PH9Kprxm9Yq8/KwxukduPrmxvbW8dlBAvENZWr266ke89sCRPY4m+D2GN9M8Oju/PNN/W7zdsgm90huXvbWSJj5O45A7ksDSuzSgezvgQg89DMmjvNOcMjsVIeg79u9FO8wGFzyRrtC7MciyvHd0MjvP8IY85TyaOxhlJzunQEw77yT2uk3CJD2GO4S8+PefO2McZz0k6IQ7xxxeul4WA7wRAw27+naFOwDcGjswc2c5KF68vC6grbvCfny90RuOvKJ6bbtjcME71HpZO7tmLbsp2CU7i9jUO9Kllru4uPC7Sa15vEJA4Lt/Tba7exqeux1BGzvn5Ca9J07KO4pUIj1yvt27kyj+PFqJ27rKgtY7SRUnu1XFVLtKn7Y7Gcy/u2pEmDq0zRm6/baWu6qKAjwDwh8+bowMPqhmXL0PDuw9sQsgvoBq7T2rbQI7KrwkPV3WC75bXZm93cKYPJ0cEb1lZk08",
                "qZMePNSpAL10AJO9RXB6PW9qMTsWjO88OiINvaS1Yr2QhEi8tY8mPRUMYDyBipG8oDkLvjDkFjpUKIK8L3kAvAUZQ7ss2xi9Ep+0PFcdKT15XpO6YBQZPPSP9jsmGMW8w7asu++1Dj35hhq8+SyXvJ3vmT0gook91PAAPTdKlzzLaeo6wHw0u+zlwTpC+6U9tjGmvAqIsTwYXJM8aQaEPRsOLzpKtoe7+C/kuwItNr37Deg8nQ0Mvf78ELyy05S7kDpovL32zbt/lQs70pvKO6zOKDw/tb07X41EO0h2eLw3h5k8tqh9NiUs5jxA0k682EQKvMdrpbyBR6Y6SXSkOmWvaLsx3te7IkDPOk3B37wIOZE+JHBKPsu8hL3qbKc8y+mYPXRoAD5UhVg9bklKvUjUjzxpwN068tDFPKlhjLyibCK8VLQzPZhZyL2II8q9vpOZPBtKcjxTeVo8BYSevf3xmr05Pne9re4FvnmF7zx868I8JVjzPONfkLxkVsI8buhUPZm2sDq33xm75KXTvAasIjwHlew8ebiDPAEosLwDp4w8I+gLPIs4MTw37Ao9Jqf8PIvqrDsxZAk8b6knuosgBD2n+zU9aRCcO+E6CjsA+x+9cQs3vC2cNjy15lc8GDyQPaiSbLuoc6M75zuhPJyZ2rxaZye7Jdt0PDhgYzxQlC68RscZPTVRxTxCn9C6SF/SO9DQPj0zOCk9+10ZOj1aCjvkxlk9ydtWvNmLtrz8F8E703/ZPEMU/TtoBnI89umBvDMopDzjNaU8rYgmO9VzULnRU2m9FKLVvegwAz04Cl694t79vFv62Dz00UG9dLCavCLnWbxPgS8+EfoyPG+N7Dyclti9xnUCvvVRtDu4kSW9J7TNvY9z6btSENM7RSS8PiWotj6wooy6XIClPDZHGLsXXfG8hB+TvAsaqzwoPsO52MUzPFUeprcsHWi7/gx0PKqlgLxDJJ26/f7/PKJFV7vfbV49bKaZu7x6hr3qFHg9UnSMvB6Bar1m9ra7",
                "ZYxGPGeXlrzvdR8+gXwIvRz+lTtYRQO7nV/uPL+BXbueVK66wZU7umyiPjw/YZu7Om+CPBWmFjz3whG7wPSzu5BmgzuVPQ66XzgUvXGpY7t4iwG7QznQO0LtXTzelS27xtEevdPmyTmRymg7u5sOvT7hj72wwYW9TtUWOqy4CrzJBgC8gOOAPMTqJTyMj6Y8nby9vAGrCj1Jc96+Hiyou4sCiryZ+aw/3Tr0O5UKljttaX++XgA7O0O7MzxKjjs+DQzePPIXgT2i1AC8C1CNO6DjK7wAQIE6yglzvadryzrD/yI8TwUku8ye1jw/kvI6XzEDOzUDcboCxtm9kEYFPeBQ37qykNo75DIlO/oYj7tvUTo8cjG7OWmmNzzxcqK5vZTgu6W5FztZPoc6OSYrO3GGOb3vm4g8Vb5Muhvokr0lxsG8yhFvuzFjx7ub66I63AUxu+aslLpnWoC8+10oPUVENruOzgU87kKGOgsgKzyPRCI6htpXO1+s3zxq35+6sBuQuos+Qjqs4Es7dcCYOzJNmzqfcQ07FQxGO5q3XLuJ+UQ7B8xwubjeLrx/kry6qATjOkTxgjkAkaG7IkH/uZx1ErsqJxG8CVwHO0N0b7u5bCu7NV23uwUNAzt/Eow+QXGtPIvNkz3rbxM+zuSwPaa0xD3xSZA8A7svPUO4eD1twDI8K5SHuv4FhT2Tnmu9pebKOmwfoL1cJJo93xAVPGOa7TyAuGY7OiRivV9ZLb17/Ls9MNWKPcGE4TzEOnm9FjrKPE9aEzzcgFI6KmzQu8xwKr31rJk8Xo4EvQAxnTyYIbA97L1BPUzOVzwb0e48JsJCu/HXbDx+AJM6QcRPPfab4ry5WQC6A6C2vBjVaz0TleY8FhoIPaWzTjw9MAY5VTlZvbZqLTwjng09BrFjvfpS7zwr8xY9cZSDvJBslrwYhIk8q6EKvIXWEjz9g1e753/nPEpLgTzeQJe5douVO/V7NL3VcLc7xUfjPBiSmrsx4ZK6Y/L4PEpMJ72BmPO7",
                "H/PAO3COsLvW4WC8tu9hvD8IBj0AR588TJu6vHZ+Ur1+2Du+gv3Nva03zzvaE5E9marAvRH0Dr00Yv29vRkmvS9Uqz2kbG+9211MPNEhPjuDl4A9Q8+1PYVSAT36qao9mUH/PPPTPDxLQkM73jhcvsQBg7725oq7/HPKvZWFkjwE1dq8PFhmPE1czbyKS3U8PuI3PFy2tTyvOVg9dUeDPD+hSj5l0k68BkLOvJtDMbuW3s28kBstuhhrsLzGZhi9gRFVu6mbPrpUpVa86wGNvcmOTzw7p5S9QeMOPeQPYbznJG48jNTaPJdKJDrPPGs8EKlzOzfoODyj9OE6RfiNPATPGT1SMBg9w4aivFC75Dm68FG8Mu3JPEZtObzlutk7q4w2vCbCjrzuAP27dOsFO11zXrrxvj+8MGv+PIm9PT2TpEY9fWo9PI7hgjwlUKK8dhBrvFN8kLyiMOG82vqhPPX5c7y4QPE9ejQdvZlw2bwLHEK9GT6WPHiwCjz6XNc9v/ufPNYR5b2ld6K91/K9vTT4vryI9yI9/bfPvJSkoDyRZ4O8p3zxvJsXPLt/fqo9Q4zuPXTIHj7AhPK8XAUQPbX3kTsR0gQ+xqvnPS5VC700bHs6xDuCvPh+hrzvl6W65Mk1PSxgJ74jZQA89f88u2fxaDvwWgY9keY6OjZsXL1cW+q7ROYlvIqTl7x/fKE9SLWzPRDlqDwEKEM9RlmrvHAOFzytaAK9+Bs7vMLh6jtCh+46Y71QPUzXMz0g/+K8VJ/kOycGmj3VL2u7KDqavN/RqbvY75s6PxinvMSiBLs5jdc6TQBtvDJ8+Lw/BrK6KAFyPAIlgrtVtXC7V0jpvJkhzDvyoSS8mAHGOzMwPLsOZLu8jxsdvFpfBD084YI8p5ODuqkhnrxaaGY+ZkPGO6dPaDzccMu88KohPXXONTyF8c+8GeK7vEa+ArtCUEe+o7lTvWDbDT6XIxa8T6f0uiFzcjysz4E8Y1kAvkfLXbxJRhW+W+KqPM3g3LpDso+8",
                "xFC1vKYMnLtyDpc9jtsKvaZTbrxgqyQ8BsvMu58HOjtEMaQ5dADjPHAgaDwo0eG6TdxXu6Yx4TrYeE+73Hphu9SQiL3jvCO8CNiDPPzalTxC7uc8/SuAu0MjhjzKWQI9gD26PAEXNzxLyiy9rbtVPQFWcbzoJSO7Ixugu1H+PT1rD1I7wVKxu25LvzzD4IO8hn4EPA5kJTvjABS854SRPBZNk7wDkj+8rlQEPELzxjybaiS8PwRMPJeZfTyAY5I7224PvTMyj7z4Ybo4ioBzPN1+Wbqx3gO9WMKEukWVpby9BLU60Y1DPLDnmTyy5yg8BfxZvNRvDrx4pCa+/XVEvjqBIL7Id2i935fDvd6CZbvkeCs9qEYkve34NT01r6q91c1WPEYn/rwKkP88YmSSOK9/Pj3e0Q67kysmPUg12zy0cYO9NvcgveuYgbxjUr68Fs5FOsAQ3jvupzY7uq86vSCZsjwz+kI3B12HPSNxRD0jdhE9qSlIPdt4jzsntxG8LPp/PJhvJb1ZXW09AJJ6PYOtJb2UH8C7MoB/PGgJLb2Map261f+UO1KXZzp7BO+8svjcPGQWKjxK1uE87cHFuwA8bjwUk9O82hDsPEwHOT2pEqu7MxO7vPcOLrxNQhO85v8BvWdcpT3Y+Gc8A/fuPEgMy7tSC7c6DTEHvUIK6jlECQY6j8+fPHby/LybpDM8LeCXPD7s3bsg7wq8mPnnu3OXND0XkxC9YLWWO7wnFj2ZyIy9c+AqvOXg/DzLByQ+5tDMPSvm0jx6hL28qVUyvQ8fOz2X+Ku9B3sqPXV7UL1r9VW96zJJPHJ9tTvWMfI83+L5vFPAmrxGlUs952OpvNv43jun5bA7AWnuPCWXH7kxF7K94hU0vsYpmbuLdLi8qk+buzKCgzt7ZB29fX+AvU+3Tr0ajji8K6tsO0Sno7wxLB08+9s8PFp46zy2sRO8a3AAPIoiZT3arTI7mHe8OxKzBjwMkDK7heJgvOABBbqazcA90ShCPcyDU7uUADo9",
                "N0yyvC4OT7yeJKk78uccvZSJcr2MuJY7Xr+cPAkFOLyOSPq7S+fDO3/anjxDBPc66plmPNF517vemDo8AGtWPNFTg7y6fay8LUROvcpyH71VFjI84CByPB7ouTtC3yS8KK0kvM5uibvk/0Q8DbXXuQDOrzzbJfM9PtQhPZajcL1MGvi9lPLbPT+xuj04MK+9sDwAvXmrEz36s5O8adFjvV7MIb3Os+A8b2KkvEOApj0d9ue9oIJXvRXpt7yykxq8tlN9vQa4+rxrVh28N9T9vApxBDx7Kwi7T95aPeX0mzwnggm9DwtRPVKtKDxd/xi8b9a3vSwGib2lqEW9oy89vbgiPzwuHQ2920q6vCsWUr1x6Fa9/IhbvBFyU7xcKeu8aqJ/vSBtWz0bBF08H4e4PI7oDLsol5y7RKt6Pb6HkrzwwR29sXFuPEV0uLskD548oVURvCUXZDzPqf07SUxMPCLzpbsJoAA9NOfgPCzN+r3SGmi8pypAvZN7JT2zq6K8dSR2vT6wujwq1Pw8BkF2vN6q6DxgeLy8T2aEutouvLsC5l+7L5BpO7/YIL3wRbg7Sgfgu9RVmLuLr5y99TJ0PGN4AztSdou//unau2R94bt9ZYs+y3f2uc0rEjw985Y94jc6N97doT2UvTu7+e8aPIuQhjvxkOU6vXjzvCpeIjv+6qa6ldwxu2DXebpwO7M5AGX7O3xEz7uHPA+9vPrvvVTqLrvqPz07t2M4uwfVoLsIWY69Dcugu/iyATuvm2M7Yw0KPC4DETpMu8k6TuCzOaC0vbwvGQc76HGxO24VOL09KrI8VBX+OmpXijue2BY6Zo6xu5sfdjvTjM09tdPsuxkmsDkLeo+7pK4wvCEyB73KI1I5IADgu4vvyr3qXTW7Yc5YO0NcmjrulJ26wMFOOkYXqDv2FEE7Q7LwuZWh57sPdSw8rRYVPEk2+LqU1fO5dmXQu56VpDnnmce7fP5ouhY78TpRdig9fr3guo5XA7mdWJo7SmTzur1UgLt/yQA/",
                "S+8YvfPigb0/YMg9njYJPWRTez3V9xm+WdHhPPUb3zx20ya+oqtOupYWsL2ZB5K87+oBPJdUaz0ECTS9m1HIPWB0BjwoYKU9vODfPYzyLb3dx+o8IjGLPBkdkjumHnM95mJzvK6ogjsvAKc8cmmYuk+U3jxC36w9sv1DveCoAr0+XlC8j2qJPB8wtjyXR2M8LwAtvMfFaDzKvTU8C8N2vNOGqj0tVc28BvDSu93SEr2mZHQ7iHIcureRXDsw7JU9iX2vvYZULbx+T4i7WVJUvJ6u17w4SZ48Ps2Pu+PAJb1xkpG8GkIoPZVXNLxr7708ykIHvAvfJzvraiO84f3fu61MZ7xljmC7e5wXPTlqtzm54V28svJYu+P60DtE0JG8AXW6vK9A0joFkiW9Ueg5PIdKPjwM0uQ8toNfPCsBCzw3tTk+qk2dvROa9DyqbQY9U/dOPb1P2rvjOAo9/J/KPG2IIL5DdGS9X0AZvBpuLbwJajw8xfEWvYT1hT0qBco9fVSPvRENHL2u7r67EzuQPWH+hjz1B5U7D2jSPHLDa7z+mYu86Go3vGfU1zxVPgq9q8pnPAjWajzBja28fgfUPJDG/L00Y0i9nR3UPUi5mjt1KbQ8dKLAu2z1Br3wc308zISeuzaOOTxNjgI9FLfSvU8xPr0MNfQ8zmuwu9maj7zmgAG9l+M1O7uTljymOHk7S81TPbGKTzuIGnS8Wd96O/TIrju1DxW98/KPu8UULbrUE6q7Mv+VvfidYTwgSRa8RoRrvCl7C73Wzam88ypovBAKwbrOVW87v0/xvFOF4jvqUB49eWWnvOyET73cVMU8F8+9unjosbwb/1u9tEF8Pd4QvbwZ2RS9I3BKPjMglj2B4VG72TaGPLE9Hr2GBwS9BCArPddRMj2+no+8VmAxvfU9hr0BZoY7MXHPvBgxhL3H0de9t9OIuroC2zwm3iy98+fWu3nYMr5aF4s9V2V+vB2oOL0M1749SnvUPa5Xnjx7Ti489goCvY9BFD1hJhE9",
                "jPaoPYg7X70i/NQ88/mVu/X/H7s2KIE7ecjXvGSy+zxqWqY7b5KMu1c0jrub5bC8Nt7hPM9DCz1Ouxa94U2mPAqsyTwT1cU7Qjx0vXVJMTylhJc7meHpPMTyrDws14U8Ny9kvBRiJ731GJG8AU11PNLJ6bzSQxs9Y7jrPBDLHTwvXT68yMuxPM1IGjzaNQA9YeckvPQ3Ir3X2NY8ga6nu88Ty7yL9AQ8SPorPEKYh7yxI4U81QlWO3xvBztmZLs83SO9ugrAGzy8chS+C/O1vO98gbtRrQy+TAUhvUWDxbr2sYo9u/noPVMQjD2g0Qk9GZqaPFm84z318q69U5L0PIPexz15DIu9HyECPRAgj7zD8049B8kzPr1X+bxZ/au8R3lPPDSi07uqlLK9/uoYvePQVL3X81u8+9/8PF4Zbjs/ivC7wB1PPXO/jDzhVma9BTPTvHMF97wKnHI5aNkvvNpKKLws6dU7MSKkugpCMT3jag29ziwCvUM0Qjzdjgw99mwHPUQiXrsww0Y6i8i0PMCY8btQ8pg8jYKOO9GUt7sJKM87Px+8OZneqbxzVAO693ToutsaZrxF0j67b3GEPPcV6zyFHXa6Ruo2vFrcjDx92sS8N/o8PJYXwzw3evI7AW6NPZQhXL0b8mo9TJ6gO8cP1Tupdjc9JrpxvOMinLzYpc08otQJPX7MaD3631a9k+1WPZvAzr24QIA+qbmhvBHphL2Lqdw9fom8PZalWr3eiSg9crdyvC/Mw72TbCm9czYJPIVHOj0zt5K9SuaPO1BJmDxWOWS9bVGWPHg9Fj0wcum7hJoBPbiDSTxGzIA9YQWIvF3N+Tyialk8sqYwPBgVCzvdl2W9i3ZiPfivszwfLUC9cBobvRThAjxUz4i7iMqxurz2hr3iYFU8ESyCvBH9p70/t6u9vzXWPMWt87ot/rk8uCAdPcA5GTjn7Jq9WgIfvCUje7ofHvm6/bkIu4H/pb1u2sm8NCLAvFB4trwJrXo8Ohp+vIBakbun1hw9",
                "n7iCPAU7kb19Xnw8pILuu17miDzNgB+8hJwAvTPPYjzJnUc8DMNdvbumobvFSh08RbmIPHbvJTzf6wY94V7iun+clbvrFCS8jf7Cu6gWBDyqGiM9T73nvSbosb2Lig+9V60mPYRd1DwdO568rn7tPMxl/zxSMTs9H24KvGv3Zb27oz28/BQ9Pd1Uu734OfS8mVukvRhojjwsSew80lIwvo0c1z4mcB+6obntO6YvwruRDNE9sNbIPOS0KLuqI4G8sZSWu3nTGjszB588a28QvfyGLztod/48hPwhvDLxFzxphi683gNgvErqz71eCZk8V6tAPLQVG75dlL46CUuLPLN9FbxfLAs9CsXQvY3YwroO0jm8Z7DPu2YkrLsnCFO8psGAu+x2DjzT56E7IY0YPPHZPDtJ1Y85SGsxvCjVLLw/E+Y7KDcKPRKcJj2M3ak7reJaPBVplzsVloY8C4jLvCRjrjyN+ZS81fi3vUt6YTp76QK8iPMpPJ/mIrxav9i7ZvO5O8MjmbtYPhq8OhdyuZ17mTpeFb++4gaDPl+5FLySUqc9PYQDvok6br3S9og8HpXBO/EnwDzdTVe9bt7UvB8mXryXLUm7h4PUPEq4UL3UQSS9uLCcvBalIz7HrF28inigPVSfYT0RVMI63ginvJkA9LvP51U99YAtvMFjJr0xwR89MQbmuzTm2LwPqrG8wbEmvdvyLr3TADU78QvkvIljZrx5+8i61mKPvM5V5bzB5hm70FIjuo+/2DvOQj09AZAPveFUrTuZoVw83CpmvCM7gDrADIy830aZO3/IMb3Ec5S8SFQdPenZxDs4H9U7QF2CvL20DbzftaG8U9aGvCkfgr1b+6k9S3rHvEb9tDwLEGC8WHQavEfntbzX3OI5qbPPPK0YArwsfHY8Px+LvD4rFTwhwg69IegQvXSHQ7zZj6k8PO5OPWaVpjyz/ak7kXIVvUTgNLuIARC+r68lPcKW8jwHfJK9OXWsvHfZ+j2O22q9QWmZvFUP0rw5Doe8",
                "jBwPPa7hUzyFnzq9riG4PVgM0LvpVMa8PlV6vcehsLsKqwU9+KgJPLantr0xi7C8WaSNvO47NryTWOs9ICegvY8xu7ts8PS8zH+VvILwwDstTbO7lpREPiSrsL0qUUC8mtZpuzRA0DshxPg5SEbRu/j/qDyRbKO6Eh1yvHzb8zt7uHq9u4kjuzP0sDsmJBu87HWMvC0lUzx4d5M7qZccvQOJx7v58XO9FrvIvK0htrzZSNe8Tz0yPJwx9Lyf3Ya8bprnvHzpLLzmz308L6RRunudRbu9ErA7JpcbPbzz3DzKiby9FVQtPU+MRj00qoo6GRyuurMV3TwRRr07NdGGu/vNqDxvSy+7nKhtvO5LjTsTcOY8XWDOOhX0n7z5qp69w3p5PlZY0jqOwfI95UmsPeqa0bzHdw49mFUkvIY3E706EHq86Kl5PBQscrxIW5y9zmdFvROYBbtFSa09x6bTu354Eb1reke9O6hWPcB+dj1Bsbo85QyFvFY1MTz43QU9phlRPd0grrzsFIk96dT9u+DuKLy1qz+8foQaPHh4Bz3r9aw8ivpIvVluHrz8UAe9PeSVPMuYST2QeJe7RZL4PKQbOj2anaM9a6lbvN3GmzwgJ7q8uqI5vM9BlTzUo548+f7pvLRGe7x4og49vq2VvJ01ZDvOAtc7IjDbPFmQzTuJ/CQ7UVKyPNTbLLwZ6we98jz6PIDEIjsRKJm8eDCGPELYYryzKyU94YGWPHVJqLyf5TS9+3rqPLKCHT35KUg9FtmpO+qDETxK/EQ8IiMevRdYyjtiuPM7aPUqPQAySTw15DK+NmUBPEZStb1TkqG9X4LbvfJYQr24RI49UdwivlgdoTzaPBa7D+SWvYaaOrvOOn29QUbfO6YjsD20ML+9ZFSKPY9Ahjzf5rK8zVKjPmc/Jr0c7l29MorivNNdhzowi5a9loFMOy395bxOsm48V5kwu+SGCbzXmCC8mTcuPnCR3T1/tHq7c4aQvCG/ErwkNs07iyX7u6yx2TyfnQ28",
                "uKw8OYHl7jyXFKA9DrpevTW5lD3Dn3o9r6gyPWOlZ7zcbLW8gDsYPYnE8rvL7ka9E6FnPJ+Fnby2SrM7fFDNOnHgVDwOXCk8T3oPvY47wLpAr008Mc8RvEgEBr3raxY7IRHpu1McoDy3tv67fKySvAIabzzfQLA6RmK1PHcVyrw+Rde6kGK6PH9WmTvRiYg8+QQNO920eLyiwE88TqWeu2pfKjz1ULO9XN3nPAYDiryA4U4+ewVHvFGltz2QHOU94u6rveq6N70aohy7YFODvHtHUDy/lsg8ipxJPUXjEr3vOZA6zJr4PK1+i7zAHIG9SoX+vA/Ljz0CThM93/M0vWpZfbt3YQ49L5ztPdFt8Tt+ZR69pETTOyAAPDyFEp88wokvvVrTPbsEJFU9c17CPGl1Gr18Foa8Fzjwu3s3Zb3Zykw8mMlQPQ5oib1bNUi9vne6vGGyiDy0FPC7lMzGvEJ5F7xmeTe9Hi/9vLnAMbyhDHA9vvSzPPRkIr31q4y8k86AvCd4gL3XKSa7eTecu0XZUDwGJ1a8/bYRPUnzjz35QI28hbubu2J0mDx2VQS8SlHePMGYqjs9zBA8KTU1PDW3zzpa6RA91Ou4u/rRVrtrT9k8qFSPO1y9SDzR6PO8gS8qOTU5SzzRQAG8+U+eOm9cBzwukT6+TUiLvL8vkj0uah+9asbhPKlCQz2TCZ897PucPXaGs71A2Yw8zKnWPGabizwyYL66Ly7yPfYbyrv9DS684DZePRRBuzvXnV88TZZePDeaiDwN9Zc9wKZfPQmNcj1nY6s6UTKtOWJ4lryRg5A93wI/vBx3CT3pYJK9T2adPI/ajDyIcT287iKIO+sGPb1e3W49GlGwvBcF0L2m+/I9FciWPA/OJTwbqp67qjl6PCrLnjvDIJK8bYgbvIa6ujv+vXs8rcHSu/RL5Lss0go9+l9NPBGxjrxfsjq9txYmOmMO9buB6pk7xklbvCOg8bzLMAC8hs4EPHJ2trtaHc07SFrAPFRCOrwMyOY6",
                "/mslva1vJrnkXMK77yg/vAlnGrxiyku95EIvPClW3rtRQhc8hje2PLnoWjz3wKe9ZmHRPfLDED7A+EI9hM/DPQDyp76dn+u8wQHcPGjBJz0kXxo9aciCvTLsizpJfKS8fwIRvPgXuL0EaAU9MEkOvVJWWL2v4Ku8UG4Jvf6gKL5A/Ca8noXHuwixyzuQXu480aC7uwaCqDz9Tey8YqZeugsZkrtfaeS7EPPKOkgx7Txv2P+8p3eqPCpgs7xc/Jy8VJwEO1NSO7yxzmg7Dop1u+pkJzyq9qI8An4BPuE14z1I34S8ZFIIvBdOyjstjdu7t7XXvN0jpzr9Wp+6UbXPvAVv7rk+i5w8XdPVO4ShCbzTSNY8+/nYuzlHjTssBh+9MSjEO3g0IjtZc/e7YBvUu7S+Brw+2sG8T9NIOqtNYTxmM3Y8V4qrvBJ4rDxmG4s7R7dmuTLGhDw+U/I8pczEvOg5/DsAUEc9MiDiO6zzWr1tFBK+jiCqupwGiTvxrHu9BBEevFe3RjyI/GM/1duUu6Hyr7uXbeC9nuKmvQiz0L1A3yY7qsKFO6gHvju78lq8EUb/u0XfJziArfI7zJ0UPDuLJzs/XB087NJYuyu3cjph1dY9mrylu66acTtt6J47PUQ3ukFQFTpp72U8BTkcuyoIUDsqEGE7rFDQu3tKr7km4r+6rvQYOuUpobxe8dq7c0ExumzQKLy4r5i8n+s9uwkJRbzUECA6PaXpOv4fGLrNhxE9YSU0vLW5MLoUyJk7B3SgOkXqEj2NS/g5ySLjOuWPsbyod6U6HKXguDXqRzaRelo6m+CJOwoQU7qhG307YSg/Owo5jTsbywm8Mx+qvLpnhjtOnV671paMvD1MjzvhhqQ7jRUFuRhACbvwWcw6rl6nOrZkDTxiikW7lHjROyZLwDo+QEc/rsSuPIhnTj3vEz2+x3zFvRA9hj65Gxi+TUEMPcXJNb6wXis96qBtvEOvLz2qF1W8LpEBvt/AiTyL8VC75wpcvNB7ZD3vmpq8",
                "Y6EYPYHWFTyELYg8qJMHvFHWL7wxNBa9PY2aPVuLSbxwj6W8JGaXO00YxrxdZ/48kyQmvaAeGz3KSEi94XoqPAlrHDy/b7o7oeQPPTzvvjzL/Sc7rwESvbz1Yj1Q8tE7cKImPVOgVzz1cug894odvZk/FD2o/nW7zsiPPF86wzsLH9a8EIdFva/5JLtchnw8JEHfu7uqwLzzAAu8zskDveJvtbyAmr68/et7vbLJcbxyh4m7WU8rvSp2WDwOXaU7nk3ou/q03DsEVZa7yPHNPLsZurz7mhe9i3UivP+DtLzCRQg8OZyNvNgUc7ql4TM6ZzDPvACUAD1xIRi+7BUQvpVmoT3CeBg+jRpavSmQOz6C2Mk8dIgJvWtX1bwPncE8b4AyvLPElrzpTR890JFfPRCRKbzf2JQ9Vkp0vYE9DT2E0aS8UBMAPhF8Zj3o11w9yMlPPJIJc7zUUvs8gv/BvbebvLxNx7o8yFAOvdzG+jz1dUu9mR4OvHZfvzuyKyw9s0Npvas4qzx9eqs8sfGpO06DS71KWVO9Fc+BPOpZAL3lNlg9FTqSPNW7FLzq96O8gPsSPVAdlLwnu5G8n3lUPC6+tTxpyB48ePSsO7GzAzvdPsQ85+FUO67ENT1yUQa8RCFcPFSEl7zoTyU8CQaJPAQC2TyN9yW9NdhtPHk9U72OHPq6/KQKvSYK4DuLIsq8/5YBOhcO+zu32Ds9aKgDvPALTzzVj0082wTqvBWAs7xa0j08LsChu4l6gzySmW2+4XtSvuCqYz7B6rM8R8MkPRbxlzxptcM7WQuguzpYATzfYmO9GhhyO43T6rw68xY9XD54PKeWz7wMWGu9DvxjPWLCubybfV29XuhCvsfAm73RGJU8BfgZvC47mzzG1Xo9KHDYu6UIB7yijva7dA/UN3K1MDwcGte77JeJPa+WwD3sg5m7luamOX0qJzyNGBq9H244O7MroTxqrwO7ST2PPF5l1DzZ/b66ELfHvKSPyDwdUhS9h93kuz7aBbzx4Z27",
                "NhccvKl5PDsXmYm7Fl4TvUeXGzxYajG8zXgwPYq1r7tkK4s8QrCXPOszODzcxje8pIDfOzjCALxR6ak8Mor1uzLsLL0MA5G8P90XvMmBd7zh9vu87rLhPEpJPT3UnFK6IKQEvLhXNbpu30O8RoumvHqMgrzUTUq8Fkluu5sNGb3lsrc9aAatvVA4BD2ANtW7vkYHvsnKY7loEZ48b9iOPCxgSz2FETE9e0AEvjqL+70lhY89IGbUPefui7zOBwm9mzJKPQZEIb17cKG9I60JPQ1EILyKeXK8GBQqPQohQT1XGPs9a7FGu3EV6rsFg4q84hp9vJ+6Ujo5I9e8GsHTvL/hhbxYP+08lxa3PGJryjxhf5U8DhmEPKmkDj3UoQ09MpIwPYtVY7ySyG69ex4hvaRznT1eu8k7pjW3PBHbhjzxPFE8AtBNvYGuX7wZDEy8+xqjPM2TpLxUDsw8Y+gNvaubijydaCS6eUWuOy+OArxkWTG82uzevC58uDypBzi9hTwVPQNO4DwnAiG8iD6cPPZYJjxQFlc8koYVvTOjKjyxzAo8bUwqvPKvHTwULBo9iFnfvGcQMLzgs8O82PatPB2b1Ls7rhq++PwQveYHj7w1YpM/uvGGva2zo713Puw+OLSyvKkjsjzS0oQ+9EigvZnNKD5qHq08JRMnvCHTOD0c9lG8glmevXGr3btke2w91rPCvHMvQ7zP1Pq8M2r+O+dQBjtnT0S+Q+PSPOsPVTyQdNW6dhKMvF3JUTw1W+476G9GPFL4rrpFCh29HSG+OyKGmzvEBAq8ZWj1uxFy9bw4k+204MjUvFayLL1MIxG9I7OFOkNm/LwwPRq72CopvEPqqLqYLOS9W2VDPdsX9rpwos+7vy5iO2HHA71BdG+5MWIWPJ55hj0TRCy7cw+3OrwaertjJLo6tWlCvAi517wts4O6O7qSu8hofTtPMxm8AWc6vLRrljvhsb87KlCePEMn8jvKB228sSZ4O/SGSbxBkbm8drfwOQOQRzx6vAO8",
                "yOszPGLo3DuwVYU9QUiuPBB8cT3r1Ru+MnJbPgVeLD3Pq5q9RGCqvEbAM73E6xo9pA+KPYUh4zoyE1M9u30nPFdZjry3gGu9d30fPfyufT1+KTC909VlPcuKCL0FE0M9qvjgPcuklrxPAI88DTxQvQzyXjxhPSi92vWQPHMpITx+H688WyYsPKTsbbtIQhu80oOKvfXD6zwQMNw8lsTDPOdU/Lv7kCa922oMvfhuBr0HciI9hHBYvfNOOz0Y88q8faTNvE69kTwl9Cc8XAwevWcbP7xIgsG7X36/PKPu1Tykttq7JBYOvVdHCD1tDNk85Pwcvf/gQru5n328/N4GPdserbzY/tC7ydTFvFpgnbwUH5g8XJPpPCzJhLvxf2Y89Mx4PJwIET0rNKY8Oe2dunmiXruV5MK8IOKlvL4dDL2fIDW9+6XTvGBuyTzp9/69nQ6GvSkJAD7Pph0+Bfddvcf1Pb0hjdw92O69O6a0CLreECI9+K+OPV/pebxTHhe8mgmGvMucWj19oa29hG5UvFjs/TyJ0zM96j3APp+2nj13ah49qKOwvLSsS7xwyGO8jaYbvZHaNL2Lk7y8XkYZPSC6Wrza6X48FZ6DO493iD01Dle97l0RvF0kBzzVypA8EruLuxgYgbyX9F26BODTvEgZNb2kceu6Wfkmve8dNz39j+M9IiJMPUDKmrw+rmM9p74jOjgslzxlqrE7uLCDu2BSyDzDuBM82PTOuqu6obtQ2ha72Lw1O22kZDxNfHw7Z407u1BvyTot3Ue7eSyZvBHGubmcz5q8K4Xbuvfnk7wvz2e836agvAYlGL0UTpa8hJdHPBDwHzw3YCE7hcUau+9jxrzAJWU3cCocvPzb5Tu4spG7iTrcvRYWsb0d5Bm+WxamPLok0buXcbi9LbZKPE7TDT0+CYU9KKt3Pcn0hr0asgo9v9a5PGjmEr0JsyC9oL+APctb4LzqMy69/90nO+m5ob2mFdM8vCb8O8sZ/7oUjCg9NJykvX68GzqSo0S8",
                "nJ2MvEOJGz0T0uI8sF+ovF6J6Dw5CDS6ANqtvLB3Nrx0APu8SbkRvMugij0d9qe8388XPYXbVT10qqS9q2/bvBH90r3wFIy9PgQgvEKcBro0hro6vKnBvIFRhjwju2W7qHntPCiofjyYl668nnuEO1V0HT0fLLg8HGucvHvaoTzBJMw8U/DUvLxs0jtPRrk7CYoBu5Gd/TwMWsK89A+rPFuR9jxTzI48AUeGPQQ+sDuOn3o9cL22u6ZHnTzQ7Aq9Yw9kPKcfibwnUNI8vs6YPX+x1TpBk469FX9iPT3zlL6odBS903iWu5/7Hr0M2NG9Tg0KPQtSmLxHWlm9GaoMPBQ9HrytBBW9SDYZPBXg17yKlYI8yMPDPHjIk7zq3I+8pv1dPpb6k70ZSNc8gKpIPbjLELu+hcY8IaRru50+w7qSUpI8Cs6HOz0evDslqrG7DHXHvT2yn73yRBC8XEMaOxVXqrrLfTA8Sop6PJ/buTrqb7o8dI26OzzkHTxT5ye848YCvbVagD3BMO88vXBOPeqom7wq24m7rbDWO80uwDxe3Ia7qtpuO31AB7zswcm4wsNIvNuYC7odroy8W747PdSunzwK8ww86YqNPLBDm7u5ZIq7ngbIvFxHYjypjpu8NtGauyp04jogoxu8GEGNuRZk9zso18U5OjqYvMM5G7zRywK8ocaZO5blyzrauDm8N/cLPIum1jv4aPK8BlCbOjDKDzu7bFS9GuYzPFcLjDv5k1W/7nOHOxq337uyg8C9YyDTPRmeVb1j8726DvILvA4XNTzeOdW6ZmDruTPYJbuyFAW76RbfOlOyobojdRe7beJvO1fjODpcKKM99lDUvHtG6DneEF27snOqu+BE2rsQwkq9rEGMOX9+/LoAFSO7aXSNOZBRWzvZ57258odKOw9RaryssKU7nEYEu5a/j7yfvZM8g4IMPHXoBzykLQm7C9uTu3Whfzp4qXy9cwOgvPLZFbixbai6b7AZOwNnoL2ACCQ7hs5Dug4XVbz5wx67",
                "5X3KOzJJlTuS19Y6rS6ROMEI6DrU2Uq74YCWOgwRqDjx0pA7BzkevNbQGbuuyKA7ohawvJsFGLuagFu7j0UUu/1M+Lt1ZhU9mUozOwDcEzsJjQ08IqiyuOpjirjBFww/OxqMO3fSD7yyEBa87hvpvBwb/zxI+J89B4aZPTXW2D0ryW69a7SBvXO4xbzmsya9QFoaPXZ4WzvPVda7Xqd7vX8zGz0TBl494fnBPZS0aL4ZSho9J6QPva0TE7yr0Lc9SlWbPXItYrzCOHM7xeaIvN/+Cj3xaZk8sJQ1vuDghz0Fq3o8WA9FuzPvsrwyFgO7u2BePOCdgr0qNbw8w87pO+DDDb3ECi09TDtnvS2e5r0vyuu8VAV4PXZ+QLxYSCq8BXwqPD6/MrwGtV29LJc5u/PkcT14lOc8u7IcPH6KqT0L0OS6mZiSOxDUXjtNmqc7qLSiPP+cTDyMLrM7F0f0ugYcIrxFfiU9qlU5O87iHjsvque55EeSu46JJLwSUh89pkUJvDh2dzyY3M68Ez/bO5ERMTzqZim8GGiWPP8BPjzJnE0+pM8UPgIJlr1F/Hc9BjjTPbldyzwQ+CU9ixv2vGs4aDwAEYs9oIeLvJmxoTsjTZc9Ef1svKTYfzrpQ949svtHvTCJ7Dt6FS09iTn1vvoiWb6W7hg8I+8MvSepvzy3ZQI7OUyPvC3vI7tSzQG8yZruu/FwCrydyYw8EJhtvODk3zwnSnC9upcQPQpcGz0tegG94QiOO20jEr2/aa88DpcGvTqbdb2fFQe8uVhyPItkz7y21Ai+W7s1vXDR3zuTllQ89s8GPcD1MDoX4T+8EkUBuv/PgDxfIvq7Tbj0ukmusjvCR2k8rxTxu6MnJTzcqZe87FyFu8HBa7x9sB48LG/xu6CZxLvNVhK9bQQevCwUlDsxdbQ8Lr6NvD97LD3/DsO8XsMxvMlts7sutnW7DOKKvPnZzDwkEYy8gM4VPFLr8ryEJy2+/sqJPdgWrb1C5FI7ST1sPd3R3TlMppC8",
                "K2gBPuH4Tr3YvkS9ExGrPcLkCbyxu6g8hiPpvEciLLyig427ml8gPJRNej09kgy9sTxBvR+oW7w5FAA+/HkNPm9Ymju2ICU97haevWNoYz03VTG8ekCgvH+oYbyL07e8JjOTPcTEKT2TshE8hCc6PIon4juUMXq8J9sDPXSrLz12kgM96g2mPF1vPj0mMW89gccTvTXGErylU7g8WdBvvPVhmbqVZeg7hE9HvBmFObwFuTC9AsGKPNVuMDxJJtE8VPFLvYyW6jsaBb479qYzvZa1qDxLjy+8X4XDu1yl5Du4mVy8z2SWvCZWRz1Ks7G8/KJGPKl9mzzKYdw8zSqOPOFOVLtN0Te8TkWjvN16Ubw4MJU74vI1vJ6cjb2F7X881LzpvFcAhbzGQgu+N7d9uKhlwjyviAc+jzoFPhPLsjyNyiG+kZcdPnVIar1CZow9HE31PVtQrT1Jphy9YWpjPH65Kj1leVC7IvuFPWYivrzM9f68tfAnPnBBj72DK4I8YTUdPAjbxrzDCzO+pbLUOqqlhrwjehA7Ul1DvVVfNTwNHcw8uSqPvSM9+rwjaoE8GYBYPayr3zrsSrs8qZ/5u41yKj2lRPM8EDLKPOntMD39LYq9YUILPRvnNb1hS8M8jVlKPcZ+Krp7WHg8URFYPe8gNjtKnRG9wxoBPMRWRTzyove5CbCXOz/U6juOoBi7NZxmPLk9ATy33mA5qaunuiuDUzyrERg8DWY3PFHgSbyjtBm8oXewvHpQ1zx5ITM8Fo1qPYYVlLzs48U8jl+FO/9nOTyo1gG93sVuPGDOjDwESgM8CTAAPT1nsDxwipC8QJB1vd6zhr3Rq8M83g9EvUbduLqVM8A89bMiO0Weqz0qYe68S9qEPNHQqLxy7Wy8JteDvDgujDz8lJM9RticO3xNLD1YqgK8KZW5uwnRirulJqs9OREBvmbOtrppPwM9UhWrvYhrEjwTsdc94vfbPM/vlDwwWaW8iHqjuyWaJL18BQs9Q+dnPbxTHrgKg588",
                "M42iPIgnOD1fwQI9PjpePMwimbwavZg7FgoCPW5IYblhDo09x4j8vPeKFD0B35I8APgOvXT9WLz3xYO6tYmsPMvJAj1YgZY9Q/gvPYg5PT38Y4S9YBySvRjerTtdcCa85kQFvT5jtLvmAKY8Th4aPbAN+TsSEqe8pR6vPJzyGTw1yEw6/QHwO0rvPrqv/428kTeCPFD3b7lPLne8iysWvKHs5DtoM3Q81Uq2PJOVAbxERYC9AfCMvZ8ZcD5tITG8lkpwvVe5jL3O4SC8xdFTve7KuTzesKW8iGUZPKVs47xE3A+9U4WTPGSNG75TUDQ+s/DmPNBQHLyD8Js8tV9JPhbTv7zdfSy9NFuUvOTwN7wNqiU8/I0MvAQDFb0D9BI8kiEMPNwNF7sax2c8aXIrPKdZlrv/VqM8sEiNO1MEB7241zI8jPKZPJlTKz1rrGU7HBP0PMSYIT0G7Dc85ZeNOx/bG7ykugy9/fJ1vbuG6TuWOIk7l/WYvBTHKLxnbS09TWRmvS1Fq7ybT1u8kX6NPOtP4DvZzyS7DimzPFfV4juqCOu6AJwHPCDFQz0wf2c7u2ZaPIkjur3E6v083i+tOxGvR70OpU692WIXu2VvXD2iaI+8i/aZO+KTk7sIHB86RAiuO7CSlTzUrtK7hs1QudvFEDsmk5u9RDF0Pi9GHr9FxFI7XP8rPWV6oTzmGwA9HjIXvI1CDbsfQDm9XpUnPETqeL0jCUQ9L98QvDDDgb0JJ6Q9xiMLPUYxkjtKWpq8DoA8Ph6RnrxpINK7j0iFvF3r/joxWno9vYepvHhtqjuz9rg7J1wnPBVRqjt1YjO8nXYFPWKloDzRgcG7guqKu9/1qruNrw48SJ39O810Rj0rGBG85gw9OugGgj1mTcU7qUHjvKu7ljv2PDU7j7lFvLxJBjwZQHw7y3C6vBdJjbrqZCQ9rCEuvcobhrvmWvG7iyBHPHBIl7zpNNW7G/rBuyCG4rsd1kW7kRXsu9MCBzwzreW7/E4GPLlY77y/gn88",
                "1lQquz6xvrz+J4q8IcrUPDAMMjkPxPW669NKPDLBvTtfHrg7xbWyu1xAO7wFYT08yK+Ru7R9ozb95XM+efUfPdLOsDukgEK9BlYPPtz4Sr1/V509MP4gvCVXTb4BjtI8lZIVvhuhrDyeucc83gGTPU3mIjy0Xiw9uz/PPWt/V7yAPYO9KU/1vW/GFL7uAbW8ORkbPXXh27rmWc694n+LPbZiWLtbFCg9tkBzugfShTv8ZiS9lhY0PJY0Jb7Ncj480E1CvTFtmbvApp68Nvp9vHUN5DxLFQK9CxjjuwRbqjwkZgI+h6hfPLlMLDyYOQ6972YTPVtLdDl/hJu8HOv1PA2Gq7s1ZDq8O11ZvP54oryXnos6pMM7vIoCSDwdEYa8WLNkvLpKDLysXq271G2Aui0iJDqyhmi6QtZBPAl2YrxGXpS7sFTpvEKiazxmRxG8yCc9Pemh1jycnfs7BAvRu3mghzrS2TU8Tq8uO7fVDDk3/q25HYEEPEVIHryvXSO+rW7sOq1+cLxhvQC+E/sOPThddb3InJw8w/KsPVGPOjt0FRE9WOenvK4oqz1F/Ms9a1eEPPB7hz0m6i4+cHu5PCpCpDxZQRc9bypvvnMubr6N2S88+O3gPClYWbwOwxG+ZV7SPOqbHj2M9nO9JU7WvKj4a7zY6y48Ub3dvEUnt735pca8sCSuPaBoG7t8YC67KESaO8VmubsJbV68XfV1u/YwDj1dyOM7L8yrPcGQPTyjNsW9VcoMPILbJDvSFSO7OAZZPQab5zuE0ZY8EZRIPEpbErwVX4o8nYY+PNYnaLzxtAm97tq8PKHfxjvVqCG6tIBdvK4m5rrKIEc8e4RluwRlyLz2G3+8BNSevKddOLx9X2k8YjAqPR8MPT2EWkw9qqQ2vDDZObzg7wY9UoAKvPJ7AzvJ8lw6DGlCPepcp7yMm26907OTvY8Zcj5C9Wk9s8bzPRw7MD5t5Yc7x0ImPRF2iTsWJWG8P120vHPle73HCxE9hHiXvBk3g737yuM8",
                "vl4oPdu2qD05BRM9BSEsPRTTnj0Evju6Rz0zvaaqCDjG3OQ8KmL5PEQkkT3vjB+8vHDlvCBMx7vo3wO9LZ+gvPWRrLzCJ+g7myMJvCCZUbyW5WA8bmQrvACRND3+sjY7/YjtO/WjaDwsdYQ9WQijPRDxGL7NLWg8ijXpO4kqjjzan2Y8tH8evVogiTuOxK08cp4Ku/7IkjxMxhE7bpWXu5c+lrtaRtQ7SqbTO84w5zvIlwE9oGtvO5x+KTzZ3Qk8AfauO1m61jxj4ze84B0kvOxlzTwdU3+7AGwNO7wMlrwMfy08RGMWPPN+xDvz5FM8Fsa6PLTvajyzyrS7ZXM6OoD+tTwsr9a9FzHWPYz6jb2O+0y9p5l1vf2AITu1sgc9O9aXvLxEkTxH6UO+qqGPPaLNpjtJn4K8SW6QvFbidj2WURY+a+v7vBe8sTy5Xo07t4ewvZbOlb0xbr48hPQnPcCr4jwWMvo9rdp6vTAZTDzS20u8RH0mvdZIFb07vBW9awcJva82Ab4WSUK8uAEbPM0BX7tljdo70qU5vFTg57yhT488iAvUu84iszvvsSi9EqPFPP6PubupVOy8cyPEu7n1nrwGc/08P9sTvUEj5Lpn2b26894bvJgJU73ym3u8YNgBvdnQ/r3FoRe9pvimPJ/9SzwvhoM8gQiovKxNybpoJpg8Mv1zu5L9yrvfrM+59g56uyX+hbznu3C8ixTmvCkuojuKTJW8laMlvN2CBr17DWI9riC6O4/f6buv0bC8gAkOOddFGrwq1Pg9lQjtPMSk2zupTrO9NPpBvA39Nrweys+9E2/cvMXSwjvL5w4+tPKBPid+uLx6/SK8J8VNvAjXWrvhMdm8RurBPUmwhblic8q9AcKUPImQTjwB2CM8sCp+vGMv+bn++KO9EDDkvR1yJDzulVO7NasDPHmUnzxTq0C985ILvEWSYTzkmaY7zZJAvIeyyTvyUza8L2NBOr3dgzy8gQ679NsevJtHDb3K2xm+QRmjPBNmN7zOBOk7",
                "Cyw8ugj3NbxmUTM8j9+1vVfUKDs1IIo8tH2mO7fHBzyZdp+679NAO4nlX7wMHr+7WxICPDAd4brdQnu791+NO2L9OTrBazW7sZNJO2zBdTvAfBe8AYvjvJSJObxwoHy85A4wvTAKHDzK3x48bWZJPLQ+DDxv82y9Q+IBPGgrTzyeK5+8vlzwO3Hiwzld6x0+g7AdPRdQ9jyqJ5u+STz7vC5507uE0Vk8IyalvOa8nLwAnnE+YZClPT5w9D3I08E63VrAuujBD71/BCU8a1eAPWGb5rsfr7m9eO8fvGWrxDybkTe8LF23vPxEWbrSv6C+VDKtOwdDrDw+nFS6pPUiPJiU6bpBlQO8UxCWOlnWRzrRtcY61ajNOn6TEDwGlzi7B2+9O9IpkT3ZYYE8xxoFvLMJgbyRrCY7NrC4PAC5Ozx5az886uQtPPoIW7utt1i84zLlPMK1ELsTFjg8w/13O2kZ6jvyrsS7zmAiuqyZAj1xuwQ7WYusORkIKLt46W26Dr+NOxtgtruv6806oOnMO/eE9bu/vOw6TZU+PZ68xTpKh8U7eW3xPD42obup5DO8Ga2BO8s8iTlXW5o7a8e4OeWifjtblSC7oUAkvI+jBzyHMnE8La3UPZhjkD0P77c8dMT/vLEQOT22hB08yDm4vDorTr3hXhw9kKBiPI09mbzKgkm98XfuPWG3PD0kaFc9A7Z/vfxWlDqMnLA8q3mtPYR/A79kfAe7Dp5XO8ygoTxi7Yw9PcaRu1ljm7wP3De8SXlWPMwEMrxa0Ka7MR+IPFoITbyOrC09jQwYPauTN72vgiK897yFOsmRir2B2aQ8FhsAPW/VXL0cBmY8yjM7vHLfK7wVpXS9Qg8BPmnHHjvN4p87X57kPKVtorse1v27B79cO4JrTLmdDYO8q+MxPNdVdTy70pA7BMQOO3H9JruYspI8W/OIOyadBz28rwi5xL7pOtgh4rpf58i8egHxvCvqwTuj91o8awZevbnTDb1MVTs90N0pPA62FTy6rPk6",
                "nyymPK62aLz8g9w7V20APahI/jt2zFW+cdJDPZ/hbj25aJw85YIpvLFQJb0uW3m4RJywvJDTmjww6hC+Zbv4PSdAB77I9Am5txfjPOCsDb03CCw5VPgJPM7GcbxEEp09cN2WPSz6J75pL3S9m0MLPRQU6rudhS0+Qm6OvULGbLxjf7e8lshNPKdySL0PDnQ9YHY3Pu+Udb3iJwc9VEMUPFoZNL3qbd+8DZVxO/Y0PL33ZVe8EhmdPGCygjy/89a9eXgBPXaTzT3lWi88UmIwPdaRGToeBJQ9GCnMvL1wmzoGcY694W8AvMONnDsTGRC9EpooPKQBE72A/uC8bC0fvEEuerhWD6o7LoDYPF90cTx6Uie8xozOPIkszbvE9Yc8kzNBPLYoFz0dvYC8MSWfPEnwh7vXgwQ99TUkPN/VOrxGN+a8AdySPPMCErwv3Mw8p1VaPC8Gk7x/4rg+DRilvA4Tn7tXEoG8YP+PPYbzoL3XMgu8KkUvPSuWpbzyL/u9kN+fPdzqUb2gdBS9y3sLvYMAZrxm1OC7OCqXvGB5dr2MN5I9aATDPQJJhz23YKK87pkfvdlp7Twjohc+09ysvZ/zwLuVy5s8NvsjPAqZ9zxJ9d685h9OPfkVLT4qaxE7HDDuvCDmfzwD4lQ4rpArPbHmhL12z548QCTFPFcleL2Hl7S9vClJvbq8h7o9IhY8A4SovCFbOjwCaSE92fk+vfWhSrzGJxi97fMXPL/xJb0BWuS7tFJdPAPugr3K1T09oH7HPMkQwrsTm0S8c6U3O8/7ETzibqC7bNHFOI3CJD1COTM9fOIjPCHUJjxwBYg8gBa9vNWogznMgA89SY27vF38urwJ/iw8GaY+vByP5bwZMLo81JciPYBxkDpJ0ce9WKHQvdchPL3j1cC9m0YnPgMnMj3E+ae9EbYnvtOktLyinEY9acBTvEl2/DwZaIc9PiGLPfYOHDy/1Te80SDNPAJnV7wL6ge9YzegvVsp3D2dmTm9GGjivCD1UL291eu8",
                "1qwjPW+eXjvZ4b48pLS3O3S9e7vo76S8KBcDu+YQIj3IulI8ow4yvG0nB7z1Db281q74Ok5LMLxdvNW8aq/xvKAw9Dw2jW281YyoPAVnWz1ZPrq82DUQPdeJFT0k+dS7ZLTfPCKi27xkSP28MndUPdyptzxuUsO8X7q+PI9Uh7wbTN080VPrPDpR9jtsctg8C4OLuwr4q7zZi8a8SvE/u1vM5btSBQw7jUvpOzqY3jyjoTQ77k+3PPR5yDzIvhC8ggR1PC+MiLzfZKo8TVrZPGTvVD1vwbK80YTWvKTbVzuF1Zq9cTzHPRJgBj6I85w8fioxvBHMEb5YVQg9Za2bPdYt3zxWewS8S8P2vKsbHLy3xUW8x7ULvOkwCL0gukQ8lPvau7mUsrtR2NO8IevWPFEm5rygpaE9YNyJPLvcjLywuy48JdLQPY1dujy037O883wIvcn5mj05JLa7czitPJc0qToak1O9GFtePbUdcLwtgOA6s4EmPLKZmTxpqSc9l2yFvZjs9zs5jcO8jzE5vRbWFL0SHD49qC3xvBQEBj3R8La7KreVvCpmfDq/ZSU9USurPE9W4Dzq+rW8eCnOvCPUojw6D7I9LtWSPd/HXTyUOo67MLx4u4GEhryAdus7ARdrvNenHjz4REg9PcWOPBps97xK68I7/55Qu8zCMbw4ZCS8iiAWPGBZNrzIiAC9Wx5fu/LbML1w11o82Y9jPBKe5LzSgzS+qmuuvTJXOb1JP7Y8FWZQvcM8CL29jS69q37UPU+gQL6GCLq80pwHvfCVWj1aibG9DDDavaef2Tz5ook9txLvvJojtDzA6RE71ayHvFLrbT0FZju7kjswPV/vOj3j+dW8ZW8lvYjAwzuxlkO94iIPO7F6OjyWoiI8/jScvFMWVr0pgWU89cD2vKd63zydgNi84X0UvSmDXT0LRiq9tIwAO7s9AD1siYk9b+4pvfLkX7whqsC8WOZpvRhDnjy3Zki6EuNQPS2C/byx78e8wk4Mu4ZQrDx0ppo7",
                "o9wOvRMJ8rznjwM9eqXduyfdnbzmlDo9k+gUu7VTcTxEXJK81ZebuRwEvbyFMO27U65CPIsCrbyvKQO7AKIKPFCWdT3KFJ68M2iNPK8bOrzJebs8Iq+LPOUCdTytWEa90uQ0vABpj70+Ef29FlQ9vWC0rbzmLTK+59XSPRZjab43Aii+6V8GPonBHz7DJnE9JyUCPocRKz23Njk8nLP6PWyK1TwRWq28SygrOxVao7zWTjO96AW+PesZXbzuRjU9alGFPPjAE7ufuuS8LRR1PW3hAj2itpg9zVRTOia0VDz0uhU9hZBpvAoQvDsaBAi93I8NPJ7rorrFw3284cvBvC7UdT3zdqC8XFRlPJEjsj2kj3a8Te9tO698l7qWJd271dcLPCJGFTwGXye9hm8gPasVEbwTe3Y8vOk8PELnQ7ykpgU9NxL0OwiF9bxuAfY7ZEUDvEXWHLv9oEu7t9y7O6DtYzwn6FK8NqzkO0Nhbbrciqm8AKdiPCjQkboLPzi8c4T+PJUayrv5zZk8jWsCvVJrv7p/Zs876r1FvIjj47n9q4c8rteyO/ukAzy73Ai+Tr1Pvfz5B736MA09VJ84vY/FkL3rqh69V3eEu/HZtzyo1E695Y+aPQGtb71rGL46cfiVPCl2OL0yZ5S9DOhDPBsPEL2kIQi9E3mzPV7HGT4S0O48j1ygvbRKB7zCP349Vtl5vfcKqTya/tQ7qEDsPBJJNz2ohyO9G+2ZPMm/DT207BM9c+dOPGDABztHgSQ8XmwjPFRT27qH0187YwxrPcNhezuQsBk8mwPCveo53rtjGEG8Im+TuzeUk7w67IA8BoGOvSubFjz6P9k8qp4SPGrwOjsctZm83sUHvf1RBLxTmqM8tw+wuyMR1jwuulE85W0TvTeioTxK60O8XQtUPJkVqbyfsYe9xvbmPGlavTwm5+K8ex+KvWDLYryWcR89gucsPD9HzjysYxo85LHNuWs/Sb1JJwu92ATGPNeQtjxRc0c8KHjxvEPnA75IAIk9",
                "uYPuPRlfHr2yEUa6LvBZPSR16rrbIAC9+q22PC3KyL1qVQA8IQZfvWKVpT3dEoY7uFuXOtQqrzz1AqM8xLKHvq242TyJbkI9J3qUPKIzpbxJdnY9qTRoPJVmTb1HnRS8X3/DvNywSrw0Ytq8EPCRvLISPr1fcos8zaF0vBLRCz2ojQc856yzvJhVqzybtLW7lzIGvPRM1zyyREY9Yp3VPYPQT7xfo1m847wjvNFd1TsbFoE9KV84vVmJNjyDy0q8HM3LvJjTDTyjbLU6LDQXPJHA9bsNM8E75ldNPKXVCDzvIL48bL6dPKyrFb17xDO8nRmmvJNgHT0f4a08aHqSO8eL1zxp8cY82+mkvc8m7DzVLiA8LjEOvNfH2jzC9bk86T66PLfjKz0VlbQ8jGUjPY2ZCT1+82C90baUPU+PQr7Jlwe+xYSIvt2TEL4xOVQ9f9UoPchPyjyOMrE9b2FZPWe8HTtnlbM6FxaXO5Up/Lyzhvi8c5ajvdTj1juuyBG9CMCMvi1FTD17gwQ9IV4bPZ71orw69Qs9s/SfvNe9JLwchgs8Y1OlvDnjWzxH6TA8gGS4u4MKz7toj4I83hz4uiQ/6jwDZba8Dj9tPKQkcr0vm386tMohvCGjVr3fpv68i5FKupIedD0rvae8SdUZvbYy7zxooIm83tgRPNrPGLz23Y88GPDGPEd1qLyz4Nw6XHOfvEpYpjylWeg7WB7yPBErZjvSOS28GhpQPB2rwbydjqW7B6UhPKvkCj3T1D06BsuiO1P63zyQ4c08h3wyvfOjxzzNeTW74MchPJk0zDxNgKm72j+hOw071ryCWXY85fYnvEX0Fb1PFIG+FTcYvGgSPj454iu9CFPOvRkD3b0cypq8hxDVPBCGZ7wujGG96ap7PByWtbokb9U95kLAvFWsf7pGyJg9qA3zPArRED3/J0s9gsA1PfA6p73pOUA8XdYPPXHq3DzrMW+7EaG7vISQT70aqcs8J8LmPAD8ALz4WMs8wlB8vTnZPr1+Yxm7",
                "FZ9dPPkEAD38vTu8du6xu4f+ZD3bm3W8RE/CPFijLT06xoO8V6VYvHGwBT7CAv27B80ZO5jNCL3C+9a8YACvvKVnyjw3bnk8qS1Ou/Hl+zxnXB09g/LYvMrKhDwGxz68I7VUPWPQET2WsCA9ufMlPTfksTpF1Oy8kfyiu+YVHT1hTQM8GK10vOEQLbs6lIQ86LEEO9HIgbz9HKk8e1wfvDGfKjwGnWm8+oztPDU+Wb1bfhs9oD2Hu1vOxzviDLe9uUdnPXsaGDykG0Y96M6qvfT5B72j5Bw9Bdqnvd+Str1f7iq9qSAXvlv9+DxCTqQ7sRChveU7DD2Y/z69kvtKPRVe+TtFs+w8mQAgvHI3pLznacA8dtQovSZ9e7z4hrO8LcY5vCi7rLxMZB29Dz8fvb+cqLou+Iy8hVW4PMNQeDy7GFO9yp+CvUnsuTxyOyS8hyoVO4MMKj0U0xy9wweAvFAuvz23E5a9t5IBvXRl1Lzus6o82ZUovIc8kDsG0b68PGBFPcDwi7yawyg7LdwfO6Sggzz3Zg69IQYhPEJeTTuxW6y7XV4VvAUbfTsWvfi7QE+aO+DjQL0l+to86O/Qu63aJT3+gLi8n8s+PXFT3LyvIwo9CQ4bPZlEUTydAw48ygxCPA0GhjyAncu8IEr9O2aMcjwOVqi8kGGtPEb/Hj2f0+G9A2ofve5u+r2LIe88eG4BPgI2SL0SLJy7KixGvdx5i71TE1u9oe56vW3smbzRzAO9zFDBvCRjlz3ep0o9Y+6qPBZSUj1zfiq9XMXuvHtQlT3fT9e97nsGPrTtkz3cXU49EqZ7PVKnwDx0ax+9CBBOPDpOeLzl3/87gj7OvEqTjjzwxCG7E/5BPWqxnTwNub07bi5mPXU/wTw7TtI8zzucPN6XUz28Jya9GwEUvTbpLTxOXKw8cP41PO/1TL18vbS8RLqDvMVMrzwEp9O8abk8veNcjbsThiK8fKzrvCmJFr3EYLc8mTg/ONEGILvpoqG8dBVHvcGJETy+RME6",
                "PbB0vPbesztnFpK9Zyo/PFyw5jy3Rx66emc6PU7ssbxMNi08RXhIuxJxhTsmKc674tHJvKfEKL1KJPK8uhmMPOOR1zyDVCm+dQ/aPfFRDL5xZY29pa8zPgABQT7eCpi9NoLLvXBsTj1RIZK8qJy2vDPoVD1olow9TIdyvUvIxD1vo629sfacvTBBMb23PEi9NCyXvdyODDygsu68xiZlvSn6j7voyZC80clvvdEWpry8vps8lnJPvP4CMTzKiPm8pautPaasgTwK9l89+HGnPF6lErwWdl68qbxdO+UJ7jzu/jS8m0jePG1/1DyeDRE9DiorPbFZ6b0BxYU674BYOx4sRTzYxVi8ZJmQvIvJsbw14/g5K6p8O7GL1by3Gjc8EV6JPFK7XbzvsU+8p8eHvCxSbrw8ZqK8nQAkPCIt9jrj0Lk7Lb9QO7/zK72hG7E8dBq5PAq/HLzxc+27MLFUvF2XnLo4nDo8FVeaO7k4UrxQO5M8W44uvA47Jzui1TU8PoYCO4G5E7xs4Kw9hD2YOuUs4zzoN04+SuRMvIdH4bv/rtM+P2DoOd+fJ7z6e6Y97+k3vVqruT2lAAY8ek9nO9zWFj3LysM86YasPK+FOrxVIV27/VVAvf45Vr1YjW47SW9oPBlSGTxMGc69GPoVvsPwDTxEI6g6haq+u6q5iruFFhy9EzG7uihnnLwW6U28zuD9us5wFrpIzYi8Y6gKPEJMpD0CLAc84vdtu8cLbT2x0QE9Ta42vDFqFLxUlpq87n4UvA9Wr7vtZMI9o633vFpIV7w6XEW7PpF7PHYn8bwmtHs5vFQFvP/ujr2lCNO7s3fwOg10qrt8ras7C76ou7mJ3bmhdFu8hV2nvFWUN7xQKhM8JEJrPckjq7xV/ZI7W97wvGgjWzy4hXm7tPDGu9+Uwruwopg7/Z7OO3TSHbwI4+s78wOOvPacuLs+dT++iPOuOrs85DyWV/g9jkwdPESQY7wIe7C9XiNSu/14g7yYo6S+xbFsOxOrSb7TXh27",
                "Bvzdu6Lj4rudVhI89EPePam1vLuzSfW9lK9ovDyUnzwH9Qo8kdjxu9N+vLsWBks+S4NcPFVisbpkhkM7pcT/OczLezkAmyA9OL/VvN8oWLwO7hw8FdOLvPfX9LtCcZ07PIZUO7GpxD2srdC831mPO4DT1T1JEuQ8KcrvurNbPbz4xZs7DOCKu17qEDxIm3E95viFvb5kobtQlP45k1oevNRAQz2zWx08YdvHOkm3STyc+Ms4thQwO+DAG7uHjpm7sQxMPDU80TtQ9HS6J1Q/u2cgDDwE2N07u7/GOn2LILzuYJq5B/Q3vVjxqbt4otk6Pv7COnCcXzrjydG8+Knnu3ne1jtkdzK8XUASvDDGo7kEsTA/GC1LvhgvAL0bvCQ8xXBDvSqVOT3apDg9yM4Fuv1eerzvUqO7/RBEOt1sv7xngcY8+FVCPfqeuDzL7ew79LFlOcj76zspjA+9ukd+vZgCZb6zKfm8nBwbPaPDrjxkKwc9+QA7PHDc9roRITK9nFMSPBtkeLwF2GK8A2aHPdAwCb6kbto8y5goPC7MBL3duZe8uDuNO2BYDTvfJwO89o76Oo6pDz29Q+U8PRqUPWNinz0JP1690dNBPUwpWbwt7S08Z0rrPBeqcLyNH+47xnowPFY30rwtLje9A5gSvfWlvbyeX308SruUPM8NXryTpJm5tc1APMRSGz2lQeM6p2dbOkt1xLxJao29vRXaPA5bIT1lBJq7GF7kPBbLurwxL649BvJrvDfeSjt5obc8mTSSPOAmhLytoHg8vM9jPQF+8zsbLQW91kHHvFF9fr0ZoJa9QteRvXasdD6FD4q9iFr1PGb8kz37y1K9LQYmPY8h0Dsr9e87luguvTVqGD1df488fqK7upzJjb1yBzI9MEXIPA9iiz3GcDA+AU5sO54gHL3tPjI9rtKGvczofDzIMQU8wFgBve5igbzBm1U8xfhAvccFvT2voBC9FMfePHzGnLvW5i48UP04vD0YXDxGxhk9FrpBvXWu77opDgE7",
                "OdOrPCeb1DwVI+A8n1SEPJL0ojxF9FI8qHWLu1/1zbtNMpe81d8WPbDglzpI0zM94bFGPHsrBD0NPlK72rIuPdTrubxGgQa8Qq1BvVLZw7vOGV884PQUvWP2DbysHU28OTB9vJEEkDy4pGo6/sE0PX170zvyE6o7wcyuvHnLzzxl7bO8uJZzvNLMiLw5jas9rx6tPLMlBb2Ih929zuhyvQwd7j2XfqM9rGHePdiWOztu6DA9cNw6PUl2LL0XXQm94F+VPHdtuLxwQIG9V/bpvEOC5DwnuEc8BpQ2PUxzBD0TgX49W8yzPCAwWDxyRwE+yseVPRBPnzzUvlA9MjZaPSMU0Lxb7p48Ck30uzExvzxDXiY9k0eavUDSd70t6n08izmbuoYsmjpUYQC7loA3PN70BT3tCik9h+WNPNf/pDznDIC8hPLwOynTM7wazxe9NW0QvKU9A723g7a8gtyevJyDz7tzs289pqWtvNgN8rzeboS4ajuyvA5KAbzvbBa7XKWOPY1017wZ8Y28IzGvvIjLzTyGz4y8Dk4LveG3sby+2UM8LGibvVaczbp2EuY7W25NPaJkIr2QCY88s7EfvFmBQjxa6h09QhmKO41NNL1JrBE8+o23vKynU7zOB9u9V5MHPu2CkL49ETC9X7u3vSAciL18IOK9qD5BvSmeATyjODw9VemQPO6bkr1ygII9YBG6u9XtYL0qK+U8/8fTPINStbww2zy8DwSTPSU3i7y5aQQ8AgznO4Ndbry7w2M9hKBXvNTMYzt5Tpq8WrQ9vbKIHDxSktY7Bk2hO7KmSTwAYQE71SHzvCsXZjwv7GG8nAzQuzsvLD2hZye9LFkeu/JnpD0NNVQ7Q7CMPdKxEL2ggdS6NcAXPTBgGryUwF06sQz9vPUSAjzBaxQ9eeTsvCd69rxpJ3w8H1EqvWFIKDyPOOw8abkTvZJenzwj7a27ZgLkuyyu4rp+/Qi7WowfvMKCmrzInHm70dcNPcSG6LtCw4O8QcJBPR9U+zvpxQM8",
                "g/LcO+K+qzvsUS+8zKa/OsvjBjxDx5S8HLe8PDM+1Dy6zgm+SxiHvaj2mz1eOOA9OIDavSZ3FT6HbXw80IaNPS8q872i/SI8a91auldhPz0LWTC6tDXEPdwuBj2iKsG9W6M3vR97/DwdOp2885kzPp451r1roxM8oDWEPFNTqryZVj+9sIRTPcsEzDwwsyS8bn0WOkB55zwrdOo8URq9vOuum72feEu9MtKkvXmP9LycWBm7UX8QOyG7s7q5dT293Peeu9EZtjwOi0m9YVuCvXbeBD269Ck9RgN2PbWM7LsWz3u8fB+EPZxExzvDVR49McZ3vGCy+zo5c2w7Ju5VvQw6yzv5oD27muDEPHz6kzvmZVM7fmoHPWyBdbxtfea71l5iPOtQST3y6W46s8K5uwouCbzJSCW8wwcYPVkcjzvdFgQ9E3PmvK3UtLzTgd28IABXOo9Jhb2HFKY7ou5pvOzp3btkaeO8gasKvoulwb1h3TG+1v3wvSY1Tr590Fa+rf8muyfr/bzAuuW87lLXuyImlz26msi8h5xluhIuUr2POG+7sIJNPHn6KrsTtCM9uV0OvbYrhz6ZTSu9WQa4vMXlnTzhfZe9HNfzPONYzbzRBci814gjPAZ627xagO+8udT9PCqN8bzLoAs9By4HvY64I7ts5xa78Z7ROxUADj0FkaS8fyuFPDpUYz1HeAM9dDqNuwda1z3Y0LE8QRpEvQVmt7y1pJ+8AgswvCL6Ojx/71S8FIx/vO4K27qh0T88ul/Qu5MknbqFW648lxzTPAtKhLu0qRG9HE2xO66ZnTs8JqU7Od0WvOOl0Tt3j2c8zrI+vJpERrs/g5w73gY+PZp4GbzLxDS9XlkzPNirqLzXgKE8hegDvbDmgroPGBY9iVcnvagzkrxj4Qi9wAWAvmgvqD3vsWC8iqPIPY+pVL1qUQu90/wQPIx5A72jive8cbuTPTwpjr1FAVw8VugevOBkwzusoNW8FOnUvHaVjbsMSN67maesPCAIoDso5ou6",
                "khphvW2IArztZrM9gmcCvQgWWL0TdjM9rR00PMARfzxO10E9lMppu+eaLD5bXJu8ZVm5POoVQLvpuC49Pbk4PKnK87wvJb+8HY1UvEwsgz0YDIi918BKPAmLirzbvss6ZoMsPIpk8bu3nLA8EVzgO4cZpDtwEXM8RP5gPYDvCrxGLC488oA+PRJUV7019Xe8bEPJvBkh6rtTsNS8hyWnvI4BVbxDl/g8l5vTuoUPHDxjkAQ8ahwKPZR9YbtoHSY9rNWiupBRIb1VJky9d4nTO9vsYjvDzJ28QE5au7rTYbyjs8W8SQssvQee8zwLhNW8VxuvvPdbP72V01M8W8oEPt2wfb3tV/87/Gz1vBjCQb2z0be7rBG5vRaWBb0n/UU8yNiTvCRc0z3wYYQ8USRIvYeimDzM9qo8CmAbvr4oRDyl6ny9c6x5vFB3nzw7qP095IW/PZqrSr239Ku71tAsPcfIxLpeYlU86NbvPdzSMT3s8Gu91Y+8POAAEz3fbVW89G5NvHGGbb0SV3A98p77vLHEcr1EvcQ8UqgzvXTcCz3YOTO9dw5rvQkRm7xldRC92q8evdu1F7wTTfI89rfcOmN98jmINBS930YfPTcRpDyFk5077NWauj9x6TuqIhs7dYakvM9gDb2EWrY7FRkQPF2eV7130hA70RuLul/AIr00OrE7ScgUPeNA4jzKDV69zydRvLYrNTy8VYg7YgdTvILY0LumUoC84g1rvKC1RrwdEnq8Jr1JPVNqQ7zBvFQ+sI+JvbplvTwj5so82UyMPXuaobwAfnE9oj0cvegm5TxG0QY8RjE5vfGatzx+DZW87ZZcPXPW6bzudAG9yC5aO0WJzLs42qg8E8kpvRH8fDzMww685FjDPWPT1LyOmqY9fz19vKvtA7zAK9m8g36QvJpDIjyqMJy8ua1pvdXlvztUu4s8mQegvFibs7zB0TC9mGuwupv0g70nhVy9BEkwPe1fmbsBBmK8o9/VPNym1Dxd+Ya8qstmPEDhzDv6bqu6",
                "V8wKPQ4a2jyMto48eocCPA9HRr2x+Bq9S5toPPHKFTxkibC6eb6WPFfM0rwE4k27USiZvPqmEjonuSe8FLpZPZrKoLooriC8Joq+O/JH3TzDXOM7IDdwu5MpAD3hUPQ62bNCPGoGrLyXhIg7joHrvI5Oyjpo44K+RvaXvPTDoD3z4hS9NO3avagilT0M90q9osy3PE7sBD2vUzq9UcoyPX5eY72GLMG5TXMsPEGz1zzmxU08Fv6wPMOuTj0x65U83nuNvOr64j1NvO27MM2KulqbkrzbR7Q9e/+ivQO9GDyq3PE8NYvCPHUnYTz95II8f2qKvX6BCD5A6fS8KZUdPVbEVjzo/Oc7ojiAu/qs7DwUvAw9/TfIvDwc1Dt5ioe94Tj/vcX+IL09Oak8qznivKs0lLx/WY28R4URvTqSZDwn6rg8STgtu9kqFbz3cuM60VAcPDmph7znXSY9onzGu/sgLT27rko8WAZIuhPeSTxOoyU8ZcDQvG5kpjwNalG7Q2a3uzVhiLwtRA89GOUDPSwSNL0SWoi9oeV4u1XFa7yV5T+8poyIPDc8gzzfyYW8v3Ravd126jxQj3q83aH6PBJdMDsuBZM9jfdDvgvbij1d1eM9qWq+vGeairsS64y8zc6cvLqpE726ZaY9v8wQPQCIG70YCre9VqZlvHe94bkYFXK9tTy6vFD1Br1jLwK9UNg7O5LrDb29Dss9aI6bPJQZzbywnYA7q2tFugVfDL1bjSu9As1xvKbplT06LTE9V76tvYel0bpYDx+68nxWO6Lvr7yLaqu9SSrbPAEKRr0EJIk7oGmTPYx5o7zZwsQ8xHTovOoMFrseUhu915gkvfo/CLxKykm6LhzSOzKqQL1jxYw8NZ0FPYzqBb1azn87uID/POhABrshF6m7KcHePZG5Ir3Niwi9VWGiOlHAAzsE+mO4rnOlvIuslrwdD9Q6qQphPAT2Cj3aDIE8MPwfO8SXjTufKt488Byku7yAmTzIACE70j9GPC8C67zlB569",
                "QVcDPWlNB72zedI++/NtvBHpmjzOzQo+nXG1vTRha7zyBx0+jjn1vSr5PzsRluu8w58gPdY8Oj2ywOE8ynQAPT+jaTz1oc28EdnRPczj0b3kXMq80/ZwvJcqSjuqAfa9/wSwvHW5FrtCCzm9aSltvN6h+TzgBkW93FUGPayt77yWlyM8qSTVPDZhuLyLsoA8WkdoPOArOz2/McA8WHeUPFAqyDzjeVc9Y++tPDAHOD3m7dk7dopMPXHpXLqvQ4s9GNK5u5Pa7zvZlS86kAynvOzYcryLGA68y25rPEis1732ndK7Dln7PP7VIjzJ25a8io6uOwzBnLtM+RE7/M8NvFosyTzZYTm8ywkCu9MzCj2+gve7MYE5PVA6yrxrMjM9qnCYOmQRHzyafzc9lfQ3OqIn8bp2uZs8lD7APNa6ozzDE8k7C+gcPCTTxDwWlaG8ck8Cvd7pwTsjpMc9QGykvYxkez0aTY+9e3z2vctgpL17Nm+8FEUqvAC+mL0cF4a8Mq+rO24Ihrzqz5s9eVs8vipxOjsHgQu9dUQ6vQ3BpbxK7OI9ZF3SPYaAnTxd1gk8MlNvuVBtC70NEOO8kRn3PSBS5D29cEA8MzvPvNWgGzw4dWg7LOQQPO+RPb3j1ha7vzDcu/fBzLwR/q09XAqvvW8Chj1frMG8LnihvIbr5DveMzW9OxVSvDSXhTwUV8I8uxBTvXPcKD0ShFa80gVTPOU1jz0Sgbg82OGvvKdbHTxV9B268OPfu+FVpjgRA448QmtNvPGDnjxGzXc5iEMLPQipj7vIRPm7SRchvF43mDxIU2284RPeu0khh7tbXC45j/KmO5wUOLx+pum7rTH4u1K4xLtrJzE+GlaHvWBDh7t4fZW+V10JPZu4KT6cAky+MgJpvddSCT3k1vg9O0Gnu3Gxjz2Nslg9uUKevM+vqT14QZI9DKMAvRG+BLydLYq8RluXvfYFJL2oOVW8d/8JvfVEWjtcRZi9NHzCPXVDSby8DYo81Utuu8pW7brHweo8",
                "26u3vMHFWD2Oj1K9h3slPdvwLzzu5oU762z/uzjsFDtWv5o87ifDvAN3ML0a6/G8zBmnu/l0Pj1z2RG9oPKJvddel7xb59A8CDXMvM8bOzw5gYy7O2svOs7HeT3puCo8MFGQu5tybLyZ/Dm7JY+KvOLP0Tu3xLM715cFvSdeFjvbpYQ8uaZDOyKQuLzWCeY7UgrQvNLAzrz0Vcm74fHKu9HrhjyOGry8unyOPI/O3Txe/Jq6RncoPALRK7yX2ZA71ZKdu72Uorz8+zK+cBoJu4hlEbx0isC+VFG7OSb/Mrztbsa+eA0cu7zTD7yk+UG87jGNPWJDQr2Gc5S7oQ/nOzIt+rtgyow8Hn3AvJjv+Tv9feA73QFXu8Vqozs9uRO8X2JMvPThszuUXT09tH77ve+jqLvLDa46OsV9Ou/4IbsrT0g95pdkvL9sUrxv3LQ7oK3uu9lPMrsb9Ka78ZnWOeB2Rr1v6ys8q2iXOc3fYL1BgxI9VGyOu7xVn7yht0k7bMqCO+80GbuRKIg+nLw9PL4ssrsCSds79BYBPFMiDD4SjSO8Hh48utSRS719Y7O6TDABPHdmGrvtpDa7xaSAO2qvmDvAFhk7HuLQuuj6ALspajU6ZC0ZvJSkorvALk07CIqNu9raVrsJi7E786VbO+Jh0zuQ6iG92Yi7uy7EeTvgZxq8WYWcuwyUBjsL4WM/Ye0ivSXMPT2AeyM9FmYkvSQZjL2iXb48njmEPEycB7sW7ji8JGR8PWjnRL32yUE9kzHcu5CkJLxiaEM95hngvHVwDjwGxew8cql7vmzkMD1AYhc9Rz5rPWHyGDvG5pQ9diWfvQ+GOz1VENU8QxqAvXYOkzxx5Y+8czvOvann+b0nvuC8pQY2vI7OqjvP9a28FhNJOlFphrxkVn88wtjgOhHYgLwfwj+92yqlPfNk7L3c4Fa9MMBovVY6wLta0GM7ZHY7u6SPhjyxYAA91SnRvD0yL726uEY8YFowvS+g5buTlCI7ntOmvHH3sDvcSLk7",
                "9yzeO1EHNbz2Bb07OWkUO2Gscr0tTBI93CLjO/yiAr0FYOC8igO4OlWmgj0btgk7ItiiPBX1mLro+3487uJBPBe77zw9MDO8e2nVOzLoq7zd9F09h8Ynv00PQj0mdSY8h4qvvPiXXzzddw69mp8nusxxVLzbEty87K1NvDMSir0TblG9bvWBvQr6F72vlIu9+VrWPI7JQjvMm9C8eqb/vVeJIr6Ydrg4SiSQOz/v3zu93WE91T7KO5lQJbuJX/g7Q+m4OikA+zssqs07eM6mu7O0trwIUk87qU2zPKE/HbsoFUW7e275u7OmWT1wyYa7KEeRO9/PmD1He5c8cfa0urtTpbsVP8k7B03GOkGDXzn7kUm8BWrEvKWttDsh+c48kittPR9JLLujAes6M8AJvFfm3rm73Ou7HW7aOmApCTxIjso67yyqO3XDnLptRJi7JC2TO4cp1zyQQw09P34DPG0+eLzHxDw9hRayPBJQWrob9Bi8PULvumf7obsV6IY75fZGu4gvQ7ve+6S7GCujuyYcY7tUKlo+qwQoPVqI77uq+F8+VRaxvG7igb3gAfO9v5ZxuHeHVDy5IEQ+Hi2AO4EG1TvetqI86h2CvNM4Jj1y2dw8O3yivcfdBzzckkY9Uf5rPEAX9b0ST/A8HZiyvPyFGLwJR0M976ioPNDwqTyt4LK8GHXfO61EGDxB7/o8ZDlSvBlMILyYkrE8GtVxO8/VDjtbTcO8NBJvvCIbFr7ngc68jWRwPL/0sb2Y0ZA8uNI8vGY8gLy/Tc86r1g8Pce/EbxHxns99DxbPMyaCjzkPRG7+t2Vuztr1zvtIR077NFXvH1g970hq5+6jeDJuq5EcbueKD4867VjvAIyE72G2yc8CXQZvFOFhDvgoA68z26KvFuywjzR+Q+8MzCIvRxKvDqu3IE9i1QbvFiMgTyJz788qTQOPOeKZjvGR9I8YAUiPfeewLsJoc6+QQMFvlSOPTxzbya+k1cKPtMhp71OcKC9kZNGvfP2BD5qF4c8",
                "Dl/YvFkjMjyUe9m9M/OKve3F17wFT/m7+pwhOM+67rqwVXk9ik12PTfzJT6oqvA86X/rvZL83TyaN5u8H/qQPFuzmju40xC917yZPLmLCDzYLNM65/Ygvc8c8T0G0XA8xCE0vCqfnTzG+6o7gaGsukBY/bxn0VQ82K5VvC3IZr2yZfW7btGvvfWtBrvqHlA9OOdEu2Koqju1rVw7dVqePHbqCDxg6b48u09uPWlDAr3HbAQ9QiSjPIkQ7Dxttmi8KvLfuwtPzzzQQR+75hdkPMuXHjt4ock8Uw8jO2a+uDsbKBa7PmrXu/OUrLswvK+727kjuulUVruqcCO75N1WvIkXErw1uJI8XokkvFBfnjqmzze8q5fMu896+rkHLpm9ZSlnPjKGY72IGbM9oMiOPIacvzvrDem8DoELvHcHcbyK/I275GNyOxa9jzxlMg49m6sqvKmeXLuAOgU51oJ5vdskczwba7S9H5v8PaLEED4dBPG80jW/PQy4trp8pYo8oY6APVkKNDtFyUg8sYHOvHo96bwBvPw8zSOJO81a+7vVvQG9I6VQPVR7RjzOgUs94RpYvLi2S73TZ4Q8gHXVvCNz0Lq/zwA8apoBPQWZobuRG/M89OTLuxtsC7wQNZ87EACtPG6DfbyfIKU8hMYoPJVdmDyg0Ia8iwHYupnqWTt8Jm68hohPPFxEvTuC5ZA7WlsuvBss3Dw1ztM70kMKOz4a3Ttb14o8s+vOu0DbhboAnTE9F6bKvHUCSb2DpjW9NlQhvIytoDli8mU679sku5oMCLxThoU7QggnvRkBID2dzku9uTjDvbZK073PUYM9isLEO61U1T3e5pG987gVvcp8SL3YffQ6iaOXPQdYlD35vEk9bQHDvdLwbr5M1CI6nr84vN/8urqXNYm8skufvJZkyj1CWKA8ESiRPHCT6ruOEsK71QLQuu2NPTyCkoo8Hn0tPHXaY7zYtkI92tnPPW+zT72MabM86atPvOJ/bLwu4wq7xppPPJtD3Dxa61Y8",
                "y/kWvRRzUDxmlMK8EYFVvdDksLws4n87VURAvVk3FTxROTM95ewVu7U+ZruosES8hqIrO3VNHD0W0ii8buUxux4ZYDwSe/i8IBEHvdVGPrxgdV28V8Z9u3ooIL3smZW7BZiKvCROtzyvsQu9DPbkPAsSxTzdpPq6/3arO+Ek6zrzMkO8JrElvDHdM7uEtI+8YHO1uzWduLxh2IC7QXfdPFPXWTx00R295jTYO8kjKjyAcOu+N5qzupL6MbxQiGc+ZQEsPFVqM7zKLko+8gPyvDmmQD2Psgk639Wku2WEzbvE3ow7QJu8vVqEGjvnZYY96j5OPA2Ag7yh3Y67XLn7O5NkcrvKjeu8pjohvEb6zrq2LSM7nz7Ru3fF3ji1fN88iEG5O9aRWbxp9sk6E91huw56srhn/jg6Qj6Luk3c9L1dHOs884Wju4U57b1pLrK8SYdSPN2kobmlDFa7oK8APEtlmLvmxOe9/E1vPWL1ajvL+D87T/AtvAJcODzrLQs8/mQ7PCVbHD5u5au7FOjaO/kKobuSrFi66ZDzuvcHmLsuxem7Ws9Iu6wfbTwnuL+6+RIPvWtj8DnYhgm8nyxKvG99Fry1/088A/09u4LnLrwQl6q9Ty4auksJjbp+rkS6uUraO/9QwTui/52+mz4APQ4uy7zY8Qc+xeG1PTBnT70eSQY9S1sOvW5sHD7Ppko9WHkIPpsBEz1wXsG7pXu5vP09fTy/G/w8wBl7PYwtuTzIGG+9WQx8vbFFkb18G4y9UkO0PEQlkTxNuCO8NCkgPTsUvLkEAVK83qPZPPRA1Ltnv4m8oaKTvDZ+hr0tQ+G8dstiu+4Z/juaD4Y85qnmPLvUJL0cVzM9Z/BpvECXDr0Qdtm81TUdvZQjOrsWozu9TSQwvN7lfTwwzGw7FgMius+aDzxCiam3IQU0vfH7r7wt8Ze8J9KkvMJ227x8/sC6dtGGvHpwKjsEcpi8n9+aveepojzPPkW7uGDgOjJhczw6Pow8ELFSvBIqdLvXCme7",
                "khevPKDSMDtnMhW9uhYPvAKlDTxPgkU87tiLvGjPyDwyy6Y8UEcvPC60uruAm5u7"
            ]
        },
        {
            "shape": [
                140,
                141
            ],
            "weights": [
                "cZdTvNOL2LwZXFs8sXxFPX1WNr2xDIS8lue4u3hqnjsdTF69oKa+PIWd6zyzKlm87AuFPYA1FD1U1o28jXxrPdImtbzTdBM9+C8mPfBiEj1mMYK9s3LgPAgzQD0SQvq7hDIhvBx3ITupDOW827ZPvDLrobz+B8G8EoZmuzBADLy3qZS8zvqEPcfenT3O0V494I/lvDEcWTxClGI9muy8POBrvjtGgb28oLGNPWw8jD3WXei63FGPvGrKFDygvUQ85L/FuxeFxblIj5+9U9PAu02BarzMyqU9SYKnuzVNo7wTUkg9vEk7OsrZYD2eO1I9MTgkPKeXdzxpcAA9T5bnPIrzhLwSwzm99vnGuwYuCzsK/t+7JyY3PFhWmTzhtl29lX0uvNIISjoEHua7aoWkvSYQBL1OrhK8WeElvBXcPz1+e7k6nlNDvNlyJrysII09o7mGPXrDTrwd2r48pYYPPUExCry+KTS9K5BsPVNa6zo7WP66xPtIPQkxljy6bHM9i6dmPMsZeLvmxZy9mPC+uT450bwf3D+9jr+cPLVvejz7O2K82yJ3PYrbBT1SB8Q81is9PQhb7TweaTI7h/wRvbQwjzy2d5E99hBava0TYL1V3ik9b+fjPMjAQz2OSMM7YpSLvFkfx7vFO4S9gxUMvZk0y7zI3yG97vFSPYy0JTv/9bA8YGcOPa3ccr1N2zo74bl6PBQV8jpYvA2939gVvWI48LeJIue81XJjPEQofLuhvB6+GJJevHY7Yr1eiwO9A52GPBzhBT2eUMk7G7h0PWUrVr01GyW8BQrLPJccY72QbzY8QDodu2hM0DsKEWy83V2VvEnbLDycjTU65eaJPaiJMbuPz1u8fOHaPJIFtr1JuZQ9LBhovIfSyjxqmg28a9OovOT7gL2Q4YQ8PSq0O8JM8j0FLZ46VT7EPIaqDz1D/Wq95slcvVRSxbs0iSa9mPxvO/j0Vj2/bps8lX7HNwTheT1jLMO6vqbcvLjA+rz3KT68wGh2OyQG6jzNdlu8",
                "IwgRPU2hdrw/qTE9X0ufPCf5ybw5igw9QUqePKybGLw/4Xo96L17Pf073Ty9glM8iN9ePFzSLT1CupG7IcwdvZ/wajsZlhi99bATvE967bx+XM88mDG0vKxeDr1rg2q8aa/NvLXTLrzbdxI9Umf1PDEdqTzAzrQ8MQjrOTZGBj6N2ra8/po4vMaUlzv4M/08g3Y2PRwkzjx6+8m8PKd1Pd5KhbyF4bi8eSu3uRfcWz2tp0M+S00NPZRrG73Ba6m8vYk8vQyDdz3Upig9IeDMvCBT7LqyhfY7kpVrO9CWPzvCPyy7nBmlvFlz2D1W8Lu9uRQJvbNYCT35zto8OUjnvAGejj3Ruyg9sMejPaXSQD1y0Qw9zPwEvBbp5jyVtIg7Wat2vTJAMz3ehiO8lvFXPAr6ZD3Rr7U9S/sFuwnpxDyHDaw8eECsvODvuT1Qt0e9quCTvQKpxrwGqmI8RWWYvOBFpry5nx+/zei9O9078Du9Zp698EPtvF5GwzvX/gQ9eXrSuw0CHDzUX8m8TiIBvOXqErze4gw+ZMg9t3fAr7ym1+u8viANvM2jOT4SSz89gbZQvTj5ET37WRU9X3NFPN+gmL3uYkI8U32PvJSWQ70v6yQ9G8a5vc9i6LxLD029/FiNPQ5Wbb3+cBo7onFtvPD2U7z4XTk9itv0upb59jwvQgg9tHpeO32ewLwsdzM9PMOCvdZMl7yCLEk9jA04PQfeCLyR4bq8GN+euq0OWT2R6Vg9AjVOPJqgYLz/dxI95v2cvU9yvT0T/kY84oMsPfUKr7x3i+Q8i5NKO06Wsbypfs28HRSfvPy8mTxPCba7vZzBPdc+Gj1lYQW9txwGvqOd37wGaRO8JiblvBCz4DyRoi28ilEHPcR1/D29XKi9NkwVvVwpXT2kkQi9C8HGvEx3nLyuu0g9GTcUvGTjLL2Ktgc9dtqZO/qOBj7h7wW9AslNPF/jnLsGMeQ8E8gMPfCZzzyYUOe8Bh1tPSM2eb0sjr87+kudvSJyMb05/js+",
                "eIovPQg4lD2kjy69+74KvQGbQL0scKc9iMsDvdnouzyqnAc96n8ovaHDYbt17qo7EXZxvK9ferzNLrq5eUcJPOImlrwrzJ48yP9xvMAGmz0oojS9Qio9vfIkTryoDoI8JnQ8vJ44Pj2mLDk91cLPvJfhn7wCGoo8MInbuw+rMbzbXbY9MkEcvenxib1e+XC9FMFkPLTLL7yzcMe+qayPPXwFVb1BT+a7PBRkvHpyibwbD9c7M1gnvY3qED2iP908vXABvSf7BTzUDqg8PinYNhSbZry4eKO8UK2QOxyPbjw386k8MRIjPFP6kLwNHPK8vScYPe2anjy+/4+824DWPIyJobztWJ88RhPLO7VaPrzr5NM8j4+YPLQ0S7xm01c8WzNyPDFU7jxNT6M8gMYrPfyuRLwYKom6G0djPFKKXLtnNk88MDkHPfsPGj1OVjy8U7W8vNf7Dj3CiuM8KBb+PK8HTrundbU8H1E8Pi1cgjxkX/47+z7FPBZbvzyM9IE7ylK3PF/Y/7tkNkQ9XibyPPXOIT27Dr678hHDPNmQXzyLplW87xi7OxAVCT3WgV28jSUbvdzfHLsCqfG8hcP7vOZdSr0phOm8Xc9OvQaptzvWvEO9xIvMPNmMmDysWcy7aAKRPAwijLyS5Vc7rj5FPKXLdDxfM7+8Gt+7PWsIRjx5wYO6447NO2FwcLrjQuk85OUxPHa5IT5wdni7O8NIvDL6G72LmIm8SR0kvVRLRjyVmkW93AHBO3VfBbwTHR68ZbUzPCXNojvmRm+82gSpOzdo3ryLHMi7DvWFPXsm/7schjo8Yv3oOg5EIDt8psC9+7PHPDuKfTwIQDG7UyQjvdTWBDxA2Iq8PXwYPaLZKj3fJmo8VulbPVjbwLvTLDW8szZxPMySdrzYq9a8T9I7O4GvMj4ivaI8T7yQvKgK8r2FcC89/Lj2PGm6E7x3poG+7x/IuA2HcDwIE5W8MWORvDbKLTtRIVo8a+zBu+vhs7xHNQk9UIgnPAItYr2z/py6",
                "LBEGPfFIuzyFMq671h83O1TCqzwYxps7R5itPP8PqDs8/ta8Nn+1PKccBzvLuBk7Dg8jvbrmaTzVr7m7TK/gvOSlkj17AxM9sQCLPdqjFTz+rS+8MlHkPCfOHTu5VsI80FjIu6G2ZbwtgrA8qQvRvNuc57zSRBe7+S6iPDoMxjzVKdI8k5mkvCONWr11dYM8fIJXPRundD1NlTO87LpKvSs6gLzNr+A7vtSKvLaJ+jsVcX88ZORDvCyNAb0bMUG9Y30dvSY8H71Mn0q8plOTvOu4jLzgp+o80y8+vbdCojzQ/IO8V6Vxue/KITtVNzu9SpndPPNaXj3H5ce8fEFDu7ilaTuXCgy7TTy3PHDaszx2YgU82iXlvMoTAT0eIS+8Badvu9DQib33BpY83BIEvZ9zG7v9IYK80KyQvIMxuLxZBAw8A4QEPfrqnD4t6sm7VqXxO/ErZbzyLiw8qa/OPIVHH70ezjG7rEG4ugm6gbysDPs8YZ5WvKXfZL0jyMg8lL/DPK8KNr3eNWS8RpeivP25QTwZrva8AKVFPXBpATzRORs7ps8aPC/Wtjwq6NU7eWbbvPhiOz0ZTx+9oe74uz+B0bwYqM48A1kcu5VZqDzMPDK75CjXuujg5Lzy3fg8b3/PvGcDMb3Q4fO7E5vTvKUccj2Lxyk9gpo5PIB52LxVM0q+ZSc4vV8I0L1qvxS9wecKukVjUD1yXQ+8zF5SPFzwBD3GGYC8/j8pPVjGSj0Jw9k8DjeMvQ3WOTzk7Vy8/UBgPOW6NLyBEqS8N5AUPcBZY7zn+D68F5xNvaInl71j37Y8ZxPsPBR62rshC6U7mnTfPB78arzRZIY7eP7ZvDzqz7w6yga988wovNPzo7uWgrM9cYrkPNLUCTwPjhW935WoPEIjALzRrY28oMAovF0tf7yfTgG9okhUvJl6lb0gmc08yvR1POFnDLwrf4c9bXa9PImjSr1v93U9JamyOYJ+jjyQ7IC8/J9pvYaBTzxmUEA9892Iu5P9oT2cbOG8",
                "bVaoO8IVLD2oLGY9lPQfvQv/DzwKnom8nukovMbASjwNvmm82V6FPQC2ujwZo0q8HzYzPO6H7Tt3drC8WrWcuzus5rvrPys8pMfDvP+w9LvljV27v0C4PHLThLsxlAg9Rx8evfB+x7sTJ4I8g2mQPGTeoT2zibo8JxQbvTBZRDw5UWI8yqkAvW2jmjwcILK7hKvTPNqFtbx4Mfw6YL6BvOXBzjz+2Kw8BiUOPU6DbLsQG4M9UKy4OsohKL2tqbY72faYvApPGL1T2U078RCfPDBmFLtrpba8ZTaxvCRhrLwwopw9gdJLvWOImDw+0C699wGTvNHzITx2qZM8FGMqvCNGbr2fgP68DzIIPXYIxLtf0zI9mCz8PHhulrsVhxk93Qa+PHyhwzxiWqk7AeAYvXxdnTwmYiS9r9rvPEEGmzzdtb67X0Q9PaDp9jydDgi9uvWTu0bJx7v97qG9n+29vKGah7u0LDA8n2ohPPuFIL3XIJi8bSY3PHxPYToew/08VHmhPMbAybwiHlU8FanSOtTEvLoMCCw7wGlyvehlB70wfBe9wBSsvCBLszxPmDQ8qKh0vUPoYbxwvIa9bgASPVEpibzGoyM8cDBRPMFrnTymbgu9ZmygvdgCCL2TM1q66/EAvIX/ujtURgk9qHYePaVTijsX1YI9VNFHPO5CezwHwNc89G7Lu7Ju9rqCHSu9wn9JPKub3TzXYS27TqBgvJmysDw0RpA9KNuJPRlyXrx8kCW9Iy/VPLNPiL2dFqq8xmXAvPr4A70vSqG8jXqeO3EP8jz0XIw4aAdkOzbc57wQ6qq8NyA1PXWEiLxXOB28snIjvbWbQDzKhjA8L0AvvHoQQLyjwQA+CisovTM/LTxTSUk8hQ1hPO6cAz0ONi68W8dnO1Ab+btS01U9rktjvWbrlrsOnum8Rp+SvXkHHD2OusQ8JiuiPDVGrDweYNs8og3iulspSbyWQU29hgUivV7olDz9miu9Y5ScPDUUbrrNu6k84BrOPJrHXr1yYGm9",
                "3NidPN1HabwtvoS7jXLPOo9BHD3KG4I8uKnCO2STkTy2X808dL+3PL2OjT2N9AO9P2EtPBTQp7yq2oi8CZ8rOtt6h7wtQGM9msxBvO0RBDylKVg8TzGyuQI9Dr2cAd+88lKXPYN7Oj1nqVm9nVkWPVn+SrqFDOC8at0iPCZY5Lvn+YQ7ZvyQOwl/VLsY9L46mDaxvBrWoDwNu8i5f69SvfOq3DuEKau7/vI7vX5UHj0cZ/A8kI68PAepmzusCmq8CeCfu834VLwMvJi8Dw+ePVSkuLzFYTU9CLPHvAI87Tz2iUe9w05UvaBT0TxQlEA9CZcNvTZGPjzTFgK9tYGnuxVanjyuYnI4V4fmOszxDjvwjaI92TasvKcxwzxVoR29e3mrPBw0sTy37O89qQvIPVaJYT15p4W88sLZPJU3NLwsx788R5CHvCFgDbtNKiK9jqoWPUBf3zy8Hg+8ojstPNoUaT2SH2m9l2mVPBpNob1PTww9ezEDvTbuxjzmxxm9LinVvF6K/7zU9U48+mb3vAu/yDygxiE8gyvHvJqtgzwmVnQ7T6rmOkxfvLywjDG8Bkb+Ovo0Qz2HkRS9x4PnPF57F70X7Qq9/xl7PEiI4bz/9Je5P7JCvWwjyjwEOM69yU6KOvxcdjzPQ8U8vqjpOySumjw/h/68NR54vM53JjsEob2832OqPcFSgr1KTjs8jJQ/O5RfBbxcMZe8J6WkuyVGijxxNLm6jBxmPLA+FrzYxmO7Y2apO2pmrrxN3lw9EOZrPE3+8T2fX6y9ZUgwO2C26LyiZyc90G+FvH5ewruYWMm82j2sPMmvd7v7r/g8F6o1uhv8yjsbEE89gJHqPLFzvTw3NQ+8sGoEPYziJb3UBZS8vCJDPFl8Bz0/6Wu+ErdFveymRL3J0ha8gd0uPVVzAD3SG+u8YawIPX48br0k5Ga6WhDdO9Pg6TxIfg48s61evAiyKD2AeGO9nes9PGVezT15clm81zSQvIvANj0s/Iw8QtnQvIDZY73k5q+8",
                "oqvzvAhFwbxhQJM8q3kCvbYd1Tq+hAi8ECm2vF7vB71nb0o9h5iJvfHTHj1GTwM9ZK4tvCJqLj17u4E9075Ru28x5zwCMAc8/JZKPEb0UzyvGsS8BfxnPYZPRj10Xeu8M7+TPCt2M7yrfpk9s1BavZBqsDvflg692EONPSAaDT35sJG8eDg5vFaxxz25GRi7YC9dPaqKv7xQkse5PZ9nPeeBtTwcRPu8B0DUPFnk7T3DB7Q82sEava/9KbyAxvq80uI+PQUwzT0SzaM6fUwQPbwECr0TlkA95gDLvJjxXzwmXAi9ANUOvasz/Txq8sM7lJQUPuFU97uh92i8fLZHPS5v7bxi2DC99clQPIH/Rr0/ei+8rAIDu2XyAj1yqYa82lyuvVB//DxD9Ry9jHR1uhRLJ73nVhq9/7NFPE92AzyvxwQ9lSDoPJCw6juZaDG93zuTOz+lujtT9Vm9YmeUvAxbKj19IOG79lwTvL40sjtW+nC89W49vU+jAT04fYC8I41oPMRY4jy9SSe758b5umHSPD00OXQ8HMBBvNAOkbw2dH29e66gvcpaQzz2cr08TfYfvL3l0LyCW8c8j0oTPaWFxrzO2oq906Iivaze7TukPLG+/jrxuq+pvTscBam9mNa/PCJu5TzWeI69Z7Dgu2vBzLz9p/M6aXfCveaM5LvzY4a8Vpp3vNWNyTrgCdS9TYXCPP4gfb1dqO48N0W5Pbakpbw1lwq97Do8vHGekjxI8qK94MiBPCCM1LyjOJ88VDkhvWLGIj0xCtM5DWiGvNINkT0a+SM9f4NuOOtH8rtuIiI9TkAQPVM2Fj3uX7O9ltw9vYclDLzkSq68ZHaBPATe9Lz6oGG99DmavH8lFzsW9747eBj5vDXFIb06iaQ9/vvNPE8uLbywIEg8IN6MvNmSXTwVhAM8rhVAu73e+zptuks8i6NovVL6frwyA208cNUjvFz6HLsUpRI9jf02OyOXlDx5oCs9UwcnPPiiQTznwb89ZZzrvCvN0r3qCES9",
                "NslwPboFgD3rQBA8KKbePKuUfD3YMqy79PUpPYkXHLz0z828mR83vY9cDj3fH4k8sUeWvAHk3TzFWKI8jyopvLBMG7o1x+K8RtShvAz4iLzlS0u7FUqKPP2xYjy5up09Lf0WPc62Lbz0PaI9XRF+Pdf8Gb3JpBM9ekoJvOFGX7x0nAE5XkwbvWSXdDwtMwy9iK7KvOre0ruJ3s689n2SPG7uDT0bTmO8YlAyPSJLkzyUsUI8V8bpPNMIHj2FUwM9xej8vFljAr0WMyM9saeMve0EjzvlfMA7VswAvRlbmLzmWsI7clYNvVUbm7sLm2G8GLHTvNDfPL3ZK0i871O2u39l3zxfw2S9CIcIvJtspz3iTlE8KPYNvcWQsjyrkAg9g23OO1S/1z1iqS88y83EvFwieTwmSSs6dCGhvAnFGzwDTOs8sNZPvcPl+jwc+UM96HMJvhnwPTwaO0W8arW7uhAN/zxxyei8ay54vAVACT3YXt+8rEE1vK7UwruvsDI9CosSvIuMtTsFU9O9jrVbvZMgOD1VxDk6pfvsPIF9Hz3vIfu8I5iPvFcVPz0ja9M8qYmRvLA1K72es4O9rog7PENLE73Jx0+9aZlSvWCRurzPp4a80xzmvOqvDr0aHkI8e37SO6tYgjufJok7pGvwvGIVdbumSp87Jf1bvZCuhb2nIni5H4p8PKo+nz2txo29em1VvTSeOL3jaZ88G20OPXPcLTtwcnc955qNu9pWo7tuYTI8BcThu9oNybynt5A84xlEPZ3JIb3c64m8BBqaO7g7P72ohAI9jWAqvUfwFj0ePv48+LKnOk6Hc7ylOCC9H87iu34VbrzA6R89NHNqvCbgBDyEku08a5m+vIW4FLwEa5U6zB0mvdJdFTwAYaw7wrBjvdAdXj0CcTI8xkeevbCjQLs5FAG9MQGnO1aPVbz12e28oqaIu/xQxrvpIpi8b+a2u62keDxoanC8fhIOvdXOhj2CJB889vi1OvRa7bwVmEu96gUsPYO2Kj3JLMG8",
                "YHqMPKEq9zw3JEY9I1u5OybekT0H/Qu9723JPN3b9Tt9OQC90x5HPN/u/byFZmK9FvjgO7gmyDxJNJG8BLi7vUgXFj1Qv0U9I1MNvFGjGT1Pdx49HKdrPNc8JLwAmgC9aJlqPWQkiT3GcUI8VkCCPVJa9jwwyDU84FBoPR9R67xdFi49ngFaPOumIjthfhm9MYacO3M+RL3AcYY7iv6BPNAhHT17bHe8xgLPvCokibxxJB08nB+9OPT6+ruxkhe8YXDsuynyKT3CvzI8vL7qPPLgZjvViZw8nL8xPQZN1TqdLp88WoIIvecf1Dx8Ipq8PjXMOlrf3Dx7x208l0zuu7AtoD11h3Y9Eb0CvKH2JTyCGLS87G8cvTkqUz6R/iE8oZZYPdypGj2h/2U9hPtbPcfg/7yFGDU96WE4PfeZkTxTzli7bcQtvAqoeTwIF0M96QKguUxIi7zJe8y82SoSvQ/Kibz+8eg8CypbPMyUEr1jZNU9S0cMu97bq7wgaFw8vfM7veSpQD13QnS8kny4vISd3LvTKV+7SrJgPbu40TsWvfs6dUYXvUVhPLx/uQs9iKfvvMhDJTy/cUa8eDP3PJoCmDvbM409aVi5vPFlsDraR0A8rXGnPLZ7Hrwn+aU8JhsZvINBnLxm9nw9VlaxvGqkY71LJZA8nfMfvB+zi7wYZwA9EcsSvZI7wz0G8yw9eEdVPc+1XD3JMio9CpGsvBH1hjwiOsg7zaMkvB74l7wBzRW9/n2dvJG/Szp1Erw94mIavVkQGT0aIxM9pggJPWy3DDufLoQ9zw49PBEiQrysak+7o/CBvfBbEz04lTu/rXGDPF0Wujxpsvu8SaMOPVxhcD0zXwI9qasbvT7xWzw+qNE5j7NSPALlU737SRI9Qk3nPH0N5DybAlE8fpR1PeYa5Lti1Vi9IbMJPUDIcDuEmtO8rI5LvPzWETwVjzu8HaT9PGDs2zxQR2k9Vu2GPAL7lbwTxe68Xk7vO1V+EjzzU2M9cv07u2ksFz3VHji8",
                "wsauPGszYb1VtOW7xz8XPTS18zuDR147xlnzvCIN3rtzT2i9yslWvK2dnrrt2q89wvmvOx5M1by4udO6YQcrPTkAHz1qeY68hTZ4vd2guzwHtxa9KzgDvWrhP7wP5uQ7sb33u6/lC703HYi9pZn7PF8XVzsK1GE7uLyBvMTz+TyANeO8UGArPS03Jj1baUU76ETgvEIB7byr6z09R+pmvZMM6rwabaa8+zgIPsarAb3wwq48JX+aPPP9Tr3tg7y8R7D8PKI1WL1UFDU910aVvOQK4TzvgWq9FOyQvMQw4bzRM4y7xYMwPchvFL0ERD08vjgZPf6kobw13Ow8tRfJPMfLEbxg0QA9lWYjvVRr1DuYkqy8ewlYuj4UN7yiXGC9xDVFvL6uMTwiw5m9RDiCvMhDtjwrmjk7hwwZvJ99WLz2P089pqwMPZbMET218AQ9VE2oPEG7sDwj3zo8OPh5PEza+Dyajtg8FlPduq31PT35gSU90/7ROv4pa7wImlE8GFu6vEopXTyDF3m92kCePKiZED3Slx69guvRPP9bpjzDsw++sDuqvLEeeL0TEYO8EKtyPDpyvrwXawq9ObP3O0NQY70MI5O8DHEuu/bDOT0FXfA8Ko2OPbVStjyUxiK9QNt4PRhAPz2KVxi8AEnRvKlnVTwXnNM8K0rLvP62CTyGOx+8LtBfPXuywrxoRNI8MhmgvChfR7xNLk+9CO33PLcSKb1qf2y84P0UvQqfrrzhQjm8cV8XvVKJrbyTyr28U6S1vNexgbxxutG8SwvhvHL78rzMGsY835tPPA7vLT0Xjag8Ss1ePdMUqLs1JxO8xXPYvDDEhTxoC1O9pORTPMUvnbyxR9u8VduPvErS+zwBGzm8QT2su9YQV70ObYq9S4hUug3L7Dw7UQa9b9lMu4VtpDqa2A48hYGLvTmaPL2PRSY8oCTzPL+cpTyt/Jg8aCk1vYYZJ736OxG9awYxvILd1rxZsU88nqrjuECMLD3CkyG8Hbt6vLkn0LuoL1w8",
                "3PJVPDdLwDr7qkE8G7QqPSGyA73muUM8cyAUvTdJkr0dwXO8MK8Ivfn2bz1tPeq8DLeTPC6NALxnIru86hwEvcBxKjxRfpI8nBsQO1yVA70kMi89hboKO288kT3NRea7NPQWvfvgkTyjfH87xXh1PV6OgDylDPY8Tcb0uvKjdr0FDWO7J80nPQJAGbgF7k280EQovZaXS7vqjW68Edy+vKLL/zve0Hc844eOvGYGgT2Y26u8lU4QvVqppDr+N/y87IZaPSzu4Ttqb8k86Pi3PPoZvDy62EY79gwJD97gCI/c6giPpWEJj7B2CA9V3giPdDMJj0NTCQ+VIAgPag4Ij2v0CI+LIwgPLu4Jj6PQB48B2gePHpcHjzEsCI9jKwgPrNAID5YACA+s2QgPnLYHj91/CI+WQgkPObUIj+1pCQ86NgmP1t8HjwY/CY9u4AiPzVwJj/SgB4+6nwiP1c0Ij8PDB49dugeP6cYHD+XsCA8K3wgPdc4ID1VJCY+FOQmPrGAJjwCMCQ/Z7QgPMJcIjz0fCI+IgQiP114Jj8UsCA+z7AgPcjkIj4CLCQ83JAmP/j4ID6bPB4878wcPj1kIjwpbCI+2YQmPj8QHj3J+CI/vTwgPoH0Ij24CCY/qfwiPaZgIj3J7CY/23AiPAg8Jj0SZCA9mlAgPZNEIj10jCQ95BwiPnaEJj+ruCA/C/wiP6lsJD2RiCY+dxQiPiHsID82zCI/HYwkPDEoJj7D4CA84dwkPyNIIjzicB48gswePBkYJDw0vCQ+4igiPuqMJj1wzCA/xuQgPICAJj14GCQ/5XQmPW7gIj6rjCI8XFAmPGB4Jj0IyCI8wpQcPXJAIDxIyCI/XtggPgvQJj9X0CI+NggiPIyYJj6qIBw8sVAgPahsIj3MGCI9pWggPq6YHD+L1B48r1wiP1vIHD6zmCY8U5wkPCEYIj9I1CI8esAePuFMIj6UMCI+WTQgPpBEIj3QtCQ9XgwcP0p8JD2xRCI+KlgiPwvAIDzvJCI+brAcP",
                "3MMID+d/B48j5N++SPujvMRXnbw0K6i8hi+jOjg/hD0i8L08dBBgvC+RwLxCIVg8Us4nPR7LibzXU4E8KUe0unEx6Tz9toY8TDdyvRyF4Lw+GuE8uA6vvJV2Fj1DnZO99cKNPRGcYTzYFwO7/hmHPIIYeLyDUZc9TcaVu+K2Nz1HlEg8L+cqveBYiryGuXc6qJ3BO9fBqLwHVBk9PJOcPBPsIb2mkAe9a0wmvSazDj27kho8CWvQPLmH4rxK9l29MmEKPFn0Pz0PvSY9Qp8DPEijBL2/2qS894OUN0l4BL3G1Rc8jBjVvFS9vLxM1BM93Pi2vDO9tb1Eo1w9i5+eu8cVfTyfMQM9NdXLPCcxGb0T9V49eY0GvKxV7bz+++Q8fjjmPAViJz1Dk8a7x/LKPOObNjwnh2e9Rs9BverpJTxZUdG89ELgPCz0Fr3sOrU9g9yCu7qkB72IPKm8vHLgO+EBjD2IxlI89zBkvPo7QT0Vxgy9Q3eQO9slrLw2WCa9vsqquwQYDj2RtrE7uUXVvJFCf71f/gs7hZP/PemZpjz0gdi5DdAqPSEJTb2Cbvo8r1ADPAsljbybgF09ZxwMPF6STzzvz7m7VCTYvEDUdz3ahkg9FNvZPLssnL1b5VY6s5jZvFxQejyH2r67O8MXPYkSFb3kNmC8EtFKPBpo0Lwd9Vg8dAiLPMVfSruE2Pi8uheovNp23LsjGhW9YZ2gvDwGHj0yOEG93fnbvJ226Ttt2569wVYfvY/tlj119W09fT/3PBsT5LxuMQw8y7PzOySwMz7PTA49p1KIvNr3hjsLfFM9AnfCO7azPby1vwA9UdsQPGBuLT75aVa9F+WjvVdxmbyIba48dwTOvAWQQDz6a5S9HSipu0gEdjxy6Ti9CbKtPJtaNzzugLQ9w7+Vu97VMD2NAUc9PPFcvTZ0HbxH75I8414evOv3C73QxI48aeAMPbGxHzzD4Sa98kg5PaFsID0Oc6c89vE8PEePjLt7UwG9zRAePD8MTT26f648",
                "F0mlvL5UjbzZ9Tu83Y0cvLndsLyVe509RHIlvMJtMz6xzaE9C68FvD/6QD1YGTe8S5EWvf0iWzrTwBS85d3zPLB6Eb2B+JA9vXo1Pfuljbxr38A9GVDzOt7b0TyjWqm7V+SqO+oEyLxjr8A9XSZKuk+ctjpskSu8c4cpvNxSwT3jbBw8hm8tPfW0qD5UOPM72AkfvYzUH7z30d250DC6vQkCTz3y+Cm8cYYAPTh7pjp8cAk9F2VJPeX7nbzndnu9zA/PvLE/p7zppXm8j71tPMvNWL2o8cY6TTJCO0sHM7zMzRa8ANAcPdrRAT2SvMG7b+MGvHJ8P7sUGkS88gDmvM3uXD1lmoQ9eDljvBJXjL1yaVy8lCqqOh0NOzwR9J09I8ooPFQaQbwMuay845rQPOVtZj33g0k9AWUguFb3tz0MzBk9GEZ4PDpUM71JYe287eCWPJrVKDtAgio8lPlovKOB3rtKftm8hji7PAi/gD2Y9Qy92z7avA9Ekr02+cY87x/0u7av2rw7dES7SRS9vcUeML0hal88VsKvuxz/x71GIP08CyxqPJ582T3vEUi9OUxUvNxcXr1sJIK8LsMTvc682LwZfy68WCGfvSyIFrz24727ADMpPH/VdbzaF4M7EGylu7dkpLsSVxs9h2eYPT6bjTtkGhm9OHOLuTkY5zxugAs9ayAKvf44Gr0BlIa8JUBjPJRvwjtS5om82C8SPflS5rvf8/G7S3mDvIGYhjzKIrE8Ng2MO3tCCD1MMse7qv1du+J9iDyg6OA8cOzmvETHKzyfGgk8qJH3vDz9Y7x9gSS96oWdvAXSDj21LMY8hnmmvatfdb1QNPa6VPsCvfER87y5Ih86CIrYPEFadT0y4kU5q8NxPFfQprybnQy8i6lXusH8R70l4kk91np/PNWVrTop+7M7YxbCO21zF73ppNi8XnIZvM7YZjzyf1S8aM7Ru7GjQL1D+Xm9aHYCvWAzMr2rNci7NySSPAK7rLy837C8FnqqPDW8LDwdZ8c8",
                "7QgWvfVO7LyyPCK9+5UGPUjrzDvZl+s7a8U+PGFs/rxCfSi9npt9PPLwsrylskG9eimbPIHKE7suPny8VnZ2vHKVFDsrsGq9HqKSPHkxqTyL6qG6lv2RO1DsMb1x6/k9EPG5vFJmcLwl2x29e3gOvK/KZbu5ALI6HqtJvKq7xjtVvTS9mK7pO4fQmzydPES77VtbPJhlcDqLNbg9dYoJvCmGB7yUPYE+h29RvPHakD02hHy8Ny9fPO/+sD3FvsU8rWOPu4BMhL2g05A6xZGyOVlwhrzuzQM+LMbIvE14jr28S4K8BUA6vHEmartRBxO9do0qPa+sGrwlxPY8/cgbu8Y7hbz4fOi8dizyvIaJuzvR1Va94uk+uzMJ8bzw9qk73fUGPGGOnTwg95e9a1u3vOfEFr0BNYy8awMEPpUYBLqFFx08R8XbujXSPb3aiLC8s4AbPBnRfbs26P463Q8FvbJYDzxa8pA9EJo6Pa69KbxWAa88LwuDPM9X1zkYVYS8dH5RvfSDqrzZJms8zp9OvWdQrj3izmY9NcW2u990Bj13pUq8lN9aPYMUk7ybIWq9htm6vPyKgbsLIoa9j6RIvZVdRT1f2Yy8w6PtPApRLb1OPg294SlXPQ1Uk7tO20a8UIg7vX+djr1S4R49bYuFvDJhUT3I+iQ973GNvf3kIj0XD9y8GW56PVlpFzquDMm8jKDmvNIivjzP05G8WrhhvX07UjxNYDo7cQX0vMI84DxN8gU8kXROvG7FJj3V4TK9PCH6vNv4xbyv75O8nVcCveUJkbx1R6u8CbuuOl2nVL0cjQM9zcy4PJDw7Dwgb5m8fIJkvCY30rz96pI8DezROr0YO71YPdq8+Gi4ut4C1LzS64y79k5NvMjqjj0XHA+9OtggveOijzwclfo6ioeSPQ/xxrwkp3U9XPvhOxbfKzt6IC694Y9YPFHKiTwFc268f5lcPQ57Ir0f0Y6+bWUIDz2lB4/cAwmPc3YIDynwCA89bQmPALIIj4H+CA9VegkP",
                "LYIIjzK3CA+x1AePe4MIj09BCY8xtQkPkHkIjxQLCY+xqgmPoYUJjwnkCI+eoggP9wgJj1iVB4+bbQkPl9oIj3fnCA+mUggPcWAIj3kqCI/JSgkPNXYJD646CI+93wiPxSUIjxnXCA+NBwmP9j8JjxArCY9QYgiPAFoJD6niCA+M7ggPUf4Ij1mqCY8OFAgP+AkIDyFnCY8mQQiP/4wHD0MxCA8RgQgPLsIHD+s8CY8HSgiPLswHj0HTB49wNAmPyssHj1IxCQ8GIgmPCHsID0UrCY9YwwePzHwIj/kTCY/U2wiPbU0ID0pTCY8AcQgPdmcJD+HiCI+p6QiPzSIIj7AsCI/5OQgPLd8Ij21SCY8QdAePOm4Ij/EzCY+XNQiPl2MJj3NUCI8wJgkP09kIj4aMCQ8Z6AePCWsJj8TlCI9kHQmPDdwHj8IMCI/pQwiPA3UIjwL9B48lcQmPM4oIj34eCQ9iGgiP0JMHj0qaCI9PNwmPZR4Jjy+hCY/c+ggP52UIj1MiCY8HngcPo58ID5hECY/2LQgPDocIj5P2CA+hLQgPT7EID9ETCI+InQePhFIJjy+jBw9BdwiPCMoHjw/xCI87WAmPut8ID7WBCA/4FAmP5q0HjyaRCI+jMwgPYLgIj0TgBw9BZwmPZUgJj2/gBw8RKAgPCjwJD72QCY81tAeP17cJD06VB4+ZI5y+IRt7PURmL7wJkcI8LnTgutuJBT16oNU8XoGXPXNLrDvu4ws9Tju5vN87OT3sEIE0pZtLPcwQ9bzmIL45HMhJvPvVyLxBMN47zZA7vCMPnDwFz128vhokvWoCLz2IWA69lbvKvLPKP72fC1A95kaBPPBsd7yI2oE8MWNJvewvm7wZ+DY8uxO4vHQPGL0N+q28yqP3vO/Yxbuar3c73fDjuv6Cfrz8QDs7FFSlu8DnPLtBI1k7S6pOOzt1LLznBGg84g9lu9nvCTz8PzG83QuXvYndPT2hw0Q8eowoPKgieT0u1zK8ez0QvMg91TuWuJA8",
                "AsSFPAUcj7ytMxw8DuvePazGNzxn6YG92u/NPADkVruyNBK9e+0KvQce4ruLkNS8GRJHvapqMbwhtcU7nKwYPGYCCrzxhW69t0ZnvL7U5DwAAoS8/gVHO7RfizzVwFM89bC/vLEn97z/vmO9CBCXvTsgLr2zbB+9FBIOvXZ7+jwVTNs7SeOjO0WcUr1URTe9+hPdu4AtWLwbmOc8ViIsvYAYDj2Rzj29ivq5PNG5DrzCl4G8a9CWPPQnhrzVXc+8nyF0O2EafLwlbeM8agHcvBIjMz39QuS8r7QMvIrO0j1D8nI3Qs/vPCKV4bzCbAS6cw1lvSuVrjua/Fm8iG7vvNX6nDtuYwM8aTefPH9PPDzwyi090QaUvSzdUr1Rce48RSfLO4GZl71dTwS9o84uPMV6ZrxRke68RMZSvegbCjs+ZKO92G+RvAYoiTwUUay9f+uLu5u41rzwkn+6FhbEOxr3Az1XcqI9x2ckPWALwrwtHUS7LeYkPFcO27uDLBY99pTxO3WDsbsUpQa9xmpwu7xf97xkzQ87OPglvXxKP7zdBJs9C0VNvJBWzzwOhFO92nUMPE+t3brASdE80TGIvZnFtb0ciGI9Kab8ug3G3jzKw4S8mN0vPdYVE73AUEI9+UpNvT3y1zuqwJS8n1gNvaSe17v+B3u9WloCvOA0s7z/gH07Af8svVZjZj0UWxs98TXgPHNagDw8fQU864REvLNhBj248AS92yWjPDnBpjqpuj49lUeYO4qrPj1vTbq8fDeivFAIxry7BTC9cX7iPYvTFr19m4y92RVGvLeZJzzKhCe9T+qbPYEsCD3FBmK9rIKDPc6F1T3RseG7nQSTvPhO0Lz4Uws9bJC6u6ozTT1VWQ09QXAmvKTcir17Sfi8WmTru6WS9Dvt8By98xhNvXt5Fz2vEji9XuWcPbubcTsqf3u6tJ6pO48QY7tUYVk8OM3GPHlNObvaL/48GCZCPINZ6jt2uBe96LsiPPrn2btuNmG90qa/vMyJm70xOQG9",
                "HkkmPZuskzu8pGE87b+7u3HS2TwhBBY9A8sIPVRUjzwOGyi8v7F6vRZahT2qVIK82OFnvCcCATtY0Pg7PRkePRadLT0NVTA80SXAPLzcnrxt5OY8aycCvcHbkDx7/sc8kbHNvFYlWDzsXbI853rFPAGfxLxLqWu+VYc2PbfEBDxAp8Q8dXFrPdAzirzYEec8p2HNOyVHDLxnM/48za6jvQ5Bjru0U2a8CPgCPHMTB7pu2Ve8rImmu7C1p71gDyQ9lZLCvJ6fsDt2ZTw8aC1RvZNlkLzkDPc8EscRPMvoX7v3s/479coePZTZCDw51QS9sGcAPAMMEDxq9/g8YsWBOibvtDwJgag76qc/vYaYKr1c5iy8MAtHvKJqVT37vDy97FnaPJTmUL2TdxG903cLvWpCPLxGftw7kmHJvEUsrjyxG7W7LVFEvKEVzTztKlc8BmIEu/7IxzzA5i49kZdSO6wo/rxXCyu9seshvUidM7wn1js8FejevAVf1Dyk6Vc9aNi9PGro97ujbRm8dcmXvcmGOzxr5cK8pUKgOyyxdjwYupo8fzuNvEu5lrzWNUM9D4oavNReLr3AMEk76zuKvQPE2D0TxCc8iDcyvUJcgjyKt8u7+nyHPXPKoby7xoW9ALqoPSSvHD0tEJQ8fvdSPGe/Hb3keVe5V7ATPTt9kDz1IpW7zoAwPUjfFj6BfJu9y+skvLK7HLt/xoS86/AnPJTG4juVNCc91ITRO4yqIbpixsU5PcZpvA81bb07K2q8UoUIPbkO+bzA5Tc81kraPHH9CryZM8Y9VwEpu0S1MD0yAl+87w79uziZGb3IlIY8zLDUOzVGvry0oFW8noafvHagCbkJsCk8n0vMvOuNlrwItAq9xIHcPMyEI73PfZm87127PRLhsj0n0ZO+ljHivOGasT0Eqls8NI1Fvaqn6rz+4Ya9iVlEu7Vh87sERk88XfoDPEPNlDu9gFO9Aq4svc9IXbyEcke7bu+5PNb/WLruiLE7eCHDObAWebx/mUG9",
                "0duhvHc4zDzPl8c7eY+hvJQX2TvilAi9FkfTvLtjDTw35l69xGe2PIIQSTog+se86VTNu9qemDv+WP48wtBFvEBchjv4OY88lLo2vNsP4jkrvwc92Q+PvXY6nb1CrgW9buMWvDfJn7y4phM9sySbPNFfhDzaoqo97YlzvBNBwjxTUIq8Kv2FOy+vBbsuCE28uJMAvJE6xDwjYNm7Bs5yPdnzoTx8hi076eEvPXkOIj0qy3c8GcPzOxEx07z6KlU8RvSZvEuZP71Ux2I9Oc+NPEOurDzroj481f18vBKiMD3zKoG8JaR4vTGR1bydXz28NsCXO2BJ9bp12a6840sDvQvoNLyKNG07oX5YPZPWJT2Z21G96t0OPeFFjDyRsHm9P0govLFaIDwyEIC8aBYUPc0U+7rWZD48U/6Wu5zoxz3GKFq9iTgTvU8Bfjv3UMS6a57Tu5DBQTwRg6K9VggvvdKJyTwjXI89mPIZPTSkBb3btEO9r54GvT9eFD1GtTa9671/uw55rTy4dw88MCUcvbKCuDwCE1k8vSGqvB1rHL1Bl3o76mfkPJWCcz2tZms9S9ZOPLxWKTmihDM7+AM+uvFwFbxTXNo7sS8NPUoQNj18fBI9SnmlvDgnMzy1vzK+kaNpPN8Usjwsfzy9Npp6PSJZjrtzx5Q9EfVOPUhfTD1Qu5c8tI2ePYiQ8rxoRZY8U9iPvc76OrzO26O8b5E6PAFRuL1jAwW9ahSMvJ4iDz383rS7tfMwvBp6hD3zDoc9tgpXvGz5UD3MFtg8K1kAPR6wJ73dnYS7RtoEPWi3v7zoV888sFLNPJ6DLjyjblO9nqQsPLlnyDwFE4i8tXuKPHuZLL0IwpM9ei6gPHkJ8Ty1Q1O8Y9NvPMZSGD37YVa9xafpuxCKET1LXu28g2OuvDpnQ7oPTvO8s6mCvcurp7igb5q82F2ePICUrbx8QTi8z/zGvGTLELxOOfc4ecqpPcueVj0alWg9aWikvJhgC71XwI+6KBZ/PU5Wgj0Q7wk9",
                "IFlyvMYyvjwU9jA9JVk4O1HMgDsZ/QY7NEF9PWtz5zxpgV89ihFPPBykyT3c/g69zfj0vLxiDr0Sx8G8FO1xu9ElF70DF3o9fcyFvc6WJj01xAK94sZyvfGcRj3iN/k8UZJBvBNY9jyVBVg9DDL1O1JlyLwLOKO9CxblPAY1hr2lTlm9/S40PcnzMz3UioW7QFRlvJhBrTw7Hjs+IRQ4vVrmBb0iY7C8UyYGvb/mJzw95vg8S5N0O1CRDj3aZ+M8E0aZvCiJFjzd/Su88b6ePGPUh7w/WWO6vcOkPH2Hkjx2PMC97FEwvGBEEb1HG948ZBCaPHaHmrzgcl68EyYHPfl1c7vO/Vm9n2W4OxCjazyLVeG+s2uQvfbBmjw8Slq7fczsvDccAj2gA6k4xxTrvNuKP72ri+w8DLNxu0kZNz0Tm0e9lGo+PCdidjz8p4O81KuKPXgEY71OjSo5KksbPeAOdDxyuNM7ATsQvdKBvz39JWK9mpPtu76ghj3FqCG9x7gEPbHN8jv/j7M8be9gPKPD67zsV+Q8eVgNvWAU1jw8vIQ95dGKvSmD7boPiAM9Nn5ZPDa/Jb2AyFg8JDICOm0nq7xqhIg9V7l3vQlt+jnDaWs9r/mHPSmANj3QhQQ9ks4OvMF+5ryQl/I8UmKZvVUhDT3L8FI9HQcOPF20hTxQPPg8CjhkvEtJY7x+RZG86iRFPBeEPTzaNPG8Eb8bvM8wDL3BXr49ZxN5PWsYDDvmXwo9tVIOPZwImLuU6pc8xM3JPB1vur1fXgq9aEPqO//eNL3wSf87eD9IvR3Bh70TnBw9EDy3vVnOcL1ZL7+9GgI6PRJOn7sMVwg+EKKEPDlAsr02MCG8+Z86PAG7PT0Gtz+8cCjlPBTfIz1BN9i6rZFlvctmKb11CTO9e1eNPHEfTz2twLI9s+fqO5ot6bw7udG8V71sOzUMtj04qVq8jIY4PLkCQ70q1Zi81y++PQLxPL091ue7y1Q7Pd5QKjxQfVU8xxXPvcdEeb1IWSo9",
                "cuaWPHz8HD5+lDQ96iLoO7bX2byDfwy9PlIJPbyIoj1qJFu7mTgSvUp3CDx9d2c9YhIdu5qPXL1GHQs9sfCjPPcMtbyTSpa+9wZlPS9n6LySsZ68J5GvPAKMJz2nMZk2LOSaPMPrGz3asr08N4CQPb2K4bzEBcO8E0O6vEdOCr5Pb3i8zdSdu7AvWbvNWi68dbcnPbtRVz0DrbQ9lwgHveZIsTantiQ9cHe/vBLJ+rzTF/I6cP0pPWaoCD1knH0877pBPDTBtT0xDO48SMEZPV5b3TttrME7LBVQvFAZLDw643s9Rmigup58Czz7CFK7Q7/nPJFWJDo7Fxk9yFQSu+t1prxAtNe6rnKBvFLeibyKeY26SONdvQTuAz1FulE8HSGXOqff8z5NXQU9zC46vTumC72RroW9R3pQPUr6xTsrLjQ9KziEvYdczTtLIoO8+fvwO2gNybxluDm9MQXHvN/h4LxZx108pevFvM0kEL1w3aw8DJDfPNkABj2ALGq9Z7gVPUfzsTtfnEC9Lu58O3nWiz50RXQ8hUAqPe14Fzya1xa9B++cvTd7frx4Vaa8c9MTPWpgvLwsEZ47PMY0Pecu073o5O481acFvWPSnryuph28sMq6vO3YOb1nUfG8tz4aOg0Ixrx2KwA9SyRUPKGRlLz8YLA8TxMmPbX+qzzZ23o7KDWtPFwx3byzXok8aHzdPN9ZDj0TKHq9ANBMvQxukDvsb/W80QtXvWTTnTyum7a8NgdUvUIxU7wH98k8nZYBvWGm4rxDJZA9ydUeO2F00LqYqsA9twB8vcf/Vr1nPxM9yGprvT2LF70pYIQ88q1eu9Tm0rwlVwK/O9D9OwMuA72gwgM70y4PPZTetj2gvjY6tdp9PZYSAD12KIQ9JddkvBdL9bzYomI8ooViPdJs/TzHXRE9r2emvQrCkTyiEHu8f4Q7vWPGyzynjUO9qXrXu65IA70mMJG70AGGPCDM3zxRi5Y8BwTFPMHqbT0HMhe8o26cO5Yugbx2t3S8",
                "ajgkvZ0ajbzuPhy8SWUhPP6LUjtgYzQ+BcMfPWlXgb3rNx2904KTO+SwlLuiun+9UveKvLG2lbwYUZe8JrvavGpQP7zs5Ka8zm96vXKAtrwElZu8/JIEPhjXcDwZf5M7XxbvPPoa7TzA6Iq6AoaDuiSJ1jtC6jo9kEOdPZ8XJL3Bzdy8O5o6vHlWJr0rQSc9bxUhPd9egrxrIVm722O4vK5GJr000cY8w62/PJiVTT2Dpys8zRB2vUoTh7w6Y/i8hkvVvDDJITzBnE49DC8wPV5F6Dzp3cm8e7TCPA3KE72I8GC9iMIsveIv5zxyOrk7jchFPNiHH70uhim9F7r0vewSpbx44sG9/rx+vLA/TLo5GfK9rW9+vOVo6z3GJ/o8BeGXu+I1hL0Yv109cNM/vHvcjTxjGqu91GuCPOE7AD3gF8m8NjnxPAPu+rs7/Cw8gkAtPD59uDzmt0O8rtoCPV87ab1T6rW8sRe6PSkIvjqa5wa86kiQPF8CWr3FiQC9/wmJvaGbmjw3PhW8JCvUvHlGDD0gMEQ8T6o6PaeGUrzfUh481ec8PcZspzzfAbu+2dl5vJs5RzyKj5i8iQQqPXOU0rsWkls9LdtevNCvL73mi5i9I/9ePFfOiTwAmb8881m3uzWrQzyQOYY83h4BvYolojwRLDu8LnFqvABkVj0uvd28e1isvI7iHT3LHQM9MfUvveqi8TteFh+9i1jduhLFFr3HgDS9rabuvCXWsbx7J2o9fsvqvBcTjrsypz09VenwPD4vc7uL+Da9L5yRO8XqoTpMKxI9936wvAVSi7xIRMQ8xpXKPC373LxeOXM8d0daPQ3SJT1s67s7sV8zPDih7j1OV9E7I4/dOssAsLyGMle9Ocy0PCgob72gNse77LGdPbvWx7zqF229prhSPXP/arzeqp88Gz+IvVGkk7x7j6S8YquXvajfxLs7Ih28W9GAPZJJ7zwsDOs8Tcq5vUwuKr3rxDi7C/QMvvPKBzwMRqw8u46Du2PGHT39dYe7",
                "9N+vO4Bn4Lvicw89zVo5vLBQNL0GZaE8HOAdPepk1rw7VwC8P+Q/vEBHyzwbTK89w+zlPE5Q8bwJFme89rQkvOaNlDz1zYs8DBy0PF9EDjwBiwo9I6YnPJMGjjyA2tU8iF6uO3EMYr3fUCm8h+CNPN1ktTy/EMY8b8m/vAFVIjzFg4y8QhTmvJeZdj2I7+i70IX9vHq97zxqf48914VcO+5zIT0QoIq8FdFKPMem37w6tvq7KUvHvLD8Hr2vvU88SjHwPLB6EDzDa7e8A+PbPD4uHjwlpKi8QI7iPHzUJTzRBCy+rsvzvDeRQT3IyDa9nutUPWPBTb3OHo68xC+XPfkJgL1prAI9yhl1vJ5ShLz/5Ai9WDgvvRsagr1CrGs89siRvDLenTsPvLC8/2EzvT0X27wKAVm9y7ywO4B7Pzy+Hsi8JdR2vDqYpDyNyWy9yG3TvM6q8jriiHu9O4OkO2Qv6DvejK883LzJvCSmLz1hguu8sgEdPZa8Ij2fl029x9FiOpYmObxBw469qigVPQbPsLwFKhW9rCjfuguugT1IH9S8fRTbOpv49rzFWti7khOrvLYY0j0ex8m87D/ovPMdcT1vr+g8q+znOxolRD1VVAw9uVpQu4EqkrtqFyO9wSOCvN9RCbtM7I47sa/HvBxUqTwTUhk9IUjiPNt2Hb3d8yi9UT9Qvb/cAL3L9gc94HGSvNOV2LvTLgE9RJuBPbjdkDyOd2I8DEVLPVXuDr24lag831M/vcZchbvCeRA7+/PEvAFYhLwk6Ya8kaiSPDaac7ytPVY8wUF7vKQc5bsvgOW6lLnTPLLJZbv9leQ8AynnPGtoEDx0nm+7gJYEPbeLorrS4Pu8Y9zIvZ9/KbywmTi8vGZJvRDMyrx+4hW8ERkQPbo/rzxP/hm8ymVLu3zwbzw75yw59OCtPaSHcbwMCxe8Sa1NPQsbrD14fo887XrxvOiGf72SZBo9vL0EvD7uzj0YKSW9AA1YPabO07z6l6G6pzh5PdsI3Tyifmw8",
                "2L3CPSHfYbzcnE28vjxgPNsTcL30K12++oiwvAGD1jzmHBi8nANQPaeYC72o9g49QbaoPF2oLLsBeEu8CsjyvPKeZzwKTw49QaD3uwMj0rznZPm8Mrn8PLZejDx6R5m81I6gPDJmCjtpIAw9d5UtPTSotLwPEIi9aQQyPU5wB7w2JEc9r1kLvRNqDD0vpcm8e3JSPLk1Ir2BU9g72awUPAg98Lqbu6+8u/mFu+Lmbr0WoW29ROdwPJ4vJr2x9MK8y3HMvFIGkbmpAn27qhS1vHMZSD1Vr0c9E4RuPanpzLzteKM8DKpUvWDelzv7KSm8R66CvJdsMjsKo6K8v7UOvA7d8DjO8mm9VBAovEytbj1UXNe8x1klPLkRJzyy8MS8Ht4QPXhMDjwoLTw9YlJCPMv1hbyIEEc9urIgvQ2t67xKuSc9sCVZvGRodTzOp928/QGPvEPalD3K/ZQ7QfDbPWR0C716b6c9SaxsPIrLMTp+TTq9JnlUu5b3Z73aCjM7nvrOPKHjqjx5Ys67BrVbPSBuQ7w6dG48clLIO0M5BL1dnNg7ecEYvQuJwzul6OS7rNeJPn3xljsb9NA86RGpuh8GaDx0GjW67VUwvX02H7x2zXC97q8IPQJf2zyZx7y7Tr9lPVFjmL3JQR29dtDQOxkXVr3AbRm8f28dPQvTh7pHdmY9eRFiverHtLzCsMK65+wAPe+kzryqVHY8XtmWuvOJpL0niRK9KhXuu+eK6rtrN1A7bn3cvBNGRj1XWTI9DkvMPAserjxGN6e9dHJWvNT+kL1IS2E9vlSYu4lcJz3SiY08tbmxPdEtmT3atUE8zu1PvFovDr0b2Lk7dxorPHxysDu91EG9+WhQPHzLcr1kyRe9y2z6PNCRGr2r0Tm9/PX1PdrxwT244iG9rJbPuxrbKj5n9KU880pTPdZi5DuGetI8Y3LCPPdvpTvZrps9WPEnvLdxXTvlCS+9/Kq7vNCujzxpTS08D83xOyVfKzyrRtq8cqIHPRiuJTu/D5q7",
                "kGA1PDPpRj0g6gk8jpOEvDTn0D1P2Jw84ZuVPRsyh7yidYE6dF9NPYzzrz2VqxE9Z8i9vakynb121gi9dff9PLsH2byss6g7wUYqPDOZ1LxVzzQ9qXIaPAjjILy+11c7ij0cvYk4bb1SM+k8PydOPab4YjxfzBE95NV8vcdOrb2VUmG7YCHsOwTFKr1eVhQ97dFfvT6yOr1AuaK8CrOiOPQdrjoVYxC95JiqO7rCOb2nIEk8/s80vf78c7x1W6C83/xzPBGQ7jue5x89jXsquwrXTLy3RTk8+BwFPTQjFj6HURi954M8vY8CkryeD1Y9cnbgPLvWmz2jp8a8kgFsvaxhl70F6EC6/sjwuwSf5DuzrsY7vtQDvLOzT73g1Jw8C25fvA9ywzyoCf48KI84PRJfO70j8/I9s0ZxvGjOsbslPPk8xyMJvEEmZTzwkQc8lQQwvTnqlDyHtvQ8u/taPXRw/jw7rgm94VWQvHNMQj2U2Jg9UvxlvZD3GjvIeA2/48iSuUeO+LzufJO8fgOcPVQc9jzw7ZU84RCiu0YR7TyOHRo9a+MRPaQe+zyk1JE956V0vK0eGDmxCLw7KSeBvT01Cz39zxC9xJO6vG6ivDuRcVA6gy80PUFZCL0uzvY8M1GcvZtF17x4U9o8H3hWvI7eVD0PXMq7ejuWPGO9XLxflMi7AlgDPZ0dJDtH+uQ97oQwPXJggTu0Vei83n1VvYl4WbyrXvK8U2sqPYqkUb2yxv+88l2ruj5AQDx27ec7IWltvb2ahL0ECoA72YXQvHxYhbyop3q8R65ivLNlpDxttpM9VAMJvUlLdj1EpuE88mxmvJwpBT0mFBs9k51cvPhOJz3sqkE9I34rPYp2k7wCvRa9Yh+0vMYVuTwcUgQ977PUvO4KrTxP/gW9gVZvPBQ/0Ly9gCs8kTevO10tij1jUDq74tnYPKh2Fr06bbG7+bQhvXxXhD2QmZC7ggzGOtcVtD24ybg8RZSpPHD/Sz270Oe8iK7IvCeTDTxL6S48",
                "ImgFvHw+9T0z3jm7jKFjvUZ61Lpr37G8qJUuvNLHyjwxSmW93Vu7vPZ2ubsz5Vy9oeu4vHtSFL3bABU96M5Kvfc70jphnoI99qJmvRd2Nbvit+07wNSxPMFIYLycQg09TZNdOwS0gD0w7jS9zxpCvfQai732Gu28ZuOVvCWoIDwBDS29hnnfvc4ROjxxdwe67D8kvLEaLT3cU4w7L2C4PBN3+bzfUKe7jJYSvUCba71VQJq9+LosO4iyYb2RNM68k/wAvZGa1DypvNo853KVPFaznDsBvQ89/iozvTuUjb202Ai93EQOvUINwDw/bym+R+ZuPDCdnrzEgJc8Sqw+PR38Nr2nLia8JpNnvRY4eDyts9+8Vx3svNUISTySHzM8X36PvIv4FD0PBaQ8k8mAPEPydz20WxG8VWEjvQUgEb2pxGg8YNtIu+1SpzuVZYi8gikqvdY6pDtnqJ89iRpwva8mA73IwYi7a8hrve7l1zsz9fE8VujmvPrQjL3fkBu7ZK6TvDEYpr1KrzE9U6lIvbG4M70OMsc8FEhsvVSwkr3VBt+87XWDvbiJ7TxvnYu8w3yaPQewyLsadQ49v11JPcXfbbxbOgS9mVbyvW3iA72Ted27BiwKPYhZsb0aEbO8k34sPabgOLyH4yM9HoY+vIGm+jxZTy+7w3QPvP3Nuj1oTLw8Xy4BvkuTDb20zKI7C03CvfEQjzx8rRE+YrFKvHhrxj3aQyA8ygARuzz0UjtRk1A9loWDPrOe+rokiYg9ycVBPCFzMr0JUP89896oPYkK0L1c3SE9Tsvru/RV3z1nViU91oDuvDnFM7zJCuQ89HTtvCPkMLzoGXK8QjIOvZJRFT0OYRi9+fJCPPdQbr3EozS9MBtbPHCIUD2Ktlu734wQPP6evzxz25W8UyNvvUK9vLsm9rw8gRcaPLdnOTvF4YW9HA3GPFoVnLy7MNI8iJXyvHaOqr1VEOK8SIz7PBq5lTwdmbi+A46cvGfRnbxVTJG87xoPvPF6Zz3S0pM8",
                "CXqIPWA2Rzz54VY9rzpePZt22Ttiv9o8i0zKvCEyv7zTLBG9GKUUPagB7DtrU9Y8XFdqPO/2vzxKijq9Ap7uOy8bmzzQLRU8ZhZTPNC0Oz2YzwE9qs87vIy14rzi8P88BbdPPgwlyzx3IGs9ms3AO8qqLjw87Hu8ixUaPHrfBD1LP109dVNaOh2i0TshGpG7snkdPcSngj3gucu8OT6Rux8C6jz/JxQ7GtJdvTOTLz0Pt4a7AjUevdL5OT1NfUk9heiTPN/2rLtOyic6UV9fPahVCj39uD+9OqVJPIAV9TvSu5g8jliYPojlUbw3k9A7xhV5O8H7qzuh+5g9aCTFPN2KFjyclFq97QgwPVvZ5zluse88ygdGufYCIj2BgCs9g2cmPROLBbzVJ4y85r3XPIBEtj1hUKO8P+M2vaxoQTvsQO+8fyY4PVxti7x6TCy8RN7GPBPmtTweReY7M0U4PfSfBr1+xcS88G05vdOhCD3fEee7zl0kPe+ZhjyELl87ebD6vDKDEb2sTZM9VodcPejV4LqzsaA9Vri/O0BMmDm/Nh28Bm3MO2bsuTtmKjo96eUMvHlrJT28QIM9jUWru5+RtDy37Gw7Aj6Mu0YM8zzLwS+8bsbXvNyiw7sVwg08P7eROpVeBD0VFbs9AYOFvNVJwj1TB9I9XZH0vJcBoTvohqE9KhLAO1drtzwxvEe8h8AkPuj2sLvtyZG/xtZavY1Dfj1IfNW5s/lRPREIvb1Pdz87KwJMPcUPEb0Ufnu946Z1PSQ2dLzxKL48TZiRu5uC3TqJvRo96HMhPU+bBb00nOc81pj1PMfpGj2wIQ67wh1iPLFWKbwvJnw9sKY7veudqryS+tK8qYmfvH7Aaj2gSDK8mPEZPODMwr11hpu8FwpvPcEihzzvOgK8oiS9vAmgijz8T/a8p+5lvSl8kbvrStc8QXT7O2WbCDxkGQm8QGLFvLlJKTw79Ag9VoH8PJAWGDzpolW96SR/OeWjCT5Eiz092AstPE8ZS7wrBWO7",
                "mRYtvPXSS7xliUo80cnnuit5Ob30CIC8+PkBveVWSLxXHPO83e0uPViUSDyR9/O6gYkJvbkVgT2ZX4u8Q28Hvf2fIT3ii169cMzjvM8nmbxUktG7zSfVvJLQy7owgKg7aSMpveCrYD2icpq8SYEePO8bMD3kWY67Siw+PH575LvzNvW82l/ZvLE1WDzYvRK9VsLfPMtpeDt5Pz49ZGgfvSeIpr2hAZ49Z6RmPLJ+lTtjaNs8BVmlvPE/n7xaEnm9Jst+vLO+Sr3tqfK8AegBvcK6iTuHOBc74vaFPOrf+zy96gS9R9i2vCWhqzzh/q88bN1GPUI7B72NxcI8pzbwu7h3Or1ng5W8fjpKOfx2gzsIU52750hQvNQCz7o8LJO7fKUXPHiZYzwxqyQ8qMUWvdx/RbyfKeA895RVPZPAEr3h5So8RuTTvBNwNjxY5FW+m3ixvfxf1LvLcz483cQ1Pa3wQb4KKYy8i0fXuzIaRz1f2YS8uNK2OCT7yTxx9oK8hyLoPJdMIj2wqAO8VgMmPfphLjxSZC49DGGyPJJiKr1UZ9a7hbqgPX1MeDxGneG8igDcO9Eshbx+AJW8Fx/+OlDuKz1MDYC81x84vEsspDxuAxo9FWZQPQ3eHrszm589fubhvPfhCDsCWS09QWvBvKVaJ72PeGi9eju2u5SE8jzG5iQ8Q6jQO8NgO70a6SA87Rt7O8oxe7xikdq81QeHvAW4lTxSqJu8VbCOvCvYi7p6Aic9QPDAPAoAm7xNCXy8v+kHPVKtAD1rhZq939KTvMVElzyq8OG89HPcOw9DuTzu2Kg9xNvhvNP6LTvtRh89CMaSvY41RTzzR/K8g7BWPVbJn7zoCiM9VnogPURLq7xuFZg7BIP+vFjb6TyuWmS8eljFPHCaMDwKPYu86uaFPKE33bw/fUc8ft+WPUJgxbxFr2E9odRXPFFrcLy2vUA8bPvovCqafb2DpmM9WT00PA0co7ys9NO8F0QjvX5qkjuQvly8dQq/PCAEJj3ccE49",
                "C/9KvJi/Jz15OQu8szcTvcNFdDzCxIC9h7gBvbSOJr2droO8cRqAPYKWFT0s+VW9OkcOPUHNibxLG5G7b09RvGpFA7uetFS7nwlFuzSQCT0EgoC6s7YUPSgXOL1ijVS7Xw5hPKzWhbxfhcC7fVuwu07hbTwDpia9eMmFu0TEM730ksu9fpN7OogyE73PtyU9wR1yvT2voLsbofO8RdjnOqYNa7zU2vG8OLQ/PCJRUj0oCgQ9rXnXPAQzgT6qUJi84eAtvN+TibyB+KG6u7ErvfHD07ybSdK8q7n/O5PTjLwsQH68kWsfPZC597uxxxQ8gu9HvI6CGLyyc1u8H8c9PX1lXb2Xq5O8OQq7OxtqLr1y54S8IyXPux0eVrwsLrG8HebyuyZ5AL1g5J+7QzWevHJMaLxiJyq9vbyYvIg/ZzxUORQ7gnCLvKUs+bzCOsO58MSSPco7uzuFJX07GsXJu6fZ470pt808AEE+vJPkIT28uDk9zchBvAV/NDz1mbu8EVbSOqLCkrqjoao8emYSvWaAAb1vvhw8fmYcvDn/iTxfKCy7IBPlO4PlCD3aCQQ8rEGVO3+QJjya/Bc+WE4JvZFHwTvabQg9Q5hIuhZir71H7Ay9P9UMvaesXTsmpVQ9W0SivV9tBD005Ci8U83kvGnd7LxSHAa9/m4TvXFVmD3tkRa85CrLvPUAYzz8AH49wkWCPSZs+Lyos5a7kkCxPH1XRTx3Vtm7y1KmPPEQJz1nMgm7EaHEvFJ3vzuexgi9VVKVvLo5GjxjChM7P8JNvGBXPb1A8a49LwSSPDDANLu77MU814m1PD7Q87hQ7iK9zDRFPAN3RT2ILNo8qGhcO3Tnkjw6mx49110DPcb0ezwGFV+7sYAXPdBLqD07Kak82bqevFxvKDzFcdq87KlKvcJYXbvOBUW+j9eUPdx2AL0n6N68P4bAPJMRhT3nlb47oRhBuxdhtj1hrLs86gk0vLS3lTxlYgk93r8/vR7J9Dw1aP+8J4eQul3wH7wwPws8",
                "yy3dvCuXn71i1Jc7lsUkPNVutjxPs6K9uNKOvJOE87wBMJI8NBj2O3MjNjx7rNq7NRxHPd/nFzwQ1lA9Vt3qPD3mFr26eYw84O1KPQ+X6jtRkMg9Q/oMvY4xoDclgRQ9V4syvYGunj2MnkI9W67fvBK7mLwkuFC9os1QuiEeZz0VQDk9UcIFuzjPVT2s0449cCcHPXx7Dz0jCxM9U4kyPXnPOb0oGI88Eq34O4bAvzxKIqI8WImROvCwtLwjn+G8uDvpvEZOszsFfLa9JwQcvBW2qbwZVkw70CkUvbuCXrwWk+E8ENEbOrW6pjwVRYe8SWVfPURmMj0809W7HbuUvDD/zzyYts47r7ruu4CJw7uXbum8WsSDvT513ru2Ez49AVCpvPlGGLvDBIK59dKkvRw+bbyvCtQ78FDMvBh0Brx0Eka8/WJaPII4hTyg79Y8hEsuvE/eDb1CdA29ox+MvUdGGby/fuM8HWLBu8C1HD2erTs9KMuTPTpuRD11gVC9PaDePGTzTz3IHVs9qRbru4ky4rxsEaa7MIy6O0eYwD2Ps7253NOXPJs1xTtKpVm8JyseOyCFbjxO2Di9OE7pvK2aobwhv0Q8UCYhPcYbbDySydO8eoFsOdyZZjx9dMk82NK7vJpdszwoQqS+xKyZvdTMyjvoyRw9B1skuxGM/TyPKyE9i+/xPLvf9LyLsEg9bTwnvKUZMDse7Ec9sF8tPdDiED4uVKK6sOlEvIinm7vo0IU70eXYvBw6wrxKT9C9aTe6PFEJrbxLbB29AoZ1vHt7yTzE2jo9cGltvFJOhbvx0gU9Z3y4vRc1Br0N3HA7Q+f8vKBUuTxX3mk8XEVSPaYhdr0qURw89ImSPTr7Az2mH3i5CG3+vBq6Qr2Q71E8ow8/PKBuBz2HARW91XGevOpOPT1DBbq8FQkaPZkZ9bwPJZq7Gx6pvNr76LtpwB69o53VO9VVvTtY1XE8+4Sau24IM70YzgY7pYalvRBB6LyGsBE8ax7hO4L28zsejMI8",
                "Y6Vqu1xH2jybImO8q5muu5q9A7x9FaE8178Bu3XeLL2A2bE9YCBrvIcrwLyywKk83BuiO6KtFr5X8MY82pdCPGRhajs461M8hieYPZvv3zvyucW72D5eO/vhNT18qhw9ysBWO29SEz2F1CI8lTHvPLYFC73tnLM8KDV1vTQYzTzkCcK7IFSAOj9dPz02jLW80yE9PfFcZL1mflg8ymFFvYthNL09M428P+4+vU0wwzyClnS7qaYcvMGOlLwLXAe9TDJ1PaM9PDsgo7c8ZXGMPMLD7bwnGsy6s7RRvPy0hj20MKq7TGKUuzaeYT2S5tK8hVd8u6pKm7y7ZSK9qxxMPcOMED1vT8m8MCRkPImFnTwA9pc8+uKSvW7aljzHI3c7BAGDOx47xDxsGoo77SNNvIuJj7xovVC9eMUIvSsnDjwXxgW9LOolOg5AlrsEUgc9AneSvDy1Fz3vxoa8owazPKqnAD0X56c9iEtKvHW8ED21SfC7fhkwu31vjLxGeW6763LKPCwtEz1ax5689NCLPFipo7y9HcQ7X8ejvG3uoDx+ug693ZIcPfN0ujq2h5C8hSWnPJrYhj0SNMK7LogNPHhxGD1ssRY6Hl40PdcX5Tyn6768L7NKvPq2OL1DRy+9Sa1xvIhLkbySqes84WO5PThXZTyuleI8NnaOPAXPoDxadb08OLjGu60rwTyX3Ne9FrAOvUH9CD3qvgk8Tv+uu+ubjbzfbC49t//AvKGAtrzUFLM6SqvHPIF6uTwtdAy8gZArPNUR6Tv6DJ68ETVKPIyO57wxmIu9GNGRvK6eg72DO+A8xITqvCcq372BPRy9uxJ/u9+IgrzR7h09sa10urEvWT3xE7k8s9FuPXWMCTljUlk9bBkUvT8PJT3ExHA8OmeEvG3ZYT2evyi9KyiavZSTcDy1QqI8YB1kPKd1+DxCr4K7gMeSO0sjCL37W229+AW0OtacC7zzdBS9Ko7qvONmJzsG65Y7XMWgvUALCj0ltpG9lfBfPTYBUbv5hhE9",
                "UvChPUahsrxJKTI9w1ttPaxqij0vqWm7t1GOvJv5qD0pUwa9c/rIPFQTaTzezMi8YsHKu9IJTz0saha9RSjhPJyhk7sZ0Ka9ormIPJKz3jvoXhI+Kv9SPOuhy7zNE668Zu9jvJP/Hr3CqqO8DMKwvalPLz3uhwk7CeIRPW1bML1dzZI9IyWxu9lQQzzD8wa9pyxJPXKS1bzgxss82sN6OvW82Lz5VeM7SflhvCh7zzyI0hk9jfFMvCM8Mb2umzG6tvjFPLRv4jyf0CO8vz6wPEsbQbyRKx+8VK3CO/X/xruHEwk9XoI+PTfYn7vYmDE9N+ghOhofpDqAEqs83EVQPPop3ztNU5I8XHGUvJ4T5Try1Ce60d4kvCSjKL0w3IA9yH2cO8j0ETvxbhc8XLj5PDeGzrwUF328RZc9vGTOKjwyhzg9wx6SvPfcIjuGd/U851ZBvUgUf7wKbtW8xZ43OnK4R71QKro8zREZvWq6Dz1TEM47R63fu+DUADwK0i89bzqyO4nAlzusrVW+Tst2vJ13BD03zco8iB+2vLqoA761gwU8Z5gtvfqn2Tpn8m68nlWsvVhY6TzxXVu9OSS6uzdRnLrUahy90ST3POQmfjzjWvM8NelKvKwADj07Q8s7yyIFPZIhP72GPsk735i9PKDM+TpvfQQ7o3FMPOvQHrtTv3a85/IKO2HK07mPzaY7YIUQPGa4HDx8N0A9kA+mO6fGorwcARW9kRNyvfTQBDwGLRy8JRqEOysLnjzEsKk8fLepu2o0jT1X/O48yaQRO/hiUT1oFgs7HQ9CvEIN6LzJbfy9klb6vOL12jz8yh491Weeu3c3SL2q+yS87UITPcobDD2bQAA/F7mPPKKVDj2nCzo9W9ofPXby1jyH0sm8FASFPfyWljxwvEI9E4rbvDoj+7tzkU49xsPAPDSrq7xN4SC7mmKCvbqw8rtu17a6BMbOuWx7BD0cG928xCaJuHueaT365IY81PkRvTV5PrxfMTM9A/GoPe3RLT072F09",
                "ck7VPfeKF71VDwM9aQs2PctzvbpKsYc8ND8CPcRHHznnXA88YaAsPV5PAj2oLBe9avJ/vf8lg72URSA8t5cZvQIORj1EPAA8TinzPHvAKbx04Ui8/fROPVr55rvAZcC83UnxPAZjkz3ASgc978NvvQhLbr0J61A8LY4NPcmRtrxqfUA8oJmtPU7RqLs1S/+8aYLcutjYN737Tcq7ckSgvfPIAL1F6gU9OEoQvTxjibxzKAm8ILHHvKZhUL1z04y8cxVqPZ0jLzyqSSM8pDBRPHLMUTxeSMY8LJ3xu0bAJr3fRzo84yYePfS1pbyY6Rs9eD2JPE7UMj03qqk8aj+nPPppyjw1HEC93XJOOwdmg71/rRs9yYBGPHyYmrwV6QA9W4jAvH6/4ruFNnw8sEGpu8eyhj0cnkM8t8H9PGcGEb2L0fM8/WsKPC1X9zozG6a8NXOlPaYlrzvWnq88kdeoPCjqiTzpXe48Lmf4PI914Tu3cuA8tfKnOSC2pTzB8Hc962r6O1OCELxwvN47sXBfvIj7+rwsXzK9bi+/vNzlFz1BR9g88HNRvao9nz1jCqA8qCFVPJ+YGD2hPwa/ie0xvCs66TrURaS877P1u5t0Kr0d+ym6SUIQPU/uXjxlftK75cKMPYrfQ7yH64o9PxBIPejCm7xFiZy8ER+bu4jH0Tx+7Do85ActvBEtsLySsu09+clBPOVP5jutPzE9MrdEvNTBVjuxu1I8DzljPVYEyjsj0Ho8joFYverk1j0q4Vo8sRcuvKDPmLxRgDA87ZC9PMsdiDydfiU9pQDhPCQ4kjt34fi8flKjPRfZkj2Ivd482xumu/PD/Lw8ovY7T1MAvcJAgrytR1o93/RSOnWJnzyUmj+9DM2rvErIKr1cmJW8d40bPRSdhDtlsWw8pVbNPEaWC7v3Y4M9PZ+vu5UOpj21b988hl2xvasXj7zQ2UU8Q7m7PJTJsbwpDyc9YogpPXGBObyOxNK8T+1dvJugh7wFtUe8c7mTPPSjeLw5jXW7",
                "LXnpPCbDGD19FMG8dZ8NvdX2Dz0WdDy7KaMKOrvNKDyTnum7bpYRvUpSOTw6tYG8t55ivJ5fjDxfWcI8817+vDX1rzsg83M8tbE2POUkEL3Kdh29ZmOUPaZg2DuK/CY8TcHAO7bqDb3IMEa9bVV8vdleBL1KqfO8mO6TPRA477z4q788z/Lbu/ZywzybRiA7QFgZuy0rhjyqfd08Hy/4vAcEgzzxO0o9a08mO0ZN6DxdPD07sr5gu/rE9rxRsYu9NoAcvPuugbwBUC09y+/XO6Hbq7xspcQ8gGTTvErwqbxrQIK8WIEWvY4CVTy/izS+dCOwvfIgQ7yVNfw6Xsa3vYj/jj0lcOy81ohKPW5/PT3OOO67CfQQPZEBnrrw7CO8jdFXvNDaET3Eow29pgk8Pel3ZLzDed65no+kuJutLT1NVJ89PY4CvPn8v7x7OHM8Zp1aPfKL0rozCxM90eCdPF+gFroZSRm8UJKOPSWAJ7sqx5Y9MQkdO5ka1jwmxBa9E2+/PJZtfb2su8Y9xHlGvWd+cz24F1e8QMWJPJq7ZT2O9wG9iUMoPJnIKbyx3Pg7lJmDPKcfnjwolLo8M9AxPQUCXD1P4l49KFESvegtAT00FMq8Esj9vKLhkDuwyF08l1dEvfmJzTwjWcQ8n69MveOulDxa/P+8G2g/vZAArD3iPD68HUJ7PCUigzw8iDm9fbTlvD1v5bpkwxG98Eq+PHgyjDwl5xc9Rv0mO5mdZTxLOTE9oCNmvKz1R7w//5k7H0hEvfBlgL2Tyzq89y2aPLoknbxNlw69Sb/lPD0jFbzfwTi9xC5uPaG9/jvIGfO7GGKYPVKmn7w7zIc8mv7rPKCdfr2SzRw8QaIjPJYcwzxnKiu92XssOmyoDT1F/NE9XSDPPDWyHTwyYyk9+LlQvLfqSD3aDo29oI5CPZRMwTuZHb48KeIkPZIMzzz4DBS9sXggPR9Hlj3V/as8Cqc8vORJCr2Usg29kBpgPJGznTx3vWG89pwSPHhQOb3xinW8",
                "TnLZvFY/Nz3LoKi8VgmhPGqWeTz7nr+8xdVdvRu7Sz3fd7a+hcIlu7LWqj2Jmpi8vORhvUmgPb2Qwza8+QHnvBcfSDyacz49cxTdPGmA3Lu12Tq9Mg3JPKmYMjwXigQ92dNcPS1khb2n4387KABhO2L/DL0Rdk49AyAEPTcbGLyqOqo6icv5urLAe73WVke9Uio/vPFohb0TkRm9n3KZvHBCvLwTSac8fiP2u8gPyjwJp5y8SUcxPp68Bjqfdgu9J74gvDk93by4TaM8E97dvJikD7woQ3Y8jXtAu7yV4by/D+M7T2WGvPAQ4jwDnZe9enxCuwfQ/Lz7mr+8jQqHPTe50zsHGgq9cry7PTuwLTxlFZy7RBAAO8qw0bzCfAM8CKRxPAS13zzjEkM9dZpgvFIKtLvjFog6Ym/ZvGeKFb10beO73HYAPR+ct7v2zHy6vKxjvBiWmL302Sa9FM0JvG9rQT1FdWy9DQqFPTarvrvxK7A7O+G4vG0Wz7ytHIi734NxvEw7J70ucvs8qhChO4u6X73sqpC8IcuZO7FR8bsJ9xy7C5bGvJhu8jx0sCu8sUe0vct5jbxOWMY8PJKFvEuhlTw7HUi9yTIMvFjKlTv8TRG947FkPJ3K/Lu45MS8Iw72Ouu17bxKHDo9YE86vXihgTx8/wu8ZmNWvC9vlbuN7s4728HYO2lzvjyd4h07WmWWu3yZJ7126CQ8TjxLPZRQ6Lsp6ji8aF8ZPSqBVjyb2SE9uPssvV/r3TooXJm8hKacvR9gbDy+NAM79KFlPX/GW72BpWU9JQ7/ul2CPzysFaE88dSDvKLWlL1+BZK8GiE1vDMo97zpyAw9GRR2PdGoqDs6r8A95ftJvKGLRzxJopc6SPitvW+7lbsUhgK+/rWQPFcpAT1/MI68EV8RvDn2dL2EU309R7VWvUoHzTyoxyk9WFdoPSsA3Tyz/8M9JMloOzumgDtgH9W8/kcIvGqcTb2dzP07r3MHvTxDAb1uB9s8G0unPLq38rqnZ8q7",
                "xL2mvcWdFLxCSyq9oMFMPCFNqL1Mp6e7a94zvWoSNz0ekYu8w+uIPbQ/xjzAkqS6RxCqvKzYiTwPPIA6yt8rPU4eab05yxM94X0vPe1GRbzPsZI8ktnwO9VTibyJmlc7PtlSO8ReAL38Xak74GrVvDiRPz6Y6lO7MEITPPwCx7xb9FO7O2eYPM7yDD7cjjg9w5kFPd0mQ7w3rQQ+XSJNvcqYgDziMCI9xXH5PIVJLLyuf988tzbguv7D6D3i9d05dfcOve7n7ry3KaE8ZM0YPa1Mh7ti6DU8n9otvM2Wlrur8MG8C6wYvQf5dTy1I5U8HNQdvT7bprxq40K8DIVdPWgT1r0zeME71lI9PSkj/DyiSva8uh6Zu2T/xzxE3fS8uzGvvc7evzwPltY8JzMwvRhcmjyBlBO9NuCEvHsE7bptN7E8iMWkPQ2Kjzx62yu9v8plPM9eTL01xwu7op8BvcVS4zra6nI8teBjuwGa9zqUiLM81wIFvf6VNjxcYR29nzvlu6E11rxO0Ie+MuSau9yN8rk96Eo9blm6vIWTJ7zOGvS7Rd22O4E40DwSulK9MA4lvfZdv7yheZS7XBicvAbMqDunzzO8YN4NvcudvDnxvz09n6qPPDQDT7yO+My8rZ1MvcXvojyjHym9YcxBOsIyjzxEvnW7cImvvBxJJrvRlho8AV4MPU5EWr3lsaG8sUE2Pa3D+jyKOHS8v9SYvGLYHz3izpi85kLIPKR7zzsqnVA8JlzKvEV09jweCQI8hzPeu9C7ojtEcdm8lhdLO/SgTbshtCc8VicPvp9rAD1a5Nm7e74NvKMixzwBWjg7r6IFPfjY57uEx787aBdUu0d9nLucTRm7jeSNvfoOXz2iCgg92pSru9EX1bxCUtW6W/YSvWCGfLx6ZtS8ri2svDnTbjzyj4C7vUwivWj7aL2626M8JzdqvNStkTtuGgy9fTzVOuJ8/byhTJS8w4WIvCjxsTzn8NO8K6MWO09iZbxjvNa7LYBuPNSQSTui1aU6",
                "dRnVO3yHI77hdE47/6FcuYw8LrwrkWM9kgQYvVQ+VD374Js8VkvBPIzzWzwjv828T+QdvZBgvLwLCuU7Y6B5PAVO1TopRgi8gVStu2F/Rjw/oDC8LbNnPKYEhL3OW/E92RHIu0tBk7ms7yE998zePOEyID0lNFa87KNwu45TCjsdtm+5Ziu/PCY/V7tnqrq8CEs6vUicDb0CVHm96T6QvDn2Er44t+26L5tnOxiVfjxNeP+72eYau9GIubyaW3Y+0Ld4Pf2m6jxZ1iG9EvMYvcLuDjzO5MA8uwFhPDT8CTvFNWa8sV/3vM96Fz069h63S9XFvXegLD3KybG75iyJPWz3crthVUq7bv0XOalwZb1P6yo7AW9FPNBPNbzEEuQ62kyqO8i4njkkybw6pcsFvdSADL0Ibv48s+ElPICpzLkY5OI8C/OmPGk0krudkyi8jfFfPNiHBT17nQa9SYRmvFaIz7tPrx88h08ZPIlGTDv97aE8+UGiOzYyXrzMDY28PnmOPAGH8ryxGby8E0aoPEg68D2Pkm49xS3LuU0iwzwH58y8xrNvvNWMGb1s5Qu9Z7oFPYSrCr1XIIg7PjWyOmhm7Lw46tc8arq/O65zH71tE4A9OWQsvGlF+bwu0fI87f2jvf141zyK2pO8Oe7qO1YVB727B7G8xb4NvTfLG70aUMk7iR5ZOoc2fLvFVke9fUG2vL1cM70dYzA913bGukGPFr1bsMc9AEEKvHCUG7xRkUC9x9jNvJW7Br2Esym9oVscvHyoT71I4eG7bZgivLqQHzwYe0Y9E/D+vL7pQrzL/bC7AIoZPJPv3LtIQp29Hqkiu4Pki727zS8797WmvY78arzIICe9G5/LvGQPPLxR2SE84NmhvIKUiT0uSIe8DXyXPHvjSL12nis8ga+SO73RIrs1t6K9DixBO1OcYz13xBQ9sVPUPFG6rj1cI8m73ldoPfHpuzqBOlC8DhgAvfMDHj2s6ym9CIFvu5Wj6bwoDba9tJ8ZPHy8Lz3nrpM8",
