{
    "input_shape": [
        72
    ],
    "hidden_layers": [
        {
            "shape": [
                140,
                73
            ],
            "weights": [
                "sXaJPHyw2ruWkPA9V8E9PDjLTrz60gc90d3jPBXXl7yTa767dp0DvTGozzy6zhs7yy/wvCeWuLxzLlg9NNPJPUN8+DtrTPM7Y2KRvKnu8bzXawU8WIWyvIW7Yjxv0qE7z5+MOnIBRTttja+8huJCPIdoprwg7xY6xla2PKBTXDvWZYg7ejrXvKCtGb1EAQU9tbIKvBAGk7vdnh28e8sLOv6QxbyLQPa8ub7SucbfmLwsG/a8ecs8PHVEzjsW2hS9WJDTvHwbpLwoZu2807wEvb2Rhbx+L7O83UWvOat8mbuHrdI82iMwvP3RLT0HDCY9IrJpPBx797t354I8SFaCO2LC27xbQVy9reDLvIE3HDyX9Ok7UmYqPTyPG73whjy96CycPRXE7b19aKs9ARR8PAZ1KzqZYce8sH40PTrn3bwVl0Q8EQotPTv5OTzaDFK+EkrmvbXNGj0OWmM9dWYUvNXyNDtEyw484VWaPc7Ribvry4K69vKPvGJD8jtew/y7ryL/PK1dZrutJjA8cTmcO76XwL3Ghf87FOGuvKi5vTwQP7a8AX2UvIOlgL3T5eU8nQp1O3PJ/DyVAug89ozUupwiH7kJv4q9+zwXPTUbvzuTW468JyFaPCKqIDz23zs8N163PMWMVzueUyY8vvLSugejrbwjoK+6ADq2vGbYDLsAXKy8de0iPONMHjxmJOY7UAcUuzByJbsfuKS8RY2wPKonlztxlY+7sFsxu7WFaDoCoL27K66EPPUczzsXlpU8kofPu2ZbnL0Cu845MKtIvLFLRb40bua+xowqvO1+JjyLUkQ7VOzZOqmmJLsOg7u8eAcQvLbrvzoMR4u9keGyvUhYoLrrHR679lBBOxOXkDvKizU9xKrCOge9IbvYwzu8E7kbu+kD1DtAHKI8C6yDPZ69lrvh0Bs7tzOqO93rKbt0wRo9Ry3LuvG+FDoI1Yo6pxIbvOSrOD3bfZw8FyXJuUZS7Tu6o+m75qhUu9E/HrtZ8VA6+XgEuHmeADuF5Qg9",
                "LrypO1n4Crxwc848uPGIO9ggOrsbuzW9t14Wu2QF+7l8s886c+6YvERJpbyK9ea8A0GOOUjNI7q0AYm6H4HKO1hFjD3YrZA64DIZO8UJ2juiUDs8pPTOO9sgA7vwQCW9d+J5u4KQ7jr6dLQ91vKzPXr8SD0q26e8+pPpOyS+qz0YftO8w0GcPYy0NT3OkU+8Sz8cvRLzvjoaXCC+y9grvZJKyr2d7wa8NodwOzZRmjy4WGe9rKDgOxGWNLwpZqK7Ta0gvEb3dD3kPwm8llXSOw3vQrxR3rS8tbxcPE6FT7wQpNU6rcE6vdQyFL3hXIE8puDqueppGLwTwLE7kaPJPDLpTT39s0w9jqv+uxztzTv3tWG7Xg4uu22IBLtEMVK7xICLPH4ofD12ccu7+cF1PDkagz2rHAi983I8vKEtPr2hgqU8wFSKOx69LjwBxEM88U4PvJXQA7wdbPA8dWyQvCwh9bp5AoA88tnAOjowXjx3ERq9JmeGvPOlErzF51E7feu5PHcAITzCcWC8Jc1avgkdiLsok4A9qCfFvOyb0Ts5i6a8g/YLPvgAFb1IQge87D7Nvf8D8LyMoPA6PqU5OipFk72lGBI9PRmOPMztyj3/g6S8wKuJvWemljxzYb47tKQqvQCTRbuA6S68wQwjPE8DGzx/Yru7jke2vBdv3Dzcm988WPOPut7S5rzGvTc99eK1PEJ8j7xRQka7X0saPOZYEzybc3G9LsWEPKC4Ozworww9HGf5vJ6wpTxXdzO8kLadO6jQG70n8oA705/xO9ivGz21RaW7eLgFPJq3eLt/Alq7mAWOuVjRZzzKU+q7OObbPGm25zxkFX08kCcEvPYUXztL15u8caGaPAXAsbyXlLW8XykAO9/Hvjl0dUk8h+GlPPnoHTy2N4k8PJGPOy8LZ76G4iU9TCC2vBhYD75S/Aw+igQOvb2Fnb7DiXs+E54ivmUw1D2gyLM6tzS6PKUkEj1/24C9SAY4PdwDi7yR3ls7qpYJPF541jxK8wi2",
                "Pl1FvCf4Jr06ZY+8A2CHvcLHoD1EegM8jJp0PZMiUzmavGS8u88rPBeWW72znyY8YUCNu/5oBbyhnkG7aiyFPMdQWTy7Gnw8JxoOPTBpCj3hmp67Mpp0vMTgBTxGRH68tEY9u85pmLx+axU8oBysuSkFkbrXuYc7avyWOz1+hztAML67ot0vvBx1BLzkv4k6xhcuvDDsjjwlMQQ8FC0DulkMILxp+Bm7IDZiO7E9jbsez9Y6VV3LvCBWwjucx9A7gVk/PO7cazySOAM84D+YuiwzrDu9Nym+Jto8vYb+Z7pcI22+OjqlPf4JLr3mnTM+WM1HvlbtDD6u6X29seWTu5f2L72dh8W8LFY5vRDooj2whO27kBz2u+YL2bwMYGq8oauJvV681DpJ8M885YxhvN+8iz2TJ2O9J7bTvNa7wz0WvI09cunNvCc/l7tfNh093Gb8u2QidLxIrBm7/sO0OXdIBTxKbJO86aq9vB3AUDulJjg8b62hvIyLeLzVJLi7d2zFvOFhjrizigq9mRcpvHaqH7sdM3I7ltTmu2sFeLwNCqI8KyFgvNSCBzvsLcq87hCfuxkNEL0e3B84suKgu4zJ9jv2kQ+8QUzBu96FnDxInCo8hMIkPKitJLxoFY677e2VOqhL+jvPquc77muGO94oCLz2+i87cXiqvrkjcLv30SS5G+/RPs5cUb7SoRO+OAK3OgxDlLp38KY7hEpBO301Szy+Xx27BBKxu6vqhj4Svi6+ceOnOkNurLqSGZK7UIiePDCRQL4X07i6PmBPOlR0mD0yZzw82Mivuu3HHb2ehAS+xHGhuxkSRLtPGNq6gkYAPODny7yh/q862yqFurItWLv9kIK61aoCvLsLkDzxno86mHSluX1aerlGUoK73roAu7WBDTqseRI7tlRNOhYUkr1xOtw6WilJu0Yq4zsfHno6n4mPur/zZT3REJQ6kHF0O86hAzvdvE68uKg6vCsacLwM2/k58c68uz++9brBjEm7XOw0vKXYRblTWb+4",
                "ZOlUuwl6gDzNKqu6f+BoO90xLLzMGQm71TuIOqvLvz5VOQk+3n2LvWE+zL24kji+ucc6vQ2Xi71owDk8q+1APH4KD73kY6O9zlHGvlyve764H+M9Ly+Evs42g7wtaKg83HODu05qqrw34ES9riLeOuAKw7zfK1Y80gc4OwyvjzxkYgK8taFQvNbWlbtEs4E9VxscPBX56733ilG9QEylvdAWab0MSeu6CPTeOwODj7oAefk7cPKzu/wHs7sqNDS8HaGXvBOWdjxo3xw7tSAIvWEnsTy9DLK8v/SyvNsCibyhqie6CLBAvV7vrrzSUoE8rJ9TO2XFgDwfZYm7YhkUu2/SSzzRIU88eY3puyCvPTs1hz88YL1oPDsTbbzF1KK6mW8yPHoyLbmAo/873og9Olc9Gbymdz+82HkJPMcRsjswP8O9ZGhvO8KR3zq5pBA+yxVwvU/nFb3P7wk8EWNtOvkxzDtbQZs7OMcsvengozu/g+s7FhqXvGCmgr6xHhe8KU2Nuod5Prs3UJo9Tzjgva/SQDut1Ua7e+qIPfBivju9qiW7f4BDPEA+LD0HRVk4Ufv2OiWe4rvk6sa7ZN5yvHxVizov0326mPX3uqxVHTwcfRQ8egxnvcklOztqTMw6BcWnuqqxCDylSXw7r0DSuwW28zq0OIe7t4dAPfzgELyk4+s6ONtZvWLK+Dk52YM7YH5jvUyPjzsrpKK7Z3B4ugDtSTyCBVo8Xc/YPKm89bvxYk27LtJjOlesyjqobbI9mKqnujPUtTkJllw7bEDkPGRlk7uMxCG8bbvHPMIxGDsUeGQ7fCLUvV6OqL1rRNG9aFmpvZkKAb0ch7y8sciDPIUkPLxK0z0+6O+Wu8Q8jLxCAUY7XF0ZvWAePr1o3ug8jfEZvYjSDDwwN7k9j17cvNQeobwC3x89cXv7vAEz5LsdR1E9Irs2vJEzijv49Dg91FSAvYUbzDnxCKA8AgqnuxslvLwI9xK9NqUuOmlXUDs1La27OJuMvEs36DuOrJw8",
                "K8kLvXVdVjyeafU8+dWaPI1V/bvDz2A83N8ePPOtkjpYDDg8GaR7vIGb0jwqjwA8ll8qvDgpZzxD+x0894frOl+UxTw6f4M7OXirPJnJmTx4rC47yd1DPHwGlDyb3JW7pSrpvKReNrsFlJC7dZMUvLFLsDxyi8Q7JT0qPJVKDDy+U5I7PedjvPoGRb4uQX48v+cgvuUBkz22eZ+7JKgjvHomaby6PFS8HJD7PGHwGz2OvOo7Uq/wPKE437x+H5y8PxkvPNXPTryGNBa9OHtjvLBJzrsxifW8pEPwO/BVLDyc4t+884KUu7kBhbwTjVU8CaIGPbU9jTkbaI87hfq5u9I/DbxGN6O7C65Qu1y9JzzTHtc8H8LpPB9nwTyo3jC7qVtBvSV6tz1mv0M8MBKSPbfpOj1hHmq80EEEvF4niru9Roo8dwGFPAtVTrxtA8u8FH8LPATvl73HsoO8lUtYvDG8Brxvjza8TPkEuy0JaTlSkTu8o0pbPHAh+btUFeG8wf4tPSAVf7qrM58763jhO+9eHD3TCT+9ZrGuu9KLN7vc0uC7JkrCOkrjkDxnxtk8yx0CvQDJ9ryWt+67l7qIPM0gHrwPQ8Q8TCAVPhcf3T3N1E87ZdfePIR9rrxk6Pk8FzYwvefCEz3fji29QtZGvLzmk7zTy7S86/h5vGvmajtOknQ8rsUDvMOrWr0vD3O7ohy9O9CDfj2ufZ+8qEgQu9Pmrj02fJ68wsixvDhnOL2DDne6nKayvJyOTb0O9MC8ekW1vILBxzt5Lg29CrCSPOWsabyzsyO8ZbJVO2QJ2zvwllg9CFDeuxZKJbyurQo8Xyq/vDZsA7wG3ew80dSIvOPkQzuBFpe6dtMfvG4ed7yAIx27F56eOz2ESbuyR1I8LoijO+p0O7y728s8zgU6Oxk0a7oSJoe8am+4O74gQLyCkqw7143LvIhNKrpuRzy8y07kvB1iWL0HHUG9JUBavEvWI70cWfO7+hgKPSHuNrzeySc8Rwn4O1LLz7z2+to9",
                "zMtNvYnmwjwg16G85HaaPFa66TvSU7a92j+JvW9STrv7Xzc8/zKAvL51S7zSCnK9hdO/uU6hcTyyBYK8uLkqPfQde7q8wYc8j+fdO1u5gLwBcwg8mm4nu+vnSryngvc8XbN2vOhw0zw2Go+8mbEHvfj8Az0u5oe7oit8PCl6wTvYtf88rcspPD5z0DuEEgO90qBRvUsk1TyYdn282gBKPdirTDxQ9eQ8bWVMPPwdEj2TRog60dEXvNGsWLzZTCy8TC50PPIbezybChc9rxhLve2dtTsyrvI7+D13vB9Kgrn4xCa8psPNvPcwwzySPL46WQ0pPJFOML4j1R49TiASPYnx6DtO9Ly8ElXQO+AJ57zDQnQ+36uGvZALsDw5PZg8JgZDvB2hjTt3v328d8bSuxXLqb3bfvk607pfvAsWQLzaxEe8WnjcvExyHDtbwaO8JaarvZai5bkucq87iNd0PXynDz1bs4Y8akegPX7x5rwprwA8DPIHvYFxkDxNYSG8ZYsxPWoaELzVfuS815BVPLQNxjwkbR87qTYOvOIK4TyAOT48g2+YOmmt5DtMFhQ8PXO0PBiIlrtXnry8f/MPvLDS6jvAVLC83H9qPIsKCLy0IyW7YXcivVmQYbz7q1Q8uWX7uwBfRDxWyTg8gRoKvJ6LkDz8eZk733Qlu43HRTz+1+06i2qQOnbJ8LudVyc8HFYNPHZ2Yrz2v7+9nz9yvUv50jzprWE8Cy/vvN+zm7y03sE86eBPPL/SrL25R0e7BZ+pu3nVXL0trRC9IpMMPJX/BLs7Cxk9SADwO4OlJL4AASY9VqBaO6AOtrzNAii7u5HnO990WTzJgfI78SBavbSwJD2gPEO9YV7vvB5CT7zmgm+6fk/1ubgb8bu2EGk8/nTSvK3B2DsiXcW73Gz1u3GDgjyLBRE9zYL2Oax5y7wVJE48DmOYvDnU4DsfvRW7tU1Hu+UFXTw78AM7/7BUvM+Zpzwx+uA5O+KDvMw0oLw76y673uo0uhkJWrxeUX27",
                "IN2sPIlSE7w5GSg8XhuQvJY5A7yd3D08ldCvPFa+G7xkbUk8rVZQO0WEbzmnXAq7v6UAu/E7FDzjJuE6F7Aivc8foj1l9r28X9bWO1FQ1DuvHse9LJGUPXJkoztVHkS8G/2vvCeWKjwVcSg9GnwSvDfkKLvK76E9Nf+YPAxHTzsbc2U8Ygw5OwsSMrzleCa7ByxAPP14/Tr1UcM5b0+lvDDVc7uF5Gi8UtYnvRLFDTyM8/48ozGyvBokHTzfTWy8XDgIPEnK9juwNB08rGtRums0rr1/3Kc8mX1DPVCeibx7Igo9S0QNPRxYlTrg1xO8eoIBvFYVRb1NJtI7PcgwPAOTJzvDkt08gegfvacSublmE4C8QrC2uxi4RDvGr/+8mn1ovGplkbxYBom8gAVwPOynx7i17jU9VgyOvLUdcbyWnLe742KVvNymijs+/HC84g2NvGUwhjt96tO7KUV2vJ+QTTs+v8y8yVtlvm0EKr3v8108P/nZPOXeHL0MlMa8CxXxOyXOn7ydbCo8jXyxvrYfYj50cBY946baPI2V5DyYB1g960Oju7ubnDuL2nc8KLMRO1Ja4LuA3Bm5WdQmvZSwXr2Zf+S89OY0vVLzzbzllnY8+o0vPBF5rDsUI4S71KwCOiIxt7ydziE7ZuQKOyIjjLyuQzs8WrXKu8fIjjwPQJ67Foc8u8tIgbvTKii6RbezPHTMjTxic628kGSIPGokCb1d8ru7pzV3PJvG/7zXj5S7ezcLOxs1hDso+xE7gHegu/V2Gbx/gRi7KDwpvNnqv7yDSEq76thtvLyfqbszQEc7/jYtO1lTNDyDiXC7BOpeu1YEcbtujSa7ptyvOyh2QDxiUGO+C7HCu8psND2SDcm94rKQPTLsgr3RaQy+thIFvsct9zwc5UI9QQ4kvWjFKr11GP88XL+SvN0XLzzBESG9sUPCvWaLlbvkSk+8UNo+vfdYj7pobs88jQh/OpELrzrT7hc8ZguyPIRinT22/4A8z3z2vF80rrxvRvy8",
                "azV0vVF2+To56967nlp2OuSNJzwGMkO9cZVWvd0U9jzYwoK9igHnOkiKXDs5ruq75e3uu8RptTwWKx87ufEnvWt+FDyVv/q8PuAvPHALoLtQ/gk9X/civaVo3TxSdLg8bPnpu+2AAbz9ZAu9nJK0On7PAzosFSk8/ra6PPwUGL2s8IG8+OcbvMq5VzzNymc8eZ6WvGKIbjxsnca4WEGSugRGJTymDE48bsiGvjGrzT1+0VG94NYhveYZx7wNF0C8+JN6vU1Gxrsl0g29Cq5TPkU5zLyXLg89yOvYPLZgJr32k+271W6WPXZsD74efYA8NwBGvc0OvbyW2h+70YnqPF/R8LudekY8TWiFvdpPh7mYtFA8LI5IvHxH/jz/UfS7EHcwvPi5krtUahq8AhrmvDiUtTwSLRa8oxTlvLZzGDyPDTW9slXOO5tqrDq4LIs9VUYPvemNCbygoe07TL54vHlNC71amBw7ZtYgvNwCq7qnqyY8sD1+O/LnF7s3MWw546cwPGGPVDqL/gw9NfmGvBmATzw+I/O7IR8/O5iACrtX9k87zcUOvbQsFjtCpNs6WACfu60VFz3VEig73rs7u6DCQzywrhS851UdujEpQb4wKO+8S+ThO10ibb2WGVy9VxcqvXOICL49Yh0+E4h1vV+/Jz1WVdS8J47gO/my/DzoaDe9jbaPPY4iAbxN1j47DPk4PT4YIL2YQwa6BbZ+u5lcg7sMDbo7twe/vBdELT00sCY7cA0YvUd3lj3EkYk6x8g7PBfO3jxZXN28V5X7OXk8zTyanoU8etuQOlRtHb1hKT88pdCkvFK7IT14sg+8CIEFvd5ZnDyfeJY8j3+9uwdFOr37Xzk8ZhtTPHi2Lzt031S7wTqlPCvJjLvlEIU8BbACvJnnYjnoDPo8GDAXO/vR7boQ7Oc8WtrkuwSCXrwGcg08P3HhPLUKwru5xNy8j1rqPIKGxrw8OaC7if2oPKZ6zbwisRW8xhQFvB+tmDzGoSa+Xtw8O/SyWDu5gDI/",
                "DWO8PgkxPTzrWQ86nH6yuW5oaLt/HhC6Y066u9iUWrtQdHa6e1+BvddyyzxzuMw54BDsum/ya7r3g1I95HRLPnBvPzrOyVK7BBiIvUeHCDbKdw+7h7gPvA0JA73nJJy6xfopu1a4mzmnpOq612cnPO2t27oR2Qu7exHjuE8iq7mjIu08KP8ovJIgGzkEfYE7HQ4yu0mdizqHsXy6cI7lOoeDADkEIiS7Ql4UPD52Z7oItzY6fv9CvCso1zqGjVQ6aFqOvGPxvjocKw87rvDduR9mTrypyhC8pRJ0vMcV3blp3gw61wwdOgErqjleCj89h1aEunTjfzp3Dg07T8fpO34OuDrXsh44BBEMuznWS7qk1vY6KhTevc3RjzsWp6692MCNvRDIJz2jF6+98RpZPhg/dz7Hzpi8UVWWOxIMM71LMlu99hG3PGBUubyQvlM976J3PTLzpT0A23a8ViDMu1fbT72/Q1O8IWJzvNtxdrzLydo77CiUPBJJ6DxwI6A9bfIYvaQh6zw97oo9Q28gPSNuozzwh9o5imgrPaQtjL0+YFW9Kgy5u/jyqjzltxc9IIBpvVr0aryPYjq9zQYSvaCQhbtRBAo98R3GO9twwzx3n4S8LqYHPdgu0zwrmxa5vKWNPIx1YrxpEMk7YF85O6WthTtHsZA7S5tOO9SKabxZCa88ZmVVPPuxdjzg9uW8vTSZvCxs2LshZb28YVZ9vIpX1Lu028C8b62kvGlgqjxJXOM5NI4tPPWSgb5eKS497bpAvSIPLb2xR7O947UivVZpXrwksDG9ROqkOe+4Cz3RUKi8KsS9PMPwCLsX6Z28m9afPQzHmb3G54S9P/euOyB1QL1SLTi9Tq3jvFt2/Tw0rlc9k6pSvQr7Hb090x86J2vxPLyVgrvaubu8OMdQvBh3XLyZGG89iir2u8XoZrvqQGM7/ZCfvHv/hDyiFuU8bvg/PJvjtDsK8zc8mEfQuQXSfTx1sQI84wyXPAOrPD0c/A09d4ZxPUFVf70QH509",
                "c39vPORrJ70oIDA93Rngun3ez7sTUM477dUIPcT2vbtgBE49+WYzu3w2YT1p6SU9WKuMvNuyN71tEwi7fl9YunI6mrvjRZs8BgUbPVp3oTn30Tw8s/YQPEjddbzk2LS9pFbavXUahT0/UZg9KYGOumz3Qb0oGB291Ybrux9NRzn/xh088eRWvep21LxVUQi8mPgvO7Yw8bwc6NY8CGO6vL9s17sGq188IukWu9PHLLrsyh88Sx4kPDQ5sTpGRKk8f84/vPan8LyHMRA6qk9rPaKhMbyqciI9D2HUPFRAMz1zfP48XHikvGJ/QLoMSXM99r8YvZmyOr0asSe70amaO/vp0jxeYu+741/5O5o6+jsv1Ii8MsQiPGMy7Lz/nxi9fFDyOxiqLb2gZOG8Nvo9PfgwG7wDdvK8gYY2vJfPkTyWrwy8wERTu1CTVz1l6ky8UsJgvEjgSb1FNqc88Zcsu50Ay7ojXI28aSNVOWk5czslKuw8o/90OzVqjryT8Wa7f72MPcAy+D0DMhG8cipYviImxTzEM3K9phSXvKHK4D3ulv+9AAIOPjeKsLwboCM8HcQWPagEhb1qmTs9X6U7PSRfS7ypC7U9afFlvYimp7zbXx+9f81xPL83dDzVYwK9oeVuPU9UIj0hq2A9QyzaPIyjSDx8HWY7BPQqPdTfHr2KAFW8sHomPemR4Dz4Ffe8/3CTvabE/LxOFE08eBHLPN712jxwGoM8f1G6vPqKvbsrqds6oVUSvayKyrtf2Qe9PEUyPH/zCj3LZ8W81jShuzEYdTxdWYi8gkNhPHmJSTtMUxA9gW3Eu0dXfzzRCbE7l4ijvLQQwrxwR5i5oGjBvA/CjzvbCAc8jSzGO7qP8jvwUTy8TvUbvIMmQzwiLZW8u8QGPBAour408yS8PZjevYLTCLwxW+w8NgaIvKHDSr1LLq69QC0nPDN6Hrzf1uK7qIjwPcLgwr3zmla5kh6mPCtd5Lyxfby8YZCQPazaBz3E8Ee8XSGLvBCKfjw4oBm8",
                "dkSbumjPujoTyhg9eXANPX1UlL2JgTM8/5rzOz2DizwNmmg8EIiovHlkyTyRuW09hIlKPQu6kTxQXMs8miJVuxKyFT1Hm9c79jo2PQpKdT2PXwA80iSWO+YFK7tn4No6L9QzuyhQhbwSoxi8DxeRu2G9Ejzv8BS9oNOmPBBXojvJDG08GFf2O5oe0TsZQgI8+cuAvG/J0btF3kS7aPAduzrtDDyHjAu8bm4huRHnzbsKBGg8vZOvvBoyc7sQKzw7r02LODebg7zw6JS9bh8ovuLGxT1SnKw9YU0uPJvdmz0v4Bk8clqFvB9gfzx904q9sgOQPCF8wLz84IA7OZhRvZDgTD15IBc7l0FZvM6ISryQYK87L1JHvNi+CzqkZYc7MGxLPEd9oryN2g89lm2xO2sI9Tx0Ycm7CIAOu5u7bDyEKxE98DHjPI1AcjryAFA7d+T7vIYPCzycmh89DQ1YvF70mzyCdBW8IJhZvC9uu7zOIpQ8Hn3uO4jAuTyuvUK8Dpj+PI3tGLxuaE67G3t4O2yqUDxKhqo89WuavMzNa7zNTw68/J4Au+FKEjoRqfS8af2AOpiYtTw/GWM7k4P4u7cz77wSgQE982/ou4YqeL18JRC8QyOovLzqujvedfw8vUtku0cH8bvH4/m6rE3mPa2kg71krRo9dm01PfOn57xJJDa9hpsnvvf7y7v4lX069UvCu/NB6ryuMBe9RAAKvZMwbb2Bmzg965QavI4xKrvLI/G76hjjvMZ3Bbxg8yQ8hVPuOzFGR7x4XxK7uQfxPW+uHrkGW747eo92vJ837zwABxm9/cRAvdeln7y1hOU7SyE8O8c4kzwhOPw7YfQlvdSsEjvWUDS9NLhLPPAuj7v5kls87TKdO9/i3DoxC4K9NtpePFOsgbwJfHs8ulkpvAa1sTsl2l+86y+uvK73ybylwti7k/3ou+OfLLzuzH686PWzu34etLx59RQ9zVCAO0hnd7vzr+Y7Rg6lvP/J8Tkh7Dq8wYLgOyMrSbw/fWO6",
                "SqEbvPlBkTxSI3a607Y3uobIH71O50W+l2zMPSU1lj3qDCy85JChPTOUcL0PKlQ8B2XIPA0Rz70xUQu9ib1cvqVQ972cEoo9tQEFvkmDW7wBhdU8YKEpuv/6eb3bDa89dv7ku79n1bwC38e8zYgtvMMQDz3D/pm8rBuDvc566Dol/qM9J2Y1uhedir1vLki9lqwBvYye97zM8w88ZUPVuulKs7pmqxu8nvn4u4j6FTn2kNy6JnSXPEp3wbsZb4o6/HQSvTZnpTzO9T295Kjru2IiMbxycIy8n04DvUFlsLyPrkA7xVlNuvx1MbyeMz07R2jbvB7S0LtkhbO8JX0Mu+tlgTpEQjQ7JgkJPHmEkjxwmik7htM2vAaOgLqmq2S8/AHCOwY+srwur9m8pXXgu6SZfbrU6qS9BE+YvMctGr1MGvQ8KhAPvSOVmDyHa768QFsWPlN2gLqvcyY8151DO4L/9TsRbNm847xCvB1axbytixs9twFmPG8J17tdsKO5ZMOpPFDyBL0iHzS8XA8nu+WM+L3oNOs8MNKHu4VBnrvBBz89xNHTPCOBlj0eSIG8Nhs0OxdPobt/tFw8SFYuPDpPTjsX2Ks8ENl9O1gjJb2gdjK9Q2khvA7cCjzyG1u9f2QdO52uRDtxX5c9/h1VOwAnvDuRxp07KXRjPBG4vrveIps7zY6rPKw/nDwJAAG8vc9eu8tBpDspN4E6rC6evEndvjjUCvG8mV/LvOThKLs32168K1Z2uuS/X7wT4bc8mCCSvMNF7jpvZYm6JKPrOwALnju1jRk86QmUvQwHhj1cdZi9j80DPVYdLbzK71u7iLVYPeqvoTzgggO9BAZSve/C6rtY76q9TsmVPJ/DJDzegiu8AmiOO0UASD0ZxNA7yDy8PMcnvDwyKvk7Ph52vC6I7rthrXS9Ox15vd0Lezxjpeo73RoaPfz37Tss0MA8GGK4u3cC87ufVQK8K0YfvTbxXj1WfNW7EODlPMmngTy0ROs7OjOsO1zYmDyt4088",
                "ZuFjPPnxNTt3Bt47L2t2u2JeSDyvH4G3GyjnPLfIUbzXuF68w8YCPR7FgLugDRI98SwePf4ZmTwHurA7PmbPvFzttrsx30e9OBznuolnPjuGiLo7fwA2vGGWQLpnODE9C1AGPYwcJbxj8so8InCxPIdm07qN9sc8CB6sO9ZM97xjpOq8sXpxPW8flT3OV3y8LPJJPYewQz2kSra8pba7PF20ur3iS9E86Wh4volO+725IsA8GTwGvQspqbySCIU9anScu9W6Hrwea4s8RB/7u3KOFb5Zf2m7uc8jvKfbxj1hals72Qc2vbwEO7xNb9Q8m7vkO87Yv73XdOu8C66UvdnhSL28Tji9ZonEPHKGDj3ENle8x35ivTFORDwhSgS8BXgvvUT+mTtObAC7u4M9vLVfhTvTlR28iPOku/LOrbwqF+68NMssvXllKr27Hvi8TFW6O5ESq7wMmJQ7zXyhvGgyvbw/V668d7mUvHYWlDu493s8eAHOPCpazjx6vEW8LeHmOhcBnrgRg868Zfr8Ow4O9DwzQWc8URVxPP8pwzs972W+UkhYup7DZ7uHcZW8sGioPcYqjz4rAke6G+lAu6O1g7sXiwE8VB4QPrc6KDuMUOW7gGcYvXupeT6rmdE7ns1LuYlDujm2oIQ98DGhvZ4S+TrZ/xe6AqXqugxG6bo1vT07BWtcvNDacr2eOfM6P9apOoCj9rrDljw6lCcMPdoFLjk41Y+7NYg8u7YuG7s8EPY8J4/1PZKNLzsNCI47m46Quyd8fzsusj46aNzzuuDwHrsPxpu5+kvQPGAsbbvXMYc7urUYPeBbgTuFn545XGOAPL4j6ruq7Wy7fGIAO4V2ODzFrau7vyHWO+BwtjqfTk07f5gwO4jlOztLqpW8D3ogO/0pG7soMy+7Fte0uoY0DzsGODU6tsMtOyjKkTkxLKW72GBUPW0wx7yZNVY60BlbuYLTZL1mMUc8VYPRus7H6Dy/g688V2RRvANnFrodqzM9DnjzvsfMrDw/YXK8",
                "Z/Nuvd3/Wjv9ttw7BgkUPHiwlD0WJa68qq1NOm6zhTxDZtQ8iS44vA+zerwPiWq9zJKNPaJGqDz2Vui8E/k2PFTwzDvsRBe9zUc0PLQ6qDtuiv67MvzYuzCWojwPSNi8XiYnvVvXHDwaUEA8riHvug4Sn7o5vwq8WPOCvD6yizqlbOG8G9ETPOsbbTxueVq92IMYPawD+Dsg4Y66N543O2cgDzxLTpA8f8v8O0SEtrzRqGu7rPzEOxxo2Lrg/LC7ILc8uSK6UTswtBW6EbO7u+I7SDvkiSW8DPeru3sYaLw3Yqk6K6kVvKZ9Cb6Z+wU9Bpg7PR2KXb2Numm9F4WOvWWjqLyLy609KRJ/PKoH7ztn44y9M01jvCumab2ib0A82qgMvq4Mjrrb4ca70Qy9uxhBlbxkFPy7gnNQugqb3zs9rtq74GwCPU3oJrzysDA7Xi+jPIR+/btWFmY6OEy0uzsNPTyBmSK9qhYCuWrtQ7s50tU7A+w+u7u2tDxKo/C74HYQvGQC7buBTy08xSGfO2qByrxtnYQ6BrNxu9ERcD0Xpwc80IdYPbLGfzqEVjI7g4HMvLLolDy3urU8q5sCPMRyWDrozc46GgyovB78arw86h49pgSXOvEx57yy0kS9wbewu3woj7wK8gU8d5H+Oz9qLLwwZF285yULPAVs+7tSgvU7PiZlu+aI/rn3mjW+tB5CPT6kpTy6Mr293dzVPFU04bxQoyE9J9MOvlxro7zGNhS8icpXPFhn3LrhW+a8B5YmvLI9dD1XjMe9llN0OgFhMzv1fK+81JKevKPXsr13HQi9xU7MvLcUNr2s++M7utijPIF2HT1BMu88Kp8Nu9V3fL31jAc9BReBug4TKz0Fgq28BM9+vMJPMT2GV2i9r8wTPJhPCTtXg9g6vhbWu0u+9zsXWRg9G0oUu2kpDbul+E88YyiEPOfJgzx5HIM7aYcqPcvlFrxS6HE8EiVYvKxjIDx/Hho8hGh6umzQkrzjQui7gkAXPRaJibp4ybK7",
                "lOocvFaI4Lv1A8+72Q+Ou2TadryiMkE8ef6jOzxSxLzcOXy7Yh7EPHc+NDyeriG8SVUIvkKK/bzKhcE8EecevoG8ATyVWPS8y7ivPoL2mj1EdZ+8VEAbvlAZjbylXIS9jXGWvHE9Or04TfM8ERtTPD4xJb0AXVQ9zKuau8GBwLzwMm6701hXPX8Dxbp4F8m85OOAvdh1BD24qZs8Rv4EvZr0jL2cWQY8AVgAPTBGR7y9Jus8tMWYO+dY2jsroj+8uDX6u9LKgDupoDC9ajDku2xcZzxqrHu8iPGOPHZhBjx8E+y7Olh4PG/xMjwQZNe8Y1u8vLwB0joOtes6K68LuiiZZTzKcVS6RnPauMPvJTw4N8C7ejVSO9Lp8zv5s1G7jS83u0Cgnjs3JfG5zaSRvIjrG7ty/+c7mM1tuwlnFDsHHQo8dTuWPH91xjv7fjY8MFqVu5Otjr5B5wk7iQStOyBBTz0EisK9gHLFvWNbQbz95Rk8cdbDuyHp6jvOrNw9PY2uu40uiru1j7i9Iv4UvmcHxzuiL5A7Y6Pvuu+DirwVVDc9feztO0OpfzvejVk9oSoGvKfQObxNqZA7ViVOuotIcDvazds7ADv8OpjBCzw/kvC94ZSbO6kcPLt3cyQ7fVMHvIKnFjygqXi9yr4kvMIyE7zm6lg7FYzCuGY5BDyq1R08MqmQu0i3fztYCA28aI08vP6qDTzCuGa9pf10u28ikTzDWoe9nSeZOqD2Obxw3QS7JqNCPD/aLDwgJ3U8GIRkup1m1Duqk2e7XmG2O594Gb1KLbE6r7cMPDHvsDpdUrY8QKFOO5RjOjt6RYA8N0i3O5D6lDuORnO98yJfPWILrLxmmys93YWzvdoCCjz13As+kwBXvcUlITsEDWg8KMVUvHRtwTxJx1Y7w9ihvLGJgTtH9ty8HV3OPDgqKrxVAF+8+jWaOx6x2Drb6Cw9enkwO+6bFz2fM669bE5juuK9b7wLcas7ZQlJvRa1T7z2CLM980CDuP7ubjzWRas8",
                "nn+NvJS9NzuWBD69g1Lhu+hpJD2y07e7pmYdvOiCQL2umMU8JDhwOu/9RD3QLga93esevMMfXzsORQy8vrI+PMGQOjxuW/47umRQO9h8D7xI4cw8ukXqOl1c57vPeoq8styWvLX8sbyB6G88CcAfO/61FDyF0DK8bMYxu1wHrDzh1UO8NuKGvApQizs8KGW8xeQquyP8qTy0k6K7WMa1vQR2DzzEhcg7D+opPk/hBL1x+w29RSFWvFNMW7oWpVk7EzMQO8i6hL0XgI28jtUdPI6SHD42QAA9+gnbOiHB3DueDWU7PY6BPS212z0VS4i7DjZCO+mvbLvc8OS7OJEAvJeFYjwhkkI9+nCVO5XEPDsjAS27L9pquwYlNjyYMCw85cSjvKcX9LtdfGY7K0ixvQUEpLt/Hmo7ltUWvLg4yzrBX2G7RCMlOq/Qi7qcLQU7jo4ZvHhe7bzwXoe7HbBNu/nyUjvgy1a7J9ODO2Zui73KE8s7bIo7u7U4RTu/DUm8qslfu4/kEbykrrI7Kl/NOkPL97rGDWe7BzvcPDvSCbn/Rue6w5jeujDWOb2v+QY7yZqSO1/49roW05S79ddfuhvLlD448D68Hf06PFX1db1nzcu8+IHdvGHAMj2OYtM83XsgPVIrB751Eje8qiUCvDUjgjt1gkO88HzBPCrHsTz59ma9Nc0fvj3fsTwt9sq84D/qO9kbUT1PTw08Vw2HO4jZMb28kb87xZ4dPVbMND2zNRo9+geOPDTj67yvTeG76WTQOy7/wTuFK/+6s8qWu+YpAj3AaHM8XQKPvfWKNzwkLpy9MVW7POYQT7yd7BW8wLjWvM6Agrwu8Wg8BBU0ujRDLru7/Sk8SuXLvPDL9DyjPMg8W6sRO+d6hzqNAxe81OQLPR+WRbucVkw85W59vHDNCjvft4O4WC0evAxtu7wqPPu7/fKxPLsUm7zJFQc7s2+gvDm9Tjyb0uE7Yp4TOwq8b7vwWeC9/n2OvYxfBr2CqAa9ROgwuuFAY722/Qa7",
                "cmcSvN5jpztd/kK8tz/oOmRSB7y6/xk9Oc5dPDLeRLznLC89n2mivC4g1rz1cQm9cQCXPGhUKLs9CMY8O7SbvGCtED1PQPO8M863PJaZHDs7r/q85gBsvCVMnLyok3S7+PvfOyVC57vo+FI8pA7Tuw8UOLzUI+E6b+QzvPhntj3WsY49T3dVPIPA3zt14Ug9NvF9PCVDDbzNPqO8RMQ9PEpbyjuTfas7vQCRu1ZwtT115I87JGvtPNxGn7twRi473fZwPAGa1Lu0IoO83+uNvO3sJ7zHoFs8ASRPvVvBIb2HAKc8t5jFu5YfD7xSZwQ8G/b3u2uj8jvCdtM7Ca6NPIIQAT1RvSW9XT4AvvQnb70G3OK8+hm/PVr2zDzDha69nRc3O9tMZLwBpbQ8MoPBvMr+Hz0Snf47Zsf9PN/KEj3Cyog9RreVvOLIiDuAndm7N1yQPLl2n70wbnq8VI5IvJzcQT0NNta7y72xO2WMpDwM2Jg9O0A9O5W0g7sqTSe99JE9Pa3qwLxQSxI8h68IvE02TLyWG1K8qtxTvcQUwzxQHbC7K9aBvOsMyrvWkge8SAd1vMNfmTv7QYA7RsPFO/zzB71aAMe7FuyVusVDVb1USZu7+T7Yu40wTT066k88X4uYu0K097pYcSa8Bos5vIwTFb04J2U8DmaDvErtFTvwEMy61KgovbiSgDquMle8T7+hPCMY2Lt5j6O7p4LEO60wHT1WNsm73KS3uyFV9j2e2wq9HZlfPEl4mrwMpoU9qKmSPXfj2DyBp6e8b3PGOmHBwDx7a9Q9OXRlPKEaQLtDheK8PRYxPQUojryLJhY8rKMjOw3wGLrd0re9IhZNuhewtjugddy8UHvbux1QjjueQb87pM6UO742QzyJnes86L0DvIy30jrzSd+9Wo4MO8J8ojtGglU8g1gIuSc19Ly26Nc9G3uJO6jFhDycMHE7tLCeO40ql7rJf0C7GP8sPFZegrxk7+M8kwZvOpfZyLpPFqQ9ZLs0vOvdoTv2apo8",
                "tL0svE4zRbpnP3K7txLBvC2LXzo5yo28dREVuycH/zuGRiq8LZWYO6I1Bj1VNTU7jkHLOVVaPDvBtLq8XGJbO7BRHLpY+Ti9skTVu/mmGztVvvo8dswIvEfZarodOao9mN84vuQ+xz0FGg48/nTIO57x47pl1R8812AIPbfjQDu44ZS7Mup3veEXDztpAb27/3hrufCF8Du1rcQ9q1+bPLIFBzyIVYS7Ad7TPSQiBjvZGXG6doeMvPziSr3NOTA7iwBIPCIEXbk+YUY6vZCQvEvR5rowOZE6KNnsukx8LToQJhm9B9c0vMRSy7thuM87R/jMOsGxyDv3y9G7ZzP7uu4Fmrtg1GO5CH6Nu/ImPLyFnFE7HLifvNYo4Loa6aU7cg+1u4bKzrmR+tC7letcuVwGkryzENe77dHvvOEXErzRWpy4mRI5u5TSATyhwVc9moXKOqbqXDtZxs47kDW9PDNkHzu5zi68jd7EvH9iHDvGYvk6p31QPf5VrDzYgM879mowvljk4Lslqdw9YGJnOipBnTtzwRU7eA/dO3lr173Vhr06Ry2tu5VJQj03Xvc8weIiPBZEBjzalQw6SCXRPQhzz70nyTo6uVe+u6suPj0Whfq7wQEePBURvLqh9I+7rcCHupDdkDvJ3+67opx9uwkakLwqV9s5aIJGOmDaFrvoIzG8lh05uxZTPb2ikqG7XtCnuwkGU7lILFa6Bhr0O1CvRbqKhr+7zTrSOS7zgb2Mfws8CpA9u48wTz3b7iC7XxSsu2ddjLxKjZI6bGLeO0eMnLoyR248grZoOVCnnDyQmo05TEb2OgFwpTsSQwo7DPchvQYQrjoh0JE7jQLKO5SfpLyUsZK7psxtuxkhojwFoq+7anwiPHp+A751MVy+dgP7PVOyxbwaERI9sGSfvC0hkT1je4m8vmSqPHKEZb1PN5E8PUAYPaSq4zzCAFk7byEfPde5E70MilI9lnTZO7ta4TyRUUe8Znxru325TL3G6C69toS3vCTTvT22shQ8",
                "zQEYPFk8yTtjw5E8SHQbu5Ni7Tz+5xo8odAzPfldCT1I1em8LlB4PGjzxTzLwwO9T3TbPJQITrwyC4W7EvJ8vaxSvzyYHQ07JW4gPUjkvrw1UVm80tHBu0jHxbvCiRe8AdQ3PTACtzzi2FC8lryRO9pmxzt57AI6Lr4xvGa/tbqoROa6UD9MPETRALzseT28JWPQvAZeIbvcVSC7mFWcPFwWOzyDeAG9A971O05CyLxZG8g8qDuEPPn4Ezsr3Y69HAh6Oik/hDrhhaw9pDkxvU/1W77S54W7rkuYOkJx5LqEb7s6RK1hvcM/Pjv3cac7pSS8PfnFbr0xIwA8bT0QPALjErsPQxa91Y+VPQLHSrsNPt67OX34vBuZ9TpJqOc7KLzRvDHRyb01aQG7AiaPPH3Q4Lv04fm7GeCKPQlsADzUra074Xu9ue/Ol7vQU/E8dIw/vQMPbjtDXrW74mutO9Y+cbub+Sm7ZNv/uNwf+zrKjhO7tJ21PMgLpLvXOYy5uyffOjYk9DpG3ao77Qi8PDxEJrvaYFI73m2kO+VzOzv1UEo8CaGEPNkgRrxCUP67jZ0+O5RfWztIaDA9jfiKO7I7oTsnp3A6EM28vP0zhrsc64G8T/LkvKiImrtzlAm8NWNGvYFPbTtev8w6h/XwPLptjr0dYYO8YniIu8uCETwz2Do88hVqOqK51b17r5A7QvW+Os69kz0bkE292SACvLLKOLzUmV47+qKtvHKccj3LZiq8bReZu14DGz2YpU27DBTQO38hibzy4VW9Y/mFOlKYMLtNqxo8tpVKO8ZG2z0PfZY7JL26uz9CwztlgDy8DncIPV0h/T0HwNi7HUq7O2Vpa7uprPE5GeY+O8gZGbzb9Do86sWfu5mAWLtFD2O8xofhuzoaAT6EYws84sKnO3mmJ72RG706J9UBvJBCsbqgcp26xA13u1rJOrw+Zgi6LmXGOcaIqrtuVA277p84vau6sjtuzrQ6kAudO3ESXL3evhI8q+T4u1q+Fzq0Vz+7",
                "Z1bPuzRfCL4VBpg7SNL7u8sb6z55+rA9x1ItPTqfjjqVeNo6RwgKPHrhRTmbaS280POcuyvDBLpO2zO+KfwNPqf7r7opTP058mx/O3WWM70t1z8+5kgxOrxHFLtuxce9x84BO6lYvDrfMhs9NSMFPgztD7z7Hzi78vWxuluenrvWPls96jIfN10/DLxoG3q7jqqxO3gZ4DxJRUg9RkE6O0x71zsfjzo6jc24u4Lpg7qVVK66gemTugRk6roqoxI9jh4XOm1sObsM3TA9aD04Oi4Yzbg6jEo8IieAur6HMLsA9BK6GiUwu0Lp4Du4CF08Qw23um0pfbsHqfe7qniXOsSnab1tIEa4HbiVuqXsC7vy4VA8y2WuOl4LvLrtC3M74mQsuTAa9LlAxiY+qa7pO/AQnrxFYxy9xFM8vD1v2LwTkhA9wLMFvaJ3rDsr2y++M8+uPBlJ1LweeQg7e+WavPbh+DwvaS08WKJbPS7W17yDmke9/QrDvMw5xTz6ZfI8RXagvADXLbuvzay7Qq+FvLK6qrytmGO8VBKpvDrjFzvS7tQ7MxhZPOzwMLy2uwC90INgPcmGiLzl0928KvLEu4o1gr2B87c8XEszvItmbjxW+su8Pl9zvIJ4QL2ogZM8H+k7PVljdbwHc+a8bF9dvLmQQ7y+PNS7CDAGOkDR6Lie1Sw7uq6tO4s1XT06+O689oA+PFOxNLw+w5c8YoZ5OshhuzqnoQm85dqoPB9Y+jsFAwe6yes5O5SCPbxiO8w8yz8Uu7bKOzwI5k06FIs0vSx5fzsXlFY7NN+Ov2bVAD/A8n48qcQNOgLeRDtSuQc7YO9+ugsmDLyKVx08MlNmPOI2ZDx0GN+9yRgsuqR09Tqrfee5wRs3vMlUuD6a4si6Bax6uwDHb70A8Y073xe7ui20ML2r/BO+xSCOOdnwcjlraRQ7FuD3O9L7AjwfYzE71MySOwz6oTcA2xK7X2KMvGaXsbuX95E7RmEDu8gp/zq4SpA7Qy7WuvsP/Lm+wbQ7",
                "QYRhOTtD9bzrvTY7TAFiO77bbzy9UIA71dhjOiyqiD0f9rm4mhMjO6JwkzqyoAS8bfcbvP5dhby8UsY6vKG7OkBgKzrrQQq70RQEvC7k9Dqb0eC6dvjvuZUiaLxF4Lq3hckRuyIJ8rypPXm6Fm7euH9iGj+e77c6W0VrPMVANjwRWRw94B/uumjNDL7z9Ta+KYMFPlwl9T2itgg8/5YePPpi97zFt927F2WovFpUEz0+Dws93+AmPGISvDvD+7Y8U+4YO69Z/DrJNgm7tKKAPe1zmD3IY627gdmzvJ2ELryn7+y8CqjbvDEvvrwnAZM7cqEFO7hKfjxe9Ce9n14ZvThyKDxbc5m7S7FNOx/SuLyiVe27RL08vQQ2eLwljE+7DDv/uaa21jqeQL08UiqivHsBLz3lQFK7w7HNumaAQ7siHF68qAFQu4H/wLtMwAU89BqzO9Ft/js0yOi8kpsovPl+gbyz8aA6i0ANu0Ge6Trpvts7JNh6vGwqtrzYYxw7zpZivOc76ruIVms8KAA3POszxbun3o69RKexvE0CZzyLJ8w900QfPrIQZL08VK89ndMlPHBFkL2EzUW9sEKGPa92e76e+Cw+7am5PDApyz1bqxo9y8OWPa7K3TyyWd67r8Y+PdLBjD3W+4W9RDIqPZTabbuTAze8gBWwOCkRbb0bpX07FT7FvGHqmzxVxNQ8ohrDPAjiEDyAfJu9ouGIvefic71IN2k8HjQ7vIFeejxX93C8NLgFPE320r0kdZK9S1AkO/Zfjj0xQg095oWLvDhqFDwRkgq9V2xIPAzu7rom/t28vSRQPFoVubvhcT285fIjPEvj3bueH4e8OrxXOyaTVrzzHIS8JriwO6kWZTzUkn487iOiuwxtXLx0mbK80gWgPJMTCz2Pgq88W1FGvBUxEjoehVW7m0MWv3u60D3zk4M9xHWMPMV+kLzY2mG9YUmVPY/cmr6Kv1c9YZJdvLeXEL3b24A7YkSKvf7crbxMCjo9cAxTvfhfWruYQqk7",
                "qOB0vCr1XrxtUi28dIoMvLZ6Hr0ovO67MuiCPMN/ojyzj0s9AUfhu/3/tjxLxzy9qZOMPG93nzwz1do8V+yfO9nZYbz9UH09F6qMOkzQGT1yyTM9kcpaPUJ7ULzP1J64T3/SPDhJwzr60ES7lHMmve14nDwvFo88NfMHvJkdgDteWmy7ZZN7umKICTxDuzi8/U6IOfApgzutAyM72OIIvNXXj7wo9uU71gyjvGDBB70vuju8Fg7DvPjDLjkuGQ27C8ISPBhOTbyb+bU84CecupoaaDth5ho8A06YvDrcc75S+ws+hqsaPlRvTr4+PHa82D+dvfPSI7yxVgk9i2TivfyaBL1CrlO9ft27u4YIXTw8A569GHmvPJ9LAj5OwyA9utPBvCkKnrsg9r087WREvEiXwbzaFES8aG9MPIKAEL1rHxW8xf6QPY4Iij1INRk9rnYGvfXORbt5peo7LXlbvRU0fbsJTUO8AdsKvYYLc73XUOW7Rh+qPE0DhTsaGDK7XmEnvDoRV70V0OA6xQ2vO5kEfL36EPS7jOVavV4+j7vEm5g90AL2OhQiEzvxANU7UHAnvfKpyTvDL607NcacPKtlXz1FN3g8XaAAOwgFkbzhskG9QQAFO8Y5Ib2Rz1c7YEjDu/c7oLxJNJo7/GYUvaGGVDzKqZQ812wSOzNwKLvuNc2+Ic6vPaG4F74G9PC9WPQgvQSuXL1uI908wRqjPE6pbr0Q6+g92VUguwkzVrtd/SC7U5O9uQPJEzyDeYW8RtZovS71pL21jcQ8Wp4hvSLkPD2JUPC8+aeBPOpPFL0piKc8cvP5PKHdHT3dTny8KxaxPI+VCzymHKw8+oypu2OoLj3rvZa894MQPdXj2DyOqje91Di0vEYbqbyEJwW9E50wvWJcPTxs1mc9Mmvku70Trjzmu588RL1uu1qZszwLjDi9BFLwPLj9Dr0bMiG9Yb/HO13xPbzfDUi87/Q5u91aJbvwA3k76GFpvBNOzTzCe+87iGM4PIKNrLwYWKu8",
                "AOBhPFWtAbs2UxO8rqspvOmH5jx+7r88IKkxPDZaKrxOz8876x2MvinHI7zSi8w8UvGPvQ4dsruwAP+8hZfOvdjvhjqFxug9QpnSPXi8Ijz3IrO8ScHCPDlQ+7wkfjk9ErnLPPOv5rzlH6Q99dqEPUqI8rzGCbE8oZBCvIFbarxM5sm7IY+TO+NyJj1YfkA9XfBnPbeHQzxwf0I7iuvBvI9CATvVOs+6KSSVPF7L/7xzupi8LWEuPQy7rryhPus8It+JvVZ45jwdwPa8I0zqvADmYrzsqgA9xPEhPD9cCT0rwfe68gyUvBBJczwnYaq89Nsiu1+Jczx2hVW6koSGu42OEzxIqUs8DMtcPeiQU7zgTdo8DsatPElnEbzDZHg8MMAXPFRTTLu5j3i87XZivNZpAjtGoBm9ri2supopIzw2BZ47RrToO2FxML71WMQ8g64WuW/VoLxg80C82PcIPPQtED5Y9gy+SG+TPQ/1jr1rPhM9Tl8UPAJoLLwtSN86hMYpPMfSTT2fTU29Ku8sPY1GlTw5+zu9qIk+PIIXWLtT5TW8kYiqPU9HP73ns2Q9Fe07PWfkbrvxFrK7yji8vAUp2DxwDEw8Qgg0vJP+QTwcHBA93JELvR6tsLzp3Qu9Z6TQvFv55TvQZbc8uxc7PfCCA72r33A8sfFivAN3JzwymE06+iLnunhWarvXubS8hfoFPAz5RzyDww+869IqO9rh+TtpaJs7Vi5uPBD3nLt69bi8Es07PFMY4rorjjs62PGSvLCTDDw90WK8pRy2PGX9Aby5sB8892NvvK98TjyYgvE6fFGouRgIybks1uO9AHiNOqBwYj69+hE9m9vovUEuFb237Ds8KKJ4PJwdib1XjEi9UFSJuhYvsjv4BeS8eVRlux7tobydlsk8CJupPOzKHbtLUKm8Q0ZHvC1VHrz1qDI8N1rMO819LT0vJMY872oAPNyK+jwG9QU81BY+OloDQT0qIRI9m5Y/PKZQMLzzrGw9pNEMvazQEL298867",
                "/0R4O35DkzoAHte8Neu5u9oFhrxZ2fe7CwBausd5Xj3Zkw490WxZPE1GM7yUMxA8XCA+PLEyprwDsyU9jfCtvM0vNzyMqBw87dqjOTRTEjwsWRM8D7mTvNBI7jv99rk7LXbvPOpzOr2TEmA8/5zeu1A0SLp25Kq7n5BXPImihrwiPgC7vERauwlsIjwazB880ZmtPR3f4bpODd68wtQHvl8u7j0EI1u9Z8/5PXKO4D37jMk7j7erPMOXkzkQtZO9hNqtPPR3Ebx9pto9KHJQuzhKKDzTobU7As+0PZlEbD2ufBC8KPN9u0WaG7t04nQ6Vx+Fu2RdujxBa3Q9rBNrvLC6S7tRE389t9pHPb51kD0eW/k763XAPLpvZry2MOC7L3uQPX2VSj1bdoW75LdPPNv1rjvGsii9zCCivJcftjsf46u8AcVgOjYkQT1epUE74c+nvJrxCTw4EZu72Zb8PGYrqTy50W48osE2vPavJ7yjdMc8vzsiPAYIVj2qgEs88DpdO9HxCjwgc5e8AGqxvMpLCTs+fpA7xRzmu50fNz1ET2g6fqBePDNVID2YD+S71C+AvI4ySbyR14i9BhMPvUCZaL1NWDu+6QAdPccnTTr3xJY8DSolPOJ/FLsEhFC8VCJ1uUUpBT6T6qg51GhDvRlOXDyV1y27TlA9PFEZDb3oaI69lUkSPD2TTDxpNpu8BGocvb5/YjzDtYY8iatYPed1nLwqbu27p67svQ5QpD3Dx3m9MPnVPbCN8rwkR+m7GKPpPCmyFr2h9Rc9pjcEvUtOHb2Rcw48MeEiul51cztvXcA6rg1durYGS70mwnO61GYfPKSVfDuXPaE8DkZlvZBK3zyOaK68FrwLPbUBjbxBWGC81ikRPePLxzueKIe796cDOzQDmLwKxTy9msMtvB5N6bzgHcO6sU/Quiz5nbv+0Lg6jh21vJLrQjs34QM86BgoPPe+c7w4+/O9edSWPBUREL7jC4m8ftBXPWP5Zjz41Xq95TVbve2rbz2W9Zw7",
                "+xC/PJDbxjr/eHU9nrQfvIcvuz1cCpG8kBxLveLX+ToZ2sg8PRLqPMpKoLytHVs9xF38u6uaOD2oe+c7qSI3unUNnrz6tRa8TBscvC4JuLvPtUC9AQpxPeaXJTyciZ08yl35PLn82rwezoI7HGRoOp8rET2IwBG953yIOyu+gzzyZRK95A0vvOcL2rsyCCM8M3QlPFzL8TkUidg8Vva/PDq/nzwOeiO7IC5iPAwOkTztzAM97KwYvMcX2bybNao8VfM9u47Ls7xe31e9JW/JvHg9rTvtfWw8mwPCPEvhPjvXfLI7uw4PO57VpTttdYu8pfjxui6tuLyq2dg81BQcvpc9zjupEVm9Sb40PHJaHj2unjm9s+RNPcgqyzxHAaG7eDcgvANQab3e7D893oc8vXeR/zqdwcY5290FvCmW2ruyMyo8owkovREovLxA89c8CuzkvPyhibzB7HK8AfazvFniI7zMaGk7x81OPdRhA71dLFM6spnyvFl3dz2MGeW6pFICvfYYprvKEDC8mBoQvfwtLL1Ftro8KI5evWNn67tQmR29YmbivNKi87luXPg8136oPDs3Bb1084a7dEpDPKiWBr1Gj7y7AiWTPfH5hTxpGJu8zurBu4UUAjsfAt+7zJHcPKswAL3GtWW8309fvKDiaLozeYi7oRsrPFHQrTuTeZy84qAvvP7nsTtCHNo5l949u6ZXCz0hVfk71SfkPCNIQLxbjoS7vw5sO3Oj2zuqTsi8or+uvHTBQL1oDg4+0TxcvAx4F7w5IRq9G0+tujCF5z1nxDk7bFEdvcM2Ar3H+IM7xHRzutrAEr11fII8Ar0UPHLCgLvEscu5gx1ivTG43DuvlBK84DEMvcrfUTyTCpi71v3kPBSdirzFI6e8YPdvu4buyTrha/+7rrJnPQdtAjsbEI87ai3TO9LpZDx/d4q8nDMDPBGI0Dz5K4s2r4U+PNH3ALyufvs78E0TPfpuszofpxo8/8oJvV82ZzwG/XA6sDJAPaFflLyKwpS7",
                "hgwDOyUNqztrKj88L9BouvtUKzzbGuY84Sxjuz4UnTvPCc+8M5q7vMSzKj0lZ2+87P53O578W7pzOM68o94wPJIF77xNFgK+ZRt8vFneSbzzJB+90kGPvKhQmrxktme9XTWIOqs2E72Bbw49iWmUu+RqBL7EW+u9yqBQPHVaUj25V+A8wQQDvNU1gzwbIPK8i+dEPPbrDDxMYI08MjSTOwBeOr2PCoQ9CUAvOn/iGzytbgw9UnGXPeqns7z8Dfw8DU82PXdYTD20XZc8L8j8vDRUjjwxNFE7qeV1PNRmV73i5zK87KURu/QoQbxDM1A7fn/Ru0eZcLzOIeW7zce7Oq7Lk7x30JM7SW+nu+uHrLyntFY6eyC8PFeudDl1VuO8u5qWvIIYAj1G27u8ui9YvcCR27zCUms8eWUWPIPwazvhqOe8/Jx8vPO1Vzw9JGe8JFPhu/Y7g7ym9iA8S3EZPNA9+DyHakq8xge/vQJOnjx8rZO+HE5zu5Us+zwOOyS9izBava5xTL3+IAw82SnmuwhYo7wkfj29pl+SPDa4ULv2Oj67PyXKPJhCND1cr5a7oY1cvKGCD7x6zCU73gUbvKSsI7unB1c8JvB7PM/35zt5SKu7X8MpPLRZiLyL64q99dxovc/20TlHD0u8JO0vvVhraLxjK7K8KJKLPMBjHLyvgDk78oOPPGxQLzsVhbS7DH3Bu16jNTvqB1K99m6MvDvlLbu3OKS8YlIrPYhC/7mVFac7fXbDPJ97FbqBs+K8bDnyu4XkHjxTi9a6xgUOPSOM8TqYOhu9JdUovWkHFTy1Wki8JnC+u0y8GrwE2xq8ffTHvPJVXbrwqg88lbRTukqyiDxM9W86HbkWuRJ2Hb6EBHU9mTGdPUIhYbzPUZc6kMudPSdc5LxCO509meyjvZJHrr2Nf4y8hhFQvWMi5Tx+OpS8e+aKvZ2ceT1uVjo97zlAPME9nL0Zsym8QDWSPRgHVDzWoZA87EdWPAJv/7wjsZK8UB+DPI+OCbxmbi+8",
                "TN8UO32O1Dw7l029QVKBvIW3DTvIRJ28t64WvfKlJj3Xi4M85S9PPTSWybsWK9i8onHNvOYJY7tf6N67h3agPDoDMDzzUzU81/C/uPvyejyr2eq8rjQBPbWJ07sMAW+9v9M8PARzbjzSMva6h/KvvGqewjx/l6s7VL2WvC/Lx7yS/B68HkygvHR/oLyK5rq5ewpWvE+6VDxC0HE82jfdu05OC7w7EQ89WgXGu2DIdTwXniq+fKF9Po7tur08sFA9YP9BvYXaT726jCY9YZBEvIHhpDyWU0G9sYWpPDBm6j0W6ps9cjpbPPJSFj11ghO9+GlLPUog4rod05g8vDbou8kTHrsm+6s8OmAwuxDmxjzZqEW9xIQgvPKp3LwIwZe8L+LCvbFb1zorFJS9A0m8PPqCeryOWp28B9rEO37AX7uu6mW8B8vcPKrG1j0lqY+8H4R1u69S6LyBfK08lQnhO3NCijw0b4K8q/ZuO2xsp7vDdgg8jlvhPHjNOj0IJxw9/yYtPD+VfzvaL7M8TO75N+6mfb0OSi89ile1PCN4A7thilQ7VULRO2y/ZjwQsg29UtTpuv6BoLy07/c7kPWqu7dSnjtWr6m84DwuvHHRIryYyY26nJsXvr3sCD7qKrk9j7y7PAJwDz2qAlW8xD8VvHlKsb3M64G7Dz+KugPJiDu2tWa8CXkGPoWnFr0hLAg9CzvFuyWvKLy4JAK6OmEcvMCC67vBw6c8j0kBvMtcl7y7BHE9zGJgPMq7+Tv+NS68YL9QvV8gs7yJbII9cQYBvWuv5zzXGbC8YU7ZPINfkzpAzjw9DTFfvGcV9ruVERs9e+GQPV35pzzhCoA7BOEFPQRf1rvH1oG8PR8uvaM7q7vITPc7TfayOh9+Mz2r/O08GqQivBhQxLpbFaA7/aIdvIccVDzH5828c3EVvS0xvLuoiXa7CNAiPQewyTxy8Aq8dGvJPItdmjuknJM5Pk1bvIE93ru0wag8oklGO8bfJLvtWAU8AMinvKyJOb1nbIi7",
                "MF4WPkLrp71ycke+09hIvfY8FD303NQ8csO0PC7+Fj1XcLa9pFTZPgHFeb6X/9E9TwFyvrbQ8zs1JRC86Iq5O8evQbyDN1K9wUF0vJrodDyGnJU8pWOfvI6rrrx6KOK7eC6mvBZOZz2AAhC9JtfIPUbjij3sB22956ZdvJTAuD26/6Y7vyGqO36rPbfpalI7T9A+vOBNFTy7F/e70w90PCLJLDw/N5E6OE/TPDT5oTwPqs+8qcs0vGvRdTyZqUO8Q2zxu5W1AT2OxWU8Mv9jvAfTWbzBzxE6VfEaPIHGMbxjfYc8LIc3PM/YAzwbIs87srYhvF6Qiryf/xW69M5zuqhvpLvMdKE70XEuO9DDDjxu9WS75k4nuRQsBLwKaq699qqLPYsW/b1Kjuo7sgySPGgYqr2nXKC74bmTvLIgnbwOBPM9ZlfnOp/50rxvN/s6NgjevOCJVjyyeIm8gs3WvD49Qjt7Czo9u6MsvCCI1bwFbk67F/V5vBjwCrwfyni98XGGOmFI7rpJ3dk8cwG6PFLAg7t9Lso7fvSHPJKv+7xnKg29Zct6vPhmWrxhI8m83n+EvBzRkL3rzxo8TAEovO0TwTztUwU8RalGu9uKoLtlZw88+69nvG0WnLy1KKS6FdbzPADhZr0RAEG9P0ANOy3Zk7vBe7U6co+7OpkFLT1Lcu28KuXiu1EtC7uYWxK8YeSePIdvGz1hQ+S8hxULPA2jBj3Xq+C75JKsPE5znTzeUSU951PKOxci3Lz16L47AzrDvXW7Qr18hbm83S3pvYkB/j1h/I69KGn1vXyThzz8i1Q9074vvCHIz7zy1wc9VIVNvJDqjb1by8o9VhwUvKdWnDrymMO83mS6PLzJcT1BZpA7qYq9u/lF3Dxj7bM8anDoOzum1jxvYoE9xNLtujoUN7wvCqg8oG1ovYUaMT11tI28JnsJPFd6yzywyk68Yi2SPXaT8TzssoI8K5fHPBKzPjw+s5o8P4wFvfFhdrwOzAo6E517PAEjyzxinTm8",
                "k5DDu0E6Nj118rS8tUsSvHhqjTxyIKW81NC9unV0cjzkEps81A1wPbbhhT2qSg877JUEOgIvvzu57YI8SNoQveEE9TrueH081ScOvHsoGD3vNhU6poBjvHYatjwo9bc6su3lujpSNL2eG5E6X1Kiu1AfyjyEYEY9yCQQvPkMED61oWa8F5CCPI/bob15FDM8b1KvOyrQJTw2g6K8tre1O84XizyyyRm9fbJlPKgyELvGBjM9Fkbru7LiZzuklzq7PBnEPJR1Br48cp46nIiAuxi4sLomLoq8MenNOzKRjj1eAUW8dIiUPHUpQTxogDM9GgczPF8wPDxZDsA7WrobO0lT0LtBUGQ8WDZ0PDtHArzR69k7/F8gPc2FA7xBQgQ8XSx4vO2NN70qbUM8q2yyuwknD7yUeZG8+HTZupMhCjz9GjI7XJOZPKFPgLxyVqQ7pv/zulSTV7vtRfU7n1onu5OqvTvjKK47kuE1PWcyVzsCpLi7GrzYu5it1zvSMtk8LkZGvGMeN7uBkGY8tIc5PB5Cu7sHdmA8Kuq9PFK44Ts6EyE+rLlaPZIYBL3XWgK9VmfxO+yDybyT9sK83O8zvRMPHrtfTgE9wsV/vM3ANLyVFui8E0GNvPIMS7wohwQ9D+vSOjTAzLwVx7e9/WhivHWNXDuF1Yi7uO4CvUDFAT2Ed5k9ZPdbvA27vDvzOqU7XZ/Muo9g2Ty/9S29MIgUvSf4MrxQwrE8V/vRvNBDPTww1hm85hZDu0oKLjxjYxY8vl06vAKCTLz3tBQ88wwavcYQ5TtK2mM8W++HvEI7qzwL/tK7lwM+vB3sxruTCIK8irSKvGG2pDqjnOO8o+B+vITBmbsvTXc880U5uk45SzwnkgA9JF+Ju8EAnzuyXIs88UjGvGBWDbu8cCu7YL4qurryGrxUOo+7U+sHvvN1rr56EIk9Cf+lutJmGrzbpQO5H5B+ukwNQ71PQdw7jD7JOr8hOj5y56O9DDYUO7KwsLj9F1G687kGPMZFaj4dDmo7",
                "5hIIvF05Cr3hdx87nQ1LupYMaL0vRUe+cRe4O3ZNiDptMn07YPEWO7eDirxPzK84W49IOxJJGjo+cE27Ib0TvZ4OHzxrJgM74dNpu26YHLliUK26bdf6Ommnfzk3my+6QEf0O/bzzbs6SBq7KIjgO3ke4rwZqZc6H2IKOiJ1Tj0Jv3K7o6Qju+aSGruw6Vq8bY1EvHenrbw8BKg7tuDKOIFumbfY0z+7liXuOlnzmrqlS6y7y78quwMpB72IkuI6sPFTu9EZh7xgiLW61iZlO48XazvOIXu8JZoDvrDuQ76NU+G8BjQmvb3FWL6a5kq+OjhHPj/8FD65Y8+8AqcVPSDKeL3FgT+9+9k1PSi+oTwdV/s8/wWzvOC9Q7wRCmg6SqWgPQfbpb0IKbS7zZq6PTcUtD3NzPg7evJvPUywrL2HZWw9z6IKPEHQPTxI95O8bd5KOIHTF725ddM7L9yaPGZVIb1X7hY84oQBPVxjHL0d4pY7I/JIPKnRXjxIq0s8UpskPXkgrzwtrYI6J4ituzxpDTyrVOk8vmE5PA0YFzp0eJw8/bF+PCnjDTyf3YS82goHuorhYDyP0vo8JkFdPNjlRLuz8B87uWk1vM4n/rzwF7Y7pLdwOugahzq1tgI8opyYuuN4hzoHVwQ83pimvC8oW7ysQaq+WmxCPH3P1DoYo7w+XL9wviAlCL6oEpi6AJOeuzR5SbvottS6ILIwuTswlbtyYne7ZxRjvUe4Nz5RfRY7TTKGu2Xji7qneQM+F/O7vsjVRLvwJaU7p7eqPT+Dkrvv+ai62q02PR76GT5o93O6OLjBukesZLrIzJS7QwvLPONY1Dq+lHi7gnBCOoo5TTvBuzg9uIxqPAqQAru3yBq3H5ezufpqcLuLiY26LaCPOtQEdrkDOwq7E4GHPb1nG7wX8am5KbYLvbkni7tM4UA7Owquvf5HXDsI4GA55tpHugZsXDw/HCg8X1C+PBkwv7pq/LO7EbRdOSeMrrnJVx88aeMIu96jHTvZ5FE7",
                "gJbJPGBYzzm8u0E7jUdRPfFxNrpgGU87pAtVP00fljuGKTW79e4wPlYFgLp3gQW+phXqOt4h7DsxVfi5yFVkuhikEbtgaps6gS4WPGyWsj7Odiy9fsvzOnXKBrsBsl+7jwo3PBsXAb9FDt87zbqSO4/6RD5Hf/K6A8OaOc9SkzuNROE7MGDHOrK6QTmY7a460y5cuiOhuL3OoRk67lQAO5vlkDvp9zK76Tjovc9xI72vHR+7o4CNuWb0brlDusc7ZBpiOU/NSDrhTxi6tQM1ulpBtrzuMyS7DhNvO4UOSr36CKK7QkvPuscVfLyQfDA7RWYHuWcNHDrFOz87xhefOcYGN7s8hme689QfO6bqOjv+k0a6HQmtu3zxEjl10mc6GbVmugKGPjxERv66bt2ruu4zP7wuLeI5RtevuZt9wD4M/eA7gLi4PfhkYz0lIVm9kAURvnhw8rwQZ028obtGvdu3EL038j8806s8vED0cLznyIm9M8b1O0+IBT1DSxA9Tk+iOrxKhz1od0i9IDQQPK3OeLz8/ui8PlOFPMTwCjyJDE+8QnCwvCqlZjyQ6LK8hNjPvL78vbxP9Aa8il71uWGLkzwO7bs8T1rmPPQIwrwLf468dvnKPMMcV73J10U88z6/vNk+iLyZLhE8LIy4u4UAJLxYBYm8PKneO9cC/DuCdho9E1gbvAUgPDwhaws9oYtbOnZwD7w1bJw7+x/2O8r5ED21Evw7lCFFO1NogTxFl6o876wRvRKpO72zzhC8UmaruznlD7yxA0o8BpnTuwfmgLvWHUM6BkGtPCZEmDwwj1o4yOafPfjKSD09tIY9lYvLu/tCFD0A2+q8vojgPVqNGr6fRgI9lceQPGznPjzcFmy9T4sgvWlggzzCPS090wcavDXm2bt4Ewm8gD47OpT+hzxPN448Is8mvYUrcj3f5di7gjhmPJjDrjyFKCO8V/0bO+JZM7xIk2M8tEE5uxSLLL1DtPA8s2QIPAByDb2W0YY84Fiuu3DQjTy7Y9M8",
                "Y+hgvOpFqTw2eoK8nrASO8gMdrsJT908hnwtu+eh5LvAcMw6KIp1u4EqMryL/pA8GJTCvNdY/bxye7088+czO4Kw/TzOqJs8GsxYOixZCLw1X9E8GXvIPOQvfbsYuaI8g/c2vLYviDzZfiW9+CuvvOE2+rv5M1Q6PVHIu5auOjyh2Ym88tGdvYTT5T323Zs9v87nvCWM+zzsTee8LhqVPOOqAb5DpTO+ajJMPXaVP7zkSdK5m8wsPTGYF7y+1IA8WOoLPNbHhjuTcYm7PiEnu9oF8rw9IKk8+1GTu+CB/DrFYbi9XS/IPBmlLzzSviI9p/SYPEZkgzzD7aG905UkPTw5RbtfIrM9AE0RvdCorbohmw49SGQDPf1rcTtqYgA8uf6WPFPbB7xLrFq7FooHPYO0kTusQJC8HABKvbXZcjxb8Zg7tGiauqwHKTtAXOe7jeZhO7+rljubr2Q8TjdtvBpqJTuvYqc7hLb0O16JdjynuaI7xT5lvPxZ7Lwbomw7VUaYvBqhiLv6i3K8vL4OPS0Ssjw3Lpw8eENKuxiR4DuqFB+8iQu9O5Y+iLsDSoK9pKREPV/BJL7vp5g8/b2OvaPzGz6VZ/u95sPlPC6l/L0Rdw+92PCVvOhwrrySLhS92CY1vF50WzxtVO+7KMbOvOHO4zzwENA8PD++POEyjj10cXA8/kfuPEUmtL2Wx448IHy1PGBnrrt7DHS9ECevvLVZvbx8g4C83xo4Oz/btjyowLe8nv9/PAz8gryDYNg6BfaqvEaslrt9a/M7YNcNvbRG/Tt4kUQ8NkbLvBQScTxkdbo8dMqOO8GGSDtrXvM8bYmFvMfABLwDeIk8Gg4GvOX7U7xKhtW79L9CPUCH1TtCgq86D4jVu0f8grukEZM7xsaVPALBoLzzQv270J0gPBlSJzwOR7C5sWp2u8TiU7xy27270wKAPMBe/buCCIC+DWsAvY60jL3RpMC7Qtb4vF1+Vr1hHg49wuSLvM2QFbyKVC47CRRluLCCFT50qKa9",
                "l5gRPJo0IjzLPnm8PKzNvBz3qrxgVbY8wftuO41o/rve3B496pMtPZuNib3uiXu9TKbjusmxyrpOSHm9SE5pPT03ZD2Gb5c8pHuVvLwA9jvQxR89YbGxuvYWLLyrJwU99G6TvPq3KLv01Gs8UxvxOwTrFD0bu8I8rPxPu350kDzQqQM9w5eyvDopUzzrJP87A/duvJx22zsplBE9tp8UvbDahLzQfNI6YfSvO8D21LzzXh29nRMdvLGu3jvNlbS7nQ+APEMByLsOwFA970q+Or1x3zsx1rg7uOdZPE4uUDx7PBw7SbEoOzFGhzvAEsQ7RBswvilbVj7LOQU+oLulPTjb4L0hvZo9vYYHvMEX+DuJvd29iKIcPbuOEr1usL86poxmPtthlj3FFK69tZSXPIlcg7vTkgc8Rvn4vXmrkTwjzkU9kmDFPIrCm7wcZ3892LBrvLXHaLzd8169r2zGvXuoRL2uMPy8g5dDPNTtRL0VzEE9tbp0vKVrozuH5Ng7Pp9wvL3mHbzo8oK7M5ouvN4qyjt3yyq6CRm6OyoGQrtctLS6Io5xvd9BLL2kPjO53yXju348l7uD9Yg82NjQu+MRwjxDXey7qdEnOv7mYDpr+Xc8YBQEPDAsF722xR87rxEUvFLB6DqaupW6Y/x8vPaDY7vo+9Q76zveu4qeAb3178C8cdw6PNd9oLxSJYI7RzDpu21Ef76EX1a9oxo+PWYsJj2NN6S8rMT7vLf6Eb52foU84B2XvEZXiT0V5cm8ywQAvixMGL17nSU8DkYyPPcmnbwDmk49UuOuO6cCzTsWDdu7+MAYvI5fKr1cnb287ZkuvKvJ0rywtDs8Vv8fPFZyFbsh2JC8LFeQO16FdD1xWKU5qAaevEsP5bviSDA9DnnmvO0H2DraOta8J1kbPLCBAbxh+gM70Mo1vQT4tjuFDwg6ztwUvbURKDwpo+u8ZO8BvKy+TbwNZR07aiEEvJyKkLpLZBQ81AERPCzpJz0jBj07yddCPH31kLxw7lQ7",
                "2OzcPMwosLs4vT28eifDvI3yg7wcxpW6bOHoPG8hwLqE2KG6LeX9upXSpjzCAyK8P+0tOJoI5LrTu5q9b5Pwu07AKb0PM4k9gZ0wvNdhCr2MJn49L7azPRQw1r0fXzO9gJ0YvKbgTTz43E48Q7G5uwlyVLokH3y8PcsCvVehXrwyLB48PGGSOsLdCL055D28W4RPvS3cSTt2p0077uIvPcx13TrhGQ09cGkTvUS3Tb3xfs28F+/MPLgBWTptij+8f/o+vZFhvrzNDYO80XPgOpo9PLxqZ/G9x8LaPHjzDrwgCqe8jpgNO4stBj12LoW8TgAzPMSmHzxbEpQ7uFOTuz0WH7yctuc8KeRsPH/6JLtyXKG7557Mu7GDmDzYNrs8XJ8SvBp48DvC66A8p5eiOrR+fjxxoRq92bMgvNrFPbwycCK9ANL6u703ETze96s8PvnTuwHH57spNZK8l0wsvsYl/bt4nNE71GeAvR97nr3mMLm9jhQUu2H8mrt+x/C71SeJuVHk4bwfi7q7kAraOsomIT0Sn/+9hX74u+GijTndMYo7UqMNvaq/Qz1yo9W616pZu966iD3t8+m6V+4oPNCYPrw4hj69ANE3PDpUi7z3rKo7f3RRPAOElDw1Kpc3ooqpuzdj1LuJOc879VGMvWZakT15IYo7vnAfuy27LjuGuwU8vKA2ujc2JbsFqBG7Hcmkufd2Rz1czfG7Pp0xOx5LbL1qEqe7c14iOs42Pz3GCia8wloXOt8ATDuWhTA7tQfmO8LTrjsEzRM81MaXOfUDRrrx/Zw5vc5pPdmzlTtNaxe8n5nKu1Kw1bxyznS7QztKO5TRS71aysE7XfzcOZw/vr2xB5Y9/2o3PeBveL1dMg6+LlWLOv5IxDyjBVu92QQjvcBnAzslfCq9gj+QOt6rTT4qXdQ9w/2yvc4sijx0dIC7BxoHuvogE72xeiW9DwWrvEq2prthl2489L5GPRSk9LoPlj+7hUSMvGZ+pb2/9BG9njKDveMPKj3pzhm9",
                "ucrsPDRY+LsNEiG7Q3/eO1rCBLwTRLg7fE7TPOEJGT31lj459m6Tu1+lADzvLBI72eCSOs0qDr1i42C8k3IZPe1RSrzqdKi8a0VCPXyU7ryGizg87RZ3vGXU3Dtgg7a7dqgwu/jHGbok5t67BDYzu4VwaDy/MLC7A2r1ujROzbtGvne7ffnSO9J8hbzYi5W7bhvPvHZtxDuS95i8L+pfujcSoTqM30U90oE7PGqOX75/Dos9JxTNvKHcpz1UnCU9YzEhPRwWnD1RoZM90T4YvSzJYD6+cPy94rqFPZWpB76GzYC8hKuzvIOfezhjHoO9hiSsPWGtorwIvIM8z2SkvCGAzrzsU9q8Lq6hvOZCk73QEJM9X/I6vR3bZD3rARM9DkUovQRQFLxLTS09lllMvKlELrw2zbe7aRj3u5ZSkjvUaTW8X0LLOjwYmbx8KpW84xtKOpkxHj0ILs08UJY8vZei0LpkRic81DhlvH9UqbuHaBc97oK0O5lYPDxdtoY7ar2Tu2n8e7xKCPW8RvenvAWXbjlHuQk7TjRTO7vywLuZZF88mGKXOoPftjuB0Fc8rWafvFvGijx7gXM8SZjgvMQ5VTsk8JU73vbRvfzPwD38bAq9QM9KPc+OtjwpjWM9EAdfPW139ryiRMG7ewCpOlKEIz0WK2Q9rHKvPFikQb20XIg9h+PavElmgj3QQZw7KzvtvJnjDD0M+Ye8/yrfvOuQ3byYKZ86Ig3UvNdvjrp96B87MKQ/u+Htk70QJSU8qlZUvYTVljwLwyG94GKKuzqcFTzrw527hxucPO6F+TxZP8i89As3u38fsDyj0i+7taVyO9LEErzNg8G8fzBqPLW7WT0RUHa7d44wvBcQJDy0/NS8zx0Qvf57BzyuBDM8ALEmvO6qmjsKEzi9TIdpPFNLI7zI48s8gKT9uwYnsDuBYjS8+lcCPZHYVDryKeG8gTmhO4S4VrzXBk67jkTsvJSaH7v3LI28HXrvO6t4v7ys1788rSotPbqlzr2NQZc9",
                "24hWvdTGmT1IEoy+kHJJPUDaerwfzJ67lL2RvEMWu70hGIO87AF7PQTqp7wqxA48xoKmOgMwZD0K/jU9ChxlPYm73TwwGXe8P+mpPW2GBL1wR5G6ecdIPA2YDz1o5xk6V+6TvSepxTwiJ2s8dR5ZPIOXhLybW/U6fgM4Onm0Kj1wV748wVUIvAw4oLy+xRa8BbkQvOOEsTzHOLg7BfKYO99lYjx3+FQ8wom2vGj+sTtzLIk89/kfPYedF7wKp4y8lQ50vMesQjwsVgy8MpD+PJnUuDynsEc692QrOpJIE7wLF8K8lyNPO95O6rpnJK27/mTyO4662LzF88o7oYvIvJldBjyFeZY8BA3Qu+w4hTwrjaq9q1/1O2GmhDv2eSE/ccM4P6j1S739sxc7gYE4Ov+etLvyAp26twolPUj/mrrqkJS7Z5STOlJWMz7oDps6IzGguT1iSTv8kXQ96TPNvlR+CjppbvY73A4NPvrmxLp99qo7feFWPMl2Zj14p3M60PxWO7XrqDgCl9g7gMEePSMR+To9nGI7TxkcuyYHODuOfy+9jcINvPSZG7sgU1G7z8RnudlGp7rQ3/o6tGjsOZd+OzvU61c7NLZCPeBKrLvCrxw7a+4HvSKh0Do36gc4fNdKO7WIozqKCm+6Sj8EOveNaTzTaAg8CrNZPJtWjTpJWci6Wn9SO0FwX7mFkxe9wn7KOlR6kjp2XJU70Xr2OxKA1jkaAcO60DwAPaL2kjo+SZI5sMwOP0Zbk7192pw9s6aUvMBcjzxr/zm9rfR9vmN8kj0/1C28T1Myvdx6i7nBUxQ9DDgpPdbgYbycdFM9QIdpPWVlj73hp7I8BfPMPKsvYLy2jPu7HrWXvPu5Ib1sm7S8ixrOvOB72TxIhaM9VEWCPEsWbL3pfRK8H++FvRKxBD0jSAK9UHY5vcJ1Uj2D30u8gbTYuhhK1DxUfYm9wA3NuygzGTxSwSU9Bb2cvIG5Mzw/Bt+84N9rPONh3zypzX68JEmevBEDLztJeha8",
                "8+2Lu7yp/LzeAL8764KyvE8gTzsIKta7hxy/vJzJwLwlvuy8BGYgPHfj+Tths4w8sWhuvDdGnTsDZiQ8HKtwPL3jtbufSYa8B0IHPfGNWTz7x7875OyrupdTz727xx09paQZvf+7zr0M+/Y9KlM/PPsaaL1iDsa887X6vBs/t70dJZY9rCakPb+xEbyKduC8o9JgPSKo5bxmdXA9l/sKO9sXjD1ptZc8RiaDPLmm1jwKNqy7nH3cu4dLqDy6whI8As2lPC7O5rz5KpM8WnVCvDTI0rxNl4W3bYQSvTABTLyeuQM9T0KHuxIXqTwRx7s8r8O4vGXtFD0XsBQ6fxNFPcSCoTy6BtE7g6HIPH5z1jtlxq88kIGZPK8XWDx5bEI8f1YGuHFZs7yXMxo9eFaqPIXHvTuqWm07M9YwPcmps7z0ATg9CV6RvAzr+zv3Jg88CrkbO90VwDwiKqu7sIoAPFks17hZyYA81moNO9dY5DvZJwA9kwSQPEcr67t4rU++QkHzu40T5Ltu8ea8LaOfvVVdZDyKGdA67InLPEf+Dj3IhaY8DuhSPe+CVbuJYB89FoTlOzsMCb6Lyii9sSQXvCH+Ab3xbto99ELAvdQHUr3Qn1A8oneDvLHK47y+Sc06aMqKvDXaibxZxoY8aIcePOPrszxjEKm8d2dnvZo3MLzfsxk8mG8oOzlrBTw8LQG8J0jSvIlYqLwdjAi97UuzOpCnSrxQbv28BXAAugqISryi+AO9E53sPL3KgrtXGq27TdgwPKg0TLyM1Me68PgIvT4m5DtR6888JJgAvGIGJbwB2EI8IG7QPANZXbwm7bC7zNuzO770BzxhHJi8Q/5nPMbd0ToI23e6opkpPY/5Jjyo7Bu8l6jHPLjdOrwB4rQ7RPgWvnDvWb5wF7Y9Gy6mvTOnWDvdJUO96N4tPekigTzKeRs9slLvvTNG+7ze/UA9v74GPFdbPr2b0pQ8rFmovUHJCT5ccs47aPzzvFn7UjrYC4O8KRyYuyVO/Tz6qtu5",
                "Xhlcu+PTBD0AW8M9k1JzvG+cKb2hkRQ83Q7ivMoEtzuo86C7WCo2PK+IJ7xa3Tq8FrJDvXnof7yvpde8SWTxPNAByztrp766khSKPGYnFDztmUW9G3sGPTzSs7xXrH49z9yoPU2YJT2HFuE8KnEpPemusrvs1ni7AqS+vK3Po7tjHCU7HumlPIFsBD1XoVq93pKlPE6SHj344mU9hSwVvb+cmbvcEiw8AVd6vECiMjz4t2A8GIoMvXNBjDwRzRc770NEO/iVY751ZxI+IQmHve0Pnz1/VbG8d2m9vHFylTxYEMa8PsG8ugQzXj30mwa8RlFSPnbM3j1LsPA7U04YPFkf4DxTvOC84doiPGNRNbtu81o97pTPPM82vDwGqes7IZfeOwia07wYN4i8voxlvSjowTrbumK92neUuyPI5bx1hbQ8+Ht0PLBSNbtAOys9zoCxvCvjgjwpDxu9hUxlPeB/ebyxwEm8wpfyPGQuELyYiM07lGedPH0mkby01RO7I7IcPPONvDwWga88yhMUPa26/DzPjdQ8yIaNOycFujx3O746V9zNvJG4xjxgaiQ8haT0vGESRzwI+ww8AqORO06/jTmHHFk6VCXKPFMzLrt5Yoo7/dYDPMr/FbzeQIK85n9mPLLHnzrZtVO+2TVavpsnD77bHXg9Q+TIvUQg+zrN+168U9U6PQraqzwYDdu74laKPDZHtjsviyi+AucFvTieIz0UHDg9B8Qiu28gsLvNxRg849CoO0yRmToGTts5nKgOvIESwby5rQe7wVkgu33VnbwkvWK8wZGBu0Da6LyEMCo8wf8XPJYauDo4sFc7TIPiu8ApKj1JFCI8vhsBPUw75Dz7SMI8EbIoO0ClHbz+H4I9yHgWu6VIYLulvGu94qLBPOC9iDyECoC7vJGcPIvHtzwavpq7azRHvOYmj7y30wI8X/zsut7axjzfhMc7rZvgvDuFTbyjOjU9rX8Uvf5Zz7vNAxc8JuTeuTS8RDyh/aO8ydLIPMs0l7zORW87",
                "97LRvFCyDTzXjgS9XWcyvgJHvrzHPmU9nZquvYiRJ72+6Pm8mJ0PPu0Qlz4V80S+QY4FvgCgdryXeSG970MpPZ5gKL2rwkk9oiHeO/R1xztSsYy85qgsvVxs8rwDGpm8tvpSPOPn37xPO4C97Zl5vR5h1rmMyig9qCy8PP2sFD2u/K47TQi8vA7bi7zZcVm8HpdVveKsXrxF1ee7EbUiPJee+zvr8Mg8sT21uym177sXQuc8kwkEO6aDILzoPGQ8bORAOpb0Hzwwyls8HbhOO+K5oDvmHyY8rfWUu4iiSLvP1hw7Z5NlPC7lorzmzLG7UogdvHo9LjvKyck7Y8GPOzyGM7nBuyC8FNsAvBfjGDyg/0A8qidzPKx0MDw0XSY8KZ2sO+hUXDuhszM66HKfOxlslb6I5aU7IXdIu6KsVL5/S5M8qAcmPn7cazp3VdE7JbjPu6q/0jumsEI9EIZGu0Yeqru9Ini9FGvyPf5GZLonPu26FX8bu8bVGL7zo2W+Lc+muwYu3TuKcoM9y1j5uTQkTTtp4FE9oP44PmU+M7tIDes6hEUnPD1C8DkGACo7XkOmuzOe3DvgOju7uKGMOJhU9rzCXSC9c29Tu6jgybnBd3W7Qst4ObACTLv+0Cc6TGKHu1qKIDyWzle7MO0EvKBu0zmSUGG91u7WuoktGbh33Ea9DYGgOy+/PDtohoY6BxIaPPSOvDvZjPY7Shi8OtCK2br0AxM7YTJMO6CsyDskzeQ6B4pPuZQt6TpTfac8mZlNO0JVersl7XY8VQyLu5FkNDtPWyU+onG+vfQp3rwUktW9vQmQvTNmDzxHylI9SAz9vLCixTtqDfS60HiZvbLjiTv9jeA8WY7+POLZuLwXB6a88ajBupwOpTs9B3O9zXEpvYrAo7xM7L+7PgFYPfrBcLxLvgS85l7RvFWTUL2trm08tb4ePDopC73y2ps8feIYPQfG4Lxs09a8IdCsvOV2/TzKVhq9MyxOvDC6cTziUJg7+yXnO5KOH7yuwCo9",
                "XCyaObe8qDwtZkK8eSCEO11hhLsfAFW7bNOuPOhqyjtJYyK82VPTu33S4Ts9+cy75SJ9vBjKCLz4Css8tklZPSmxXzz9LBe9bs6BvBARxDuRhjW8ef+LOziBp7psXtk8sgvMPPeB1TkJkvy7RuW3vP3RZzz+ob08D/TWvdLNTr2xUYq8mLyOvcyRvrxvhHG9WO5dO2COhzy5Jii+gUIQPXWmkbyOSQS8bgSVvR1uSLxuQGg7CWf/O/UnrLuElPc8QeA5vOhcbrxfmcS8o/k+ut1p97tsKZA7jiV+vL/BnzuoXKs8UHoRveEC17znAyE8wTaOu6JQ1rwwS5A8tz9EuhbMQrtqW9E8IdVcPUEw67sVjq09MAGSPWYHAzyx16u7m/NTPR2+xzsHryy8upFAvf0FcTzKaHa8SXp+O+AwJzz6xey7/gFwumwZXbtdiva8vZVFPL3TAzwsekO96/ahvMFhGD084n48hJcUvdspwDyEXTg8aJ5mPKEXm7zbhTi83wxfO6qIULtpN8c85hOfu7QHcTyDXhi8iHKGOxmFU744BOe9GML7vckvhrlGQ8w8fIlDPJQhLzxVSWs91oIbPAHVCz2sGDE9X8zzPF6muL120028VgdXPVKEUD0Dhh+8tQj2u3dqyTypIEU9uVajuycXFbzs/h27tbm0vBprszzIPoO8aX39vL5o9zzrABI9CJCDvTqHTj0YCWg9U2M3Pan6j7xOlqm75MEIPcNlhDrMmDe7hrGovWr+Er30p+y6gVjCuhuVtbvv/727AqFXO+c09DswYyK8MFUqPLv+Dbw2yoM9WiVGuzdw3rsvR5882T6EPHlPj7ohkQk9mEtFPSPDnDxA8xq8GrqevIE0XL0lYwG9vEXgPGaP8TuR5t45WYBLPAssnzwHxlA6pXUivRkoMzznCcW8Mlyru/ijDzyhMkm+NRdkvIm7zD01+8I9lDCQPb9bgz0lhCi6wiaEu86HibrsFRc8Tde/PWxUa75j9A0+didWvQX0VD7yMiA8",
                "QOcEPPGXwTuxSmm8vh+3PWBbojyOenC8gp0BvdutKLtfKc27vK9Uuy1UEr2VkjK99rehPFS1KT0MBtU8QJiMPZaqIDzX+Lm8vdDkvIMaJb2ZYYK8gUnvPK4LMjscrzm8/S08vFL/DL17ng+9iuK6uS20frsGX7u7QrFCu2njFTzooCW8HO8JPVw8bDsDPp+8104IPZLqyTnVodk7t36QuyZnDLzsOMK80fuCu13Kl7wRVDG8/Vp5ulrQ8jvl6uw8CgzhutekezqBiN+6YeOxu/xc5jzycYU8muKcvAVqwjvapoE8F2DbvWPK2byWfqK7iygxvjBKcj2jBsG9aOQ4Ox7nrTsSIQQ8mUfVutbLDj1zgCO8D9CRvPjJ0r0jFsc8VNCNu+zNODtrvx071+eVvRHcEL6t2m47EJmAu794ir1T1FI88qwLPLdY2DzDCpw9FI6LOrV0lbofbSY8ZWz8uxPGHL0jnWG7sUaxO5ueCrxUSbE7jwxavQIUPr1dDMc8BNxlPCcTmjv1YYS8S9HXO2OolrpEqEA73gaFvA3NrD3xI/G5bXwyu10jnLx+yGS5pJ5WuprTvLyTuwE8Un4wO/WaEjveuRs9FcBHPcoCoD1Rcpi7Ho8avNaJwLv2LAu6WRQzvRnKmToV20E812bHOtAHEDzLrwO7mlkzusdCwj1QhMY7yFw8u6VM973lEF485TilvFVvljuSGHK9iak0vIe5Kj16b009MK2HvTpzET0rQZW7ySqCuwHAq7tRMc67vQMlvERafT0UPBW8aRlKPhw1NDxN3pm8qB+TvCbQkDv++c47lwYxPO5tBzwW06Q9NqWvu/sHxrslWqy7gaZsvBsw7Dy6V486X0+iPJNkNDuvtI+8hl0Cu/OFJjsUpcu78WTkuDLLEjy0FbS8nfGQvGDJU7vxphg921Q8u4OYcLpV3tM7hH8YPNFgibzqZKq7FNOVumffljrL3ym860NrvJtkZ7t9wUe8egUbO2T46buPJaE8AgNMN+khMzvpT7G7",
                "r/A3Om4dL7p7dKe8pSo6PN0qmbrWkkg8iKBKOhBal7vuPd47a63UOySIiztau4q9bWxeuyZ+B7zVLDa+fUVxv9g0Ib4L7vc6jgQGO4kIGDqzMtw6priSvaM2rzupMki7GtOLPuZQGb57Neq5p8aWOVETL7vIsTE7blPTvhGDiDpszhQ7r/ECPqidvjpt0CS8BVOEuvBmRLt2aaw7jrMPu/380rrB3DU7nCygvfpMYzquZ/u6oXKuOi5V7zn409275D7quzMdXjuyXWW7FvjhugAybjvDP4o6rsmUuZNUPrpJfxO7pZIBvaVnKDslbUE69bHaOwG2KTnw47k5VKNYPHzOCTvaJmA6eTZ2Os5JsDrJjmu4PXcMuw9UdDpALs46PehtuQ4X5jppZCu8045fOo10vzrDcby6c4+EPLyQProjSDM6Y0PmOQ8Fb7pUJvO6/TNxPyq2UL0mz9O8cFAbPVU1Vr1QyG49ZZu4vBQ4xT1ufii9HQR7PBaTWzwa3ym8mkDrPh17tTxdmDC9x87oPKoiMLvkVU86CKVoPKcXVDxdhJU994auPNtFXzw2Zdg9pl8BvbTTibwgMkm9Q0UTvQbNkbxVRbq9uEJFPd/xF70n34c98JYGvQd/UzxTQim9Q7GSPNxhwru7wQY7hzh6PHFxQzs0dCA7QbgIvR9xizr6p4o67jstu41lebtaGLk8ALmNu9GUDrwU5xg99h/EvBP7I73UEYK89IQYPHmCRjvxfIG7nFsfvP9GmrzeExE8XMGbvOZTFr0eApu7UvedPF49GzsLeRo8LTivvJZcGLzd2008TaFIu7Mx+Ts/+p+6+Cj7O30Jq711J588572KOxvcOjyquWW95t5VO7DYC739Rw2+2lohPjHBoDuS7KK8ypliuxFs7DzkZJi8NHDIvI1AD74vIjW9VOUHva03W7yme5+8kXlmO7J5W7xq5bc74I4wvVhumLxJK608OgGguuC+Fz1tKg89E3euvFXj0jyQODI83z6wvCH6b7yprbi7",
                "RKn4PIWodjz/ZZA6r+ycvAeXc7xay+w8yu+hu1ctAD06g2s7JE4Pu8E4S7pg6L+64vboO58T3jvXr0k8cBnSPEc6LLtqvru8FwvMO0IVVLthkjC8G3gNPD+YoDp8yno7s9iVuwL8sjwH1Y+7iMCMuya2Nrt5pQg866JMPHHzWrtdeF88nZ44vJvcwTt3EVg8kEThO/I3o7zNVzi+iaFfPc0aqTsPE5G93qrwuxZ2Fr09Sgm+6xp4vWQySj2pkPE9ahYqO4nKnTyV5f88gzj/O7+msjurgsY81ewuPQ9r4L1OYU298skFvddIe7sKoYy8nNncO63KCrfM18E86X1/vPzer7jAsJW7L643vUn1I7lVZpc8UkQgPOxa9TwQQp+6uHFFPPe+Ab2AW+Y7zkGJOwLKprwv4Gy99UQSvcohDryTIxq8qfApPdrRBTy3wBg9k8uMPEqddrwdV5G7S5nRPHSsDLwm/Ca82nh+POo9WzyBJCE7KwTJvMAubzyuvTG7Klv1Ov0uUDzyv6o79ajIOqj8oDwnqh48f4cFvMb6LLzI94a7TgYHPOp+8LsVENS8t1NiO9z3l7zDYqq7wLMrvlyrKLwLspy7hoUGPylber6juUw+jlDXuyIi8TqExFY5qPhGO72DFzynouk7pGmFOlTv+z1FjvC9nn3ju19XFDqs9I46bUsdvvw+ej73Q0O7sBqpu/zLq73g9504gCAIOzQxrLzfV529sYggO0m+qTorJI87PqWnu3k7Fr2MFnm76OI0O09vczvJE5I60yOjvOXdabwLp1e6p/uKOc23fLpiB6I7QNqLOyysuLmBKOu77QUNO6o9Pr196Zc7jNEIuZWO+Dxx40u2Wx/pulKUXT3oJAu73bM7u02zG7p0W6m7YWKju4uZDbzVZKY6WrfSOznkPztGVdA6lS5QvG1Mmjrx+yq7re1Qu01j/7wG49S6FD/0OH9iDb2oVuC5aykhu492kD+3e+K8jo2cPH143L0EAFY9u0EvvZyZnr1ClRS9",
                "ePXmvXCDjL35T/o5wSyBPclVUb2Apue8yATZPK5sRbxV2P+8GL03vbMxrz1grSS9qmXGO95c0Dwq9xg8ye8ZvBFfjroUGr48/BihPc7jbL2JDe484uAoveZ7rbx2YzM9Pki0PMx83rzshvo8CVYFPRGu9TvnW7+8EciTPGnFC71Yw2q8124EPCxIkTwVMBC8Z1IdPICWerwZNrI8VvM5vJtQObwyWsM8llCVO7d9sbzWNFW87c4AvJaNtjrMw7y7BZA/u+2V0zu8Tkc8fFYwPJfYRjvIV0i8BuU5PXMXJzv2yj+6Q4EiPGf7Fzzoa2c7jJzVPEk+XbzElwE9osMsPP3LBTvAMVO+GusJPs5/0T32vh+8hk7UPMnjG71wuLG8nKmSPR538Tw+qjE7+OE4PCggYrxoElg+/M2mPLeOIT2e5DO7ZqwiPGxkaLul93U9jI6jOr2OET2/kkA8pfk6uxZZBD3SWrK7mDsdu6s6uzy0/Mk9QrtLPaeDu7w8WlM8KSXrPHoEID1dQoi8/xtOPHwpKL0N5L077E8fPKnlxrzK2rC832CnO7VgdTwdJ7W9uiWEOjSCPLwexCm9XSUIvA5ls7znLL87+NkMuf7XvLyNtoo7i1ZcvNHopDsv6w66pmWhugxutDxW8uy5Vc2rvL6WhzpTm/A7Y6nZPLSdRruxnWk8DWQ+uk35UjsBCOo55No+O82PZjyvhxE7NnW5un89LTsNLJ07Pub9vUgYDDlt/+m9wf3oPP2l8bkDqQG8mCRXPeXWfj0pDgY746cAvO7M17wcpyk+7k6+vY7EhruoPDq8qTWauqaP5Tt008473AsRvRhkODx20F+95pIWPUorsLyYG8G7pISpvPqRbjssFvk5OjjkPI7mk7wPzqi8Fn3ovNLjq7khupG8EjoOPeUhxbwm5Za8rBNSvCNfIrrMTMc8XVOCvdu6NDqJvP68ugltu4BpDbvWRoM9vc4jPQMwwLwgBH07VZPau8Q/BT0Kb8y78UWqvCUZJrzwB1e8",
                "A0UAvK6l0josjWG7hyzru21eY7vVi8+8A7EOvfJKPDlF2RQ8VIFyPJCAU7x3l5U7XYMrPHSrzbuq/eq7TTmhvBkLYTqrSnM8ndv+PNrwx70hdpo93dHCvckrXj0vZCW9A60OPczDj72Z7w07yuCtu3JNdD0PEoE820l4PnfqjTw9q8i8vYaSPXNQFz2pD1u9htVFu8I7NrygWU88fALKutwahzxZnWm7wjEKvfZr5Dq/UtY7n3v9uxS1GzuGdA67OoQaPVAB77vneiY8M0DOPCH/LT0cB6o9UaeVPBcEMj2zMtI7dntWvc2IgjzbmS88l/mRPeqh1Lz5pn+6ycmKvbtnbz11c5c8D3eTPA/tBbwq6LK8Pu+AvC/C8Lxel4C87fXAPMlM27umFG+78VGqvLBWursetE+8OMEAPVP8hbwN97e7MtGzO4gKEz122hs62UP8Oy36izxoM5Y8H254vESAwrw/kXy7Ohh8vIhDH7t4XDC+J7GWu1Rn1jwkS1C8Utj6PJ2NNj1ixBa+U3wZvvD5uzrM8K688WSAPai0Ij0MuXK8aO8wvf+iIDypgB48UMK5PG5QmzzxgkK9JgJpvSyz+zuM6gK9kmYVvE+DkD2kSUc94Nh8PP9ZbD2zWDa9YNjmPB4eo71IalW9LUbNvKDLejvrE0q9OmqzO1sDoLvnS1W9LVCevTvvLLvT0Uu8m8lRO8oIEjxDOBC85tyhu7YPa7w4jV28hjgDPFhxAbxvim88dhM1vQdDsjrlSSW8p/gPvYYXrLtjkis78MapOz4iw7uS2nc8J1e8vAf8j7yBCti7fEH5u9FuMjxXy/c8X2V3u47RBLtvp3m8C14IPFfy6TuuOWE7xqrkvFioLLq/h5M7BYcHPFssDz3fU4s99j+FPPPoqbsX3Mw8NQ2HvN9aWLyq50w99DBtPRgJxzzQCoU+IXYHvoXf2zxV4GC9MEiEvO8gb712YTW88rjuOtVvwDyTHLq9nRLKPZKrYjydx0S9hR+AvcB9u7zpMme9",
                "nE55PLxdHryz6cY9KndYPaX63rzMgy+8HyLFPbeyBD2yvLk8iMzNPBKNYjtPvI88Wd4yvWd+kjs4EGs83LOrOHVlqTo3zdU8sLR8O+bOpzt1KFy7ZLlfPCpDILzcZpy75QmYPTO3Br1d8gI8aR6UO4R9ZbrgvgS8712SvAs9qLsJbp07+FBlPNpY7TzBCBm9Fdo8OkW07LvOnwM8BNfIOyuVB7wkKjK8Ri9VvJ/6lzxQeAy8A8/ku32uJL6m+w68ysSQO1CyD7yufsA9GdGOPNY2IjxvXt07tc+bvN+aprwE7xI+NHVQvMgYx7wotWS8TeW4PRubuTyK6cQ8CySOPDanRj6SNcu66uZNPJZ4qbwYPCS8BbjZuuTEgLzkSbs8rDnAPYH71boJ/Cu8LvONPId7sTsRbCs9kgUmvEnczbvFfVa8gI85PD9Ye7yIteK8lDqiOxhTqDt9ExU8wevOuol4hDxaTok5CECCvDUuBbwJYgY9ir8oO5H/yjv+U4a8oxjeO30WIzw3FX47naTtu2lcELwqvDY7T3MdOzb3rrrQbQe4HAXou6XjVbv1B5k7BMaxumJ6tzzDV7u7okgjvJldPbxs5NK7sY6wu0ChsrqR2Cq9PQGsu4Yejrs3zLU9xNX6PBfIEz3Mhpw8JfdaPMD+b713Dyo90pBuPRGKlLouQJ08+dt7PdQacT3c1BK91yjIvGtQwj03ZOq89g3VvHhD9DjzfyY9E6udvOWU/byGQZM8FsmUOwLV7Tw6laE8E9E+vLs6kjzYheG8igOUu/ds5bzAud87UlUxPW4wWzyrN3M8KzXsufwGqDrfJYs8iFC0uUiEfrwx8yu8Xo2bu3Jp07zJF7O8yn4FvZ0qvTyDsJk8KcxNvOpFJDx/mK+8+jv2PPVxlDrAyCc9w7FVPVTdh7zotry8R1zjvEv7VDxlzIa8+ZezuhE6kbyZs/O6ZxsOvS+m2Twt4E08dP6au2HKsDoMiNs7pl5gPBGnvrpnLR+7mKhQvNKoLjxOWzS7",
                "M7wyvUWC/L0qcty8RxgcvdUn1b0pIBG9uSgsPR5xNb3ho6y8jqe+PCO9j70xuRI+v2GgPiXxCz2rYTm+VnNLPKyA8LzcRAM80/JxvKA5AL3/Rz07CEQKvFet6Tr0ylW67RccPUWk5LvjQCY7kbPRvKTMxrybtw292Lx8PNIlIr2ZFis9iLoFvCWSorzEnLM6dq4tuv8BBjyRZgc8aYTvu8afHTypBhW7M1xLvBDv6jtI0gI7IskuvB07xLvr5J25Q/CDO8hITbxfff08QFIAPOnmDzzzQTU8GTm2vJKjvjseNXA8CW81PGY5ZTp2kvM7Bd+jvDfJxzt3v9c7uavqu7GqbDykG/C8OvREPN2rg7sbzS47F85XPF222TqZIPS712eluXp6Erz+biA9/fkBvZjFhzw7yHI8fzHkvDl+GD6xoRw6u20AvC8F5D1fCc07XvDaO9QCHjzNvTe99PhmPdKHIDwdCAq9Er6PPHf6Qbu1j7i7U6SeumeysDxGyxS8/y+auuLlszvYr7Y8iqOLPZFVITzNEhQ8mls5PKaLxD3iqJc6rXOBPWoJhj1Y3Dy91Ck9vAkA+btgnZi8+Eu9Ow+CVryYIR48EXFJuf275jskEZ67g2FdPde39rz/v0s8GF6CO/O6FLyj0Se7DogKO7TuaDuVQPe89k0zu24Aijvgd5s7gXezPIaLV7wo95k60oHRPHUHnjvolOe58z7nvFJYFTzURP27/nKZvCP+S7vQ+UQ8tw82OgwLyLw4KfO7dh3uvPY+OzpJTcW8+cDfPZ/vgb2Fqlk9VB4xvXjcxTxkKBI9LI78uh8ioju5CYS8n4qrPLbczr6guo69JckNPUme/jxnmpE85qsdvC2/b7y/erA8yG3gPAEtEjuNDbC8Jfj9O2iHMb2ITX49Q1h2vK7BRL05jhC8imN7PWdjX7uXzZa9vCxWuyK5r7zNbEm9lmuMvA/tLDwdhdO6kAb6Oi+0izrLd1w8nhLVPExcMbzN2Ky73SS9uH2m+DrbQu07",
                "g2erOzZKGjxVW6y81ICXO1eB1rywOw69MQNEO2Qe6zuu1Rm84lXZOUXDd7yCvLQ73mOdu7kt5bzIyry6eI88PLklAz1TV3w8MOuZPOkJQbyLf5w7iRfrOyAi87sdeUU8ebCdOjkDczsW8ZK7/BaTvVmgrDsqsHQ7icVYPiUfr73980A+9HpYOca4/zmMpTA5pBq9uUGn6zq9pAi8lW49uyQ1lL7Ae/w9khY8O+OGoTqzLVI61rF2vegSDz75Lz07cV0bO9jGGb5+wKi7hxAvOjuRHj0G4Bc+8kqPO9l/9bma9JK5DpdHuiLYQzw6LAw8cGtuOxalCLrtBiq6dMKlPeAqOL2hU326OH+AuneTITs1LYU6EkpYOywKTLqUX3s7UowjOjBRp7xQLP+77ZViO7wJcr0VH0e6TfdJuasVmb29Olw7EQPbOiyzmzpopwA8d0EGutQFMjyBnIG67OEYvJZu/TuGCAo7tLmEPX6xzjqAvoW6x2gGO0etXruKYaq6riRbO5b4yjzZMmw675cwO9MQhD6Ma5a9MjN3vXt9mz0GpNK9bPbHvQabV7rYlaa8KbYJPuON97xgcro6HJwWvSFAHj2AFiK9NMYvuj/cuL0XVsG8XR2DPNjp2j3rxro6rekavG2x/bs1JhK9fwlkvemjgLlc7q07Qw69PLU7HD286Eq8RpAoPVahYbx19sY89OIGPTTXd7y1tdM6D35LPGGxrTxVrsw6AytXPIZsEzmd0w+8y8yNPK7Y5DwbK+g6UpImPPgdhTyMVSg9NJ3uO79pRjochou826BPOxpuAbwrUC28MLTpO7V4/jpQ75y6eP8vOojCjDxDpf88XzlBO9zewDpIivu837qwu+0/Obyow/y7aCubvEa+AT1uuPk7Hegxu7ev0rpwP+U7fh4QOjtnWjyTSeK8eScYu1+f0zvWRwK9ZxtHPoA9Sz3JFu87fkNYNnCRyrv85c27Cx5ovB0cU7saojA8xDSgvM+zuT0Ao2E7/pzcO6Ns6rqTM8+8",
                "Zq+UvJwJ/rrQYIu6aQvtvXgELbxNP8070O9tPWmpWj7U9SW74O4KvEZRPbye+kA6OUgRO2KmRTzZUce7exJKuwNf/bub45o8qMoDPNrbnLuS5iO79MrXupWdl7v7osQ69z3AOpYaqDpOR8o69l/qPEKuIrv+pYY6jFtZPTqRDLgJmBI75ww/veRTBDsyate6MXa+uhLppTs0YhY877m+PAfbXToOhQW7Whk5uj6dWrv7vIS8X8G2u/ObITvTlS+7tVBAPW8H67m9cig7UFUcPWYXFDsj3nq6PXYNPrRHJTy/Zog+8IRDPQ3EJ71L6TG9Cl7jvByRGL05TLY8EwxNPI2jMDylEgm+p5i3PXt3Dj1sSX88iAMmvfaGIb05zuc79qUnPKYUbjwRbBc8ukZkvGre6Lt++kc9dfAGPQ8yK7z86Ci9GkmJvXw1ST1KSGs909gXPS3ZYjytqxA5hFJ7PPCrrbuczZS81/dfvA4cyzzUVdq8jsKuPfXVRzwGZF48bWT5ul41vbrG1xq7uNBHvMKiDbz4NYA7Zi2RvDCbzDxUa/c7gGw0vXbzMbucM8i8cyGSvLC+RbsBAKy6Em98vbhsOT2NJRm7xOWLPEGYLDwLys+754MEvRIPkjtA+Mo7MBJ5PGw9i7vnaJQ8MHwFO2PDY7t7vNU7IlZqPN7FI77TZci9tscMPdLkqr19Ro+9ftnEPL2ohjxmOZ+76flbPOl4wL2TJ+i8dAStvLtbNb1wNb66Ucc1PFlx2Lw9W0g9F+wwu63qT72pbvs8igBDPDsEjzzTsCW8eg0KvP05ZT2UP4e878MlvVVfULtNaE48C6gQPGzpUT0SXQk9jenKPIY1aDxFrSO9U/OCPBVvjrzVarO61NKKvBXVxjwam1678FqouSEudjxiu5U78bbevHVYkzw6D1u8HWjUO1ZMszwAM309uaQNvDDDxrwmVes8EVFovFWeFb0pBxa7wO2+vAN+ujxvQgw77q4fPZHvLryXrne7es01vNT0z7wATRI8",
                "+X6MvZkz1rqw+/48auSdu4rLPLxVOZi8OdtVvex9HLxqGTa+1N7+vacTaz1HqVI97bgZvZTwDzsaYle9asgAPIaBezynuEi9An4LvUT0Hr5EIbu9NCg8PB4Dvrx9N4q8LufZPJ0Tazq43Bi9l6y/PFeakLxP56a98y/NvHI4vDtTa+e6kQpyO+xmkbsc+I24CxVDPWBQA7upw9A8wVI/PNGhGb2gkuS8/ZMFPaI2YrrZeSW9rf/EuzQMVr37vp08pF1tO5HPHT0q1rO8igabO0dAVb1PVqk85aD6vKJNIDtJH3U6lo6hPP6oPTuHTe87VV4fuz+c0LtmwTg8VL6SOopFWLzlvew7rp35OrfmDzvrHPM7F1NSvMJviLxER7+8WMRvOpRYFbqctxy7zGUEvBMqBbu3QGy8BFjTu5FWGL2xzHa7QYomvmWcXbpn/CG82IaLOmgi7736KMY9b226O/eDyjrOxA68+WG1O4Z+zz1NV8K7A+6DuxQ0SLwg03W+U/YMOWB3FLyUyGw7V/RGva6LnL1DgTE7EaQeOqWLV7vbNC682y9+OsZNB7q24jk7Xpe/uy6Wu7pi9Ky7K6Y5u2EtyT39pxm8c2qxuqbw9rmCOQU8fJPnvJoyyL0hgkO6LYZcO+cWMjszjAm6OZsRuzYlKbuhk4i7/N7OO0RidT0l7qI7OB6xuu0zAb05uww8ULY2u/ysMrwnP427ibDgO9UxKrt7tCA8q3yzOwMwnDs6baM7S9sLO8vyYLsUNda6uv6svc8/Abvb7SQ63zBaOzk+RD0CPzQ7fSFguza+6Ts1DLG5ScIaO5+4Vr1f6wC+Y3uvPZ3G3DyQDIo9Q7M/PSi4GT2iDAA7eEERO+eg5jtSz2k9EErgPiPiFT48PeK8nowAPgvJUjw2JEK9MobsuGyKczyaZ0k9MFQUO8nwOj2gPPU6eWvLvI0syDzb0xK8vpk0vbyQkTylaEq9pg87O/p/GTyiGb88sBssPUaJDD2vKwU807TPu9S5eryJSKY8",
                "u0FVPOUP4ruBKAm80iCmPJdXcLx0kpu7HVF4vC6cOTuLvpG8xtiZPI5y9jz1S247aAMgPW3uRT0vp7u7gBDNukKOibsuaIO75INUvBekG7uutyy84AnKPE2d17pkf+S7pzVtvInfhDsTQgu81r72u/Qwsrt3wjI8MUUKvBqoSDqawLC7ykD/uzaLSzsDHZ69sEvgu8W9gbxfGgS+62spPYQ2973OfEM87hqPvPSbRzyD/gQ88TvavThOS7ln+gQ8tH7FPDCZpz0Sy5e7kIrKOimZUbsnQMa9BhWXvXw15jsUkj47VSeIPOUdBjvm8KY692LlOtBt4zxaBkc7aWuau/S/Hzwj0Bi73LVtvQVGQbyHpgE6bIXLusHcsrvq0b28sxfMPOPTUTzfEjA86Rk1umgUb7zspqA7Ca7jO6v2BrtJmOY6K+utu5899zz/nY+7Nu2wPJmVfbsPP2a7rCSQPPkgf7vsK1Q8i+i/OmoNprvxDwq85p6fvGZxBbwRgPQ7O4v3OjZVqzvbnZs9raZ1O9H+oLlGqX46yRlAvfVNFjxTxQ+7bErDvM94prtPdGM7Fw7RvRJeJD6WQaG9/5dHPZNSHz0K9c66QSLavGuusTwxA6y8fBt2vDEMWj2Xdzg++DIAPhsVjDyhxLQ9pI7nusCpKbtPlXm7qcBvPGOAZj3wL7I5XlulPP/gWTy6RUs8P4IhvA+wwbqMmSC9mikivKfX0jx4QC+8406TvR/bcjwcxQg7VJsiuW0Wgj2ARAi9r8qLvL0RojsDh3C82no+PEm5XrvVKaw9p7MRvfGEpzsW5em85n11PC6RgbxxiJo7Dma1O11CnzzB7Za7YFzrO9SRjTyqwI+8i+cGuzS2Hzx/LwC9LPaLPDVMkTseIrQ8KOJkO2/FD7t37P87rw+0PFFTRbu3u5M8kIzFu6l3qTxxRs08b4gkvXTgDr312J+8iSJIvHJpLL4Lngs8bkYovoJNGTzOZAY7K/drPSjuWL0a/2a9TSFnPYW7OD2eLYM9",
                "trqcu5324jtkRIW93UKUPD/6urwvwzC9Yz2vuwdDArwlKsA8KBbtvFZypzz3ih+9mcWMvcHHeb0RdBQ83IgOPVJ+Y7z3KEe70HGkvOJcXrxE7CI8ONmRO8n3jryHOSo9sXg5PTffUz0zTPo7/LtUOyQ+ubyPxug7FSwAPWYh3jy/uno7EbqHvAfiRDl5MpC6S0I9vPHfYzsoinq70lezu2svFzyAsha9f3NIPFo3BDsOFjC6I9fvO4WAqLv5tjY81Ly6uzWWALttB1W8RmXiOzQrRT0FPL+66F5gPPtf7zxWKqC8a7WKvAhrALyF4Xo8ZbPlO4d9pbo02aA9IIPFPZuOBj10gce9utxou1qydb0rSOw93ml+vfsehb3YHgi+u/8YvfEshro5+mI9iT8POzZgCj1XQ7w7H2U9PTpTqj2DFJK7AYGKvaA6OTnnOXG8lL+JOxOORLyipuK8b/eEPM09MT3pTMe7MRp7OxytxrsbSDA8+gYpuxQjADzlDvK7cCkSvKKQILzuwzq7HFvVO5Vzdb2Ml7+87pKHPFG83LzEabe8HrSRul84dbwuhwc91jlau9/hZDwInHk82e0APf0J+LprZLO7zaQqPI/MXzq6UoW9Dv1FO8/VxTwnxZ+8HySevJ9+I7iI7jy7kLjXOprrkLwvtIy8CCcwO2fxybvpiI67/RwtPIQKNbsbIKM8Lz3Mu0mjjTq5CYs8PlyQvlVagr1XTpO98hcOvetM2L10HzK9Zc2ivH3cmb1W0fe8eqnaOQLOlr1C+um9PTi7PuGyRz0FcDa+vjKGO3XyhzyB3v07M31BvAG+T7yf1qY8D9ZvPMlWtjt4t4q7sY3qvDqSvLtzpE28qhM2vefLTrwOQla93dvhPD2q+rwyJ1U98QIMvRzygDzTzYS7i/TzOa1Q+7hp+dO7ecURPNmbeLzd3Dc8eyPtu8tVqzoWjaO7g96zvBuaH7zcFZQ6ulYIPAQ/7btCMqs85ufvvK7KkDzZrY48qlqnOkKBd7t/uiU8",
                "xniCO9EYSbuUhq+7jMRmu7EiRLq2uP86k39KvGkthrzqG9A7YDB+PHF6Pzxb+tS7qxcWvCT8Nruwfhm7pw8ePJJpmL2dk/e87MFAvN6SuDlJvHI8oZaiPNHyXL3Zwgm7gn75vFyJ1jwqw2o957SmPQ/0Lb77SRs8GE3DPaJd3Twr0cw7qarfO+xIpbpD8jA94y6KPM0okDr/xko86rALve7Njr13UYa7/7lzvSkuNT2ywqW71entu63Z3zzyJiU9Q7qrPN2yaDuxFhw9GOsUPXMGCzzaaJ48YOnGPPBGN700KgA6ljCwPBe0lTzrF107dBUNPM42BjxVfCk81qKwuobKyDo8aEM9nfCIvEW+Ej3EbTM9g+x5PeahwDx0zl68nYVuO/gISTyJ2na9Mf/MO+Uzgbvh1TS8kFkBvVXJDz0b4+k8WAokPOGsRzzkRZS8/vk3ve8HULyDJuS8bz+au982bbuqDBi+LOKUPoUFMD59npk7fqLePMIsuzxq97O8zddkPapUDr2DVSs8Y3KFPGYfVjuHbzG+SIZ2vMV42zyGWkk8jdH4u3G8kDtrlSe8M1eMvDlMIzt6lkk7pyK1vK+rTj0lsFi77NnhOBh8mTvAKSi8ZQUQOoDXij3LskS9+ViwPB3bsLyb3Nw7Yr2nOwMvcLwub+47TN8OvEmYBr3e8wK9PUhbPI6bcbsxUw29UN1uOeKzGDvl1J48j5aVvIh4IbsAlUI7+4advHdLx7wnilc8G9G1vL1Ygbx2lFg70KGAuwZpHL0yYoW84HGoPEfzk7x2fyk97gpTPFBpBbnPulc74JIiuw/FKDwr1YO849jjuxldYDwaKIe7CXOUPICmybrBrxU84MD6vRbDhj163jw9bKoPPu5DTj5pwAI8BtxBPZ1ki73Diqk8xJYHvda9rj010Tk8mDjCvsr2uTyIKBM+24udvfVK5LtYUbM7wBuXPParmD0dVqe9ZEoVvUmbRjwG65o8F+c4PArAi7wMXZS9FwZxO9WpcTs2ZUO8",
                "G7guPAhVGj1hfIS92RobPe+HP7ztY5o9aQkxPF+WVLyTs4k86mUIPdx2yLtvX428zwTuPVVNxztlocc7FJAvvSKS0bzpDEq9JES5uh6pszsBcuK80g7kOyD2hzyPe6e7t3vDO9T7r7t+jTq7RJLxuhHHKbufaXa7HDkOPfYQUTz9rus741/MPOjbH7y5tve7DepUPAJgajwVe3q8uObxO0wjo7yE1b+7Q3dcOkqBL78="
            ]
        },
        {
            "shape": [
                140,
                141
            ],
            "weights": [
                "cRE4POaD/zqWwuK7dffrPHYTlrx1UjM8/UOjvPtzjzwYyLW7mw+bu0T+HzvN6fy8kLYIPV7m6Dvedr48AA9IvTomxrzhYyq9SN7yO5XflrsnOJQ8xpwevAmqvjyeBxu9Rsk4PVpNA71vLjY94xgcvf32Z7u5fc68X6bVPB/WZLwO9Ze8ffztujHgmD2Cl0Q7XelSPIH8+bstkpu8kkcOvAiKurzoluU8rb3bPMf81by3Fhq9gsQ2vLazn7tpeuC8Sy7Wu/jWwzww7968HFmyvE58sTvHFkQ8czV7O//FY7x0M5i8UIQUO5b2IbyFPr28fWuFPCeArLk4oUW9yPM5vYObrjwA7bo65j5UPHYtBr0NO7g8haTFPIXPqDwtMt+8gfX+O7JJJ7xmeVO8JmsAPZ8yZ7zgETM8V9QbvOq/MTo5KSy8zdTBPIZ49Tk02ic8qx79PJLshTvRPlQ7Z7sovbDAkjwkAyk9VDzcvDaiTrogphS881+vvNJyeDzmLxG75Ky/PEI8Lbz3hjg9c0o1vfuboTvEO/M7t4WPOy20YLzVHpg8ouLJvSbF5DyBiw67+hsavKmjzLzUbzQ8p2STOwoCGDx3+7Y7ZD82vHO/Mz1Lxaw7AFP+vD8A2byrHxq8OKV6vD1ifLvLDjS9z7IXvQI8mLvscC29bA05PDhIqzvChS89Lz/xOyCFeDvnwYu9EuosPGsWOLw9yGu9WDwBPXpHxrqe2+47JtZpPR42SD3BPjK8+VEIPVrQUzxnOiE9qvDevOBbdLw//pM99WdlPMHFh7tSMtq6iElmvVTi5Lze/nA8rt9UPCQb+7snJka9YXg7PCRskjyEL2y60OQYvc+9o7rd9UA9nh6LO8xrj70jTGK7Xow5u+F4Sb0s9Pi8Yd2PvDyvQT0jHdY7ZMujvNkTPzzNeuk70cZqPBI1qrsBLua7zdjUO/45yzwrBuA8ab45vCkXkLzp3oO8fFwQvYGg5zwEznu8yGMovKW7Lz0N8Vu3AU/XPACWe7xPuYc8",
                "FjqOvR79jrw0kzI8kvQlPLstqjxHPiq9NsVdvZhegbsqwVO8EzvsO47/3ryz3zE8JUVrvEPbSrySq/M8xt8WPSh8VL3bYAy8bNYpPRt7Jjtn0ZI8BatjOb0fdj27+Yc7qnJnvGh9EDy4LAK99VwEvFsAujwfCd26NR6UvLnrmrwpMSE9IHG/u6orYDytoMm8cjMkPRbg9Do6KCq8aEU9PJeMLjmvPUc9HMFYvICGXT2h7x69c0RlO+M5ez39EjG8vnlIvBMPYzwuzwK9h+gMuwLSSDzrgvw5B9pLvdONDD1G7TC9DaUcuprKB7yj8JA8IzDUPOmg/rsqQyE8A+ZbPJA8dLxRG8G8u2YRPb6uf7xMwS+8N5wpPVoPqjygHec7q2CQu9+LS7yNiyA81pqIu0TMcLwtt708CTm7PCJ+YDsVkSU7VvYWu9JVgzxQm/a8McsAPRbkVzyp1xi86f3HOyOoW7tB2ha9B48kPZIPOr2M8vS7P6UNvOwxD7394748MyMWPDuLFLwO0vm5kpcdPPA9mTtEjbW9rqY3vIzf2jxTWyE7vSkCvCT977upAc88GPFgPV4NRz30xEC9rl+evdKwVr3TQ7Y9sSvVO4ULR7zqfqI88bwyPX6TajyyT648DpEsvbxcz7zBXby8i1jdPFAbhrw9i7U89PZuPTV+37sE2RU6uSPyun6mQb3sG8E8yk5UOzACxzx+Om69YzeLPIwxHL2TTcg861JkPO9R/bzwobg8WsoiPfveCz397Hi9lih2PDxxiTtK3JK87t2LPTuJWLuov1+65GnGPFprYbs+tZg89BUcvPc5MLu+NtS8AteDvXHtfTyPMC09kAJtvFFcB736Mtg7DGNzPQVQID2unLe8YqonvFFJhTrjfdI8CZINPRFiKr1CFny8vQ2PvBr6frwEx+y8B7AlvEguVDyLwwI8DQP9vEVTwbzZibO8M9cCPUtOT71uYso8sCAkOzO2FjygaRK7YJVtPKpbw73Y8lS8s8FJvdZx6Tzg10C8",
                "3UXFvAFQJj0PT0a8R4KnO6B+TLt0X6E5cu8ePOVls7xwiky8qmJ0vR9IpTxTeW+8U/90vARgST2FeI08y8JzPMxvljyVoe67RxmtvH1EbTyvqYG8VK2qO44kC7uZuJQ9xy7UvIdQdjym4gq9LRtLuuEBdbn08Be815h+O1mMAb0YoL08CAsLPapDBDwMYxa8l9jXO1LNEry2cge+GcnJPLWCBD2VdPc7R/Itu/mJKL0+wp27pGWxOqrCKDz8LKQ7ezz1Pb79KTym6KA8ub2qvPSDk7xqqa46lAAoPQP4Cj12DoM84HqRO6rUIrxuIxa811vGPWHmGz2vvWi87HgrvMv1cryQD+48r8L3OyR8mjwGPaO7aRuiPZxQkjwNNKa8qByBO2kdSLz8S0g9QPkRvQ8mZbwxZ4S9AdwoPaMVET1/SdU8j7ehvCgKjj3eCrU7U48oPX+1vjyjYUA9o2YPvoI8gzzPjga9cZmZvIsEGb2i/xs8BNeGOt9oNT0Uxgk8DUPgurPslzzESTQ8M0EWPITj1LzgrGY82GRfPAb0bjsIRQm9KjOzPPS41j3EtNW8gYoIPf7FOT3eJCw8C9dNvJRArLtEJEE9SS80vaITCjyL64S8vesXvUy20zv3hL68qG9NvAPugDxjA2q8iuibPAuz6Lofmio9nuPMPBXRmb22Sce8/wzxuzo+a7wl6iC89fFUPWqF1zyVWaM8P1w9POGO67z7i+u8F9yDPBkgNrx/chg8F1ooPfej9TzfMYA8RfFPvMPT47xo6oQ8p6fSPArEEDuwO2m8YkYTO2w+vD0ysCQ8VYHkPBqQiDsLcwc87KggvYUbcLwHBug71RT2PN4QXzvPYUq8zGUGvL//OzzI2pq8hfkFvZvVEDwbPrg81AaCPF9rab1NBI48gSj4vDurMLy/QBa8EMmRu/Dzyzpekt27xdd2PY7nhzt+opy+9/rdOxS/lDyu/KA8YAZIO1MN/jzWPTY9IYSWPdMwhL3r9iS9gDahvaWmFz0Y4qU7",
                "24GPvKMfMjwzNHi8YczSPODHcTwVumi86x9FPHrnvDzOD786YozHvDaGiDwthxM9ViTkuelXiD3zbkQ9OcCauz60Rbzk8ZC8wZX+vC+3o7o+29o7d/PUu2qZR718AMI8o0bDPA4sAj0Gm5g6DlvSvMdhlT3jU3k8Ym0Su9WIDDwxPuc8HtAuvFcNAL1+1SM9puaavKrijDuWeTs9FO46ugLduj0R/Zc7OtwuPOiygLyHwNA8+bndPDJGGTx1gcw6fqnIPH95G725nc68ju64PKWLMzthqAm9A9idO+cCgbs3S9M8aCMIvGBl6TwLJmq9SsOrOvD0RLxSJe+85EKpuiO5A76QHk09xGQqPaWpFz7UVbs68diDPNBvEb0IeEo9qa9Wu4JRiDxtQ348baeLO5zlDb0PTVC9mdk/PJd+nrtumru6KVAHvRQSorzE27+6jpK9O2x4Mjwa3u68GOiQvE+NJj1PHKm9nuiOPOq8wzxOUUo8YQWqPLEXOjyYaIM8JoZsPb50uLxw1vY8vzwMPV3Qhb2ugPw8EtwWPYEN/TtNES48dYXNvG713bz8Olc9n6P1O+mJF71qrV+9fnpqvSnaqD1Yrb28w7RJPTi7gLs0hN88rujvOjoGLD36tV27BGp2PJ0hED3tR9c8ewYJPbapzby7GwA9rnZ1uX/KvDzbFnG+iLmuvF0kbjvzZUY9clfrO+h6sLpfQRi9Ag8JvVPxXzxgVo07Wzl9u7zdIDxP1h67btkpur3IzTye7hy948c1vKeed7yLY2U8vTVuvGGNmbvFFpe8tPy8PXrOV73oYTG8FAHTvN98Cr3QYA68IZ33u4Zvnby8x7m82VkuvXQNtrwiTke8RRZdPRwiszuRtrg85sd3PJCRqry2PE47cA6JvJFhUDwZnT+7+cXoPNO0njsQkDS78611vBeLvDxm/dq7rWR5vTwNET1lRbe89ZxnO7iIgD11GeG8ZAGZvIbMML0nqxs9zeIBvarG/7xJWpS81oJivAi7pLvhvKe8",
                "PNKmuzP+NTz/yw88MlyfPDn2frySeUU7CSPgO1kysLw0IIE7zJNTPDKKwbuQUpG8SlMsvEL+W70eaSG83iOSPEKBaruDAhY9xB0iu4GQfbwx1y294S/gu18zkLxC4Mi80drtu+i+zjuIEB88Idu1vPYwgDqHOB+9KrLpPGHjz7wmJNm8pu9vvfdLCTvVDCO92AapOlC68js92cY8BABnPJ6yVDyj6XK7YXFxPD/nmLw3aYm8bNEtvOGzVbytGKq8eQ/yvLf+ED0NhI29SbHrOoLxpzyo4IC8xHVDvEulWbw0p4S9ILcgvLf6GjzeKn47SqfBuaBXpr0c96G84aWWPU8stDzE55Q8tiORPDIFpr35rQw8sluLPfRwYztlKQE8QmKIvF1afDq95SQ8Ak9YO+XZiTraqRC+5gkEPHvafzsdrzS74scOvWSjZbuSbyA9coguvOlO1TtXoea9LTOGOjC1WTy4/r08pmW3vNIoP7zDgQw9RTN/vCyljLxjIFi9KExMuxxcizzZ7Mo86m6cPQTk+TvQRUm90rubPOjOCzxJAQa9lhiDvdZTQjwXtQ29PEtOPIXpXDq2GbO9digJvaMFf73Nezm8HnC0vOnMk7pewvs7kRyqPCoYJz2L1Ja8J3upPBcILbqNLlE8s8+dPLdU+Dt0tmA7pAcbPY19oLuGhpe854ZzOgGnDD0yUEE9uhjcvCCgEjyDetC8A2ApPBsqJjziZQG9sJJ2vMRBjL1twTa8GTkQPcJn+LtOnWi8BvW1ucFtiru6VFa97yUWvaXCxjwlVeM82uamvQDcXz0vTpG9NMsFvWmkuTz+z1U7JmUZvXhRDrzzjcM7CWEsPAHaH7sWyIw6lC89Pfzm9jw+Mdy73OBTvL1FZDxxuzY71lI/PE7mt7zeRR+8TmvkPa2snTzBhC09ttolvfn2TLx0BXI9ymgQPMBlkLy3vRO8ZTFZvOLO7by8/3C9fn3yvLFtOTwdkcw8PSHIvAwBqT0bdx+7Ni++O0ix6D0XYrG7",
                "cVUZPZ+SjzkMVMU9tRjAO0N0mz0L7pA852T/u2p7ij1jIUK9iFrevYo9Xr3qxwU8eh3HvHrUUzz+tTC9Z2VKvYKFWjxsZUI+WzlhPH3opz0R/MQ8faa/vKmrzjyr9H28BHGkvHc9ur3aKjy/7FCqPNuveDxof+06nbj1OqEbKLx7paO7tyugvN4gjT2Ugxo8XXh9O0a9Ubx7DgM9YjUAukSRpzxLFbm8VhxLPBwiuTyOY/U6ckZAPD7RiDx+Ym680nuCPbkjGbw02EK8UD8jO25dwrxwMQg8iD/PPJ7sfrvETae8MLyUvNBrN7x41IM80v84PG0Bizz4vmY7XsoNvQQd9rx6Pfy73nIivC4Z2Dtwrrq8DyQdPD1vTjxS11s7du0iPU2xp7zPorc8Ru+JvADbgDxfsFu9xpk0uxXQRjvaIVe8UFiFvOer7rosVla3h0orvOZ6kbyJacS8YCCmPGbbibxMneA8qX0PO3lhBruezJq8R6pTPHq8XTo9QEk7K6ScPADiOrw+i6E8eMsyPGYAJ7zNqLW88Yb0upatJrvbpfe8Q6PPPoNF5j1OaVo8YLv1uC2b9rwkTfK8ilAzvFwafrxiBoA7KZ57PAdAxbu3nOI7HemevD8QrzwE+bS7w2q6PW3mn7wGIjw7ZQJ8OxAKD7ukFuc564wmPaWkj7w3/Nc84GG4PJIp37uj+208MdoyPG6umLxB/Yc8C3mGPYqnCj0QuX48ZkSXvClDgL0+iDG8dA8pPAsZ2LmdDMS7nP9cvE8dxDxkMKM7R6oLPPHI6Tspxaq8iWIUPTGVnjyh47A7MFVlvTeHZTwSo7s8H2rbvIshTLx0OXA88h0EPDHtpDxv5Mc8+dkBPCipijz9OqU84L4TPb1O4bsbxhS9XlU9vHs4N7xISQO8lE7EOy9srjtHeEU8muUqvArfIzz/ElQ9+nTavO4YUDyGRrI8ARghPI8UXr1FTha83QWXPEIBBr276my9FlX7PGiJArwVjvm8k8OlPBNUBbxOMlc8",
                "iyFjvMuitLqMIZQ8YMc6PLiVBr2Dugw8j1fcu2f6nDxQQem8b0YIvN5dEb1FEOQ8EoauvLU0vDs0/nU8vPlivAadiDzQV1E7dpqtPD/PKjwVDzY8f4tmPIzBXbwYUZc8EoyZu/RT97zsN/o72MSKPGBqvLq/XR07MuEjPOh8lrsyO6c8epOou7cP5Tx464U7IbQquxmz6Dz9yjE7yNnivPMb/jzdoJe8Xdo3vKpxrruMgpQ8tnriO3eszjw0j5Q66wySuqG7aLxkQcW8NG09vMmTGjzpLOW8HDXXuiSeg7wqStO7dUvfvL7MxbusBOm5TAHnPNXxFbyB7yQ9oheIPMGfLDyXpj27cxkCvfIIjrzKeIs8OTBJvDv9vLuoIDe8xCvZO97yWjwK/uW8QIstPZhjZLvRMl+8jq1pPJG/KLsCJOy8Tg/Eu5VCMjtqpDM7ls7BO8RQgDzvrJq8MT7yvBMSMry/U8Q7VL9hPLVmCr0am+O7EDu2PHGNUT2XFJw8s0QzvQu9C71Qkou8fOVlvRqX6Tslj6Y8NP+RvEeuR7yx0yW8NVfwPHt61LvRUp49+zUgO+ZTbr18iYa8H+VzPEk9nbvyaYY8l7Ysuz91wrwj0z28rNvCPNoGA7vkcCM9uB2pvLv/Lb3Nt5Y91A6AvXL7YLzeC0A8bQ0Gu/wRqLybMBa8QRhbPOdFBjx2L+686ToWvIWeIDzNaXc7l65RPXfskT1VFlk9hFzhuz8tBL1hT9q7evn1O792RDz5Y6Q8D45hPZN+PD3q+lY9wxYivGvPkrxEtYS8niU0vPy5fTu3TqY7QyOMvIBz8LzwhjK9CS9dPQ+gnbtzogy9qNz3vIHGZLzdLoa7T6guvPbvDjzjlAO8yJ4JParn5jxWvUe9Gi9WvDFQNbvk9I07Bq40PGKIt7zwSCY8R1x6vMu0izy+hkU81IFCPApzk7zD9Xw88h55PXfKhrzXOFk8VFbJu3I5G73pISc86I8DPUmu4zxq54i6c3gpvDPvMT0AhRK9",
                "djJRvJOqSDz67RE97JvlO9e2AT1GNsS8ycu2POA2dTun9Ea9/58GOzpgWDrS9vU88FkdPaHtpzsooQK7gBDxvLEuqbvdiJS8iZNEO7UjtT38X2w9ZPdovVRTAzuLcy+8MOfPuos4lr3yQ768dg1TuitQHj1grMa7Yve6PET9Tb0vPOG7VXG/PJzTQ7zsTaC8JQUpPWG8j7xYfeu8aBytvI+r2zuDpeC8yHnGvGvZWTzH8WE8jNkzOwUKcDyl39+8KDGwvDpf5DvMrCg9L04CvBFTkDpOiaG8ZDBePJu9Lb2KQyM7qDPMvGfii7yizAO7GwRSO1JbqTvOTp46b0hPugd/oryfft+9BnxEvJHEwzptIuY8M+zgvEolGTxYdjQ7Oe4HPI80jDymSU88OVfMu3t3HzztZ763Xn+DPKAQujyhgho8sGbxu6HUcLwSgCW94+WkPE+X/bwm5QA8c+shO5RB4jrCt7M8viIEPboGYzydV2k87KgHPWrXbbvmqi69ZepSPBxtorsKaB28OfKoPMSmibycQE27Rwe3uyS0O7t6ORO8ONYbvTdDGLwrBK68+IadO8hwyDn9v6M7FApfvM27iTv9G3U7tkWoPN4YJjyU0KE7ud2VPKZOijze85E6xDtZvRrYTbz2BuU8GWFfPGAJUjy0Nwc8Gmp1vDLqpryxLiC9trpnPIJ+BTwLrH48RwaYPFFnC7zBIY87H3mgvXW12Lqkwha9N3bBujCr3jvq7ZG7ul07PJPb5Lvp6yy6x+PDPCeZWLzouaW7w4rkvO2kjbwqcks8s0LTvNs/wTr39nq82Am9vNTcwLzgrO06WeObPAni/jzUXc06yqmIvAkdNbsaftk7hA6MvARdrTtVIQE8RwCGvIMmCDxq/DK76iEwOeybAzyrI5W8s40vveMAAbsPQFa82/+5u8tTdD2Gp+S8Vd6QO1gDXTzGM0c9lfbTvCxu/TsAeaS98BscPCArwLwDn8O57g8IvXZZVL2+lfQ6m8LYPRjVubr8pDw8",
                "qTlaPBjT3rvnRM48k3vuPOfGnDsTgK09oWdyvMY2Yjw6IHS8h13tvJnFgLqhE7Y8jPx2O6KE4DqGQpu9OpX+PPe4oLoAYRW8kjBbu3/1jzsCfTg6khHrO6mlQDwChoK86oPIPOEACr2RhzW9HXyzO8S2LLsn8ko8kuMTPMqIw7xlHRu9ul/9PMsyjLwRvU28obJzvW8Zzzu+zJG8gQMmvFzrObvxBo47xZJxO6r+5LwcMYw9KnaQugGtnLtcSZ28fecePGtVzzz+Dc48yulKvAxeP7sCyRM83fviulEkXrz3nh28y0ixvJP3Sbx26YW8P7dQu/ARhLwS3Sg95VoiPWcEgDt4bT69hfdlPI9LT7uFT0a8CUNJO66ShzqPMEW8UhRKvPDBVjzpJ447v64OvbM0Fj3pQaM8Wllnu0W9Ej1QTxo7lFoGvFgBCrxlWBs6XCkPPclAajxxx7S8GwGtO4g+kDvvmo88n+E4vAyrIbwL3v67caQzvfF+zjsB5oG6G8IHvEINMTrwRfk8pR+oPEDfGjuOMT+8Uu99uybkibu4BxM7chmIvvjFibyTWaa8O7MuPH29tbtwcJc7zmqFPMp69Lt2IGY7xkL1vDI6ozuzfIu8QkWjPDMa3DviaAA92ciKPC15nLyaf6c6aWkLPfEwiLzgnsS7GjCyu6rwUTqVMrK72VSBPLrC/jxXsgc7F1wnu4jeUTxX1My8MK0AvKrvhDxyBnu7VokWvQ5tYrxbrV28apqGuznIO72dkYW9GJvjPLlq5Dscrqw84Sx3O7/JD72SRCQ7u3SxvADE87zoiR89s3e5O/kfxLxOu0w81yREvL6m6Lsrapw9jiY9vU1j3Lo2WBY7nq2Su6+HPL30s4K7jfBvvQSAvLzrnAK9X7eQvINRVrxC8jQ8J1I8vBtB9rvuNbo7TbwpPEQRH7xmp488g30vPulV9DxlaWM8ho2nPKXFu7zjIxe7e2mZvOsP27z/lGa8yOwWvLinbr0SdBq9rTEGPL9Vo7srK6O7",
                "bbVOPIDjFbquEQo8SQ1JPETssLzAo468R1IFPJxUG71fPhA9TyXWPIpXxr3GeYW8n44ovTbkpDygFmo8/Q49vOkIAj5yEQK9Uia5vCFbQT2+EMc7xSKCvViXE70LwyC9XmJsu8q2jT2y5hk9pvoAPTYfGT3and+8f8EGPQAy7Ty9Qjq8D6PMPB6ybT1Elx+98whoPDMtHz0Mkoo7TZRvvA3hyrycXIE7UWFJPKl0RD3ma+48F2AKurF11Dy4lbo86OO6vI8SrbwgZaG8D1ZNPBoTAD2Loga9+38lvEmOiDybLNm6/0HFPBwSET16i0Q7RYy9vAsBZLzYJH88iSKQOooCvbuucMS9JvZWPB6TXztSmM88I7KePSd3i70BBwe6B+w0Pi+SDr10HYe8zIOEPPYO8zzZ2uM8TQrQuh3OpzwuAEm9z+KqOxk+Fjw1dWe8M+oBvFeZjry8YCe8j+vKu6OQEL2jQwo9sH+tvJblezvEDwk9rMtdu7SQvjzKF1k8H2YsPVe9zTymwVi9kWONvN8r5ThUFEI9ZYn+uw+VJzwGYAW/bD/JPAyLxzoF7R29qih6vKD/tbv6xD69q7/OvE1l6zykZ/88GTRxPbvTLrwV/ew8CTcPvQaVmbySlIe9o+rivNLvY7xEfAs8wJnsu/CspztBxj677jufvDFPAD2PVT48DYCLvNlCy7ynW6o8GD42u4DUqztaHxO9vVgnvU2Qvbo4RLs8kS2VPEIlMryGdJY7LTIgPfvFNLycoUw93diHvOvaC731rba8DxHbPEBQiTxVoFy7fvchvZjbybyCF4o7meIGPHZnhj270WY9JIflvPwfwD0EF5K9beYoPJUZbz3YGb86rNzWvGHGj7yPlHG87jriO3tqZ7xFHhq9YN87PTJb5jx4QtU54nIwPRoG0rr2Xsq7X0kPPIo0nDvigJ88RcgavdWvczvbbC+9otiVvEyKlb0lhem8nWEjO6YRhrznrEi9oZTLPGYC4ryUpye9G9lgPL+5YLzL87Y8",
                "kJ2rPCJOAr0Mysm7Aw+zvMkxALvwDli9IjF1PPDGXTyIBaG8AwMKvYkXeDx3U1C9cSPYPOQX3DuIHC49wDFmPbCSBb3goSU8Zv/Du/bFjrtgSEu8HU+QPPEsHboCbwc6IF9IPP0EfDxWn0W9okSju6Pr+ruRqtc7NCpKvUefRzxoRGE5CRMuvGDbqzxLthe99R8UOySxez2zcxg8gwmFPWo9WDn9jmA62FTIO6GWgr3BT6o7Ri2HPTQoYzy8glC8FIuFOcgOejzqOcc8p/oHPUe4fjyQyiq+inyhu/EVfzx2pT08kSW3O6hByDtoWiE7AEiPvBwWgTxNC7Q9O8Wcus9CObs4rY286xrpO4u4RTyACRA64rldPFqEVrzet8a8kvVcvfUA6Twbhi+8cOK2vLyWHjtQjjI9INwnvP91LTzUUJQ88ER6vPnnjTw7qhY9Ar3mvHKRxzt3LIG8U6scPJWRk7zDIj89Ii+ovHm0SDynIfy8m16IvK7xFD2JLbY7noUOvJ4eHb2ISSY9k9EBPA2ML7ypNJc9Q294vF7wZzyebbw8oOIXPb8nmDsQ0IA83eK1u3LlbbwWmHc5IJKxPI6gmDszmAU8MVoGvA8BAb3Sthm9r+Y7vMJY9TwIcA49A3mNu+3FlLy9M8Y8ThOmvPBLF71lH709xPXVO+VxnjwJx7q8gSumuzoYFDuXmHg8gyH5vKGlXjx2mF68FnDKPNwTtDxmwYs8uyEhvCj8djoXDEo9XZA3PRPW6rx1hCQ8p01gPQwrUjz7t4A81c4iPYekm7ylQSG95uIkPSNyQzvyZ947EOp5POESwjzUNBG9xw0AuzmS1LlUhd48sg/kO9gwobxG2FE8e/7nPOMdAz3TkUW8KpwNvCjkKrywjZu8DJBZuwZEtbt+0lm7ddQZvF4QEL0lp4q76VAqO4Yt3DwZ9Cs7KkzGPCKIhLz7UBQ8m5QWvQiz+TxRZUm8+GgTPFLArzzuwca6GohLvCd9B7zHFo48y+H0vGXJ+7xT/Hu8",
                "dEv2Ou9nwrz25BS+y48PPMNflzzHo2M9ZTcaPcK3MjzaF4K7FwamvG/rODwXzku8WeiBPZ1Sebwr63C8zAxkOgelFL1Q0vS85ahVvDMYyzxT2xM8zF6hvDY8EryYGou8X/96O/A/Zjwu9mg9cCRjvYIzKrwe1t48iLyZvK26tbvkwaM9bdElvF/5jLwPkrs8qzL6PK2rcTwBDLC8izaOvON3P7xOp4g9ImwmveUXGj2CENI75bD5OkcQIb3VM/o7uLHavAe7kbxQgMO8AON5vI3NwDyYYCC9ZfoMvOpEWLysS4K60NS1PI1l8ztNgv27wSlQvSraj7yHYr68TYqUPNLAcD2tRwO9mOn8vMHnvLyqGKq8eTfLvJx3Er2+ZfY8jh5cvaCgTr1hZcy7C+iyvE1DGT3Od5G8Un1UvIO+Fz2oKQ+82ghtPfwXczzKoDE9yC+WvNqGiD3S4Lq68XrDPFVuKT1q5Qc9gJUFPJ3CCr0YES08j0+HPTeagbwEiSA97AuGveGqojyjLGa8buqnPOdJOLveq7m743QCvKC8urywuni8MGUAPB0GZbuLDy29+ZsyvdJn8ry09Yq8k8gmPZNrdD2KrBy7hEnKOytaAzsN4SE9DJAFPUJWrjxLPHo9yOqEvByTED2iixc92McRPGT22zvYBlw8yi0LPfA3ET2uL8Q8/GcqPSWtZL1sU6K8U9fNu2WGkLy6toC72Y2BvDM8xbkgOTa3g3tNOxVJubxwmjy91d8pvYn8mTxnBA++Bqk/u9jWGbyUfIG8XPwXvMRDRzylpoW8K2gQPS3AZj0jwuO8o6vVPB8NtTtJUz89p59tPPN2JDxMRwo9f4gQvLN2R70olY884rwNvGQJOLyBAz88FSkovfkggDt8aWQ88wEDvd4pJTt/nLq8rakDPUxLp7sSfGI9hjLZvIwq+DmdY4u73iuEvUqf/DtAvie9rAIdvNbu7zrQCR29zivOuypEB7zRtwq98Rd/PPbgmbuvYjE8TaGgvAAnwTxv/Zg9",
                "ERMPPRADSz26Jgu96dBvPJ2jHr0eBKG7IdT8vFrq07twukC9s1UZvFVOk7zMa0W8aI3kPBnxm7wiXz29TqYuPammArz7MdC8rhuxu7rBADxgBCm95/CZveUf9rvL7528yfY+PV6dzbxDk5y8SYDouy+IPj37CxW6r7YPvRHKZr03bm68NIXGvJmwAbyCQY28F4eDPJ/Oa71gWbo7f/lsvRLynzwUzTo9RTaNPWY1hj21FQa9BBZDPMD9RTyUo6S8rb4pvfqyzjzwucS8lopPvU19hbgubf88Uk/EvEOwTjytl0W9ESNHvLnkwzrAyOa7K1g7PWcxCz1AN148v6tVu6APGr1H0ZA8XMZtu16aCbzHiQi9R2XjOhX4BTxoTBK84fzGPFaEsbxGYhk9RYksPP6JcL3tpK08OTSXPBhzO71qT7I81lfGumjYiTwjLAc8gKmpu43z6rzvC2o91DgAvJmDMbxCyag8a8F+O8F80rz94Dw9483Vu9Re77sgvV0992N+vB05YDx9qRQ7rhr+PJaQAD43Se68PXAUvfojTbwUfuk8RR85PP5ccbvEDEo9cu5NvJotEDzhTis92k6bOu4q0DxawuU7kTWpvbJ8OD0xN1q5K8pfO6ly3jpfDM47H4gKPYeobz2gASO737sSPXcVDDzLrvk7WmgjO0xXRD2vpY28DwQNvJbAizwOb/A6aKoePXmPjz0I8JS7+jPWvGpfO7uxMHk9/NoGvR1uH731xxQ8l04lvQsO8DytcH49h/OauQvE7j27Ndg7OY+rusR6KT3JIAQ8CDaCu2VB0ToDAo080xXvvGODjry7F+K8j8uMPB/CWrwvIqo7was1utpaTzyb0wa885UePPDg9jyrgQK9ODn7u1hfWjyPvJo8cj+OPHyTKL1cjFs8U/ibPWYoRT43be47Y0dlPeyxQjylvMg8mqlRPEo1w7wONmw8lpxaPK+fZzphJeI70xyuvO3atDzXMqa7oXmoPVLTrjsbtXg6vk3huw8jqDzxVao8",
                "XyZrOp3KnDyLJbA9QRjWukD32rqwuaY8QDWUPNpqOTw3ktC7iUuqvA/lpzuy3K47MzYKvDgKqj0tNEy8mkgWvAywaDx1y9u8LxB/PcURCLyFNEG7SaR7vDmLkrzxFfc7buWaOXkVSjwwXS67xDa8Pev5CD0THOM89I/dvIJNDTyk5jc9r0oAPVYFA7zo8BA9BEKmu7p7Cb0JZku8a/4uPct3r7tL0SK/wYeTu5PrLr2SFzc89pGXvQkfrzxXLKA7c0tCvCKBFzuW82S9pE4AvMMey7reAj09sDnMO3Qh8TxcYSg9Kry6uy9FSjz6rXy7X/3muVMoJD2YnwS9N4h/PH+/lLsFO/y7unLNvD+YZbxd+5u8B6TdO+519zylRpK8LODavB/1Gz2PjZC9WFo/PITRu72qlqS9yn6VvJulOzzXIcg7dT0PvJAyDzxv3eA7IxgPPMYvAD3XvqC8J2l+PGHbyjwYYyI9BghhPA/Z8bq6sWY6i2C6PD8HITuroBi7SjsNPSYQ57zOvAy9aquePK+npDzWc9s8ANJhPUS9aTxD6Fs9ZrVLPWAlzjoR4x69TpfhvLZVlbtbY4k7K53Mu9A5mDyujGG9EW5nPB6zs7mabjw830y2vPMzoTujh/06KH1NvATc+LwC7pa8ROstPbldv7sZY7C75AV8vH5RAT37rEO82AYCO2umOrwp7Bo8P5ADvVHTXLsPENA6OrkHu/UbMrsH1z28Vb++vGlXzDwV+2K8vtnAvUbzkrtT5jC7xEDeu5tpUz0cfXO9UT1EPZEnLTwIRIe8AeCZPNNKlT7OX647YdcRPYHNej2RaK+8bH63u6TimbtcKSa9B2S5O7LBn73w32Y8jiQbPUmVbj1SG6k81H2bvSacHr3hq4u8rsO5vFiMPbyjrVE8or12vPuk6DoFnQW9xWAEvKNv4zxcUmS8aZI3vIa0xTzioQ29JFKdvc8Wsb3vonq+Rdh3u0/QqLynIbw8MhXZu2QzUjwfpTU8nCzTPAc7+7xnzSy7",
                "ca2OPHpaeT2CWh08gCtoPbc4BzzBciM4xjmVPImczjzjbsg62cUQPZz96TuQRjI8gjq1vKs+7LwBQ6k9Yj0Eu3WaJL2foVu9mbXBO53mET3eYOO86RgKPVjx4jp7J/K64dnBPIbyCL2Qbru8Hlo9vdRbHjzCXC286q0ZPE49WT2AP668t2uyPAW0+7pXecy8Vx/EvOysMr3Tx748spCRPE7FLL3txB+8jmIXPL2m+DweDI284NbCvOtXib1HMZ291kLePVEoIL292ja9VtnoPFZvkLy81aw7jBUxPHR3oLvpFPi8lP3jO3BouzuTlyS7mtQlPJioL70K8tA5Czw+PAAlEb0CqGw8E2kDPLcfS72C/M08UqLVO7klwbtlzsQ8n5stO+kqTbxD1Hg7ZkwlvARVh7wTLtY7i00WvfxJU72sEM88TcK0uUSTzrwulNm8rHCzPIR7TjxeRPK7/sIiPV6HxD3fdju82PCCvIUTkTtANAs7E8NVur9mTDubGhU9iu+bPDDDHj354bs8a2xzPfq+CL1fDi49yxEgvYTYCLyAb3e88EaOvRzkTDxOYOg8eBAuOqCrtbzhDuO8lCNNPC6cB7qLM5w82wduuQ0P/rvLc3o9ZddIPYA0jjzbYDs9S0SxvCQBoLtzYUw7zAo9vNd0JTvpZOk8Bh0KvCC4HTybWJI8owAQPB0f+zz2QTS+Vu6aPBhAMr1MrBq9ErejPKaDlbsAAze8OKkWvDiftz1lo3o815omvb2KBT325fY7ec1OvGwxLjtWhhs8t73FvO98ZbxdSsg8l+DZvE/5Ozz3rI872lZJPlx+1jzobCO8/nNHOh+d0rxEC1G9LldEPamiaTz3EHi8fmOcO9AZ4btKX7K8I015PDJjvzzbyQG9X98XvLnOJLwGi8M8sOZHPJWWKby9FwW8AcW/O/pAaLwWrCE8wJiIPUL2NLwkDtu7IK/QvJwahDvH4W297oRdPHVI/jw+cTk8fVoFvTLFojyDcqM6abAFPVkU/bocIYa7",
                "F3H6O+SRxbyrNi09VMfiO3Fb7roFem48XmwfPOcSYTx8BZM5BsfZPJBpOj3m6II8vG9FvA5J3rwtFT88RP0CvHJl8Ls6YKS8Uz4XvFGNxD05aei8rRN/vMCrhzwnCfm7g6Gku7Z/VLyflbM8LNwRvLwNnDuNQoc6HIw2vP7w/jzrTRi8r8owvRsFLDzr8JG8AnUrvKNzm7u92tq7miKzu8ku1DuEEvk9AS45PP7Hkzw4BU07nk9xPNjvdz1fhh68AklZPrtR+rs5caA7d42SvI2NoLtxfLC8bf1mvY3rRz09bpy8cDlQO3fRKryECC69vlw/ubXzQTzwio28D7SJPCtUVTwUfhy8BM4+vLQquDzVKA872TC4PGV6Ej05GrQ88FkxPLI1TLzbwvU60gg6OOMIqzpCY5C7liO5PCq4z7z0p9W+l7GyvL2ZkLx80b07xP1ZvK61z7wLu6y8BhwYPD3DOTy6/U29bsdQuytekbzpDME8SlMXPOX7d7xm0he7uFO5vB76GTz7qKy8hmvqvLaB2jzh3ha8etb4uxbYNDu55DY9ar+aPNALEL2oBN48ICQfPKWqWry6LuU77fvmuyQyfjzOJkk9lTUkvCWsuryDt6I7iAOsurBwUjtRCpG8qLerPDL5pbrOPzQ8r1B+PFy4uzvEGSU8zg7WPJvNT7x9gI08b2LjPFdbgLwoUKc7unYwvEBJgDoREXG8TkSEvPRXx7uOUJU87DNLvC7iLj2d+Ae9EtnLvJAkT7x+k+26GR5zvM3PaTtEh6s7RDj9PH9f9zp7zXk8Q2lmPCM8PL3lvdA76EVXvUcWZ7yASL27G7dwPI6MDDz2XiO7HNfFu2ZR3Dp8Qwu8g9ZMPKgpm7tHo287TXxluxoXKrzbxNE8bSd3u/rzlLybeAI93R0bvJlmtbxXktG7DzUou+5VAL2aEsI8fmVHPGiJhroSC5y8Gn1LPWKGJ7xYNiW9NZCLugWbojx1LoO8dRCzvDAvdjz5QlQ8f2fFuXJF+bwfsX28",
                "c53OPH3azrpW8B493fipuyUK2LxAJRY6YncHPaLXYTuMJEi9pUR5u7JB/z19iGw8nPDKPJkMVbp8ovu8x0nfO1dP3Tw5hH+8d69yvG6yajz85968KSwJPd9pE7rLqCQ9OmlCPVbNiTtMY4i8/6e6vDijTDt7uSu9pKaavACql7zVnaw7ehDIvFdVAz0EOWU86Mefvf/tJ72f6pc7shyMvFUHKD1Z5p87iqVtvVpeI7wRl3I9PqSPOvI7vTwhi8079wsuu4ximTwcSKm8U0NNvQ/UZD3sYy89dMWwvHtnBr1LWoM6hJKJPEfa1rzNgSw8fAyHvUeul7z/ZKA8P1qCPBb8ZrxE0Kq7UpoYPaZSFz006qE8F8zwOUeXWbtbBoq8uj+cvODqWT1aTwO8RwxuPOg+mb3W8AA8I4pWPDd7Rz1zmtm8lFe4OqTJhjyqgDs9HzgkPIJlML212EI9+ahWvAvxh70MG5g9qkISugaSFr1EuaW5ti5dPOfjwzxXWcQ82xtgO0Wr/jusRT07DNeIvGTJtDwTmrQ7hnURPdhX27r2TOU8gSYbPWw5ajxq8Ai9mc5YPN4vr7r8Vwk9IblVPQ9uxryLN4S9Q0FtPVhYmzy3jTk8TtZbuvocujw5HQa8lJaiO9qGZ7y7m985zKoIPfZKwrzSWme960g1vHasTzzvJea8kdDqO15aszrjOiU7XQ5LPQ9S1bx5l0y7C/hwvDgslz0WONa8MtTbPO6awrtOppq81hAeOu/6ZjyUPyk8tBclOpxxJTx4g/c8MofovO2qjztcGRi9ONiwvKHxnrv0Kfs6gfkVu8Bau7vcCz08km6APOmijLwP0Iw9j/zgvIcnXDxh1jC8cEcBPXfxxry/kgM82+CYuzcSnLpaTj88uTBzO48zTL0y1/C9nzTYOwjTE73j6zy72huNvOF9zzsqbSI8L7Z/vU7orDyOyQK8Ucc0veWrAL2F6h68RUlsPV2TAjxehRy8hFEMO+qG+DwxZgO8NxAWvN8BDD1K39K8",
                "QYz5vHapnL2eFkq92IsKvPREjz3MAnW90z1fvNhQHzscjsE732OhO2SA0Lwgzsa7OyPOPMiEHrxmZjS8orP8vEioi7wEkI887KGnPMZsfT1zg+i7l+a2PFe6MLq3h9e7PM41vGxqvLzJa4A9rl6mu7NfPr3TAae8zbKqO6kjRzyuH+g8PQUCPJEqhbocdYE90FDhPMreUbzMjnE8VU6NPESFDj1xTQg9csUWu5wQvzzXB4Q77MO4u/SN+birHOe7aDpbuxcxeblvzFO8pKpWPYe57Dv0diE77DFSPUs247xN0FK95KqFPLwWv7yFtk47xfS+u9P8Rr0qazi6qICGvFttgTwPlKy8GRvVu41GbzzDnhC8u600vJGYC7uKD/a81wkavIq1erzelQa7kBdsPCMTt7wlolK86BFyPHf4Hb0iKP48qXLAvO5ZGb2RPhq8RT9GvBrdtz2Tgis8AxrnO3BDFjtiM1S84KEfuuDB6rwosn88+pT3PILQrLyaWhC8V6fAPeLrlDzSGjq9R3oqvCRwkryG4WG7EK+2u/TUdDwFSRw91AHpPFFrL7x7sIw8o27bvHdMrjx1CLy7bOwmPXY5jzxCuxw96U9MvJQ+tbyPAic9cK08O1S4mjwAOzS9Cn9pu1YxF70HFV68+NdfPP/l4rtOfQA94ZJcvdV/OLyGo9i6Xy1APOKfMbxbwUg9/+tvPA9jq7vWCeI6PlV2vG4P7Txn7Zs60qIvvS1jYr0Ro8O8JF4qvBggkj22ac48Igm7ukeBvTyQ9uY6TOPvuqgWlLxayys88BiHPFK/trsk+RK9jY1qvIVs6bxs/AA9arDTvIeFrrwh5z87+zTAPLUaBL1O3sA7QaSUOj1IQ7xVMX88xigRvI3q4Tx9KW69O3A5vU9RPrrKXle9YUzmO0slIT2ahjy9hTmWPF1ABb0mJ/W8WNuPPKlbvrwAqgS8Cd2IvGe0RTwTNjK8IlxHPA4xDT04/s68SHdPPN+4fryRAom8ky3PvL7Ko7yybUU8",
                "OLjCvKirdz19OQe9O5FQvcUJT73OgTa80KtEu/OUGrzvz687Y9oJPd4txrxoLPi74G4NPIR+HzwzSyQ9Yi/Ouz32qrvaLMm79Q2Gu4Evu7yzZNG6AI+hPEdV6Twzde48IYBSOQ6UXbw9hKa7lC6wO7qevbyZQqC6psu1vHJ+DzuqPra7GUa/OoBSL72ckIA8yxU0PWHyhTsBwC49Eq4cvYUoezvjPOE8mqLMPW0oVDwt3kc9RkL+PDmIX7t1uH28z3YOvPwwWbuNawE7g66NPPVXKD2/QkM9y77dvOnEAL0+ORC9RIuSPCgcMb3cBGg8TxA1PYBcUbwpiDG9CImQvWSwiDzawVE8isWGvQfHlTs/Jgm+ifHmPKmidTzqGM08FNMjvLbs9byyois9JILOPMviZzxZj9i8oP4fvcuh5ryiNSE90i6Zu/5KkTtvxPY8S0/FvKgXkrzG98I7bVJpPBY+tTyKyQc9+cmYPJj6yDwgpr68BVAhPGA7wTw0lB080ouXugZIRT0cjao8TeQHPRJbPL0z7xe9D33DOwO8fDzXCYk809PevNFzQDz3ptc79ZIUvSk0AT3ngx48ibHtuxsG0rzJZJQ8kTbNut4YCrsrP128kPF8PEcBl7vVlcG8wFShvKmqE7unLJa8aO3mPAvNCD1kgKo8mIg4O61+8zylojq8smYuPIT90bzC1MS7sBstPKlY2jx7l488VdifvLXMNz1ymdu71mkLPOA0Dzy3cLk8iFVuvXeAPj1l8oe9dLzZu+QqorzMvys95hZKPKGjIjxmdj08BaYKvfxVw7wva+W8Pnxpu51Zejyxj029hBQuvb8Aq7tQYI688BAgu90RG7wEHFW9oS4XPF5pGz0s8UY9K1SKuz0bJzsOF5a9706Au/jEHT1QetQ7rCcZvZRM7rwMdcC8gdfbPBfKcDwDldS8TRsiOwnx2DxfvwA8DGuevCXvlzp3WpW8ede+u60EG7s9qPC8ucxYPVKnyztgtsC6HbYDvTALQT1R6mK9",
                "Hh/cOySru7xDkw+89dg7vCCQU7ueIz28IjaTO4T057sKqFK8cgGMvKQaqLsS9nk8OytHvN9wmzzCIxI99apQPDskojxjsa+9lYpGvdzxFTzfgS48pSqBu/o63zwb3RG8x0C8PAAQwrxpIWE7Zj7OOk5ggjxGM5m7yRd8vAVKXr0xKds8+LYtvO05Ubxe/mG8nHe0O/yP1Tu7Cs48OhX2vI06NryJWNQ8sU7WvKqqAj0pILK9bTxyveVhMTy+bR89YP50vBuvbr0pgW08HbY/PN+8Hr0ZOQU9pD2nPA7GejyNqz68n1yyvJgNYTxy/iW9H83ht4lAIz3ywUK8ZcH3O9ECg7yX2Vk9WOy2vLQXOb05h8o8YDgfPbOx/rpr28Q78wtdO2OSsLxiPwA7aRcaPPWxqLvZ0wc8nfkNPVhBtjz6nww85f2/POKPCLwtR6a8402uPPq5wrqjMh+89BGZPK3ctjugS/K8ADx1PMyrTz2Ak4E8JLmwvN1BOrw9j8g7BobCPBLiBr13eSc9dX50PL5aiju2nyY9QrcJvSWcDr1paqM7gL5jvQbKc7x3jTu9RS2xvT/NMzs74+26XtKeO6gkKr3C3I67tHxNPIL0tj1Om8o8ydsTvbzJzzzUJpG8EU3nPAXunzxQNlO8de5YvBOYhDztIeW7Ha0vPNYNHrxs2Ay8hDIDPJ03BrwJLVs74SbcvAhZvLwjAxW6KmM5vJme0rxSm4u8GFfWPHxa/LzwNgS9GIDDOzWJjDvaYx48519BvMF9Nr3wagy6CkJkvFDmBjxuf/k8S+MwPadcKTzv6to8F5FMvU2eD7xxRKo7Z3ZRPNZmG7wx9z69DwCUvERK/byBOPe22LG6PBfnVLtOi0q9Q0gSvfV6izntOgM8KcZfvKiHu7xRiqU6epYTvHieCb3WIls7nXc4PJsPoTx/cMu73a95vG1Qk7w6QuM8ZlITvbOhrryDTtK8WedBuw+wUL3eHcc7mnw1O0wP2ryfGGY8eyouPVjWYb3QQM+7",
                "Cm4sPOrkj7u3aQW9Xo24vF/eW7zqCg08TLOouQyLzzwOAky8XCOnPEH3wDuH1Mu8Cfe6PBETa7x5uSw8JROQvCovgzu6viq8WC+Cu0Twkzup3YG8OLirOxu8srzVGrk85TOKvOyZkrouqI47lbAYPXs/C73eD5882PihOwaCBjyLk0i9pByEvJdRNzsqx1W8neXYO1pZPT1/liE8lnnUPGFJIbxaY5E8btvtvKs0S7wM1ki86kKZOwtyBDyWqwk82OGdPP71OD6ArNS6J5quu21xorw+eBU8365MPJwlbzz1hvW8aHgZOmEePLtjvxI9DcqpOw7SRL0au9C7R94WvUf4kDzWNCk7f9WEu6ySHrsZmJK7JZviO5XoVT10K8K6MC0IvK0L7zoq23e6J/VuOvbFvTv8R2e9eveAO+IPILy5ws28Nw3kPDN3xLzHkTi8WNPnPC32+rvO9ko5l8SPvEMyjbpXGFG7YgaEvGa2BjxkRF28QrqDPGTF87ylMYi8l3cXvEsLjjyf+7O8SEkKvE5Jx7xyBxk8ufr1uhrfrDt67pc8LATHvIwCljwdgt68cvAAvLobBzxgX1g9FBatO0z40DqWM4c8T7MWPf4OjzyIpBC9jaj8vNBLfzxYHgq7We3dOr2bbzxAUui8mtrVPdfP4rt9LlI6n+d7uwrmNrwN1EA86VVmPLXHozvDcUo8PwoZvNrq1ryhN+M7a2sevb3FS71pjJI8xs0fvDdbbrwsMwG8wkKjvARpgzsOC+K7WQQave4ZxDzpK1o6qkKNvCsD9DxxAjM9b+cmveldn7sDQyI8kqKrPb2GXD18QpM7E4P1vNOEkTwPClS8t1CtPA8E3braDEQ8ZDHoOw7MTTzbH827S3lAPG6/TDwQARE8OZ4cPE2pGrxO7488uDqvO96Zj7y92ko8EZb9uxibBjx4OSi8nyt9O12V27z+AiW9PpKNuiq+g7x3Mii8D0IkvTSVUb1DHwE9fsfJPK8RCr0Vlds7P5YDPDJp7LlfQU68",
                "CNFqPFcXvTwXKdw8oOk8O0ziO72b3gi8rY8nu9EQIzxJUjq8261aOpP9wjzEajg7MF+wPDhNczvfGtK8Je5qPNkvELvPzCY9htnhO77kdzzEs8O8AkgGvQ2WT7x6N909gUxYPCUnnrt6O4o9ME3bPExuAT15DU07hwUMPaYJs7yJpTo9W+NNuz68tDzhQuW7KVUwO+X+pLzGrS48U2X5OmZJ3TpTPkU9OoWUPKswGbviZ+w67DFWvQFGQbwOJrw7FYAUPIC5M73nAgO9e00ePcgMsrxabrW8KT2NvL0cW7pM7dy9zBUBPUBdnbxaHYA8JSwZvSET1juImZi75tYgO7cvlju6lSm87bakO7zHuDzy5yM8Ryolu5QXrDu7Q7a8xzDLvNlV+zy/4Di9qh6YPBa4Szx+xza8SGc6uxQXmTlpG7687ArGvK+rtjuEm6Q8r02IvBBN0DyPqpI664v1PO7W3zymxQG7R05gvA96ub2lT5G8XaB8PMIM8jxTkrk72rk6O+1okLqZTZe7CxsSPClMv7l5+xk70sU+PH8CmTywZ6i8Is8/PCvjabsFLVq8qXOlvCS20jvsENi89psPvZZdFbsc26W8dWdLvL0PRDsDaXq8yPHNPPmD0zzA4Zo7oJu8PK7VxDxURRC8dnswPG62pbxmfC+8/6suPQEipDxKGDS9FJrLvANZPLzCq/+7jWYuvTPPcLpIpJK7+eicOzeNW7uzhXq861/jvLRvHbzZ84+7g99gOtdsoTwaezG8Mt9Wu4BnnrxDStY8ZzbLuzHM1DyaljS5PEbNuzqAlLxRL5M5+/G2PJ1+x7k46Cc7puCdvCUy97sM8Qa8318ZPO1qFDz11oe7ShYvvSvW+jrImB87vfagvJ6o+ry3UWA7HChtOxzdXjoq36w8cfKMPFDwmbzt6YA8KNeRO+ilLr1SzAG9VeuMvHvd7j0nuli8V2+EvOE/prwvfNa8ZiqBvJdIsLyD3yE7z4RHuzQC7zsHlhc+mh5ZvMBM9TyR8Me8",
                "azKjvFCvwb3TIqy9aCxhvO0Ip7u0YLa8TeGovAdikjz9BgO+UdLlOjf/OrslKSi6k+9AOxIQX70PHdE5B5pKPH909TwO5ry6Pn7nutRDRzuLaw+9ynD8PHsGtjw09U47RZSUPAk0Cz2AcWi7sQVZvnperTzGZrE83aOFvFp9qrtakRQ93DI9PDrAt7vyyvS8dJi8PNym8roLPgU8dD4LO3+upTwbVLG7QQRVPF5lo7mUuEo9Ay6qvGOkML2LMU08lIzuvHvxTjy2bRm9TrkXvYscGz2f54Q7J9eYvCG6ID1Ae6Y8n1kKPDAn/T0f8+S7D2MIvGYtIrztrcw8NFCIPNBqNDzlBqK7dKjOvEI9LT2kfFW9KONOPI7eM7y/CnE8MZm4O38ZK73o5Zy88GKZPJcmGrz1bR888csCvZPyhj0+wnK8+qsJvUcRsLxvCvM7UsumvSEIGDzwjRC9mbfYPGc0vDwJZN88T/MCPP6327z9KRE9eoL3PMnGpLzOikG6/H2QvJUKnbyNSfg7sMryvUIkRzycM3s80eJzPPDyFbsJbiG8E1W+vOGWjDxX7eW9fAVIPRk7UjwlVEW8LVGKPEl4HL1OAOI80JFPvW1gz7rWQKa6AsIOPAX5Gr5FvKA7VQd4POVgvrw8eXc8UPW0vIM5U7yP+Qo9i+/GvFp3KjoOF0S73FQNO91T+jwD6ZG5ESNIvF/TcDwPUoK8xdjfu7zcs7xaGxC6WKUCvNqlbzycHYE8+LwGPcLAt7tZGjw8OM3HvBl+hzvD2FM+S4QzvIBFgjyh5ka7SYukPPmpjT2R5A49cw9DPZQt87ysa+G7A5VJPeSaoDwEAiq8vQ5evUlUljwz6dq86LnCO9Cskryb/vE7LYbWPcC2ez3FXMY86e8ovCUT0rsQ34Y91hkavdZ9iD36giI9ghUVPACUP7ySPQq6rz6mOoTHaL2KykO7olQkvGXdRb1V5x29vOpEPZZtmT2WruS8qgIbPB8ZSzw8cvu7PHyVPDsyQT2pkeO8",
                "UIgqvQcDoT3H7Um800UbvWzu1Lw88dY9zo3AvPfBvz3Pu2K9RdP5PBXdQrgTDrg99I0iPRra7juMkQy91dthPPsNpj0htcA8noBgPV4NHL2dTlG9HH4FvcEdG71rsHg9kCqZvFoSSzzspKa8X6elPBVUkD2rhRK9FWmrPCVdoLzJq6c95HniPTubXD26VNk8YnvDPAS+0bx7J1A9x9EFvUW92zuqssK8rgEFvTIMkzuioM+8eQ+duUgfWbtw2UE8u7atvGG7e72fU0E9BbfCupXNvT2aXxW9/fwBvHe+Tzu1FOO83EEZPDe84jx9n4W7X8ChvNEhJz1RciQ88E95PXC8lbzwqdU8Y9eyvM+olD2dHVw9+KGcPTXuW7xTLpK8KhfwunBRQjycg1y9w+ADPZocVLzEnYK9bLGivGiKNb2Rx4I8BtE9PA/jh7xwIv08V5UhO7qhET2ULiG8xnqQvEqlhrtWWCS5rCDePH08qry0mOg7Ar4kvEdWILxJuPm+8zCKPM61vjyslp08s8DWPI1frTxilqG7V12aO9pMrLzT8UU9lqWcPZNr+Lsc/AE8LgujvEibdTya6+y8nGfcPAQaVTwhPVM9Q5xYOwdHoDxxMt07TAbyPX8mmDubwH08yIWZu0BiYjsDshE9G/vIO40ovLxk0xI9D2GbvK2Q2rtepvk8Wa6sPQZ25z1IpAg9dmckvC9nlbpfazM8uwC0vH1VuDwb8KU8n5QgPH6jMzyv6xE81TfbvLdkFz2TWI88ZxhjvQ0d7rshPL28b+2nu1RS/7yHlpy70nehPewWhzwxBLe7zfNgvGmWFj3NW+O8K1RqOghUXDwcPW08I9TwPP04djzxr5c7X80GPZA4irwe7gU944QePcb+0DsgKYs9mAAZu6/R9DwSkru8CuYIvTuF17zYIpY7psyKPQOa5zwZBYe7oI2XPD3QKbw3pxQ9V2nSO4G+HjwhzQ49+RwfPA3nFz3O4QS8fpHTPPLMGTvrf4g7Q8mkPpkp9DoRcIE5",
                "5GqTPATx+Ttv/FE96XAjPTX+zzx+gz295gjGPDfwSTsEGGE8stmtPYwHmjxorF08HmeuPJ9jkD1k3/M8n9enO6+DR70frF68cLOrPGB+3zwbr4s92VNKvfaX4jy4eZ48y/kUuQ7BRz0eC7+8K0WEPQ6+az1KZoU8etwqulEBQT2lKg67QJ2DPAwo+bzXwow9bAaMuY0ciD1cBLA8rYiSPDKijz3xZBU91vAFPVwamj1BknM9ZA3mvEAuXb1jAoA99tBivbnCODzAaYS8KFBAuwoYpzyUobe7u0P8PFPfnjugMoK7whWNPGVmoLxzcDy7CzOMu09c8DsmQWK6uEq7PCakS7vWMta7eLTzOyrwljxZi868OqlTvJHDP70OeM+8IGEqvCnRpDxQvmI8GEazvCpwHb0MPLS7Lqc0PF7elDx8vKK8rXLxu5GLiryYtxo9KrCsujDymr0dYTm9d31+vIrKE7yzJSO8OfF+vCRzf7woGIe8I1omPUZJqTtxsM887cwrPJhUQz2/xAY8YfOVuylgGrzN9Gq9gaXcvFSpGL1Thmw8I9CJvPdyhzs2Sbo8CxlnPI+J6rsLuJ07QVE8vW48qDpokCK9KGkZPMhFd7two5m89PwZPZ0wobtMmlQ88ZSguyQwozoeKZG9ImAIt/ZeN7s61Mc91GAAvS3emTz+HFK9gKjEvE0m4TsMFxo9w/fJPBS9Kz0J3j88nqldPK5ihDsvMAS8BPOfPAdtCj29IaE7AS2+vFsczbwnehS8YzkjvJbSADxZR7A8Zg0fvQUs2LxOFps6H/KCPRh5nD36OpY7zrRmvEgTQ7zHdSO9SgGBvJPps7xgd0m8NfouvbGC9brd6HC7IrVLvHdJVby32cI80fzyPNAEvrwAUzw8KFAlOwcQ3ryl6Q89kfs6vbqr6bpAgla8lzCFvAcjYz0Lgp883vp9PN1sFjsnY/m8dSmCvD0HLbxJ5Q09XL4gPP6l9zo7Jo29AUVYPECqezvDwPa8AgESO0fdLD0hpQs8",
                "xtv/uS9mDT3ivk+8xVEKvf8tNjy8MAu9JltfvHkv2Tsvx8e7Ha/APF3FszzwsYC80lKnO46YorxKxYc8rzDBuJGyoLx+Xp47sJijvFBaBr1M36w8sfqju24GEzxPrUK9JFrHPIovlTzDyfM6lCSkuwDTlTz2i6i8omXEPKw+4LwoNTu8MJdzPJwprL2yCwu9qYenPDqNijwY5qe8L9EFvBQKlr1UhDY9nLaAPHVBlzxnr8S8Cl3xO0JAnT0iIss80x8JvNB2BT02Ho487cD8PL0GHDw9Z6C8WIrLPFgdD72s0sS7XaY5PdXUPbxCKo08EK7kOocGszrzgOA8RoAZvGBXL7s2Pg699jUuvAWIOjw4b6s6ITm+PGtZzrujwhU9hszMOwlRVj0OHqK8KBSiPKYfZb0ptJy82IYmvIRpLL0g2mS8m9XNuxEemzz+oBc8TEMQvAc7yjvDige84oMzuvHvu7zjUU08KF+iu5pyFzyGxUK6nkZRvNqnhT1MFRk9dUCVPYG2kzxjy/y5lYgVvC6YQ707E4C7P4GTPbzUxTu1vLo8uYrDPNd7DT2u42E8rzaZvP41RryWT6G5AI7lvAhSIT1eOcy8z3tLOny49by7+Xq87OW5PP1oBb2dSi09XD+vvZbfwbwP/2O8NyxVPM9Vz7z20ls8Umz5O2dlR7z5Iw88USMwOydKSbtH0BO65/ZyPByfKL3aH4y+YPJEPN6HTL3Htok+IjnmPLdC0zw1nHQ7/er2u+O9jjtWq7s7He62PGv3fDyjgw48t9/BvGF5IDzpFyw8ACXUvOpgALzR2jA8C6YvvYqRQrzidau7NLCpvFaZczveJg899UmjvJozID2LcqW8EoYlPI2kX70gOme8ziofvRADPj1PAAG8aLsPPYXLEzoSbok8tOy5PAZrejwEPSO9gk+Yvcqzejx221k8xXOIu2aGfLwgKDO8+c1WPHIiiz1adxw9cHZWPeS0SbykDI89ulmivOgNlj17XxM83wwjvQ17vbzaYCo9",
                "kY9GuoroKrzwPg68/EeHPMGX1rzqNu080MCQPAQcAb2DFdg7Hp6IPGNCFz1uIvI76/LdPP2cmL3eELc7XzSoPHvgMLy1zXO7ejCXuh4d5T3/bfM8z32bvYJJsrxVU8U7iys0PUfb5rztmRg9rgQ9vd+uPTuZ5au8iVQsvUB19rymfxG9Hna4PNUNBz33v608nM74POSrxDzjDT+91hwAvXosaryWlbK8bUeJOx/LYjy1G2E9RE19PLbUeLycMyy8mOWLvEsSfz3ot8e8MSw0PnGUhLyESKW8T3+IO5yH+TxsUwG8NnxSvYr7oL2dF+I7rmpCvF5x87pt47a8orLGvOmRrjzc4n28Y5q5vC1Htz0HaJ+78zSAu/0KNT2B7GY83wmQvRZbJr0C9NI7N/aVvKUg8rwGvwS8jYi1vHlFzLrAGKq8sWEZPOa2Cb2QgPW+aHJ2vDOrxrqWTb+7QjKoO3LFkLxQpkA8pvAkPCsZYLuEGgG8veuQu/ALNr3DqIW72cI9vaWD2rvWZDU87hzTu7aisrtZ2Ms7JopDO6I7cDsnu4W7/5G4vQ0ZCzuqIJ294ExDPDu2RTxmUHG82HpNPPrlybxyuks6Rh83PYzuNj3lMEY8hoR0uw6wD7xrYSA76qZKvRbU7btWsNw8QLS4PAyIhDzb6ZS71BdDO1xZ6LxWRfI7lddpunIjNDxgGTq9PtVuPLJCQjx5GGm9bMqCuwXCCTvV9ds8XclJPCVsIT0muRs8sdqCvPPGNj0Zd2A7ch8eO/u8H70pSTI9HVVXvTNDDL2c1V676UO6vNUqlTztbxW9JUxWPbY9Sj2s2yi8kXxcvMa5LL2aulI8JXWYPK3aLDzTSCq9mCSdvDWoNrzki4K7h+lkPHB9Ez0KiZi8hpI4PI/qhr7wO9K8nWkJvNGrvTyW8Ic+82C5ux9skTy5TXa7r+CEujgVQLzw7sy7Ia3CvBYnbb09lJU88CegvWOVyTvGpy48/afLuzolqLqbZSm80V02Og8ml7yl6RQ6",
                "ImFBvXwurjs8Hao7pX8OPcA8/jx0vgE8GW5oPKJUtbxH49a8ZeVaPMxbHDw9C8M7YUwPvCXSGz2dH0q8I2O9OvUtqTp2dlW9L3QgvNGJyDza6wi9fjRJu4Fb0Lsjnxk8rFwAvc2JIDx7r8a7g+NNO8WH5jxqrl87+W6HPFG4pTtyOdi8XcYHvcumW72irZi8USeTO6EzoLx+ePc82kpPOwr15jv+n2k8gF56O82/mDwYeU09hnoCPIzGBbx3uaW8V26rvKvQrTust0k7eMXlu0bogb3qE448RfTWvTCLLL0hrQ69IWOGvO0iUL3uLdY8DblrvDRYlDp6JhE8JnZKu4+bQrwsQCy9af8GPNRSwzun6hu8VWquPNWwMrzYn5G76xyBu1Kf2Txmz/c8yk7LvI++B7wCvZo8JUeDPMWooby7zH29F0dOPLxcOz3UoGc9P0rXvCWNPD2xOq67bhoDvPX/9T079Pe6aA1svMqgIr18cxi8efygO/vxSr367xO9N846vFP2grwOjMS8V/awvJzk5rw3OPi8i2DevKqTsLtCea65e6F5vNuPID2HdpO8zzURPSqWe7194Dk98SMmvDlwYLzdqIC8ddC5PCOsUbwfnCA6yLl4PEepyDtPlgg9n0k2vM4WSjvtt0y8cLAVvPCDqTt0Fcw8hQYYPeYF9T1JFPc6ZNWkvDtsC71I9908MkcwO76+kzye3385W5r+uhkYNb1/tjY8GEIkvCr8mDsgSc28ZpR1PS05bTxkaMG8Ponmu1HH/rvRtta7Wfu1PNfxYzwPWYM8u5xZvH4gprsJzgS9acz1uwTliDx0slU9eImoPItKaD31WJy9kINUuz3tDb1qLNS8jRquvAti57yoyJI8yTyfvOBERTwEMCq8pTvWPK4cYjyyIra7EVMjvND0b7tgTxW+rSLLvN/8Iz0RkBi9Qu38PLV7tLvO4jg8nWVLuvT9V7zHC5E7lfOTvI+qVjxdhCk8H6GDPFMF07zJSLG7hzUFPIVSGD2U88Q6",
                "YuODPPUeazwS8Zo8981JvT8hQTz0Qvc8j9PZPMscBLoUX6Q5iX+ZvIdWb7tsoFW85KXRu6T2vDzEXLK8daINvTUedTrHkYq8YXIcPX72VDykrI88/DoAPACcRL3q/6o8j135vJjY9jyGUqw8wI4HvQKVXzxkIYQ8PIiPvRZD7ztVHzw+rxb0PKUMDrxeon+6cUq6u62eSrwtuwc8q4KLO9L4Kj2yXlU7O/UlOzv25rnuYiM9rZ7cPFBBtDzzRJ+8vgJ4vCk1y7x7V+q7TyIcPceijD08thM75KY8vDP6LTty5Va7cz0cvFfhgr128UM72C14Ow61dD3Bpmo6rwtVvIjo9zuncxC867MuPEeaDDyjArU8iKJlPNBarLr2O/u82R9Quhd0izy/5Aa7LEyhvU5JATwXc4o8UZNePACTATy+jL68YRDGPOPJnjvvj449Of5QPXUomzw4Gyk98+qIumukFr1djZU8ZdDovHQzsryk+oU7RVD5PMjlwj1mvNg8m3oxPIjvADw2vr88NtSju3LborzCDqo77tKZPJHQDLyQs4u7BP+suy5wMj3QiRS9fQc6PdaV17pq4vg6W4eMPNI4oDwsKBS5c2vIPAciBLy8bB69orKiPDsUSTwHTuW7WhGwOgth7rtJndi9AzxCvcbFxbwyIws9j/Riu/sfx7xoiAi92uSIPPVNt7uNd+U70VnKvHTpDL21+zo9SmzpPAXlIbvAKow8B/MLO0lAELwy5ho6TZTQvAMrzLzsAAK89gsUvZzVGT78oWG87qpqPHTVALynwD49b4GYPPdFfrzTa1u7+kaivLX7tDyuCEC7UyiqPK76Dr0qx0w7DQQzvZIKr7sXwVW7VU2xvPhaQLx4QIu82RrNvNG5iby9AzI8PNLpOwEKhDz9W/k8VVUiO/pZsjv+mjS6mNRCOQkpt7xnGQ69OnHBvK/ZV71FHQc8JBRlvb2dg7zQ9Em9KgC7vLFcYD0z/iO8yweVvLBHAzuIEbK7lx4cvHgztzsF9Xc8",
                "TuyzvKyprTvZEb273/uhPCqGED19GHs8ODyJPW/4n7zSNnu9MWuBvHVizzw2hhG79wfFO6G6ILzE33q9wxrBPBeD1DxBkJe8DqBSPOq+ODzDGp68hvrNPJGBAbwUZJu8qjZmuqWo1Lwj7ou8UQ63PJ5YMD1mMWe79E3jun2Vn7qGRQC9USzJu0YTgDzrTua8G53xPD7b/TuZzRy7PkWiO9JH9Di8IEq8hPcGvRCbMbyDAag7BCYsPF7kyrw6THE81/ufvDWbN7zU12S8Pq+HOkfoQrzFRbI8zZUPvDVFwDsHRD49wSGuPJSqCjyLL6O6+bhqO4ZWdrwWTZS7PqGCPMwggbuv1OY8hLOPPPSK8jptuLQ8epMoPWIwyjyDAVW8fJCDO5qQBj1SMkG9rHcDvV1ygD3LoGc9lvmpPQaz073T0BC9dKisvO+RZD2IgJ48nxXuuzNfCLzWOFk9ZLs4PYUIRryNSh69kVezPc/yXT3g5E49EnsWvhf0kz33h767pxL0vAmbqD09u/A8kVRevWZmiDwNhHY8hYOAu3DPhrynbcI7bSBQvbr0/byerJi8Scx+PUPehD12V/K8CioRvYRIxLxYEBk9idPSPK7SwLvZ1q48imsvvLJbAz3ryc47bcWWvHRd1bveZrC8QswMPFOCnD7kWF88WQjAuz0ELT2mS509ryGKPXH1/Tzk44w59/iBvG3Bez0W6Dy9flXnO90nojwdTDG9WM4CPVfrEb21I7c7gWV2vYQ6M708SFq8vyyyPGMgYzztVbI8B1TRu6yaALwxZd899vdOvHuOHTxdNrg8xISDPcYSBT12rqE9n8MovK1i87xKxLk6fgQmvC3tdrw7EUA8mvpSPIS6Ubuw2OU8/9qGvCUWcD09CDg9INApPXl9ID05cdy7b4x2u7X2IT0iD6o9uxA+u2NQTDycN/K8Fx7RvN82SD3+k309JbzlvLUfgryHbRg9AD/ePEssz71yBZ090Zk+PLeSYb2KROq70DukPJ8BmDx675A9",
                "Zne6vAubJrwcMZ+778ssvD52p7yZ6Yg9v5NjPTp3Jr0fx6I8yKmivBd2Jj2j0cS8CH5WPWuKvruu0085idwOPYLpO7yrtlO8mcMnvassCryh4dC+iOB0PIFGPLyDjKy8m0eQO2AnKzphWei8az+MO9ZoCD1NEnw7fIKpvDL08TyHQwI8D/Z4u7o50bz1UXm9b/UoPUfNwbyO6ia7ghHkPJyS/LsVfJm7WFYpvPIcPDz/S6S8I0L4OyfwhrxpXMU7oNZdPIkBnjwQnyO8SrjsPPiMhbuswwS9bYWBuoe1MrwRjOM7pqrgO5mLQLyyYf48nxjfvP0j+TyLwkO9ft6TvJhjDrwtouc84UTivHd8Cr18S4G7OtxPPc93j7wqT0U9dqwkPH2i6juCfr08cuKEu5THu7ySZY+8CFlmvOZlMz1Ftxm9mlEHPfnyfL0/cp88YnNivMPO3rymTis81UXuvJnGzDsdHpC8vzO+POwjrTlLuEo6K413O3H7NTzNpxy91hXJPCwRwDwDajk9R1jUPPVvpbr/Tge9+Pdou/FaD70b6Ry6SimOu8IaZTwp2fO7Oq0GPQjdsjt2a9E3DMOxu5vr6LyHcvw8sd50vNSQNrz9b289H4favIB9A7wnTyE7QkPkOx2hE71QMVs9Ev2buxZQ67zL/L88JPfvuYRgDryxT2871EKOu1VZgjvueK09Ma1IvQABZ7wM3rm8yA5Fu+ppKT0CxKE8jBAavdDkCj3kWXG8twihu1ueMrxTb6G7sv5wO4XKnLyMJ567grOsvJCJlDz3CQ67d5nkvOpttjxyQQS8K7GyvLHTuTx8/NU6Ne87Ozps+rsYx7G8yY67PNoglzzLmie9bBSxOx6yRDykOyW9zvDEvMBwsjsH2lU9fbmvPKWpXb1slj+9M/f4vLY+ZD0wKZI8+9zpPDsUKLw/OSQ9HYNTPIWqEr2PkcW8mrRBPFqt2DxgbKI8hkbDPGW0ID1gezI8W7QPvbRZHj0suq48WyYAvcTWPryuSoo9",
                "1aS6uvyP/Lv9Vou8tRUdvQtk/Lxvv1S6UoEOPdBBYT1uhUO7Mrk4vJenSz3G4S49rIl6vDNfHrvP+ke8gW8+vKYVNDxlSe88q2cOPCNFtryHv2u9so0LPW6CtD65ozY9EggMvYkGMz2/OSk8AhYsPfC2Ij2wlZA8YRhxvEnDqzwYJxS8p8stvDZWQr2DSqo6yHkbO/mwIjzah8g7Y2IuvbKZc7xgURW9ECqIuwICmTvlZFc8lWCrPDJSgD2L9j09ACatPflqdjwz0im6jHEBPJ0T0jwZxaw8gUDaO64lPT3Uvnm8zxHhvGSESLyGAc68GX5zPTT+SjzSQiQ9i7/UvZthED1C3ZA7EZ36PDcRyDxnPEE7u7kJu4qBTD0V6uE8YKWHvFxtGT3aT4i8TmXkvJSYYLzUxMM7sVgJvlsrhLuGADY9/77PPMgmI756lo48yghAu5rs2Tu7Pp68MO1qPBJ/+ryq/5k8ujL7OoHCO73GvIA8ThdrvD0fjr2qZAE8LPX8vEdVt7xbQoY8PWRCvUgMOz2a4Pi8WcQNPbwJb7oYSJS8RY48PWdGCr2BT7I7ALS7OXRRBL3LIQ6+tNmVO/6o/DybnQg9nr+VPMJsrLuLN1m9lDsRvdR5AD0/wyY9+l4Ht8qk+rwwUSM8GLJrPH8SHjy/V0U8xuGkvM1VyrvF9Sw9GY0IvO0ViLrnYae78BDqvASp0LpMXn481sHnvBARO7yYHD48eaJtPNjdDTz43eA7RsdavIRwk7yDEZ07ghcSPWZwVD2sIY47xMU5vCXQC73sj9e8Mc64ukeDQjwfXcS86YbXPDld4btYfoG7yV2CPMON5Dvd5Yk8TT7rPCmg/DtnUaM71F8QOUZTi71BE6i8qsKyu3eRx7tsj6M8GrkfPSUK37yN1ao4+3A0PI+RibspBSM7DSV5PKxNkjuFamA8YgEuPcN21rwt5H87ia6UvKxwxLyBH3s9Za2lPKkN+7wLWnY8rtjnvPfWmr1dzOa8wgzxPdn2BT2sClu8",
                "ugRuPHyIb7yXGVu941kePI6djDygSpG71AB8O5keWjyicEU9ei/CPCGeh7wmsK28SVZdPJ3RJjws3WQ7KICVu5PI4TxDNnu8K+9xPILTR71PLAg94eSePN6k2DyFvSi9otYjO9jyQDzcoHe8BWF2PtqPyzw0G7S8qzmgO6n3Gb68w6u87x3QO5QHuLxPxj88Kc/Euh7RRDwhNMy84T0oPHHHEz24vOW7N7dcPZT5rbutFaQ74lYHvfHCxrwB6HM8ywFevDMYJLwtekc9MrGZvFkuqTzDWwI6AbyTvK7qPj1iLvw7W6yIPCOLTDxragO+AQixO2uzGzz30bi7581mvShawbycMRA8vb7Au5D38jxDBrq8GypqvBcmDjsdRC67dP6qOy/WSTy5HpS8nVY1OPEtz7wWoQA9vlquO9qoWLxFUkk8dQDOvBRfnLoK2b28Lf1VO2BRMzv4BNa8LKo2u9IJxLt79Uk6sjO1O5Zm6TxAo148ikKhvAhBvLyXpIi8ypLHvA9PVjuJyL88SUhuPJU/NruZud64uYbiOq4ctLvMTiQ8/ZvYOa4YC7vOBoK8u1EePHC3hbxOn5K8/MgOvMzP0rpSuoG7LNEHvJ5xZjuyNTy8G64CPbnBuTuxhAS78OKwu71m8Tt1Z968ujb/O7Zdybxt9zm9LfVlu5oBZTx2pgq9oHFBvPdd1rnxUwO9zI0CvJoqIzxTCsQ7NvXJuNNCfjsbDbI6F9xhO01bp7yWRw283n7yvM/PUTyxmpa8OJAXPfZBVLyM04U7Ao/NO1Zsrjyg7Zo9mS8EvOhmx7wr5Zi8BGoGvKtPczymuQs8CvB8PBmZXrnG6pS7KR4UvXv7ZDxEzYM6cv+UPAK0azl6ABo9W9t4vAbWvjzp7k87g6lkvPQcrTyWjDO8YuWmutaMC7y4ZIS8212lPLW5kDudkAW65IQ1vDDcmLwr5aw7XLm0PLBYiT1puag7kre9vK90QTxjnWG8pAoXPIP4OTzgQzI8r+JmvIrlUjx9yyA9",
                "QKgDPH5/XTyDyw08EWZbvHvSND4gjFG7lTnGvB8YH73by/C8jmEVPG/RMrxfCXe9V8YbPAXU8LwdjpW7KYQJPbAT3buZCos8FNr7PDhYKbwnUtM7QtgWPLuQpDxqLQ69UDXGOsuU7juqmLs8Y25mvPWXFLxUD8U66VSrvecLYzw/TqO6pc9YPWQHG7z9ueS7TZvBO+DY5DynPNM74tFZPRgJsDyj2hK9dggjumHHgDwrvLQ8iV7EOnT7VrtgwWW7fCuUPHeHXzr/WmS7nkJBvE1p97rOojU6SIU4va954LsR4Wg85ZJ+PGDNgzsFeqY6Us0aPCTmJr1kVOS6as+IPAyzBLufuLK8Lefsu5AkhbtomVy8uTDOu/GTNLzoFLy82pUlO3pXhDynvIC8I6gAPfdT2juGeJm8SdjxPfFgjz3JWkc7kuiAuzL0R7uwI468PMtqvFdN1rvP9+A7lVgevSMmLz7KjnO8h71GPNHjtjvfBpY8Wrzvu+TqGjt+Opo8WwxOPXiDWb20HYg8Pf3qPF88o7zAscC7/SyKu4EUxDtkk828j+IbvS0bjbwmsjw9UdOEPKlAjzxzoIk8mJX9PLxlGbtlbZ89tLGoO3QyPr1syYS8+HlsvZWHZL3S5XO7fk7eu+DqUjyU0sO8QWwZvJA8Mj3RsAc8N/HEvH+ubL2of3i8Ns7MPKsTPzvzMpi8YootvcYUXb39Dtq7RpS0PEyiBj5u45Q8hhAfPd+anDy7D5Q7dusWPDQ2/zzZMAi7fCNUu88MYDua5+k8mxxXvAKnljzgkq27AjryPCvLhT2D9+I6Nfa1PE8gkDx+By495tECvGtYTTwiYtw9v5sovAbFVbsvUZg8VwQ5vBYrYb0Lq1+9R0PhOg/yvLpYoVi9wB50PIBEIL0qFLo8AmbUPLWYQbxQmr28KNqZO0QEbLt/7g49l3SsPGbzuDzZ97I6GkUWPLhKer0Qusc9NS3dvMa09T1ffAo9pYs8u3PwQjyRSre7rxciPPNsYDyPcn87",
                "OKIsvExwDbuejgE9whnxPO03RzuH1Cq9/9whPHV1lLxJO8o8esGWu73F8DzEmRI9YoKBvQXDkzy945s7ru+mvKVDl7s40Ao9MqOnu/ma3LzivcW8naxWvbmKwLwgOM87CzXEuwF50Dzp+X48mlBrvNQbCztOyq46Am7uOwEJV73gEPG8Scr4PMU2Ozvfrfo7hVBtvWz80Lx9kDg8K1k8O14Bp7why4C88ag5PexPIL2UI8w8HPWAPIFmZDtZf+y8Y7l1vPlPYb2wIRc9VEWPPRHlSLyYdFQ7irxMPATT77ybVl+9dhqGvMYGmjzPTYc8wTbTvNOLrrwnwGY8WKp8u4JSiTwav+i8386oPOMQ0L3wkIC7LqR8vNI9JD2OCYk7DFWbvC3Cu7znkbm9M1VoOwV1orvabNy83Y4eu/ZfXb1MfTA8x+aFPRDSWb3atlq8LqsXvHafX73R5VQ8t6Zou1uAXDx5Pay9B0GLPHZXqLw+yWW84w7ru926rr0X4Ty9bGBvPIHmQz6Rwci+/tW2vKdbCjxCzVW8qnRHOinoMLt3B4O8PgfkuxRDqLwknca8+D6jvEXeCT3CBIM85+IePIGrGb0lAdq7hQVPPABcDzxhw5K8yYAnOzh+RTuOjtg6zfi5POHPB7vkxAO9mOtkO5XdJL1Jc1C92DjWPJljFD3FA3U8d1dGvN366TqSCNk9zUr6O2U3Jr1fkyA9FVLJPBf+iDspOMY8fzApvF+qjLyJoXo8Ppx8u4UUkjyA6c685qDEu5j/mzupwCS9QVGvPD5DrTxa+pA8CwtEvXSyNbsD1oi70OWHvM6oCD0EfCQ8H0l+O8FpvLwPnD09iwFTPdEyp7vy9+m7GJWDO4XcBjyF27G8A7mnPAFDiTwwY6y825E9vXPyvToLVtK8UvkgPB/h37xhS+y8UZKDPN76Cj1bETO8NguOu9CjkbyJdXE8heABvN6d47y6WMU8hOFLvGlGBzxMUOi8+s6IvD981TyOFDm98YRCvDVyc70XiOG6",
                "bEODu/uLmbxLDu+7ObBSPDxZOjsfFPO8XSdAPX11Gz1hznO8TCNOvF8p5zpeJ/Q8tyuVO7gKrjz3Tx68pprxPBhSjb02TCQ9827dvPV2Ozww9kK8YXC+vK1EkzxF7x69cyCXu/3eDL282B894rZJPXEvvbzKUOc8eZSXPSL4ebwjOD48m1C8vJ2r3bvdxaS8jxsVPcQ1crv8rs69tVA1vYTaEr0VFjk764HFPOUZJLyfRhk8B0S+PIhFDb2L54291wfHOnRH9ryJ3Fi7lnSRPdzLgDtLf3S8rOQXvSG+pzy+GW67l7WWvbJ2sbzrvJ85JSCku2z9Wb1wqAW9VCSAPEFWLDy2vgY8t75PvQSxq7ze5BK8k+eYu7dnFjvXy/k8r2klO61uZby1QAA8xIUKvVT2OD3LopA802mpvERWHD0hGIy7Z5dHPONi0Ly1Ph28hvA6vKAe4rtbQj+9D1PePBAlULyt0HQ7wkoePckxjLzob6W8WnsePZQ2czz0bDY9V9zBPHFnqDyN0CC8DRx2vG61+Trv9sQ77oyFvFuWUTxdszQ7oKQOvBsHTrsBiwm8bWg6vDHqhbqrKau76giovFqptjvSdMQ8GUfdvAVOhbzKFDq7+injPMnTmTvG1AU5KVkpvOdyJjxz1FM8HvS4uzch27yQmxO84iYEPGmUtjzm8bw787NYPdPC1DzSLa670BxDvbWpuzwqyUq8CoZGvAgt1LyCy5079KhKPA2ER7z2hyK8En+ivO+mkryzGZm8BP3eu7DcqTyKAyw9RNoHvd6QGr2CDVW5ToPJPEe+rLp+OxG9UYORPEzJTDoKnTg9LB2tvFvrYDwGlQY9LB6zvKHMibx5Ima7dTDsvAyHdjxKDgW8xXjnOvZ9hjz2Zsa86w57PJRgsjr+mYq7hEVsvKDrCL1ebik9hwPJvOXjoT31IKs8KcYoPWWzODwhDI67tGCtuz4JB71dlqQ87pRPvR2iaTyY8Yi8yt7OPIPZibtcS2w80S/vvGCTsLxGFTy9",
                "ieP5PF8jdLqXQ2i8KgkSPLO/5TxVJ7k9bhrbO4Dt3rpjugO8Vs2mvHxSGL0w4B49y1E0vTCqsjwZggM9KV0WPCxAar1II6O8yy4svYmY+jzrZWE9v+UYPBZs5DyRWqS8LHRsvd2UIz14F+M6YzwTPIX1ED2yGkC967T3vKVEJ7tpRb+83+cdPV+Ewzs8cxE9rKM6vI8mB71zBOk7O/cwPYWlwLvuPGs8wQwsvAYRszuMWBW9sAF3PGcyo7vK7QK8UGgwPbamAj13zkm6Ky8fvY3lHLwAGyg7GuYjPF0By7uvv8y6lMiHPMqeXDwFh209mBT6PG+5Erx2bwE8hCZevQFOXj2yJ7u8oPHLPETAvzsJmUQ8eaC2vHFG8rxBCoG8qmiwvE59zrw4TpA8Ke4QPFrjpLxBOKK67WNlOSmq0zv/fUU8bAZfPKopS71pAK289cSDvMg3gjwTwwG93/uVvKmu+bykD8Y6dN7NuoR3nLyezI28ig6UPK59IT3S9im9LsQ9PN8S5LvEYis9zTYUu9w9UDw6FRM9xWoVvXlhSbscxFI7CdjmPOoDMjzK40y8owqxO2yaND1e8sO7NNqqvPnNyLwPP0e7w8eXPGyMhjvLIeq7+IAGPBxfgLznnla9FGWXPEZCpzwdFNm7yTjoOwGWMjwJY4m9P/kdvK67zDscgfK8WO3pvDOxgrtfDbw6xUM8PZarTLyztWu8kjFHPfl4HD2TRTG+/7LZvGafLTwA6428C22NvC86Rzy8rem7fH+MPFs7pDyMByE8BIojO/jECryXaWK8OLLQutFdkrt7mBE63E3Su5YcoLuxtGE8mFNKPN7Ct7q4grG8wQqEvZE21DzD7S489yuWPV0qTrz5kmY8TWSou8s++Du0agG+UVtOvENoS70Pzxg9S7IjPL7Qy7xj44k8iihPvKAFZLymaBI94nsTvUwijbx2KFe8yX8bvAvvMr3tqhi7KVi4OrRq2byYxCi9X4bPPEJf+jq0B1O9J4E2PAkqWbwYtXC8",
                "Nps5PB3CGzw4BIQ8XmhKu1CBsjtpsKq8mW0CvWigljybeou61fVWPP4Anrtakte8sHgWPBpJXLxEp7c6wVxzPPNPcT0GHG+7cOR7vCH10TzXfhS79Y5ROieY3jx1joE7u1kkvYzLgTzQ8Qu8QMDLvLl5xbu9YeE6H8eOu2SVxrzI8CU8p/J3utvARDz/eue7qa8vPWhOuLyzOrs7+UTiPI7euTyUzU08omTBPLqAgzv3eWE8VmsCvKnxUTw/NYO8pgw3vauvkbswQzA8tOJ5PYORFL3uw0k8NJN2PbiuGL2hzZA7CJCLvOww1LtURu45M8nMPLjvET0Qrds8DXxNuwIQNL2x9hG9SKqKPOkC4ztcDhe870XwvIsACb3EJ9S8lhWhvG50DD1LJAI8D9tLPRlUwDzoOIO9eyaEPDG6JjtgQFw8Zqw9PPwqj7u1Jgy9tsp5vf7itDyRGaW8qrDxvKhe3ru7xT67gqn0vIfIO7xNpOi8A9syPZh7JrzMXfA6KpZNO9wbXzva18q8Mlf/O7BUZjzXyWU7zXKTvOpVxjx4cZy8vssMu1ZmGDy5GAW5gsW3O+xcO7yaUTs8dBFUPLZtBD0iwyu9X5eevKFMlDwTGAk8F/fzuguyAjy2rRe8IUbou8YoZr0X7Rs9bBLxu6laBT2Xwf470+s8vJvj+7vyB4O8tg1VPNgJvTyCTpO8UUaMvE9jFz27+JQ8cpxBOygmBTwYikA7hlzNug9eGjzTRVc7z50ava/kobpx7MA7ECdTPIvLLTrGRx29aVnTusHdyrzGCrO8iZa/vJflB70meXQ8stRYvI3DBDwen4u86wHEvBJfKDvgQXk9Tnm4uilTOry8yBw8MLGPO0Z7vzvpRAi9f+WWuzwwKrxCfms6/LPrPBNzDTwLmbW78/APPfL1jLuAkmO8M1uKvGqwNDyGqjq8F0/du8AWbzwQY8C6kzjquqne5jsQJxk9rHOhPH4qwbvOeNM8Vad0O1+E4Lz/kS08rh5jPIYFizw9sjE8",
                "l9sAvW0esLq2dMY5/sUlO0rNZb2YO9c7OIAbPd/rhTxGgMo7kGxgPCIZxrvY5za8O4lJPM8kED2L7OC5/x/CuxLi4DwNt2g7/UN9vZk4jLz3CxO8kw2HO4RpirxNiPm7cvFYvEI0zztk+BA+f4EgPIB+FDzj7DM8z0F1u7vlGL0eCh09+fYQPXlzV73Jmsq9/zSSPCeFHz0SDlG9y4X5PKh6KL1VPmK8bl5WvK9cgz0FCaK7I7KmuxzzW7yf4RE7ZexkPYfqXDxxHiI9l/bEPDBWcTxlvYI8Bhw/vR8w+zsiggO94D6nuxodErxApDK8r14OvKJiT738gKA8WhDSPEu3gz0E2Pc6GQiqPAjoADyky/a7AVslPT1msrxnJao8LORsvOz2mbyGUsY8RC8uPQgHXr2/C+a7m8oJvXK8cDrJI7i88/mKPReVGL3J+808yzbzu4QgVr2MIc69NrQ3vLg4cT1XNvk8EC2lvISyLLyaHYy86x4xu0tzDL2fWlU9jqwwvWGXaLzoiQa9Fri7PJXe27sfFIw8xfsOvNuGCjzllsa7GwcfvXtSx7zRJUU7rxyWPD32ObsfsaM8nIkYPZDShLy5Q4e8z32+vFtxCjsCf5c8osYlPAoNHz0uzsa8XVxKPbl6qbwuRLG5bvG9u423bbxolJS8eQgnvWtYkLwgKbG7H+YhvJmcE7ukug89HSr1PKBgrrzjWBm9AAELvQHkQL1p1q89tDCbvLFqW7zQy8K87kD5vHzMjz3zpys9hggBPKCJn7tS1Z28aqGiuyQ19TtnW8Y8m/dePWMqRr3Aniy6s55KPWvFgbwbmqs8mBv9Okz8ljzC45E9BLIeux1/KT3waxi9fdNAPEpdRL0NqXe7etidvbJAq7uJMKc5MvVyvdexqryT98o8VCneOzeKwbt283i8ZQUUPZXdirrkQha+b4z+PHZ7DDyPRY47aKTOvNos+byt3Fa9n36uvcMV+7zv8RM67OSoPF3pMz2eMIg68zLdutSpHL303zm7",
                "ojg4O7DD2TzKOVE8r5yoPEvc5Txm1+M8lbMhvVbt6juKpZW8jOpWPNoq0rzwXOo8WmBQPJSy8byrqOo8oiIYvVuYWLyTtZq8sAetuKw/rzxWt567QLZAPAGo9zwVYPi8bJ+EvCr9PDzRclG91OOQuGlFqjyKI1s86MD/PF2i2ju1j+Q8xBl5vDQMljw+dFG9PTp8vJwigDxIN9c8nRguPNmhj7zcUam8GqQqvXm2vLzrT8E7Kw46PB2qF71CYEO6DP0tu3Oll7zco8K8RsDfPNGqk7yraMO79lg6vAtvEjwjcni8jdjbuUqsOz0Gc/u8Dn0svbhhQ7h++ww+eOwTPDVTkTywoHm84nQFPHe/J7yjoGS9aQPZPJ0fyTqi4bW8Ay+NO2k0+DqalUs81VH/vGJqqjvRrpE7WYVvPDFQJD3oulc8NZdmvdgnQb2KY5I7OqYsPMcYnDwDV5e82nLiO24+CL3OaeQ8CwmVO2ujTTtro1q9qovPPBifIrvPnqO8fVGGPUeA2jz9GW+6tf2VPJcxHjwdxg87hbCAu1IH/zyQTqW88dljvBeadDuf8sy8WeQKvBgwh7v7jn88oQo9PB7OhL3gjl66Ww+9vJGLnDzqFgO7ux2MOyLRATxj/Ym8fiDuu1Bgn7yqgT68mSRsPEHxSrzyx+K9kHxIPA+3L722qTO8CzR3u6tmF71c8rG8M0nfvBrBML1WGUY7//4nvQdDqLz/FCo95vJXvAgmgzyXHU68GW+/vDSEKLxBKuS7z0MQvVnWF7137qO8H/jlPJA3AL2MQIi6xLRbPEIEML2BciS91vXJPBnSZDxYl6y9x3BbO3+AYDyoIni8abuZO3WpYL0dl9M7IkrNvCgD37wpkqC8/35HO7JpL71HMia9sGanPGLbBj3NALi7rY5UO+fmibyHv7g8mbIvPSDZ3rzqFSA6/2nsu06wW7y9cVm8OHKEveTZAr33L/u8aEAVvZa3ZL08kT28DKZBPdHTDr2f8SA8hwajugfkljwvBZ+7",
                "EBgkPCQwZD0AR5i85gXKPPQQFjsWyJK8D7z4ulR8rbytM4a8xpKEu9lRGD0tWwy9hAIPPnc6kL0uBi48AheRurT8zLwoyuC8yuItvctDZ72heSO9hZ++vHBdOz39xkw8ESuYvU9rSjytsPy8Xmx0vrDAA71waOy8txIMvFUjt7uZuBu9NAyWPLAtMb12+kG77ZyCO4b29bzSM0K7CUF6vB0ygb0Fb2m8AIcQPw6vHb3xnSO9IwHCvPhlTr3NB+W85EwnvXplcryLtyO9O8RPvMo7/DpflfK8uPgrPOWt5zhOmo68mmbAvOdM47zIhoa8FGpavCEn+DzxGxU8jAYivV2Lqjyhuei8cEsavepGkbw2tSK83m37vNA2dLzUF6u8q0v/PMSEfLxVTR8+PQizPE++FDx3YHK9RMKwPMdqPzvVN7W7XBofvSzebj6ItYi8hLwhPDyTNTy0CyM8FUHqPKIpnLp/Lfy7yqEMPLHGUTzZwKG8z4sjPWJk2DonK7c7vdMBvo3NrTzm35K7uTOnvKBJ2LyD6368NvIUvZ6yhTxtvx+9JkyLO4D95Ltvw3o8Fwgmuxi+sLxG5we8rC54PNf3hjxnNQO9laf3OwyY5rxJ0tS8g6OMPFppxDwDnGI9pX+9vAzwPjwUxDI6IEUAPbH3DD0i8iI6nfoTvA95O73/yQu9JUsMvVlcazz5CKI8tSALuzwMz7wYnKO61P9lvD6GebzNWFe8T7qiuycfnjyMEIY8Wg/iPDFlSb32t4E8NNrvvNWbEj1yPEC5Y/6ePPFeCry56R68/gBUO7GJHL2lbUS8mb3suzfTXz0J+Ec87ZAiPZL3IrxBGiG8+CsIu+Lp57ya3HI8lkl8O0MsxbyItZQ709z4vNAWiDsnbiy8YQ5MO01mzjyB6l08BcJ3PDpvXDyPrDw8SLkqveWF4bxuwK+8NtpeOwTPjTqFN1U8OEo0PKdGfrx6nYo7bWO1OBLh3jfgwLY8j+NrvDl7BD1dwYW8TJhPux0rwzzgC8S8",
                "538RPR+isDsRHQO9cQFhO4DnE70SD4Q7nGQvvFesEr2kwwY93cNGvfSTF7xztbo8GJQ2PLx6uDwumzW8ZWOKu93ynLwCgJ27IqZZvCt4K7uQZq88twxJvTxzl7wtzmo9EEBPvHLQ8jyi31y7e1voum8fyjy369M8inLZOxyp0jzKH2U9bZY7Ow8vhLwDZiO8aXqPPEU2aL1MljU9ufC2vEhLzLxFuPY9PdRivZ/Hdzz9eJq8jHbpPUHpLDwZDdG80bgKvRpRdDryRPI8LSF2PI/1uzvBRY48bEkeu7FS1Tz8Hkc9BIGkvJHz2r0sXzI4TfErvBMeJj3F4O28+Gt2u1PI1DyDFg69KOOCvMDZCDwAKSw9P2sqPYuQXzyTNE07v3YuPWlhg7tztBO9axYAPZBKhjzwIVO9KD8oPpK24joAwYw8F9kcPRb4tztzj6w8nVR8PMTYhT07TJE8VakNvaPWW7w0PBa83VDzOXjrTL1ImHM9F4EyvFez/buStAW+BpawO+yAML0i9lU8zjVnO2eKlTxzOgU9qsaFvR5tSrwkAoa9NZ6yvPk1m7x8AhI9mOVLvaYlEj1WD1w8S26OvME3QzxvSUg9Jiccvfp2GL1Vym+9LsXWPdm6rbwiWzG9rXPLuz2mIL1sLcy7UPcOPAWNSz3Ij+k791PpOtZR6LuIPhs8R1hNPaOmlzyb7mW8CvSJvFTviD3K6pI8CIRZux4d5T2ZJ5C64DPCPMfgTb11R8O8ZpiYvBPCy73+KnM8eNyDPMmqHLwsT2g8/xHtPRZLV70Ybz48iDBuvFHcB7xl0807w/movKV0cTyAXNy9ovccPYupcb0uXh+9lsbzOx2kXD0wGxO9nGcnPILio73NpTW/LAwwvf0f6ruPWdE66QSZPAS+rLuazic8VRelO9AmFT0Fst+8nBnuuZ2EPbxucUk7OuIVPEyv+TtCo8I8iPBjvAof+rus2Fk6EAkAvDmXIzsXQ0i71bYNve6SPbwQgDO8fjRVu6zS4zm6/bo7",
