{
    "input_shape": [
        80
    ],
    "hidden_layers": [
        {
            "shape": [
                140,
                81
            ],
            "weights": [
                "1b2ZPTmOvDuE6D69zCNvO7AjFj2y+lQ978r+PPD2qLyEosi8ImQnPX3Yvr1Hoho9KWRVPBN3mL0lKRM9bAQNvfO4E7yVTne7ncjBvRYYtb6mbhC84AvJPIfCCT505hY9JpoPvXL+Lr3bx8Y8ILquvKPaZLwaDL87U5msPXAfsLzCEf+8pgBGPePLgzzRhKG86slMPJ37cr2dSl694YxovbBmv7tBsF+93I2TPKmWMb0yrVm940+0ve6Ni7y9V506RloZvaXBxDyumwk8gy1SuzziJzyLEFU9/RytvMX43jx3PzI9r2BYvLr1oLy8MYI8A7fDPC2NqDzu5s07ksx6PL3uxLzOjcA7+3q8PG2+yrygIFA9aUlnvSm8CzxsT/28UrvRvJ0bsLziE+Q7JDayPE4aZjzvAGu8iCJGPDcF4DtObWS+Cxb1u07/Ij1pW/29i2qfO3GLf725AW2++f4FvX/wDDzd/Xq+0DhqPVbVH76VPOY8CdHKuwAgHD3O/LK84dGoPbLAlbxx5t04AW+4O7SAWTyh4Yg8eAFFvUOdDD5iSHs8pCGxvTGbYLwI2e66XuOYPJhj3rxVnpM9h+pivYUcc71yZ069iy6xOkgYbDyyo9O7H+6YO1QkzTsPASk9PotsPTQ5yj25T5q814cOPCEZ07xfYpO8kXuAPC6njrssO9G97QCQveiqRLtV9B+8BgtqPG+dOb3NVKU7HCXVPI/YkLzpadm8VVjQu+hb0TnvzzK77wENutqHXzxZ3SU8IfajOzAoI7ygsR48NjjqvK8nhjuHAgc8VavvvNGI1zyKAmO8q61MPNrFNTvGRyy91cb4OlQ0JDofGnU7z4vFO58twzt6svY+eiw2vEB5WrwCtAM/X8s8PRcZdLrb3CG/RXLYOvqk2jt2UBM+sSDLPR9ptD2LjYc7mlDbOz8Lr7wiQfS7zRI0vdXW/jtNMok9jR8SPOl2qTxYmAm7C3huO6Oyxr2R0306wSMePtW7+Lvvs0c8Iyq/u74+RTsjcUA9",
                "G8EjvKr/XbvhXxs7eNufvFemArsqOC07EnMTPHgGDL1a3Ao7D0KpvHWI1rxXn4Q64iJzPDD9uDvCbQE7cHNLu2JHsbtOICA93l01PQWrXrvh8s67SbUKO3SzA724XyY7KVgQuz0eN7tlYRe7GYQUvJMCCztdp9i6FeWauwizO7ooRKe7u3q2OnRpAbs3aWw6dIeKO3T8Qbvv1Qg83Mh5vBvIvTupkrK5HngDuwm8IrxWfZU80myQu7JI4rtf8h+7LajAO7NxubqzIy0+O/LXvY7VmL0uNq88wvirPVwwaTvhlGa9DIDIvSaBv73BWYq9zhnNvQH4Qb0LYUa978KjPRcroz0Z9F68RUS+PGRHejx6WOi8uLFZPA4VtD2yCMa9ZE+2vL4+LT5KvFe8oGWcPbwLxrxDyRY8RvJovcHRab3wjZ08nui9PezYWb12+jM8BVRgPT87qzvaFwY7FTRLuwbFqb2yQpS9s3GYvfPfnbyoRhY9XrLTPTDTHL110ZM8FHByPEWigDtYkQE97FuDvUPv3TvYzm08ZyHZvM35eb3L2yo9D7QeveWvkD0h/PW8UofovK7ngzugYkE6Ju6zPGErgzzikvK7O94UO37cXzxC72Y8SkW/vEDeKryueea7kKW4vJ1BBL3A5gK94TeguijjtLv+OT68ej0tvOjRYTybTJI8xHWmvHQwsjxqW7u9qvmsOzKjgr3cQCk+2yykPN7LyD2uktq9v6nlvdLJRLw46N+80AzUu36fhD2WWHA9N/RsvC/bjruzJqW9jNEbPI9/fz1UV408oQLPPStV9DwPUZk9wmUPuR6WTr08fJq91qEuPZIfXL2uoXK93Sv8PPpYmLyUtqs871cuPTVAeD2Kz5Q9QhnCvPwur7xnWqs8FbRFvaK1zLulFiy8KzutPbybKTz4NP48xDd9vDZ5ab0bED08AhCNPKOdJD0YDM48kRApPHi9nTw0dxa83j4VvOFsZj1pvgq8gdP9vCuukzwJLRu92N3mO6zhyjtPd908",
                "oIcmPApbDL1Bexq72a5svPo6yjuHgOY8DL0vOjAvbLoajji83U0zPbmY0DzuNrQ8iuNuvEEU+TslXgo93eq6PHfCCDwgdeI83lUPPZJ6oLxoJLC9aNwLPlMITbp/zvm9aIJ2vH5KhT5zLZI9L6mHPeUOnT169ka9ehQ1PdkkET1327w7SczMPYzA0jzMlI08wkOCvPrFsb3YBsQ8hNqHvWFp573tfp28C9wuPepe8LzieoY7F2Z5PDrivrx2+Z28lQOdunQubLx6/oo8mzFVPeGz8LzQ8Ng77xqevIEIFbzNIaq8n7jZuyvc7Dy/UgY9BQgMPWSp2zxyrGi7exfuO9my3z2BEqS65l1PvOC8orwojUi6w0jMvNmip7u6ezy8jNuBO/G3LTyKmM48ugJXPB3M3btPp9i8+aEjvO6EADxoq9Q8Ro/vO/tppTwMCtY8EV6fOlD4PTwYHiI9IgEnvOfV9jvrrqy8pHOuO0kUzbuuNUM8Ie8CvcMuabqOpyK8VVLYPNc/wbwnFwI9RCj1vCcCULs55Uc9JK3MPAm+Q76xtoI7F2icvK8s0L7JMHa719BcOwuYuLxXu2c94pQYPRp5mTzfEF48nvuJvGMzzTtV3gg9PLAXvqiW7rxWSpO9fkX6vbcbdbwL4GQ71wKSPdhfqz2ZOxc564RAvDfLVjxuJaA8Yu8bPGpwCLwMC527n4wIPQPxwz0ZpRe9aEQAOtsVxrzNpnY8pn1fPJPwYb2cqWG71METvAvq8ruCSiG9DcCoPDdH0b0UkLg8z1SjvK5OgLon+526L9KcPKFHbDnxl3S75rxyO+gYIjwOV7y8V+bevGdjPbxg7WM7+vxgvIToZjr6LBk8V6bcOoWGuLtXAsQ75XJRu8i+/rs73Rg8l1omvaZPLLtUAtC6BAccvbxporyLUwQ9TQaQvMOshDzZJ3K8ucHTO7WVLj3JDIY8ezH9uzvIAr1oyF+++vQFvHxhs7xkJKC/fAOyPFtoEjxbBSa+5/PpOxorUTqT6ps+",
                "LbogvGUHvT2WD6q7pIuwu2PbBLvt0N07ck/cvV7qIrvoeJ48wWKbvB++zbo8kU27b05BuvSQCb4xijo79pQjPXP3lDveUK47XZlhO3Q/pzqm0WU8YejtOcanUDvqCPS61fvZO2g+gDnYeBY6hkUnux7Pt73ZU+a83nLMvU+2wb2etCs8aajJu7dpu7t3Qmo6BvvTtx0pXTsSiuW9wVEzPdDj3znPpOQ5nOYUO+ew7bx682s6Aii7uoBLxb3lX6w6b7yyu00RqrrvowE7eS6qO62URDsU18e6n/kfuv1oibp8Tga7Cav0Og+RLDtQ35i6quSZvBcBAryllmW6TW/VOwStvTpAMxA93uqxOrJWXTsrdBs76QMNvHofNDtvTQy+xLy4PP9NAL2DJ1i+VCzIvUvG2LwOToY+BtCCPdL00r0BStw87f8TvpB3rT0skzy95D7PvaoUJb1emJg9jYSDPRcXQzxs1oe99FUFvri4B7y075G8z8ygPOfA5L2YqdM7bMauvE/WCzz5x4i7DI/OOlz1QbwLY1M9m2LCPGYJhz2jh7C8L4l7OxsrRrxOZkS7/3kBO8e4IT0X+iE84xQoPaGFEj1HqFs9DPIUPZ3emLtZ5w49Mf1BvPpNATw3rTu93EQLu8kLqbv5JQA8AmSVvKIBQL0rMkG7ei5svEAlzTxBlTY8wu2UPF0+HbyA/Lm6QXHYOqdzuLwhn1g8FujzOlvJi7xrwRS4WfT+uTLUWLwNUcC7CsOsu5OfTLwBntg8KFWCvKGkabxGKlS849hmvFlR37w099u7gOaUvDZIlju2WnU9+DmUvZYkh73V2iA87GZxPRz4O75TMBw9HqX7PZYuwD1rojq9nfxtPS+NbjzQMS+9RozEPIFnmL1XPlq9AYqkPKUaWr2vEqE9hehxvdLNUj2MDaq8GoPzvN0XGD0058U8m8nNPMnv3jw/BDC9ErDMPOYTkjraMGI85QMOPQRjw7ybn/m81IcFPeJBs7y+H9Q6df20vMCty7uV3sM8",
                "5nE1vdN83Tx0b5C9S/SCvUzJlL0fk0Y8O9QhPLPbvbyriYg65EdTvDqBOLt5GgO9nkoSu4LAkrx6CKU8p3hqO/KYy7yInrk7PLA3vKfPJDrJmSE96VCqOavl0zzM6hS8WncLPfzacby25T68SHEuuVsy8rlhN4+86RDzPDTBmjwWvz08IRxUPJhODL1vyhe8YAPcPDpwvbtZfxG9EaQTPNnEJTsVOpw8CAoFvfdmoL0mOe696ZqEvd4Ikr2iF5S9P+tnvvS23r3I6Ak9vaqZPTEZYz289oq9k5FEPaOMvb37sx89EykePYYs57oKlha9Ny+DvYnjyr2C1oA8UFfYvAQSzb2Nnrg8VinLu29Zwzx3p1m97XbguurlSbyRyZ09Z++1vFffL7y71qC79+V9vXZNobyrJ/88utDjvPIXkj2/rZE9iEydPRkwIbswd3m9tpAzvdrpKLykc/a8NCwyvXPbrzs9aNO8TVQ1Pb/Y+rvbwVc8tIKrvDo9IzscWTW97qarPJlPDD1Ye/G7hoBsvIAj7TpHKCm8KrMNvUv6j7usmgI9z9HxOuzBM7zFeEq8iWgAvJQ/2jurcF48EdPsPJIbzLu3Vh68+VCkObI1Vrtb2968/R+Qu89oHTz2sCo7yey0vGX8cbwsFFK+VsK3vEU3g72RW969z3gXvhQ7wb2mnT09GTa8POoasb1uDi+7vUAPupWaGT0OGkw9h9Y9vUE/tL1lIBS9dj6sPHWKDD3ydCS9RBdSvP+Z6Txae7K9s/xcvTjYf73rxhm9vllkvJNKKL2xUnK6Fx2cPB9PaLx/woA7nSyFPP03nLytHBa8lr0Fvu7aA7zhNy898W8WPXSwEL1hzoE9dXkrPZkblbzP0Re9XwdBvXgA6jyueJm8QwXWPHsNoDzMvQC8GoyCPAa9gDuYsWc9z8gTvUZXNztsGI08Z9xbvAcEYzycJly7pKgWvSfAgjuc2nG8sxKhvVyrQ70FMGs85hy6PNGJyrvuYk88JKZVPBQmozwGaP06",
                "nCEkPR7M8DtPjtQ85zM6vMSp0zy0TIC8w422O4DzDz0sWiw74m1mvB3u8jxWyc+9Rf7avOuj8TulnpG9LxXoPfI1XD3QjLq8r4FhvMHagjytFbO8GCFavaGCTL2uOj29t+CoPMQgkTwzLs28Qxk3PTPHwTphPk+9W/KkOz1+pDz0yIM9so0OO13koz1lg7y8p10IPqY/lzzHei89vU7wvDJ7R7yXHSU9Gf1vPG2S7DxKnxc9ShmEvKpbJjzoQ4y8llRZPE/GhjxyYHE8chkdPeAAN71RIju9pn3RPDkRFT18ViY8JxxBve7Nhzs+RfE8lUirvWz5Cb05pEa9OXOVu684lT3B4Ra8Jf6LPRp3qL2aXlo9ZGKUvYh8jjwrWaW8iQ3kO22OarzFaMI8rXsuvHrVtLzuT2G8ioXlvP4ANDyDdd28GacCu5O52LrugIM8yVSNOgUtAb3uIyg9IV4/PNou3LslwSI9Af2/PDpYfbzg+fC9QH2IPOhnob6Eyxa9RfJ3PIp8kT3gVAM+yqu1u+H9lD2G2Gm9K3rquqSjUDzn+UU8vYQJPX4v3LtWvSa9vFqYvG4UQjy21Xe9hlBVPtIGvL14nKG8FstjveSKQj3mY+G8FUeCvepjqbzepYg64ccNvI/qTTzuEJi8BIOmO8U/Fr4xgXc8mPTOOpFp7TrZQAG83kk2u3Zt3TwWzh88XDgqPVq+szxzkPA8SOPfO671NTzD06W9yaQSPZ/cuLooERg9IcvWPHIdl7yPrRC9yr0oPJyXBzzJvAs8vh+SO9aaNzsobnq8qV2NO8ZZQ7s9G+g6QWhZPMUbbbyQE6q7YVXUPIxdtDymjMU6HXErvOGV4rzijbG8CF8XO6k/1btxuv672AvSPOo0zrzpYcc8ZybZO5QOYzyPuhY8Dq62uxJ0MzyRSYg8djOnPVoksTtdTps7tfZyvGT4WzzcPJS9/Hmnu+8BPLu/FaM9Y90ePRrxAL7pSKW8lqCSPVFjpjzH84q8jBOyPV+EjbuuMws9",
                "Q40vPa5IxbxChxo91D/dO5SFLD3ENyk8YStMveGTlLxgbRM9qFPkuPB9HrzKCvg8PxhwPZXknjwulBA9XUifPBXuijzRjUy8Xos5vJLidT0XKlI8GfWmPUHnmj2cF5y9za4rPfmW2bznnZq84dVXvSgMQ7wDPuG7g9qKvVoQorrDOGk9QpqcvI85GD1jEwa8pWFMu/oGrzqQt+o8sNirO8iROLyQyqc73mz7PKJl8btiz+q6+njKOwALaT13S7A73R8VO5PlQz2OL+a7GKyUPeTrVbwgRg29KCqIvG6kjrs3GSA7ZtHuOKkuR7zp8J47p48aPDzoAD1w6Du95Z75OT81Ob2t42q9hN1BPJQrRT1al7I9+WMjvHebhT1q6wa9M/qIvdlLwry5P7W8r19NvQVEHb1rNzW9iabVvFKxPTtoZ2I8tzRBvkZ4mz3bVRC85ZEdvZWixz178w+89dIqPU+wLzwrP5Y9xoRnPJmnFb2Fxnu8bF5pvMpHPL5quZ081IC3vEyOQ7xvjKc7q6NsOysA9jpsn+86a7C9vHepkjyLsWo9hyh5PP/LrL1jbKU9YnvgvEcaPDzg2Jq78CagvAiroDtW1dO9b84FvW2fCr3VfLo7DKTDusEalTz/aue80qLSu1YHuruE5EC7n2/yu6tCo7z9s128O9/APH8nJL0Im9E7vcmbvHHja72c/i29pKluPIvVE7zw8VU9XdinPPpyV7tuF448ZxDpu3DOZjwa8io8ygmDu29AD70Jb+G9yS8NvRkxQbyUz2c+MHrtvImV1j3JFFC+7mFtvU4+Fr0GYie8Xw+fvf8NDj6Vjh69m8IGvUl8QLyMPyG91TSBOhLDKTq5xHA8czIvvcpWqj0x84S8oMPPvNxESL2uZqY8R3ddvLxGvbsyJS89KhO6vHrPCj2dr5q9pjFBvRptojwam6q8vVNzO127wrw96ku8oFGZu+FNQDwZsGI8hQ9aPK247DwqSSc9LI7APCqIjT0Fro08NH/8Ow7dyrzlvwU9",
                "ybUGvXxS17uQfH68Ml3aPFBsDT2i3e286C4ZO8irprzPWr27rAEAPPEbojyVPSC8oj8NO+bZhTtv7MO89neSuz0BZL2yzh28+VLvu3Qa5rwnsIm7GQ2FPJxSXTyU1do8F5sTOwtc4jsgInY93FMIPPkqhDvuFIs8ueihuxKFiL18Nby9eHu4PUzGoD2ZMpO8mH8sveqdUD1zN3W8Pp5UvclyPTyesLG9AokPvQupD70TvLY8am6cvL5uxLxP2Ya9xkOrPYTgErxu4Ye8OBvNPLmjLDzQOnq9EN67vLSznT1MJSK6o6G+vdvTzz2AmIW82SUnvJh6irwVZs284fdsO8ir/7yJn88756sqPWs2jTqT57k8LshevGhxXD1LnjO8yqIBPXlK7byQfqw8NzkzvflJR71LdlK9Yt0FvdAMOT3CBXy8HXKqvYCnvzy9FY88JomtvOWI87wrAo68vW0AvGPGdjtHZnG7PbWQve0IFz33jFs9at3mPPGp+LxRnDs91pYgvHkasLwsDe28W6IVvLuQpzvzDBC8V5HmPAvc0ztP0Jw8bMJButAtirtQbtC8rt2CPPiYJLwoUkS9A1x4vOh+6ryvE7+99TlQvuRt0726n0M76FsKvp81JL75yhs8GJuqPCGUSz18/ri8zBSavWfAib3pWxw6DNL5PJ31d7xkDBg9V9KxPcpyqT0KfcE95qS5OyMfJDxldwc9m85mPIZ37zzZNl07iRQjPN+Q07ybTCY9X7X3vJXJWzv9Gmq9DE2uPT0J7Lw2kqw7Xx0HvJZn+7lN2r483IuXPLQAFLttNei8Ih1wvDz9PTwlG689/WINPoqRWL3pfoI8JqCjukC6gzttDbA8udlXvCVQkTvr68m7FwKkPEODPrpvPMe8l3u0O38J+rgesyu8/3SwOvmVSryucoy8J4veuzFhQzusX487XFWYO93uCbrF/LY7Cr+1PHcQAr1V2lg8Va87PTYxAD1v8Cw9llPouwPQPrz12xE9J8fcvDsQvLzbYdo7",
                "A0z+O+e7B73iMAw9jArvPWydrLyXrWU9pXgsPk6tDj1JzP+76wEvPiy/3DwlnGo9vECGvcu0yzx8BW281U+iPc7zWr0Gyo49XoEQvAlR1bxItYq8xn4XvnZAhb51u+e8CA82PUjW+7vabMi8GlpPPOUtszwZ3I08OqHFud93bTzpUSC9D4pmPbS0k7sQMGm8z5ZsPElCBrwT8oa8i9pavKoDlLu1Z4w6FQu/vECMy7tCIvU85fC8vJhrprxqGaC9XdzbvWyg6bvwY9C8FSCkPOCghrpmN6e81QC2vGPEyjxbXho8sExUO/3+tLzLAbM80aUXvc7SEbujdgE8Y0v1uwn9MjxIPQw7P7SQPOwqnzs8FBS6zp4LPGYOvTuW5Ty80TzgPAryKL0musu82XSLuizshDurHRE8yC4QPF6X4ztYTvi8f96WvMurnjzDna69L/JVu+Y5cD2r4Bo+LYhWPE5qRTwpEr+9QTiVvO9QvLxWgYK+J7rgPbNHmLwoaoa6k6I3vLwqszsHg2I8KT0SPG28QbtrD6s9p5Olvas3Xz3Pazo7m0JtPCBFGD596rE5hNYbvhra3zu8L9g79gIWPLVdlTyYKXO9W0+jO4K4hT0wWIq8BN3DvIpJDLyH18M70GgFPH66HL1Yx6U8jv/gOlLQvbzPe9C9/JpivE/CJT0Del48XC+EO0VItLv2uK+8nkWEPBOLLDt5J0m5XTf2OUvLBD5CxZU7yl+Lu4xRJb5gAUK7bTm6u8RY8rvJxUS8oFIVvOxQvzpx5xE6N6UNOxFo9rv8Dcw7g60QPNnrY7wqqFa8j062OjRniTy7sLs8ISvcuiOTpzvlWKU9g3YtvMPW8rszypO8V9KFufhHh7yqvjI/MF7IvMLIlDwyHE49WGGYPCAZmDtj5I+9OU0bO9y8vLyjZx49YZ7dPCtOnb1ehIm8niCXvL70lbwGMBw8oN0APWxYSLy8jRu9YQ3tvcq6gjzEZY48tIyuPE8goD1SPbA5DU+2vUGRazuH2ZW9",
                "lLhuOig50Dyujrk8HljUvNK51z1+H4A9hTg1vUKIUzuwh847izmKO09yBj3fSow89UlLPTz1VT38sk29L6xnvHY9sz0eEMQ9503evF30hzzwNyq7WnpNvECCCLy5tnC9eW3XvK5GLzyohhc8vd2NvA0euTztgUY8wHYtPERfVbvoejQ8dfSXu4XGDb15XQg8zGf/u915Y73pGK48cKyKO+Konb3JiXm9Gx5ZPTeC3rzqZeo94yugvBbq/DuFxLm6Jk/9Oh3kz7teFCq97RYVvVo0Zb3W/6a8ANdWvlz3Pj3MTEM8xN+ivrDNED7c06S8o8pRPFZzj7wln1Q7qHy0PcPh1Dw7zwW9sPAuO26TSzwTtGi69qz7vZ3ZWr1Jipe9x9LlOJdYsTxnXBM97iQIvTEkrj1OW467FGprO2sNIbxa/Y27aJk5uynWuLzJEIO6FzEIvkJdLr0yxLo8tdCvPLoohDyKLsg8DqkVPPGVXbzyDxm6ir6Ku1MGqjsxmqC8Xm+fPSqiFz2xDVY8HrtUvH+gULxfLa+7/e7/u0LTfbtHWRQ8XkdNOyaMuDz6Y568PYc4PX30iLywzoM8ZiaEvLPzjzxZLoQ8E0NGutK/kLsz7l68eZyYvDtGgjuLFZG80nIevSrFbzwDBmg8CR/LvKiuDbwkIAM8WTUwPHYnAzx+4ae8ubW6PCCLGbw0ejQ8YCMCvep9absBY7i9tmqtO1d5TLtlIoc9twvlOg6OmLzA4WC+e35vPVqvjT2cJIm9a2qvPQGyMr16yz690SQ/PaPGkbwHN0O79ihTvPoQDD1/2yM9okApPWt5VL4ZP8i8T4FbvDaZqz3vkJW87SeavcUpn7y+2ne7k+oNvZb5IL1ftDa9B3TUPbsrbL1usAi8qUcFPe7wcDzC+KK8Szzpu5xpkbwttMG8zqD4vOS/3TsCVD28iJzQPVxhMr1wGDa9R7QNvWsGErxjB2q9bLJrO4ZWQ7y3u648Oa24u5zDmT2AxFU8IPsovBRco71d8cw7",
                "GZyhu0YOQDwmVMQ7HcQnPFxx/zvEh8y7LAQ2u4dZGjvvB8o7bpSDvKo7iDwfneS2EpQ9u6c9Eb2P4wO9q6wBvHVOhDsCBxs9qQL5OwDlLTzTZ748gVMyvDvi1jvOfZc+UbmrPRKhFr5KzW49BZXcvZGrrr1lqOq8HsXrPG9gzb2PU568ddcKPWNH7juhL5a8ysOovE/m+LtFhqO8xl0+vYNl6TxGNU09Xz4Hvq2cHT2ZNZ086uxSPdX/Ij0RESO8CiuFPG8h17wtUoG96sMqPMtkOD3iMIc8Jnk7PF+LBz4SprQ8Kg4YPYepP73bzh+639IJO3ZhgLvlkS69bavjvNtPkzy5j7C9wSr7PIBVFD02jI49aCFIu5+mBz0pYXS8HrFvu4oVjjq7n4S9XSWRvDbCAT0FiBK8Q8ecO4yUxbtCqSY8u4JFPE+Eprv1mkq8ts4+PLfx7zwdCso7WUwMvbPui71DLDk8E0r1u0TrEb2X26K8joQPu0hvorzqKCO8GGPrOwJcFjrT6+u8NTucOsavsLzc/sC80byCu0xuBj2FZ+a9ZRvkvqRAg75Jw+S70eQKvLdpqrvwTJk8YNUfvOitmzuIrWK9tGRivFF/K73PnYs87/GXvAtfoT3ZQRA7W/oqu0SRkLySKyu9tXjdPIZTkL5sFQ+8jwYHvMi6Uj2Q24a7pE4nOyUt7TtcPOi7+x35O+PqpTrzLyW8AnOrvDO7ITzCu+Y74fIOO3O+qDnGHUi8DfQqvHs1Y7u8vCG7RLTXu98MC7yxJRY6EZa1u1iBDLvn9ye9QLEXvcDVQjyZkXA7Y1wPumgPOTuHu6+61P1jvPAuSDspVce7LM/nOwgZy7o/mgW893k5vC+l9LtjUIw6rAb8O9f0wDt/Sbk7LXwJu+67rDyb57M85KcoPNkF0DwuEti875GXuwljs7zaJ7+8lHkIO8nXUrwCle27qtrHukmvRjzQe+86LvbEvHlHujxixDk+mRshvSVTlD2l/RW8ykSOPoI0Tj1Ocfs8",
                "tW5RvZamFb1QFG28rBBUu2c2k71f5V89bVE1PZ3mHb0QY4U9MyWhPIc2Qr56/hI9SUtfPNpfqLwX4ow9+vD2OwzNFz0QNx87Y38IPRUmmTy/pI+8mWoGvYhW3jzFQ2y8bWxXOx0unT3EECm9dAjMOjj/3TqJb8U79qe+PHQx8buBTsk885ipuzxbgzxTaWo9o5Ibvfbbjj1S50S9sEabPINwizxgxy682BKHvPa2gjuYpES8WhKzvAy0hLz/kk+99GSCvNs1IDxvlOS7KlB3vPO1oLwtb4M9m1zlvDlm9rlREro7nDZgvLx/iLsQ98K7uEoduxLV/jv8w2K8WHLQPJRLwDySS5o78rRzPK83zbznV5Q7vzALPbeY0rtD4bS6fS+yusuSVjyaGK+9COTqPPeCKTwT51g8oGnBvYHLoTzgAS49J0oEvhursr0PAwc8O+uyPVwVpz2ho+s9EAaVvNXmMry9z7m9mjiTvIzxLzzgU4A8P9N2PVDEQT2Kbfi8iVMcukwjW720Z968uGuGvWqx8Dvu0GU9LoWSPFEH6Tucy068Yzz8OxMgVz3NoHw9q45bPOSD4Ts+qQa8hFTLulYhMj23E4y8nx94vN5sybxSL+i9I4vpPQvV4DyC2IO7W/K6PNWJOLya9Be8tlCVPbOW4LyfRqm8rAvFPPu3AzyZNK68VcrhPAHVjDycVEQ6iSHjPHQXWDysZqG7lidYvH4RLzz2umU8Xx7Wuzndx7sXmaw7yRb5vCtrnztLV5M8pvJ9PZr2orzcUMO8cSmDOxQW47wJPmu9Zn6eOymg2zo/MQ+6GRThvBpatzx9/kS+rMyIvaCJuj1Plc49inpmPZWzIj7Sz7o9gHyzvdSnYT4pxO4984lqPWUq2TwRniW9nDOjvT692zxJMWs9LxOUPOJK+ryD4J+9ozb/vUXkkjsORTs7p5J5PbG5tr0XT9a7c8IFvPvOrbqYCAS8c9WZO8Cqpjwh2QQ9i5VEvXD8iLzgORG9NrD3PLYsOr2G/W07",
                "1onxPFw6nDxNqIM8ZBjfu3TEGr0e5k696RcGu/ITDj1oyRo9XGZIvP+IlrubXbo7J5FiPQdVFTyBKxU8jcY7uJ8aYLt26+48VYWoPCpT6rxjiDq8xr15OytaBLuzqFa8pWZVvA9cRDx/Whw8DU8MPJ4GK7ychkE8FnUevGlDw7xWbBm8GZwbPZaHAb2xdE89QQmdvLSU2jwCFbC8UMmHuw2DK7zv0LW85eGFvDbOg7wjSgC+MtarvNXynTx6IkM+o38LPYyxZL1g8CS+x/udu6MCLj1lOTk8i+RIvbFCiz2B5pY9L6l4PXPfJr21uzi9Q7nEu/K2qbz7ZBS7HoFfPgpOEr3sRFa8qv3mvMiTvb2cwLs8Hf8DvglEIjsJM7688RluPBpuobxnZXG9cDsKPCzrwr26A4Q9r4/pvBMvoDyVP028a7srvBsNwjxP6y+84Ch7PKS+HjsxCM89V0i+u3/XfL3cQDS9B8kAPdbTELwm/lS9sTiPvG1LxbqbjT47M73Cu0PBrTygIUE8Jf/FPNxH/Lxl3ww8bjQovAhSCryloas7hyjMu/9KsLwBYXQ80psBO0gxsTxcAlq8kcJBvH11grrM+DM8m/MHPZ4NFT2uiGG8GikyO/GmbrwH3Xk9ICBFvMlOyrzRWio8XeDgPFOtljy4B78+I9kiP2MVN75iGiQ8CVKhuwsGcritKZ88Ss6SPDCSrruv2Li9m+IrvKV1Or1m1XW9682fu4cG3b33Q9s9zYDIO0n5EDspCUa9vtohPlZlLz7cIxU8Oj9ivHgUtj0i9BQ664QHO45DHTtFV846po8pPH4aybgpAB47nhI9uY4fIrxOV4M8gHF1O/o4xTt8EY87sszWO1TBNDyFcCo8NyY9PF0QoTy0GTs7d1VTvFrUiTro93Q82XA6PB/BAzu14nW8Dc+bvOy50jlvSQO8XJMfvXPyNbucw967Puy8O66537lsYUC7yndGvF2HKzszayI8vFiwuuR557tPQYk7PYs8uR5UrDttx6Y8",
                "jpiBO1Y2ojrigbO8kbUhvHGznLrCcEg8UNJRu0k0PrskXny7s1iUugmGszoBSho8uVEiPLhmF7wV5Rk+iTOpOwmsUrx7lyO+oZA8PHZG/bk9BEI/Tj9yO7M4+DuFQBK+U3INviROBL4yfSo8OWDXO0O1fzymyQS7VbKvvDvvyzrTifI8bCoGPdi6xDxGHeC6hSaHOjYiTz6kiuO7t5bzPEOK5Lt0QEA7hwssu8TyyzoZ8fA8WtikPAWa/DsAPse6rWwGPAnfIzs/rpS6qudeu+cQV71m2CS8XkgFvfXnKb0zNzU8f6BjPLvuqTuA0Ai8+2oYPFMmcLt1sV69RCfuvJ9bOLtG+7w6QpewO47Ygb1xyS+6AAbUuur30rqr/Nc56Z11O3snFDv4Abo5YqOyOUKGfzsYSYg62qjLuqSfPbv+bC689oi+PF5KMTnHNO47Tt7NvMy85TuHSvW5oL2eO49QjjvmLYm8wmPtuj9F/7vtDoo7UimqO8AgYbs/rH0/xfJcuqx6ZD2STP49L44DPntVq72Er4W9HXDRvc874j2GV0i9xrekO2AY3jwHgbY8CninvD+iZbsCqck9JmFsPE7/hrxh9xw7dB/ivJIJNL1gaGs9pDKHvTX/i7s3x6u8q2xNPTyhLT29lby8WWc+vLInEjz2owk9tDdEPdAApDqm9f+9JS89vITMIrwoIgM9KMN/vGP/EzrHJZQ9F1+CPJkynz2Z1Uw9FdnVPVXt8DzYdQU8F8ckPVPzZjye+xo9VxxMPFpRQDtkKlA97yKOPN8aFTtkzaQ7cra0PIGx0rzaim884EWKussJIzyIDfy8A5CMvemf6ztOW5q8MLcMPZvoA71o6vw7ySUovEr54jtSCKI7WDQ7PdDHITx2TVq8qo6tPKj1vjyQzvE8xvHRuz3/kL0ZDkO7EWyKvYoxmDylzVK+wjp5PI43wTx5Kr09ZLkzPeaUuz29Pr85rA93Pc+R7rxtb/M75i0bvhx6ML2yt2G80G03vaNoyLzsqGU8",
                "uMHiPPNl87w9VF+9/LKaPEu7KbzOWHW9iGVJPbFdQzyUQnA9gGQ5PU3pK707T768oBaEO8s06zsQe6q9knRCO1ef1juWjTU9yavevBZWlTwG3mS8jxpoPWdpjz1Znp48bCEiPYjDLLx7TXS6RWMlPSCAmDsjzVI95G7IPCcnrLwNc9o7mohPPQHlgrtMUW09WPIUPJJOf721xAq9PUQLvbHl0TxFTxm9m/LRPBpQwjsRm0a7E+x+vGIcI72BLDQ79hy1PHAhgjypN6e7pXZuPaIobjycGjm8ZV31vNM3LburHLE8k+2quZ7lErxbqOU8DOJ+vM/hMT0f9Q09vH2UugIL7jwd3jq+ahmPPkwkGTxOYam8vn/xPAbBBjxRTD+9obfOvGBnuDxK1WO8dLY/PZ9J07twHd48f/uSvAB0yLxOtLE8RXmOvI+Coz3T5TU8RtC8PRahET7HKg075pY7vUmD2bwdX4G7WwLMOdpeWDuOFc68EZZJvbfaCTwhCpY8AJp9PXLHqzwbwfS7TkccPbSgBD2S62w8bPLKPI+ICbxkpY+8z6t4PHHGBD1e4wW9uOjEPUuFTD11zjm6b6n3PIXKtzojTcG8BniFOw9Dwrqo/Ug6nkRjvKMpk7ydD6I8JT4EvbvobryWsRO70CFLPGorujuOQgS9GdvluaOoRT3W2Vg8z95QPHXbTbxE15G9F4LIO5MGqLtUZxc8jKfQPH2bcz1kaAe9A73vusG6LLztjvC8/LLduxCSxryTR/o7ULNLPXXKLDzsA329Jl8LPsf4UD08vS48Un44vqzM1jt2T0a8nVHKPYWrFD3HBoC7kVYiPTPzAL1RnoG8sZKzPGYA97tvpJk92iKhPDyhCD5FJ5M8SQK4OyPpZD2edWw8nONTPbOVEj1CwsW8WZY3vaIeB73zNl68KfKyPBD2wjt+e2m899MLvWHhkT1eIDW9WzdHvKMiLzuDygu9jxUbPeTJ9jsR1pM8Uoz5u9YatTzY+Jy7WGZfu0bZGz3tO1O8",
                "MPQiPezR2bxRkAW8x8SMummYd73ywn88KQl3PElGWrtHe2+9upkKPF6UbTxhLQM8X9JnvUOQRT3f8mC9ZCArPZVeIrzvwCO8UHkAPFNSNrwuSCs8b1cvvEN4eLzgFT86e3A4PWeiGb0Zfoe7athAu2aULLyJkTW8L3YrvbA5Yjy6SYm8lvKPvMr8qjuNddm9i8v+u3zN07yS2tA+e3gUvKzLWDzJvIE+glbzvFmi1btGXkE+e/gHPTw4bz0asZC8ZY6WPHOFsLwaT4C66ND6PM7f9DstgOq8lSUgPP7GsLway8U58EhrO13WgL4yvII8PBApPTpkj7vTmRw8jpc0OVFTX7uAAfY8hwSIvIF04rxnVr46vnfsu0rfMTuGvMw6JljruuyVPT0XJ9m8FSsHvGJhzjsR7EU7rTflvGhKg7wIWZM64O+UvA/DMDzs0L29JO3jPH3QzTorl0W71rv6OEoSgr0NPEO8E3vcO7KfSL1jy7Q7H/3vuzmi6rqpg3g60RfmuWh7ErziaHe7wr+8uyDvDLycyxa8NElDvVjrl7tTkL06R1W5PFQMtbqkCDm73D+RO/N0eToasSw8v7QQuodkkDxDl3A7BcWGO4gcULuCOkM+w6FcPA2mAr30W9y7WXtlvc6KGj12ZJM87JwXPre4Ej2XbW+9g5V2veZp6jxyj+s8I3U+u56urTx2xYq9lz3+O6kfXTwBW7c74RJLO64hCbztVEK+1kVqPT0kG7wcmSa9pYocvAmb+ry52jC8DzOXvM6hD71rUam8B9eovUoIyjoSrws9dVYgPW/88btPC1S7DAatvDV+Mz03sMY8zcb3PErdCj2gS247gn3Oumani7v9KBM8jyK9u7PTUTwKMck8fwnFvPs1VjyoVTI8Jsc2vdty6LwuGyY94OwFvRmwPjxldgm9gfc1PVfl3ztzyyM8/HvBvDRkojwZHT28S6pHO94b+Dsy6Ce5zRkNvAInmjy3qEm8Lq+EPDXe2jvOE4G7hP/NvPf5u7xsRDa8",
                "IxvFPJ5rDT14g4u9WrhyPIkftDxsnJS9dr5zPWiEMDz53zQ+rqYjvpghEb58RT28fXmnvYNPh71GjkI9/x2dvB96Qj2d7Ka9ys4oPjnGOT1nIOU7doidvTiUWbwxrCK8fZkKPSV2vr6eyKU8FvAFvKQMK7wAwMw7Ur2rvBxuATzWHn67F0NUvJIouLyRmaK8sv2PvSZWET02BFK6LO7YvETipLsC2Qy9D3h0u9IEZ73+foe8ncEhvRtZZTsfuWS7cSkpPfu6/bxopHK9VkubvQB4Bzv/bUw9XhqrPNaBWrr4ou68gCSdPA1Sgzz5Aoe8eqUHPC02eTyJXFO7KUS8PPDwNzzpius6cp5WPKrFTjxr9hm8ZdWLu2f1BTuWVd87iso4PF4gLLz7gRW8mzlJPOD1Gr1MmBS9BVUmPJL99Lth7D+7E9pvO2ktjDxSCws8qn10vDwMwTwEIha+RZklPQvGCr84/Zi79JWoO1XWw7vz5sa9MiRIOQ0htrzOsSU8bnQjPfGF57zQ1ea8m/XcvDVGbT2wftM9JXa5urSNFrxdEku6PEsLPph0lL11/1E8xFj+Ox312jwe+QE80HyPvBHQTzwiO0e7FoyBO63zxDtp9vC7rFKBOgwLwjwKpc07svMxvJuMkTy9hu+629bpu4zU2zygIzs8BEFBPU2fwjy0vli8YxPru/gKzTysbf67SIckOnt4Bry2Rdq6FHXHvBh41Lr/QAS9Cex2vE+pHTuS5TY8UTSBO1LNAryhHlq7IMSRu0MDJzsGmF67QunRuZuWCTxWnGK6/DwRPLJv67xR6oo7GwJtvJQp0LvLiU67uG0UPWn7BTt8eA29KZzEOjqIljvwkwg54InmO2xQHbwcKA27N3frOpQ27zxZjso8iKa3PMNGXj22MLW9BGisPOu3670j+Po8g0kPPJiERL0ymo+9GQZcPbSY3bwNnqs8I32Rva+Cobl1eZ+86xnCPMh2uzx9pR+96T7OPQjmmL2PqnC8akTLvZQqjzws7BQ9",
                "aZuKvNDDwzwn/P+77mT0u3Qw1zuJ2Ca8W+n6PLkdOL1ilu081YMgPCv487znztm7vNJ2PUYupD0blD69kMuZPP6HGz1cvB+86cT/PPUxib2kG+U8E9uYu+p4FLyeLxm9qGmAvbjp0rzEdm067roEulDDiDznchq8EiBxvB0yo7yUdtw8xClLOzP8Bry0upU8Cpjluw6s2ju6HtO8lGW3O5Zy3by0Cz66p38TvYT1t7yZ6T88uZEMvdKaG7w1/Zy7EUiDPLw+Eb1+hXw86borvLShOj364EU9A2gnvJ4AcjxHktG8uNJoPUl4Dr7UHxI+XFkAPYMgaL13hJ29+B6YPIuHi73ZVho+1Lcuu4vcjz1YiCi8EPMdPV44E7qVHzm9CLAcPQPKEzwmkKy9SyYEPc0/TD0oeAi8UAuGvCmihr3/erI8zkuFPaLsOzxCW6089jo4PHmY/zp/f5g7DX4mPbaax7oSJ6A8rJ/KvKLpZjpkV5i6tLg3PN/agj1yf5y7/oo+PSqsKT0ojFq97ZgCPbkltbomviG9KtX3PLq/mjzNNq88I0KMPVOZljyj3fo8hf4bPFgi6ry3XuO7AVJxPC13IjtLemW7avoWvGKiebzsGbW8XZCIPIUcT70j8AI6BPf3vC3QBz2CHMu8pTE1PH7TRLv6hxI9HAiCPI89QjwREsS85VB3O65XAbtfq9c7xDOyvPvHWjxVYMg8/7+/PIaPujzh/qW+azqWvDHRxTtMeD+9CofjPDp0Iz3SOmm9AWkdOyuMETu3eGW9cnLOu1tEgr3aGAO9I+DXu7Ptrzsd4xW9r+6FPM7txjvDSIg9wHKsPPyd7LouX4083guZPLmO2r2GMQ+8vthkvhwS1zs1ZCk8gjFnPEf0J7zFXdS8N7cFvTDn5rt4hKY7sgGMvDI5N7xKy5g8N5sXvPj7Uj052lA8qMCwPamiqT2vwc09DWT+uxbXc7yFkIw81QeDPA9nRjyGMDu+XLRCPZdDDzsjEtS8xXIguwD7w72HuSi8",
                "iQsMPMSXszyVEke89jSwOwX2NDuHwCc8CVV4OsxxnTud59A5IhpSPKNIFbuc0d873tE2PX+cr7vb2TW8KFeHvJTRc7zZijy8fRrNO04+HLmFqpC9KKv0O8vY+jpyLMs7c6oOvHXLFLpViJs+kwyLvCJFRT5ATBK9caZJvCn2qT0ldNg9CXxSvWydKj6xRyK93H76vXbMAr0OS7q8oqtPPP6uez1KkeY9WRCxPDBhwzzhrJO7qGMOPm/5RL268DS8Z36lvUOMIj3OYLm86qiYvU7NMLyr0zW9USYOvDGwoTw0VF69wZ6gPLiQ7D0RZ9W8bm/jOXALpjz1NgG91GgpvUhVkj1IbkE8ItQFPSK2xTyb1K28e7U6vGC2kbs88149jzuyvFu3MDvDttM7C3VEvZORUDotN/m8QwsAPCU+UTweiAQ9QcGpPJV+BD0fBSg9NmbQPG604bv2UJw8bxUzu0OXHD1oZRy8lM4oOi3ILb1S0qg8s2okvb4y6LyyKIk6PRWKvB5gRjkFYMY8T0NvO/ZGezyfvdU7if1tPG2aBr1snBW9KRArPB1cPD0DCeS9Wu3uvSN4Sz1l1zy86e9YPhE0672ZtZK9vPkNPgXs3by0cpw7G+DCvEWS+jyOXbw94P+SvIr4wLsSU1Y8oHe+vTVrhbw8nG69pqkkPuyQOj6oEyS9jI1VPaFvXj02lwk8HWOnOh7QGry6fIm8ZHDUujimHDypdxm9eY5IPvnabj2Nlwk9DognPR3PkbztFqS8Yti7u9NscbxlEZ+8+YrrPCQfwTzy2YU9vZ6LvAC1Lryvcze852MxPXsstTsN7AK8fKSgudMaIDx0U0e8p6NHPTiLm7xtLyA8NvkEvRSBTLrGuZs8EfGUvLP6YDv1u3O6htMcPBgJXbsex1g6zNSGvKKvcjypoE+996TXvHlU9zs14gw9EmILO5haVjwqB7q8dNJYO9rWMDw5x2c7sVK6u1KDiLtbO4i4RPriO/AZqzpFWh6+hDWFPQGuh7xuMpG8",
                "8rdXvdn9j72/FCU9dtlMvaPc8T0pg5C8Hi2/vZb1O73Yacg8r8jTvFLeqLwMP4I8ZX8CvYeyZDxbkXI9BE2Dvi6LkDzGAn88MlhSvVF01z0spbm8teI0PVhD4ToBygC9/GwtOxbAJb31lt88TLgrvfhTo73jmZ654gYuvRLGZ7soCuE7UdqWOnZTRL3/wJY8WkX2vHOJ87wbqa08GdARPe5d7r0JFSQ8ODPvvKjj57sbra487r+VvJwsuLu5/tW7Z2UIveIbir0vjuQ79/TLPHsNjD32x6o8EqxkPE1QzjxtvUK84aC3u/8in7zav5Q7NmiKvHXwDj3e5oI7E6uEvP7MhDwhe9Q7psSAvQvB67qs6v08Z29zu2BNZzwXC+y8bkJfvNkpqDwnq+I83SS/O3vW0Ly9ros+GAKnvR/MeD62/4u8Ik8pPauarL34ue+8syLIvP5nHLo0dM67HMJsPH0MRzpPmNI8Qpu5OseMGj3WwUU+1HNluyIBs7vLLsO8ng8dPgI8Cb3BhKg7NKWsvZO9/zvHakA8sb74vBMdyzvAkSQ9VpshPMB/uLzI8Qu7PNYgvJl34bz2gx+9RtXEuwyk3TyYDZY8dl4/OjtOFz0yb+Q8ZfBNusr6DT1GwZs8WBjFPFtnRT23nP889n1YvAr1dLzA8dS7nleSPKdl/TvLo1C95xbUvLfTprwlmpy89eS2PDI6NbyqVzq8Vwx7uuIYkTzxgik8si6EvOapAz2iwWI7D6kcPOsysr1qW448iCX4O46vN72eijS9qfKpPIO0Zbz0NzI8nQgZvOLh3ru1s6q8X8wkO+ZC67xNbgs8XTL4OEl3eDsZnyi8WsIVvc5Z+7ywnIu+lXjDPTIEsrzupoU+CWefPKTaOz7KBuU9rCwXvjn/Gj3X5/W7DGTgPazvQDwNXUq9IHa0PZSOabrHHMi9Hy1kPQMEZ72jZcI7amctu+b71L2U6To8sA8fPZA9H71N76W6vXg5PCRbQbwuMWI7MCwNPVv3Ob2m3A48",
                "ntcTvPiteDyaflW8M8l1vDMBmz21Mis8/SUcPXwfFD3MgZk9QQ9DO2rd/7hRwHm80EVvO7xVdDsp18q6UAhYvAsvpDvR4Ru81Ja4OxkkN7vjcKg88iCIPOViuDuElzY7Iu+LvI6FljtODh47smciOoqskDykn486fb4tvKeidzlm7ac7fjDfO+HZZTxMkOM6DX8/PAkC4Tu8/kM73SUevLLDEDy567M8IvJVupPfmDx2wVY6Aa61O9+pG7w5KRS+VzkbPWDcgLzvOca9JALLuo1Ghr7Y+/s9SBcMvMVeMD1bKwI8JRlNPWI4IL1f5L68Zgrsuvlh1bxV2L+9QV1YPS7EA72uQ/27MlQru9SW2Tsxl009zztLvbkHLDz+SDE7LgSfvWxDzjw/sPy8wA+Yu7CFnT3nFYs7K0f1uxmAUb38ZpY9zexLvd+2kTxq46S7cLx4PBIhD7xCkqa8129lPUijT73/oZo8qQC5O38QqT31E7Q8er3eu2wbILzksYW8JbdOvORkLbtMely8UziWOlHaiDxRSxs9K0o2PeFaMD0JOBc9egXWPBrc0LtPwIq83ej9O9Pks73JVBk88h0jvIo8kjygrLo7fdwSuxtaFjxMSCa7w6XCO/YBsbzGsns8CWaYu6Ze2Tuqcpu7fmSmumCDlb3k+Ae94f7xOz2T/zx6Tyu+dOoevj9PAb5rSqU8mpAFPnXvND5ku5q8d2WTO1jpPT0DqGa87XhoutZKCL3I0m29MyYIPeB6k73tZZW8Zn0cPaIRkj3uul49FGlDPYu8dj0UhKC9PqBZvAziuzzdXIK9masLPGF7GT3pjCW940ZRO6tml7uzTmM9TUowPMHaIT1XPwM9GA5rumFQfDx3GQO9+wgDPWJrhT05isC7RWu3PH4pDj0VOo69TmOjvTfTzzxzjtQ808qWvJlixjyRYho8438SvZ1HGDx/gQU9zEpAvBd0M7rx0U48aZs8PHlkUDzP4gY9JcPLPHeaN7vZKTC9tHmPPBV+FTw5hh66",
                "jYtfuwWo1jxYjSw7DE7CvERwMTwrmKI8f3BgPIAL7jyCXPQ7cruXvMQfWLxNRLi7IHImvLKiHrx5j006JzKhPMnPd7zJmhO+Qzg8PiOWBjuxLA09BBnFOiLGKL3DBk+93WdRvU6h5ryDp2G9kwkzPO4HQL06i4U7MYyBvJ351D0bXrG9d/HbPLkD4btqTJK7IOTCva7Ve76xcJk9ytnMvGe6Mz1CYge9GqQUugdRlLy0tD88XZ5GPJ+3vzv6Vjo8EFMFPZ3dkLvvUwy96sr0vMYwBTvVKBK8lhYBvCl+mz03/149ZEfaPFkL/zwZTUo8drggvNVu+zuHTXg8gaWoPYXTVrw90xE7JktOvVb8ubsAzvq75ylsPS2g+buJEZi8K3U1u3VorLupwf+7yDKbPBtwkrzkH/m6ChwiPbMYObmhu5u8JB5+vDJJ4Ls0Rde9cIzZvG/uRr2ePXg9Ue8RvOaiOz1C85+8P2+Su3hpajwqDrg670Q/vLuJW7wyPX881UE+vMvrQjrNsHy9mIduvI5NfTxab+U+/HlJO++WuTu72aU9jY1rPKWgPbzssgy+a2djvT55aL0FVDI76mmRuz3quDscPsa6eWBYPeNaIrvY4j87AH85PKzArzuocoO7ue6BujSY4zx8zPs5VAddPpdcBzw/dwe7D3y3u3KypDvIzDo96kHqu+y6brvmIDC77CuPO04SgTv1lvK4EQkJO9ACSz3OP6Q8hiaBPSUzbT0qoDO9VTGDu1O1UTygzlM6QVhZu0Fv7zpE23o+PX+CvFbJ5TsBo3i7m87NuGe4Ij1ZjCU76MKJu3i2DT5VgGS7/R2QO/oWt7gRtCo6ElSpud0UZLn1BMo6x8ONO5KBKrsSGoI7XMiuutPlr7iLJSi7Ju2ovMHw57ty9ai7Zdg8u8rEZLvtd7S8+fqMOt4x57nleaS7LhzNutlSlTvf62w/zuIpvbT1yTy7S2o958nUPTX+w72fMTy8TD8BPmR2zbyH7Cy9Z0u+u0nEDb18NB2+",
                "eZV0vCne+rt8fgm9HrFZvCxI4TxGyaC9u2oUPaPRjjsPPoq9zjdsPfQcHzskz2w7v+uEPCz5yD0gwho8jz6UvL4J7jyj0wM9gTriPdei6DwNtXc9Yo0hPe6xRD0r6/Q6AwqPvJY/Rb1FFh69wbFpPUSMp7tJiSC9J7ncPZwArT1ELfY6pkQAvdu8EbzthUW83rssPZ6CArzM6D887sIYPXY4lrz2Hsw7BtgxvWP9FDwnQMU8Pwq8vHvQpjsNoKS8gUOEPZHp5ryYtiY9Ik65PDR+kruIZF68T7oJuqFn9LtwVJm8ev0MPQZBpL3qIx49FZYIvNoI5LsVGBC9XPmOPPhNgztmAYK7lZUJvcCSHLyJFqa9ZBqpvhbVMD4z+NK7a49PPC1xgbyvpv096SImPTmD5zunnFO96n4EvNR677lgSRM73QTROxbEWLuR9ys8udQAvfoyrDzdX207ryptvmlT/72oWlG9Gd/1PD1KZDy4ky47Z8nqvERARzzo9Dg8dNcUPFipMbz34fK89G/vPYH2bD2pL8m82NrQu/OXyrzPQqW83wqOuxx3Qjz68WI7frNsPJRgEz34Sy48haZRvXSdyrwrlnA8tiY5venwkTwqy7k8i/CKO99OHDxSajo8C6hLPHVQiDwkc1k8jXMcuhFEr7yG7+g8D7nxvN3PyLtw5Z27HmI4vF+cyDzweWE8qUTvuyAVv7s0V2y8NgsPu8fFY7vbjaI8ChF4O3y4s7yKnCg8bG56vLgBKbsMdMg83fWWOwIbSbxwPYq73uyrvLYibTsnz5S8xHa9PKPXfb1sR+e9xXp4vbODsT3d8ke91Et/PExM+TzW+nk92+Rhu516Fj10Oqo8uOaOO+vuEr75aRI+XxoKvFOsw7sTGVC9hV2AvmP7Q74ATjk8vC4wvF1vcbwx6SA8s+uCPRjqFD16mn88mu8ePYDnobzKPtU8UxNfvaiNl73gMYO9JRphvQvucrzcRyC7L36gvDvGtryCwoM8xjlxvIRLqLzf5yg7",
                "OFkWPA+H+Dv9CB89IsaNvXwejbwwgWE8bx6WPOzTVrwusge8UqEHuqZKVL3MjY47VP0SPQAALj11DgC9BjYMPYeb7jw07VC5zsTwvDTIjDsX5887o1O6vEPqeby9mAc7sqgKPRkoZ7siiPA8zyjoPHK0qbt49lk8tkXfPIyC2jxVyz29Ts44vFyrGb0BDPE6NPq6vB4wjLzhiWm+vsMTPtV/F71xTxq9025RPivQGT44oR8812WOPN3Bpjyc3SW7KnW1PHUSNzqDFUC9Ca16vGaI4zvIPYK9zu/BO/HvHT5XY6y8b4l5vT8RLz1E3QA9cG4PvRwdPD3Uh808yTt3vDrCKz3+lAK7RvjfuthcNLvrcEe85zE2PMcIVL3rguy72AusPFyg3LxU+lG8v3/yPAx/qrpBNNy7bHHlu30kQDz/fCw94dDevcGm/zr79ka8HxuZvA13nTwgMBm9Fl39u07I9zwWaVI7VgblPN1B4bvKsGw8eCptPBtXmztX30a85V0AO3FGF72zgqC9cKNXOxXKgrw3NKO8uE+cvI4dzrzIP2M8PQ2LvAyk97v9fja8Ls+zPAKWibwGp388mUUYPFtCh7zHj8g5EeonvZrAV7zmEWm8VF6/vEIT4LxrZuq9MOtfPbZZVT2iUBu88dkuvcZlODw6F5+9qP6BvaFvLL1d8MC97bbDvYdS/LwEnSG9/qHJPZ7rAL0fnSw7UAP9Oy5ZBD2W6ws9CAZJPccVYb7XQiQ9InQ3vLxunT25eZC8lN2GPYkfGj3y25i8C+kOPRPwwDxCqYq8Zn4uvgngAD74RLM6f6MqPbWsrDy4uB28+vwLvPf7zrx4s928WNuIvMdQ5zxL/809JLXvvCxbcD0lpmC9zl/UvLffljoKlt07S9u4vCs3j7m/0iO8/SKRu7BCVL0v6Go58cfYPAPHMjv/hpM7BxozPTU8prwbTCi7Lo2wPMR3nDwMxP07fDvsua+SQjwbHcI8UhmqO/mDhzwvYxu8vuCHvPfpEbwal5G9",
                "MUjGu9IljzxuPWA701U/vCv7DrtZ5wa8dMdrO1Z1CT0gxqM91WnzvBFPjTteRYa+3e0cu66Sj7ycKwg+UXYQvDj6KjzvftK9ueOou3zjNj56ojW8M17bvH388jkscms8yceNvVehCLxegqM9VmKHPElLtrt6hQE7UuSFvPRbxrz6oN87wO+4PUsGBru6sSU8eBB+u3j5oTyyCew9ZLtkPM1wprxxObi6qUqHO6M2jjyM3gq8zdu4u9VAyby7Dgc890I5u7kd9jmBqw69Je8OvKXL2LtJImy74FonvHLKZDveQAC9xUFFvXVI+7q+tYU7plDfujaT1718GCi8hFKYOxv9qT12jRY8HDEYvFEhKzv61gs8zEEcPGgSsbtHMuI6deVCO8nCO7x6cQs8vwY4vWCvzTsSkxu8XAXnOxNwtrv5yky8RRPEO2oAGDrkzr69evjJu5pBQbtF+x08idKGO4d7zjxAr8c9SqAhPNeGJz5ViDU+9Y2aPAJJYz6LvlW9pGSpvPzmjz1sUw494+NYvZ2WO7zTMXq9O0svvWl9ib1lcuO91buBvCm/LLs32Ak9wUmEPqn9Nb7aM8I8knvdvFikxTwWW5A8sG6jvBPh7bv5bxO97z3Zutnh67pW3w29i2IIvSTWZTyA8ms9lT9FvG3uWzxChe68H2isOEaYCL1Uwxm9OF9ovKprp70mdQA9goHIvGBWej3jUpG9/L+3OxA6lzyhxhY9R+rNO9diTDyrc9G7dyCPOzi6WDyfeo87+9CSPGhvDj2jBA69vtHbu3KgGDsoN6C8i6GNO3f1BL0W2Cq8h83OOhQtwrwxfpe8yxXxu5BHm7yeTa28vgjavAZ76bzU3My8dJA2vPLYMDwp4aY7+qnNu/ZbHryAE/a865/3u6OYrjx9BSW+hoQTPSyJIL4RyKM9vHOhPN+iYL7SALG96VcmPLe8rr2J0au8XSxrPMhaHLo5qcQ8HPhoPWLllrrAVrq81w+8PGjkzLxNfrA8xYG8vWMxujw0dYg8",
                "ypMKPuI+1jzWyxE81N62veU4ibxUoh69pq2GvGSwtD3YHs670hwcPPb75byt0jS9cUALPBlEzTtuKrm8Aow/vGRuKz0DER+8RwRMu6GZKj15ChE9HCMdvCLuUT0NH4A8lx2ovP6ErDvmoNG8BvbJPCQjWDrd6xA9icDGPCPdxby9drG8k68fu/DAsTxxtIc8fqWMORzfBDpnfpC7XFGqu9ItNT3sk6O8An3sPLzAsDyoxBm8WY7yur3kVj0BK3E9gQWxPFO4IjzvFP68gBKZvE+Mdrt03NS8glfCu/IbjzyPaX88KxEoPHE1TjyQWOS9yLGrPSf2qz2MPQg+SLGoPfVNEr3yX/G9JrQSvJdfIT07EQY9uRhCPcD+M70qYnG8aEqPPahsQz1vz5E7EiVuvWnqEb1Qimg80V78PQneB74+jUO9aL7qvOeJtT2XEhG95v4RPatOZ711/506Mp2ZvNhbWzz4MUU9BNChPX9MNb5LaQG9CHmGuxC32bu8YDW77ZGQvNfLbr0O6Bg9uSopvWofg7z/iUm9OsqlPBZXazx/6P+8mw1mvFoghDuTA4S86EqvvNQ2kDwVnh49xsJVvE1SpLuvq8U7pCIMPDa0Eb18UPq8Zfmpu5BWD7vKWdW7K4sTPH6gRD03xiQ6ZWUwPVZLxjypSvS6JdZ4PIyWlTuM6H28s6UsvGOmgLy3YVy8YIaPOwIzBLtpuPy8TNRiuzOJ2jshkgM8RerKuppZzLw4qIm7vhUkPpqlEr62X4o8YtIFPu6OEL71uhU9ygntOzpYoDygzsu8wT1LvSWPR73mAk48mhUbN8rJGT1C/dG8aKiTPR58Yb2Sv/E7ozQbPsvqzzz/tV08nTOwOxeinz09/E07ddBxPEsMQD0YcmE8oG3PPGHcLjyzYTe99aOmushaxDz3jPA8Ek/QuzmkWrxge+W7XXLgvIl8z7oeFBG7rXKUvJ1+KTtpZL09sXOcvVPXdb0AsxK7+pG4Ot0MirvMm6c88QS9vJIqHbzP89o8",
                "7kUBPXnSlbs87QG9RlsnvRmOFT3gc7u7ROT6u4/UeTwwKq081QC8uwCfYLtj6e87V/mZO9LLDLxm+oG8UOg3PHP6I7smpN289aSmPGcNY703bQo8B8MXvEzr8Dtk9548jLDAPPn4mTymVUW8UcRMvZakCbyVJ4Y8uNEivRixEz+USwi9xT4DPLxqjrzJ1vW8JQ/Qu2quG7oeXY29IgobvLE6dL0vwTc8ZfeoPI5qM70rH3e9dUlKPfNgULs8i9K8gR1OvllFwz1RCOQ7nEu5O7FEoD2giaW75j1mO02ySjvJIf88qoUyu2fzWLxYB748Kqfgu/qLIL34jwG8cazNO5kvdLsLFzo7YHoEunTnyDxhEbw7zwv4PL6pIz3iFyq9qwoDPcWwrr0QNeU8SeiHu9xT7zrmZeK76/ChvPI+ObtyFx49emDXOv5kBLx+mvI7tjtBPJS6kzuPGdI8Xl20O6CohztJ5YY7BUDdOZq/R7wuxso6cn08Otmm9Lmp5O47N2s5u+bINTzS5EG6x8HSPPxPmTtymoA7gGBBPAqsC7xZolS8sm7WuxFCAzxmpYW7Y+mtu1jo5LwIUyQ+U1xCvWP/tL1iBru8Q51DvVAKBz41IlI9cJWWO5eHZD3UaHm6XxFTvVOn2bsE1ZE8ldQqvYcFiL3zXjU8ymk6Pdrzk72NWTe8Y19BvZV7oT1rj909we2jven4XbyXM525pEi4PGoPoD3ysA690xpJPW7mI72aUxW9EE1YPc1wijz/M0C9pWQevDndrzw47qS8z+61Pc77AbqajcI7HguPuLwqObs+v+e8JhUaPdjIJb3AuBy9TFkIvD5KdzwYH/M8M/Gxu868NjnFa0M99QgSvZTg67x7LK+7vZm7u3b8iLxXz++83MmavHSuKzzzlqO812odvFF0BzteAQs9tyjgO0uPUD0pG008T/WuvMqNAz3Ez668/GANPENqD7xxKlK8bhv4O28rNjuYSdG8msQdvO2B2btE8668xWY/u0zcPrym4Ia9",
                "QoWVPDfRKb25w5C9rRqpvVcxzj0t5cc8GzzaPUfIvryzyL08HvETuyobcjzJ2c49vLNWPb9ugDyV9GM9ZceqO1TJVL2rE0S7mxhHPYcHnTv5FcE8sZJNvIY72jz340w8RPAFPpxxeL3u9hy9GFpAPeCptbzstic9yeLdO/e8TjxA2aK8Aaq+PGn5DDyFX5k7TWoxPd+2DzyeNbC8lXUtvXHzwzuzAWu97XeEOgfWhTvSFx88oyS9PT9mCjxw+wc9OaI4vVIo1DtDyZa6sdOEPIx6QT38m4E7/PdNvRlGE72tmM29xeyZPbo4G7zQTiW8ytoevFJbMTy5NPO7FtZ2O0oNHbyROmw8wgVYu6vfXzy6y2O79a31PG+VfTwWr7K8SReKPFbatTu95Ic80zWMOqSq8DxL2wK9GjkrO4ztjDwMCCO+/3E2vO672ToXtnI96tSou53IuztBhvO9inSuusOuhbw0FWI9KCn2PXzm2jyTPAK8zSRpvHUTvzySGg49r1Zju0Mg0LkGdkG9BV5JvG7/4LumTCE80j+hu/GBfruwT5K7dzV0vhEzP7w72tO7b8wpPHGBsbtcUEu9ZSJ0PJtTAzqb0pq8H3ITPFFWFjs/mc85VIM3vBvT/jy59ye8QyDTvSmBt709hzc9PNuVPL/jKTz6DfC7Dsr+vCbGnzv+bTy9BoenvT6ogDtQW808+ZlhvK8Uk70+zs88RICMu+akVD0K7yW88AzJPOSezDqWD8u5r/r0u5YDETwHRcC7qhhqvIVybLp5OFw7O5DFvA1YNTxMjKa6zmR9vE7iIbuKsem78amhO+aKJTw+FYC9WOE2uwgcaTwoFNU6kZphPL3Jp7tb2A0+e1SavHCsQT2vmtA8gQadu96ZVzs46rE+v1IdPOmLuDwvdAS+mTlovPypLj3rm7y8zxkHPRALubwCMAi9PgOPPfuLdzyhkGm982Q6vLgubr0lCbm8xdPivK9Rfz3nbpm7wKbuvFoBnrtTh528UHcuvPy7VrwkAlg8",
                "WafruwIhn7zUwCU8UH77PFUBSbx68HO7XKcBvP+iq7nRCKu8t1STvA9GTDvJUdK8kfmyvJbwG7wf1bY7kpn/uaITVTp8t1y9XcEVPdeEy7ubZSA8dp8COzp/Ob1Ri0q8sZyfOwHs2jwPaL66MRWuvK461TpPPYC7RRtYPD4VxDwB7yq6iWiSO8qohDxFvhc9EekePYD/CD3fcoe7BtbZvJFOjbxrcRm9oj2hu/0BfrzYAh67pj9kO3SQ5DpmEOI72Eg6vO9gMj3xh2Q+zpWvvpiBcz1hrAm9hR70O4QPUD1YFSY9uvyVvLsG4LwOICE99K0ovObzbbweJdI8rZjIOx2QVTyot4a910SRvAFGUb0+9WS85WFzvWW5tr3K3TY9usSpvKiMFj27OKm8zjADvU5YT7z6AUM87xmVO8XVsjprUYu8H9POvFazPrzi/+y7XsiivBfQybzyAEo8z6X0ul3jGD2k6UE98uNLPTK+Ej3fsQQ9UQWfPURHjzwl3Dm7wMTUvOOojrxQKrk5bjfTvHiGsbxdzYm8Z1c/PDpSpDurOZS7JDiYvC51D7zwbz68TfFBPbrwsTxYPt08nPqjPBr9kLsKY9u7rPdXvPXdEjwmCUi8rRAHvf1Wlbwir+27tiAmPYhHWr35HAM7wkedOxv4WzrPGWs8UDdjPKNcuTsbVSa8oIsjve659DvYFja+bHlju//o7D1emy+8Wgsjvsgg5zzZOpS96q7DPFvPzLqGPwg9XqKbvY4lkrwWlQc9nFmSvBybbj2CeVY8x42FPM9xbD3PrA69zxflPFOfar1Ar6C8ZyLxPPTQOT2vVEQ7CH4HPX/ZZjwUR4w76ywjvYaCKD2xwQK80TLLvBowDL3dcGU8gTWkvADXvjuuz/y8+JWFPS2KrTw5b2W8uEu2PYR9EryHmRw9Sl6NPSmKpT1gh8y8h5doPPX+4jumGqo8sC38vGWc3zy/Bxe8GgVGvDbsUD0h93a8E/MBPbUgE7tlc+28OoQbvP1Ypzxv5Ma9",
                "26QmPLi0prxW0mK8/cuMO5Yr0zyMJ1s733f3u0+/iLvv4NG7XQzLOyym2Ly293I9r99WO7j/jjtnQwo9Kyw8vfSOBLtuLKI8KWJAPAfoXr0kSgO+bU5vvCT1vzyWvyq+4OGpPSeFJ75VgxY+jfNAPGfAhL6VI2898IdlvQAgCT0v4cO95FXzvQQSNj2K2Ky8cTTsPONC2LyzcL+8o+n2vUNOAj4fkjE9a1Y0PWwbjL3Xdxa8mzYvPIGRPbwgzgw7aXkTPMG1NDyijum8WAaMvF/5az3KjOY73gyTvHtXN7wRtwM8ZvNsu6bjmj1iOQM9dJVuPV8FJj0Ci5k9jXo6ve0OirwyzIg9OzjuvNKqdrzMEWY8/t17vEFJjjuYtQw85lJ9OBwujrzVXZ66165Uu08YZ7wDtuA8hoOROSs/D7uvFwE8lzc1u1YZWDsQkXO75AV8vCXZaLzapdo7TPUNvDMTVrzKsMC7/b8PPWpLdrri7xI9shHFuuYljzxr1LU7uA/gO3pMXjyf1Wq88MREPGgC3rzZTwu9Yr//PRpWOr17mTS+Ujgbvq193DwTbP49oiSvvVbLkzy0OTq8i7R0PatXSDwP7gU863cdvf66gr310+Y9ZLylPBiwazwsRcA99TOFvlpBMr6b1vq8KKTYPCPkirsB3ZO7IICwvInIqb2Pt8a89ocZvTDXzDys+CM8SBUFPYpQlzuFHFi9NR9lvI5AeDv9mFM7bTLWu7dLLjz6a8A8sQSJu5wdtjzJlAa9oYCfPZLmcD1wQ5Y809u7va7pXDsJomG9QK6zOxAy4LuwvB07TumtPHG6Zb2xjye8/q6TPAGoN7wT7pe8bHXePG3hK7trP9q6RnuovFfgFTsGrKO8RLiYPIFshTpwu6k8Rkjju+RB6btJ1BM80i2mPGIrvLxhqNk7SgIHvJFAhbxglGW8+KMRvJYWCb0xI9s71Q+jvJgpCjs5Pr69MhcMPrAllD3RwbO8c7epvc4qOj2XN7g9x8zdvQJs5L0XVvU8",
                "OxYHulVqAr0WOya9NYjFPOP0nz0ylB882VYHu6iwAL32CtI8tQC6PIbDX745/co9hnZ0PS3Fpj36veo8brKEPd7i+TxABHG8NvIdPZKbWz2DxBy8WNjnvclkkD0kS+G82EmkPPvvSLsbicu8wdjMvAfAz7snPDm7Z+v+vLKmqrxed/G7yxK4vWpmWz3zeRS9JOrvvLs+uDvXiQo9I20/vfgtnbpsgns9BBv/vMaMGbxH3wS9MxEMPH2IobwEORA8K5OXvEwvGTvaxOw8nTV4u58H0TxtQza8ZZmnvDTj1btEdp08n7oIvIioADzpPxM7bDaxvCuMUbxUXZu8+y+wOySwAjxujRo8Hc1mPGnmWjqPKaC8+Zv/uzgdoDsonq89UnuZPRztq71vny+9Qk6dvfBAjTyIgXW8KOCNvGBQSjp4bz08NNaNurwNFL2U5bo84B3CvGAA/LytshA7g/czvHahD72C5sK9tv2TvXQ4tbwk/wE9MAc0vm+/jz12VMy8VGvuPT0ZBz1OGTI91TfnPL8QB70cNVQ9c4r1Oo9uQT229TI8KJpdPNWEPL3wfXe9nbtcOsWSrjzpyIw8e/CDvSXsvrz+dLS8u1THvDOkC7zYLTY9tz1AveCRljt6jla8ch7EvCS92Ty29bc8JN0FPW+CxzzVV2I7vYq3PNJUwbz9xri8s4DdvF9Rg7y6HIM8RqLvvMxNxbtf81A8vq0ePSzm6zzUiZQ60pSZvHDlATzUbgM9tzHHuylLwjwUFKo791hUvJQDKbzA1Gs9+uJXvMPSe73ZoJI8MrkRPCU5lLx526m9X2aLPRntsjypbZg3oV6aPeXmKj57PaI747sePbyZw7uuiQe9NE04PeqBMb0rggE7EhwXvYvlzLu8enu9nNqXPKNj0r1jFY+9nh5dvMguqDwcGL69EziNvNcHWj0VTaM9koTGvYTCjLphXOO8zZM8vZMmbL30uce8NwT8vMt+77mXDvU7TNjKvXGCwrkzgQu9VAcYPW3FOzzJpws9",
                "nk+oPGTRpLxVr149nfg1PS1roL3USsg87+l4O561fLvc56O8vApJvKEvfTsyK1w8yy1ZPGmxi7vPAcq8Cq4WvUntvzx45vi8DTr2vLEUuDwGk169Yy5rPF3EJr1GYCm8htwHugOvszqfheC8CLKovCvEi7wa2To9TPHAPEj2jDxCzW09UYa5O2kvJrs9dxA5ZgEjvcIB4zzeI+e6udyYO9h+Przywwa+Oxa2vfxHpb0Xd3Y99ISVO29URL495I48KuvTPaTl5b1P1ye9oFnbPCLGFL3Zyj49KoGUPYARorzdr1Y9Y0RCve5ie7s82PS8/YTHPdY3Fj2CoHY9vfiOPXateT0a4DM95OY9PULZVz1ui9y7Mu+HO97nNz2tu6O7qeZgvb0mS73A6zC9kSOFPU7aGD2iZDW94/itPAGiFL1oMKg87hOAvZ1oPD2tQ7g8lgwfO/iheD2nlNc86mV+vA0fXbzveIY8tpcivGFo2ryOO6e8Ln5UvQPSZTy3FBY9+2VcPKy5ETz/juA8W2yJPG5Tyjusj5i8M6rnvMEbMD1e/GY7XB15vHRY/juNzQY8U4aMvMhaQzzL5x+9u8+ivEbh/TwuQn28PQ/7u7UZ2zxfbB09lDkVvJb/aDzsZIg889ORvLSDzjyQj4S+CEjqPd4MFT5axYk8lYSnPl7jkT0FimQ7NE8cPaKPmTwPdOo8dRwsPCjdlzxvQxe8yhYuvCw6Db2hCVS8RF/CvRNY9j23HXu9eieBvB5Djr2XfS29RdaCvHY6VD1EstA88vA5vdX6Fj1drgc9BotyPN9aTzrWLwy6VcEWPnT2JL2vLJe8pFlvvc+GSLvJn6S8aYJyPNfIOL00ppk8Y4S/PGe6TrwuOli9E+wyvUCJXTtzl4W8Rg6XuxSU2TypHmK8mmq2PNAwTLp+q+I7SPzxvGOmsDxiCt48cVqdvDc0YrzKREs8ELnjO8+Qnbr5VSO9YVHuu9Y9VbyPysy6SkURvKQ1lzs4gKk8rPnBvAZ4KzyeNyq7",
                "VZ/XO5UdVTxtwLi6pvXcO45xTbtX0tm75Kc6vOTM7bv2jLU8e31hvOXTJjyIcIK+HIunPNZJ+TsVDH8+WD0jPt5Zxb2itmG+FBk0Pv4ZhL3/46M9Hdh8PUWqkT38Or092WuBOxiW2zwjiDY6634Ju+Ac+jo/0Ia9zy9xPRp9mj0sfIs6y9AIvTp0m738oje7XNhyPSTflLx/TlO8bb6uvN8JqTvBiP88QNftPEjWWDys+Zc8FUnNPCsfIz3om0E85H9uPJ95CD1xWHM8KzETPXEgJD2G58a7eisKPDLWEDzxUam686i+PJa3RDz9Gok9KnjCu4k8Jbwjq4O7sHzhvJN5OT0sQiy8QnNoPMG89Lsguqi7SXOLvNwQYDwEPJu6kUlyvLDgJTxNHZs7KMvhO59gZztE9kW8BBLAuj1+DjtFnvy5YV41PUhIqzxqdp08GJo7vMvG67zNf4A89CE5uwdQGjyNk0s8ObUAPYCYbToq1S6+PkICPtTEgjvNkfG7fdwNPZvmPj3+aN+6ovgtPHWWv7w55QG+hnjbOn7ToLzDbQI84QE9vBivPr3Uh/68Viqous2cxLsdPSy9jyzBPfkqRD11P4Q8ZZZRPP1MuT2vdts8Mpa3vBAANb1WqYK8mDfQuogjCrxasLM7Et8qPD7GVjwadPY8oxS7OpayXL0brqW7IgdBvI9LAr2eRLi7c+dYPJT/Q7wz2my97X50PTGD97uX7u+6KsUUPbMhc7xqt2C8QdYtuw0M67tqdbe8xqDhvK7ctDy0+hk90orNPN7uVTxoxig99N+HPUI457xF5TY9DuMrvS4nIbsidNm826kGvIppxDwsAQy9VFhru1+YEzxxE/m8I8UGvGD4gb30tBY9DI3GvDV+CbzZPc27iRNAPR9FwTy7A6S88jo9vdMCCb3KFfs8nnvqvGehUb4Gpm4+gZDovNe5Bj6kEOC9LlpRO63s7z1K2eC8OpWZvMhQij0KqUO9c5uBOzUJEb0nEJ29XCKJOwoZdDydwxA9",
                "HTogvkyPkz0usAU9gvkRPejysrwMW+g8qtUFvLKIhTyPUDm80aMjPPVh0rzYTMk6gRxZvJr9mD1IwRG8Yq5OPPDUA7xPLuE7nHFmvPnDZz2jkfk7TY2nPBdVQT2zED69YoeVO2yCPb10Pcg8fl/luwbYyjw3f/M7+8UJvcmxd7zWskE9BkhlPBRryLukAlA8RNUaOw+inbtC4Sc91GojPYshwrtNTsw8irc9OzhIAb1k5AU8sFUHvTuGXj1GmY87t42tvNtxFD0CZtc7H98lPVldoLywBSc9nZvzPDg6prqeBSY8jJFoOm3Eprxs4RG87S5fvKZnpDuQfra+ucyevrOJTb69nHo7bNOFu0xweDyI/KS8DaleOz3MVDyHjwC+iY0JO4UvHb2Yh9M8aD6VvWF2gj0/tyK9S00MPXVYAT3raga90tKRPA9TR71j2bA6A/SJvDFrvj1mpAG9d+MQvC/Zc7zk+Y+697ObOzJmzLvauN47206HPNqDWjv89Yq788spvfmCs7nCXyM8yx+dPA0zOzyrvLE8gGzPPP9oazz9JQI7rRyZvHTcDLwsTJg8Jm/SPJDtJzwvH6m714m2vPVeDDzQNRG97d8ZPQZ9H7oDy5C8gN5LPC9j6jrQa1E8bcGJOzdWr7u4GSW8tsvQO6eAM7wR4VE7IVsNOc6uFL0mew69dl1LPOfWSb1OKCE9Sbt3vFejGz0mMNo8xm+QudFXyLthwNS7drUkvF6SubpGCeI73FVSPCS4F7y4tA8+OADivD2H+bzLBYS90DfHvTEpwr3z1ji9JwqZvS51Yr1mZyO+D+zxvL0+Wb17SeI8Uys9vL15CLo+yRQ9hhd4vE/LfDyJIM089YdnvO+P9j365yy9MxxSPDGeST3fpZm8WxoNvZVYGL02P/468hzRvFtij7zeai69DNHTPU3TdL2MJo08JXplPRU4jzt81Ok7zvDfOwwfgj36jD26peovPVwG8Dv0gbY7X6pWvCMWTryF+Ps60KPIPO5webqr/tS8",
                "KfNzO2A8abz5VDE9+v0rvdv3gbyBwIg8gFHCvI0eQzxZ+Cm89+ERvXveczxbR2+8Wlk9vSkHwLxCgF48ob25OpxMQDxiWLk8NtCavAJxxzz1d8G8hvSJu8g8Tz1sqJQ9TkklPEOK07somrW8dUbYu2b3IrxLXBw8mU51PJjjhL0MFy09x+JKPF7CAbselZM9FvssO2BZITyIvFE+oRbOOkqxVjmTq2q++pdXu4xrQr5ukRe6hmckO4cckTwDFWS7nUOqPYUpjbvJNjg9YMiIu7jUF7xYioM8y2/pPLz77j0RJaS7Je9tPftGpLtUTVC8/4DMuwY8DLwlY/a9MaEOvKNC9Dwothu8SW/qOsz2frxNTIq725J+O0PigjujsnI8EuJ9PSzakT3/vu88aQyHu1hCPbz5fV07K9ZpOzIEkDvQBjw+g5OrvP17TDy/NK07FtGqPPaitD3nPUG7G0JDOypHBjzkcts5BS3TuiY8Q7xDxAS694gmPBGiJDxPeEm70Bm5u+znjjre1ge7Bz3avE8djzqRdzc8AyqNPC0fgDx1E4u8ZbYgvI5BKDtGmqE9unMru9KXs7t5xRI8l16kOHcjyTsz/Y8+e4qPPfvJ4j2argE+UJrQPfuDMD4cycO8R2cYvErRbL2zYqa93qGVvMGK5b3u5t47uCUtPDWHmjwuo707FxqlPf3wDL3dVq48PMHQu8obiD120pQ89B37u05c5T2zbis98FtWPMw+Pb2f0AM9xz4qvP4HAjz4FNG8xDf9vD+PKD0fL7Q7Kb5pPSbdhjwLWH+80sUEvWhy5jwyc9m89hKoPL09fT0RfMs8VcOFPTl+UL1bWxw8hP+GPDWq/zpk4AY8wVQwvfbT5Tuk39M8cL1pvHvPCbtZcA+9NFL8u2Gef7xEm408LI5WPfRoMT0d6QM8WtgMPXrgrTwtUim804KmvB2+NL2UBBa8RknQPBca0zxqFCm8wqrjPD15ZrpS8x48Uz3lO945wjyzFSU8eLCBODXsKjyE9K89",
                "JkIgvXIXW7wnRuU88W9PPaRVbry+L5e9NwS3u9ikHT2XtES+bcucPAv+gzv2rKO+Pd65OxehRL5Nx2m8C1qYO0qopbzKty891uLNPS/C47rk6Da9NNyYOwDNmbwjX7O88hxzPGWLGz5HuTu8QaLcPAwYDTwPLlK7wXFjutEuhTwobeo8CsdEPa8DqTuqBMA8Hp/DO4dEuLxQx++7jJ1xu1o7qj3ygQk7//2sPYzIdT2vONA82HPSvDXxUjxLevU7z0advEQ2ADtYZ4u9zryRvcB4kjvLyu07FhuKvG2y9bx1Vp07LySPvAD0Er1p/iU8EsMVvJ3FJbsd5Ta5rGQqu3sMzLtFAAi8aw/WOmOGfDy30lm8DA4AvCKTUzuYDUq7sMI0PO+3fLx5ejI8ONMovOJjFLujbAY5rW5wtkoUHzvu5i+8yrRsO7o+Ijuu0B8/5fOdPNwaqj1zV7k7k3QSvZsFvTwvdJW8h+LvPOleBL084Z29MgUgvWxNxDuFo1w9ZWNWvYKko72Bs2o95PTxvPHZqz0Ps3+93v4kObXSmDwIZpw9HnzxPdqHST2Z16c9qJm5PYWyY72FNoy8SIOXOuPHnTzptz+7ATuVvDAIDr3sG2S9ssK1vSkJtDxsxno9SvZ8vf8rML3i45Q9oZ0NPHCNgb2xYOq7mXvCvDBqW7weQN27BhqEvMa+tbqO2JI8GXS/vKSd/jyg+9q7EB1VvMf7zrwLOv28Ia5jvIJrT7wg+Da87uwIO5wivDygc6U8NFqcvV6bjbuBBbg6xPZoPJNf4ry3rX66ls89PDcHabzo5Ss8RczdPJ3iCj17Ye48WiSvPExPFbzBUaQ71NvsPFEspzxjdLg8qOm6PP7p47wyusi9ZkIoPeHvBT3eQne+295ZvsGAnj1kCXQ+FoEevhU3kz0IrSk96sJUvZCkiD2CuSw+q+mPu610tLzS9eI8SJFUPASV0brYhqa8mI4EPmF10z297K87xNJNOxrvf72WDM88iTtMvDzEuzx0Lw27",
                "vd48vMtxnjzYjEm85tfMvcVGTr1cb8q7L3kbPO4fvzu68BO76EEQPBcSSD24fJY8CAkjPe1NYj1d4BA9774kvNtNLDzsYq28mpoLPauZm7tHNCW956gHvcueCjwPr/i7fpX6OyA2ery/pga73FwivM77azxHh4m8332cPAf4Pbw20uO6FbZLvCYMp7hnSeK8LU+SPMzSHTwJ6Ri9RpdDvK6mYjng/5A7d6uVPDwNnTwv4eK7v8QpPBrv/zt4tkm8AMa9uztLJDzdDU283hH7O9wdHztVyyC9e4qlPFmlBbz/33677getPJirGbzz00a9odmZPI9FzjyLcwa9ufvVvS3gdryqQEs98Eadu2LHibw3Uuu9LODVPHH5CjviBnU9KdRLPl1Gzz3NAay8+Ar3PEORWz0bSmS8J2CoPavoGr25aoS8lzQDvJ5n3jw/uMA8RyQJPpMvxz3l7nI8nrkhvb83njo5tLs8pDW5Ooga/ryKiwk8FEonve4iGb1W9MY82C0pPDS2mj3sB587TX9EPWEmorwY6ni7tspSPD8g0LqeHZW77H2FPEMTSL2edvc79rrnvFefRT3pwgg93b9fvNOuKLyi/JS8qbLdvNahVzzwvUa82YOAPFG4Sz0gNzK9PmGIu3pPDLtZNJg8lCXcPMVHeT2uzIu7rzPBPFhszjs9yAG9xWWmO9kfJL2gd108Yi8QPT1uHjyGy+O6eihFPSdEBL4GkTU83HKqvXK1ID7t82G9VleXPftZHDyIbUa9bKErvX3pprzHYyM9PhCwvaj3fzvlqKi8tcgAPSga1L1EJto7sNWUPAIToT0VBsS8YEZCvIX4n7obD0g9U52pPAx+Dz3XTk+8bKUcvSohpru4tCg9VfcVPfySoL14OK26tYxDvOL6HLvKnAQ99/aBvSxTJjyYaBI8NuE/PGd9jTwpBtI8sg2+PZWSGz0cXws8XI6HPFUjED2yiR68qCGVvBAQET0eaYG7U7PZuz+bHb1FW/Y8FbYhPbF+N7yS0f07",
                "3bO1vEUoVb2qT7g9SyRBvEMgszvUXT88KMGXO6fIprwTK2489aDhOxEuV7sgXIU8MKIEvaXnbjweOge9nqDNPC1qrrwMeiY8SFcKPdkt4DooGtI6fxkVPDTP0jx6z+I8/Co4PJSpg73PoKm9o0ybO9oz9Tpn4Zk9XRBGPW7A2r3sS6C937bOPcMGyb00IiQ9sOENvLJN+TsayfC78SLIPK+hAb2F7PO7qb0BvktdAD6MloY91CdOPRXpNT1qOoe7EUS4vXuGYjxt65E7RbznOuf4fD10X3u9WngAvd02sz3gd+g8YgAkvc+GnTzeaH+79FWEPJN3NjzXpk48jimEPPfZyrx9EyO8UqJ7vaNAbD1YlJw8EGlSPHf0fryxwV29A6eSvQDDiLzma/m86wQWO45kcjxKuMi8pHI8vKIjjb1QkJE8y1ABvOBrG7xaHr+805IFu0TFLjoVIAi7DWpSvOUMmDvfFGo8P58QPD8olzszhqc8ZvulvYfRMbsR3cE7X32KvGKvFzve4x49fF++O0y7vbwBcc68f6YaPAS90zzoad49aUI9vNdP1jxg3wc9UawLPqtiIb5Gmtm9DGoZvkqtST310Wu9QkM3vONekTwlhsW9DWktPKe2yby8dJo9aAb5u85wB7yPzEQ9USZVvsrwGb4R5789NnmFvdyAzLxTAME8ux5VPV9DULrSQAi41eNePZZ/p7xUwLg8FjQ2vgeLqr17nfc8AJu6PBv7sbxentO7M02eO2ddJ7yVw2a9v5CMPH/yJL0CBDu7xGZ8vZxMSL0MiqI71NyHvW3+fryWbw29Jhk/PLuw6buvc9s6iFYQvSR8Gb0sVgu8IH4IPXJcC7wpYQy9rSdoPGxWJ7rU5po8ToMHPeGAtrxDn8y6/B34ua+jLDybAJq8WrZgO6x3BzyaWMS8zso6PVKIkr1QRJo8xkz4PDiFnTwT5OU6t+8dPNVOk7tkJRO5L5K+vHVMDLy6yam8avDTPKxcEL0OKio8/zNyu6e/Pj1Tl2A+",
                "ZChruxbojT3IlJy8DIJcvV8Jyb3qn5O8+dX2vAvz6buinjM80/mOvKMbpTooDg03QkXEvfA+dj3W+eO8DbIdvW+x/zwGYIs7s56EvSqODjzXvbK8XqSBPNDoeLw8mYu9bPeePOpbIL4y38W7R4WgPHyH7rwSFiY8q9idPId9kbzs3NU7nwzWuh2O1jt2KrY8rHGBu82YE72mY8E8qdNCvJuM87tl60g9cc0ku5TjW7y7vW29aryHu076hj0oHGc8uiEOPMgLzztuYcK8fpFNvIoCNDzbKZk7eL5pu8QulrwMT4m8Fh0JPYSoS7xhLBe8jSzEPAsQBzz41Eg8da4BvXQDM7zs9h08mOaiPFhPK7wuhwA8Fc5FPMuGzTuspVs7rWQKu0lQXbt6OiM+S5+/Owm+obxiVYE9/MQhPKRnZryrLru94gbbvInFxjxglUY+vMaAPtSU9bws3I88815zPEdfazsaT5q8iDzrPcKkBrsSHh6+hcwwvHLWg7wqNwa8lGIXPHinEb5aJbQ7R0rovXeGe7vKjSW7H96kvNJPVTsJAJG9DCSpPPnB4TuBvRk8sz0YO5mGp7suuFu7r1bwuxPQBTtEjBU8AE+AuwTBLLzQ6gG+yk9bPHHwxzyjhQY8n62TvLq0orsHXFW94N7CvVW12zsbMnK8yapSvJDrR7zzIyO7cqKNO2KKz7ubJI+7IqXCu4Rlj7pq/PG7t1jlu0UkxbtKGBE8YjjQulDQxTomH7w71m1tPPjgBzvwSH67EzhWvYg14rt8fSK7BAv+O91MLTyLqH29PkOQu7XTVLxaGQw8SVW5vCdh67kRPYc+rkGSPu8BRD7sIaQ7rOPfvVKdfL0qTsc94OtUvaAZtLy5lsa8IZqyvIp+sDw3Azw8RkYuO8rjZLwzG/+8wQhwvS07vLx7S7y9/673O/FxDj63rK49WvJxu8MmEzxRehm8larBvMWIQjsYjjO6ZmCzO5vVlrwhLjG9gC/WvemKXz0KZPQ7vUm5uzs/b7unQxE7",
                "ZZi9O47NFjzlxf88z+7+PHVtwzz8/3E9ljkaPVYO/7zUgQM9SnebO6om6Ds9RTQ9dTirO7AapjxpxsY86oaGum1p4jzlDbO8Ha5bPEIyTbvq7rs6qpvPPNO7aLpbxSG85OybvNQq2DywkY28vHJpvJXXJTzvBwK84amxvAHzujxt+jM8id/rO+264Tz7e1I7G3IAvKdURjvFlA89xO1Tu/fyRDz9vIe8qOz/POafHTxilhG+7fTJu2X9GDxi9jK/Wql4O4BCOLqNSwe/Z70uuwlkqjvsM988XCVDPV8Z2TyqZyI7SqfVO6DSUjslEps681tBvIRjDbkFDck8BklLOy/+L7sq55G7LEDWO4VT3Ly93QY7/MZIPIn9cjocrGw68KupOv+xMjplsaO8pep8u+bOHjm4Frq7YkOqunCKszqbFO05VnOJu4VH3rwUoAq86vrtvD0H6ryWjAG7fjUBO1kWPTtrwPO68t/Gufq0T7odpBA+jWhRPEQuTTtxEH+6SXP5OztRPz1k7VS7WzhUu8eVvj2+4Ci7lQDLO2UqgboiN2M6oT6euhWWCLpajoo4pqwpO5hzkDqPqTc7LF4UPKuy9bp4gvs6xjv8u68Mxzo+d5y6cwupus0ZgruLnqm8nhOUupeh1zoI5Aw7BbeHupsGujl4J3E+ifsVPmU26ru4Dro9c3OVPLXfjT35jgi9PV3SPKFj7TzNvhu9leYBPpf2aDxwPl69j/2ZvCHGgz3AmDC9MgPzPKJu0Tyrrjy983mWvVZUir04NCS+n+4HPrcvnTzUlX28vLxtPBSiDL1Bv9A741swvdtm9Lyee7k847QVvdUdiTtIqAg8Xc0CPa1PE721IwW9W9lDPObzWTseaIG7HzJAPAwDdzsGLiY95JOaPMCK0zt5FrW7HUKYPEaiWTx09Y88Tg+pPO4IADz3ank8uLmZPZGjCD09Sks7BW8ouwiFXTugt6g8w8LevKx/sLwSiQo9Zny2O0QjR7wh4K084MP8vHQKiTzSBFq9",
                "LfQGvFV2lrxHdZM8sHywPFt5GTz2rAA8etTPO35jt7l4EOY8bhuYPDrdqjxGMpK8rNHTOqUSsTtn8zm+d8wBPoR+mj3SuIE+hMnFvQp1/ryHRrq90ilUvYLJnr1hAhS9OAEivkpdwj1V6sU78oOUPA/Pgz0YKII7ie0LvbUCLzxq5Wo9CIK4PC4PMbuuGFc8MT8+O5QPj7sYOTM8QjVNPXLNDj08V8S8hqMCuxsp67zbGgC9O8+SPbtNAL19fJK8cvTdPBSf77ut6Ui8oPPYu8M2szws0Eu9XE4RvMnZyzyMWE29fAvbvLlCmLwlpLk7YxP6PNRjebtpeF484rtYvTJ8wromkY66rV5avPs7kryy9h+8XoEju+UnjbxtrPG7wKgZvcuBmTwUlfO7BB0zPWQQ4zzBbqy7EbQoOiMBoLsycuK8ZpcyPXFC/rwsp888wRfGPIjnXzq8Ofy7cotzO0KiNzuufV67eUzrOxVu7zvvFCG8rm4ku1ywJzwBJ4q+dvs7PNSan7uXw5U9q6l7vH9VZzz+eg29dHoxPZZ5xLz1vS4+MIoPPiJVBb4opuM8F2IkPDXUlbtOGSo8311pvaTW5but2kg8LO/8OpBt/LvgqBQ8WgavPCusAT7hJmu8PNjLO9qLI7tTuoQ6iPWyO4j2rTk/o5U8a8QxPMF6MTwcO2E8UfyrOgyXHjuKQEc7kbNvO1ue1b1Ztha9nRhovXl5kL3gB7Q8+F2UvJ9orzsQG+E78nCHvGD1dzxLzXY9jhoqPYvXujlMdDY8gw4/vJlaeT0h6nK8h63xvHsr/zwetPW74P0RPDlABztSkoI8S7C+OzjnTbw422K7yXxZO1j+tDtkXA08OzjPPUSr5DtR19o7sbI8vuaEorwdLlS8gSOzO+y1dLtFK5u8KQWBO8lh0ju9x587ifwvvF325rupEqm+C6uSPQZvXDzq5Iu9vZRGPcwTbb1cv+A7tApxvWIk4LzQp4u9casavhV/ETxWNgE9jXZcvDjvgz3qQb29",
                "Ky4/vVc+V7uTFAS94hVNvA0LPb2pi0Y7+DtkuxcqirwO6u68PPIcveP1Wjzr6yo93F0xvV0udjzZ+r28oSybvOkI9rzMZk09rk3kPPUdvrpwLA69ioeyu+6msL1q3Q48In32PGurjzuU/8y9QIHJO467m7ygCJi7fFccPZSPjjycePC7pPNhPReIJTo12LM7PPIxPJKvxLxfQO+84X+cPElZerzGuBi8uaXJuxs+ITwgtps8hkq2PE3DibxWGCC9RrZbvAKKErzb6xi93knbOq9WJbxIdXI7VDw9PXX17TyJYKE80KrTuxQrgDpEx0S81YLYOoHxrDzBBsY8ZI49PAq457p39rG9vDYJvqiiv72UNBW+3XEFPvAGrz1f2fw93Ki5u1E/TrzlA2k8dyjWPK5vcj25dB48N0abPI+IZT7L7pG8cVbzPFW9zrvf6489Cff6vD+TrT7B8wk9Rgr4u79uo702h5M7fSiwuxgNAz0sBye9mD4BPLkZRDy9etg8icHrvPE8VzvOAII80NGgPVpyDTpUaDE8JEq4PCwcSTsG1j69q5d2u1iLbjyKCDi8phFzveEtNT1HtV49INhKPQj4kbsE/5S9BTGBPEZWj7zCI467QikYO7ItPr21QJ06cRuSOywIFjwnq0W8pr4BvDF7Szvd0mU765ZbPDw4i7x1dzk8jF6YOwgklLxDaB28dWFBvBrEgzpTVLo6bIJtPBeN5zyPuBw9TcQjPE+wCj2i/568vbVNOxC5vbue6Aa9OsIIPaqLB7210TC8YPg5vBefGbw1Pqc9y0yxPDCnH70C34m94RC2ve1qp7wzIJO98flDvU1aszsVb288CmRtPGze+D0jR2s9iu35PICm3zwx+Ly7H46CuGIpjD5kEJ48tHPvu1HNLb03g3S8uDTcvPJNqbv7pJE8v0EKPMh3AL0cFg69Sec0vrP9kz01sPO8N4iWPbrxirtcoBU8WrzmOlUG3byjr7+7kdHJvGLQZjoIL2s9MhINPKkiIr2ZQ988",
                "RBOhPcY2zjwTia06Z5dBPam8ODuSZGG8LHCwPKyEmj0XuPq8kLGnPAqyhr21mUs82AJZPSXzLrzlgsk8LJH/PG5XIT1nWSC83j+FvJf2tLyS10O9DqGHPO/Rlzszw6w7DnouPJ6YijvmGau8jEQyOzBWtDv1Goo9EoJXO/79D7s8bUk9GQuNPKxydrwhig4+hHwOPRWGnbwhz7w9k39AvR5jbrxFfGW9oDo+u3mX/T0P4pW9mH79PMVGkTzmOqU8qQkTPKv31zy6jnu9nZ49vYSyFL160j699qhQvQrKILylrA49XIDuvXNcJrwNBT68xaXOvCL0lDxChqM96VkWPKBC5DxH5P+8SkVZPWhsJD0R+WU9p70tPXQlND1jo4m8t/xCPQeL/Lzp2HS9kyAmPcythT0Jz5E9V1lvvbS7nzvZlTK9ogf2PLpoFjwit9U8ONhdPSLhVrkRlIA84p+TPAo8obxFFoY9zGX4PNjT+LpXPYM9Pge+PKWqKz1UY7u8cNm8PLKZajpB5IE7TG4YvZtFhLwQdXi8+65HPQw16juiHqs7Ci6uPGBCtrwWxky8s4mSPFo70jyYDMY7AA9hOzsCqbzMwJK9gJgvPF3uwTsHcza+BcCvPT282T3oyve9dhEbvQyKazvzeqq8j9AIPV7nZrtRo7s9gcSOvR0tpL2SX/i8CHbJvLwsgzwKPTS9jrc8PRYQhDsrv+q82tqpPMev0711GVS9DN3WvCFUFj3NBaq8vG6IPSFD0DxrEN29TrukOzUmZDx0FGW9oIF4vV2qBD0ytQG9vYX6OqImC7yRZ9E8LM+ovPR6Nz2HnSs8114hPbgw6zxnf1o9jEM+ve7dszyJVTa9pS+nvALTjLz5U369/shXvJllXTwHbT08hy/2vCHEgjzfORy8U92KPG+Tc7y5gb87rVYjO1kDKbuI1YG8K1tiO3LtLLtSkdC7HNnIvMf5trxrc8u7BDMevRyC0bu364479WZWPdN9vLxx7nu9L7DWPITAK73Os1Q8",
                "adWuu3HiRDyCgbq7uCRAvE1K9TwasWa+f6eWPOS7DL2KaLM8JJ0XvbUztj0NDzu9MV6JvNJBAb3X3be9Le3sPSHQcbzba587CaIZPcNDRb2DdJS8eBnvu/RmnrwMXW89HyshvvWojL2mdQ69b/esu4ipNz3iVXK7KPLFvGFZiLyYP+o86Fxivbdkjbvd0Q89PZeYPQQ0BD6MEN88aiagvaVAFDwHTg+7HuQMPaZxCr3c1Co901brPAYaIL3Ous87CU4XPRUfTDxtdQu68gcAPPdgWbyOlQy9SvDYvJTvlTvCPJG9u5EWvUyRADvA4Z28TNvXvNcobzyixzs91nN9u8qH37rudkm77EwyvFBBgr0DX507ze9mvMwIvTs4z+u7C6E9vHM01Tsom6a8gvcePTAq+DvoenG84+AzPLmctTxFApu8eQ8DvV/7i7v8Deg7UydhvRNCKDuqaXG9u3zIPZiExrz7mEQ+GYa/PKKXOL2U5Kq9ehZUPWYNPb3VVRS7sn0BvYp3mT0JeSm9WyTnvM2nqb1SAxc+ATUcPVKYhTyBhlE9MD+lvmS6Zb6yUI68ZBdSPL3A7b0tJuQ7yrBUvEXjeTxFudQ6NpgFvM3+zjzNH4K8/vBlPZWajjyiKIi9FXgfvc2mqbt7JZE8mTKSu6Ng4Lu6cZ08fXSwu8ouKLxc3rw8RH7YudGvjjyKUvo8iXTkvZJ/oTzsGHw8bOUiPUq0sjqG2Mk7wvI7vNuoeD1RCxC825CevPoSFb18FbA7RRKOvDe6iLuuCs86TcPYvMZLgjwMMhs8SxUZPAPnFLvbTs88rVyyPNm1r7soh447FIe2PKy3Fr3j+GQ8QMaJO2C8qLyaLAI9OFULPCFe6TwwTY68znIFvQNRMbyCoAq9o7XZPFpMYD32l6K8jR4HvtlaGD7t70i7GUzNPXVukL3oEGq94cBrvLsuV71++5c98AocPaDEtDxl5nY9TLOcPXT857xcNQ898D57vdsZhb3ih4299w2zPSj+njyNv428",
                "DQUQPKEGz7sBLAu6IEeIPG9mErwn8RK8Q6mzvLdz+7xPMgG+JUoKvT3vgT0ug+w8ROqhPEMVuLw/0509APrOvTA02zzzNlG7SkKmvS1JKb3URro81qw3PQkb57w1U2u792Ujvf1dGTyM2XC85fpDPSEtMr068wg7+12Ru0LaQboc9iU8YJRzvM8+S7yjVuW8RCSBvUOikz3T1zw9RQctvKpcprz12dy7kyoOuyZEfbypfRy8Lne4PNJ0rzxysvS8gzMOvEnM2zvWAdi8eUXBvDtiLD1Zpjy8/N5fPBEvIDx25Cq+i3e2vNRUBb7A3Z+6vRblO62yUD3Vq9e7QwZivPK3xTz09J89D+cQvc63l7uIzsi9Z2cKvr8ngT3b8oM87u5yvccDZrobCvw7VC3xvuBLqz5uFf27CGl3OxjVfTsXgzW87BKSO1vc+DrPJ1w8g8bpu1xHmzsF2um60PXjO4/6gLxBMCU9Ri+uPNfGML0wrZM8wBwuPI50Wb2sAPC8c+p8u7N3Xb1us9E5ynwrvHu7sTzzLiA+JCn9vM9yyjvpG6k8rnVhPNbTjTs6epq7nUASPCz2tjwTilU69hnlO8+cTzzXh2677cc8u5xZr7vjCQc850HvO+y157x0M3U6HmFlPFfkMrwOog6878afPEbyKDwZ6v67QADbvGtCHb0gC4U9fP0fuwspP7tiT1k7qtKGPBkFaLv185C7zFE7vHXPHL1r8te9OwoVvHG8Hr2NZFa/sJV2PQA1szx3WMk+0o70PH1Yb7wYSlQ+yQI9vQhVwD27Esi8ShCtPByQAb2MHlq9F/VKva6dhjxp4js9YOKUO7ptFr1aDLy7vfGbvNN9Wr5pC+872QTYvcwUgjxJma88F7ceOyhqFbt2bps7oRe/vF8D/rvalS+8SlsovE63E7y8YQM89TLmu60fvzxh3EI896IUPWWuaj0zMAM8gaapPPwSE7zbsp+8eZrMu3y51bpUSNq8qjibPJ56Pru42P+72WwZPCMAkTzdDga8",
                "8sCJvMhrKj05CY285d22OzoEETtnJKU7/Ly/uUS5B7xO/SO7KkgFvHdbsTwldKq6sLIivZHFDTs5oAE849/lPAGqdLtHrna8x76suRClibxYoRe9m5d8O0AXpDs4igY7VALTOnOVeruZVVq+DVE0PfEUxrz0xtY9V+9ivT0RwL03hmq9xLMMPeh8Dj4f9Nm8rnXxvA0XrTz0+Q28TcRnPR6Spj0zR4M93wCVPM5TMb3lBCc90+qgOxE6JDyNHhK+lWJivSLVarxJsFY9s8SkPL6BOL1Jdqg8cbbYO3H8WzyaDz08HcXfOO6Wi7sxFkC9RtNhPUpR/juNyQE9+0EGPZo1OjzWhLG8CII7vcqaiz3Td6m8dl1QvcP+gjzxgXy91aNJu/7njDqzmRC82A3lO+IABTtqqdG87tMYO6TTvTxP7Ww9yc2nPIslEz0bDQQ98t1avGPCULz6GqS89iy2PChurDsbEQi8kdHrPE8Hn7xDARq7Rynru0eK4TwpvGG80q3hPEAWxLzbn6K9xLGhO0oFo7xHoBI8NaGfvBlYDb3TJZm9ad9/PCnyLr3k1Ri+0M5cvjRjfD2QwAw+Cb+yOweiirrrXcm9u1yFvc5gKDr6TtM8sjDku8DSQbxusxy8F3qbPK3bkL2kY5s9o6vVPG5HATzG5Jy966HQvUZw470Den69VEuvPOU1yDxvBza8ALOIPd5VyLtoHpc8tFveOvk3Rrw685Q9kv77vc18Gr1ODZC91fiqvFsZpjzU1QO9pCnJuzRzcT1LND09lkMjPWYMsT0fyJW9nWDsvMaduzwWFiq8alzMvAGlGrvaTCy9S/sOvWQ2kbtRhpK8jnOSPSuoxrqWLIo8ZbULvZDc4jp5b9289zYkugzVoTvXBkQ2EGoFvQa/Hjs4yrm8RyplO+SkiTsbfC49sZwIvJg6sbyaVF88Y33HPNFYMzsiS8+7rqPdPEjkoTy9+EG897aLO+gUNjyomwm8wz0mOteUJTxZKIm9/xrhvaTy7zx8jna9",
                "33CZPDgItTxf8le6WvYLvbwJBLveMHc9IEeAvL+gJbwfse09bprAPBFKdT2SgZK8PJKavYdyR7ySjtA8PCWvPlLU6z4X54A87B3ROzTNmjxtg4q7qjEZvCYrjLz9F9G7IROCPEnQmDmXd4U7kD36vPvvQjzxoQ29Ce7nOyRpKz2uFw89bDatuyS4Vr1SQLc8Bk51vUwCCb0C3BC859O1vGwkf7yMipW80EMePqeyAbzYyK+7phcEPC67fjth8jG85mCAunlbMTqI7Fo7cJDZO3HeQTunvTA8C9MNuzzpC7vBYIU5NDzrvI42iTycoFQ8tSi0O5UzzLvdS266c0XtPKZVHzy3dx68bpt2vXCAsz1w1Ji8CnrWO8Km3DvVWTW8pogmvJBRFrwh2Ws7nAIIPatRabtZrue9S3SJviqn9bwh+LO8vEb6PANEAztZED27Oro8Oma6Cjt6qmG98hEZO94v8rwVkaa8UzC8vJRCG76ebx49Hc/KOrGnFD1Tn0S9gxC4PTGNYj4mCUA8yk/jvABANT2xAWM8rhQxPBVlgLtHdjy8ueSKvCW21rmEDbw8MODMvKnANbyCSKq7FrY5PGcpYLw5h5c8z04hvP/DTj3IxY68SGpKPeqwHj3GHyW8YzgkPID0wztbjje9/qvgvL1Aqjw+OYW8kle1u5TSxLtzECA9hAeJvTgvqrrNgV68OwJ2PJjYQ7zXHYc6xLUpu84Cm7v+1Kk7n/A7vXFuHjwAdPw7BXmdO02UOz3Wx7o9yZKAubACVz0V8Xm9unIQPGWswLzXLw+9zA2dO1rX0ruUS9Y7csg/PP/zDDzw5nS8h5CGPDeUCzy2/N69jG8PvY+4bT0KnMm9QHUFPRhgPz7PG7E8ukNlvWI0Xrx8KKI7AHjhPS/V+zupVek8cXW1PKU5GTwczpS8cJVLPXlmN73TrgC95ez/PCx3zz1z5VE9ULrMPQBGGr3KPIu7Znq1vV5GUz3ORiS8T9DnvI7ufzwXELo8yryUvISihbvOwtu8",
                "UvubPcxOHD1lwOG8WvT/PJwOCTyt8he94PauvXQLRD12CbQ85QwcPZ5MNzziDFA80HEguwGsqzsZFQ69UJyvO20izrvoaiq9p3TcvKh0YTz6DTe8/ta5uyIvBj1ABDY9v+wNvU+7cTyDgQ28KcKcPFy7PD3w2IK8fEcyvBx2IrxP8Ns6cE9sPDNXbDxoSzQ8tSrPO+WSsbrAoPu8HHwAvDbkgzxfEKc7AEo0vNexQTwst5g8CUzuPH5SVrxyojm+ZwFxvCs5fr0qn3y9OdblvSelPbyXB/M8U3PRPZmUkz15gzO9f+kbPRfSAb2RAxQ9mu+zvbOSiL2Nbxy9NSB7PGc7zjwB5A89jIm6PLXYmbscUsa99ZrCvf+0Sj3xTR68jCCTPeHpMr0GR6Y9JuWyvDqFQ7w65tE81LWOPO5eEj1EuEy7XxYFvYvxkry8TPc7XGsvvVeD9jz2zzY9ClXMPNC/grz9UOU8sNLwvILm4rs5LkK8i7C8PGA+b7zsdt47neoPuzwHhLzeO3A9eSrEvH9bxjwCS2Q9i3eEvOhgN723DDc93aRUPfN8hLy0TgE9cKHJvDSLersJEYW7GWcUvdwSCT2ah3Y8yfEcPeP7nzxUEg08oNVzOwBf/TyFtMM846eoPIQfurzkIeY8tQolPNQXvzv3Poi9t/2JPNiTejozFe699vLVvAkU/b27cty8LdcVPM/cZT4yW6+8kjD+vFKwrT3g68O8T/vEPFAS9zz0gue8xkUwu+tNGD0QruA8cO2HvcF68roAsJK9zp2cPKcTdb1uHUw8QNLKve5ogDxpBAS8mMFGPRkuo7zt7Ds7iUY2PS6/DrsyKmW8Ffx9vSju470mS4O7ykXdPEO64DuPBk68cxBNu4ebc73HoYC8+C8cvazc7Ty0SUa7csXbvPl6tL3dVzY88LWovBCsiLo/Imm8e7QUPbuQjLyzy089DPWhu+sLhDw1GBI9Fa0uPVgwQLxNxEY9YjmUPByADDxxlag8ZsZYux3NLD0yTKg7",
                "yCr2O2Z7D7yXzso7GjmFvDwLMD0fMDI8wnrnO89W8Dwr02S9GdX2vC4lqDyoVSw8mBWwPPr+PT3312E8xzH/PFomPT3FuXA8VoP5vQjAjj2DCIo8qbqnPey8Mb3KDoa9KwPoPFi1Ez3biCC9M1upu1BwMLy2GVC9tM4DvfqVtrw9Jpk9gSayPHiy4LyG8Yu8+ZUvPQxlwjxyxGK9gtarPU7Khj3eF669/dq3PfQMEL2gGl47Q06CvWnP6zxhrBo9gr+QvZZn4Lxw0/U8w+nvu+ohrL0/L9u8U8bePA5jSDzvQKm9QSL7PLRoe7v74yW8YAClPHLirjzAN4o8ONyJPS14BL06hMe8Vit7vTzK77zREnK8dgaOPBdf9zshpCo8sRKCveQSCr0hEvu8XTZRPU08LLslsfk8+UN3O+M0ijxLNCi9gNTBvDAG1rwJgsA8Va7cvFvKALzSM967HvIyvAVQYzv4U5K89vR2OxwtxDs6WLi8pU6yvPLdPztRTwu9dDeNO+8BmTsKk9q9pRN1PGob/rtqIcQ+XGiXPMrWoDwI/+s+IGc3PGVSIrzKBVQ91pzOvFdCwT3Pq2i6VSMJvBpxtjlJAHi8HrguvHfs4jrMClw9bUIUPG4yRLmnJnE7/SL/u6/Osb3F3rK6WkemvW8EfDuFpE07HtkeuyflOjhxmyO9R6ELPGmrVzy96SQ8gBFgugHl8zpWJ5Q6oHEQO5J+Mbwh5SM7K2nbvFHJ07y7GF28r18XO13t3Ts3kS08F9LmO0eFM7toROU8N1aNPP+pGDspHV48/bVavORWVz0Umx88RyXPuw02ybyPAdy6mIDQuy5gurmzfRe7341+Oxf3Y7uOQ0674B/Ju0E3oTu6W3k7LLIAvELzmDv9E6W6e+EpvJPIobqAtr46yKafOlPburtyPPY7gXAVvKv9wjkzCgm7bpg0ucm+PLtg3Cm9Q8ClPfPGn70tl9g9CaUyPgkKbLy97/C9rmqHvc2ppj0bAgk9LFTkvA1zBT3hwTQ8",
                "iXcivUG2TL3Fu8G72EfIO8GGIDwgzHk7sys2vpi12r3MLAS7+9mwvEOSW70F0Jy8+p1PvWgVADy0l5080I61POe5zDsiooG81yeJvCrqX72YSJs7rP45O40jA72CCXA7J0ZLPAZpljxoqCs8th8FPTu+7zyQSI28AuqFvTSnpLyX1Tw8NDOqvJ5E1btZyq88TvqNvExgVLrmkY47bSIEvB8rmTyxipA7EUEzvGnEOjquszQ85UYXvFurpTi7sai8ApO0PF/OpLyPQ1c8Df2kuvkXA7ovw1m8dMkQvetDhzovamA8Pro4umi46bzCS/G7MF2rPBXWE7vign48BXc4vIJIfz1j+Yi8Jd4qumQByDy2Dfa9vB+XPHk6mb1ZKbo+EcDqO+Gx8rsCO4e+SaXXu/jnirsPgCI9xACcPejcSb38kSU8ilnqvMeBCb1J0Du9AxW6vOfJLDyfWgG8r8eGvTVmxjxmySk8Gp55POgZ2z2o5WS8eWKjvf2B0zsKnS+8W2wPu4HpeTwlpII9RkgGvJjdbj1edA09vS+QuWDiibxDadU7sYqTO2RW6b2NMii9nfTrvWX1Ar5D0zw9eE3dvK4d9DxLAcI8qtADvG0qSzrKG06+ZMfGvMqlqjrQI+C8M7HeOT01Ar5VSX27khBSPNJIfTxGs0k89+WEOhzyQru7X6Y4TTsAPIiimbxDeuk7IzCLvCQCZDxTXQm8hE3HPCSErLyOIkc8BDWuvH+/gboAA8Q8+fvFuomOgjvie4i9+jRdO1wmNLxWX5G742O1Ow2YArxEWCo/iXckPOZzKT2svLk984C3PYo1dD1s+xC8Wbz/PQvCpT0wRuS9qDkoPuyhiTuQ94G9i2iEPcl8vTwK99A8qFKMvDWoN7zqcoQ9gX2oPA02fb2PTH08dfkCPF7Tgj1ah4i80y6+vQ9ILr3T5n88vldKve2VjrwGH3y8p5GZO/v0jjtdiMw75RobvYu/WbzlcXM6ZKctvMYlJD3RDzs9NoCXPWZ/TT0lFB+9",
                "hHaCvczAUzwOto484RIuO+rgpjuUQfC7c1K9PRqPvbuE6IA7m5uau7ALH706gaM9WsLnvAeISDxCfSc86z4BvXk5lLsEMQu8rg5yPEv2GTz8eIw5zpcavDgbw7vf7Iq8eiHQvMkXMTwA4A+999VqPeV/aDypDJo8xJdeO4cY2zvrsC69SY8svC8aSbyMwCu9ZSSdPMZMyLsKbqO+A++wvVaWDz0gVDw+OF+pvmAOeD26oUC+/RQaPCHHnTwwjN889S2/PFG/Fz3SNIG9MP6qu2nDvT3mWlG9sKhZPFQctrs1oY08ZS8jPaFi7jyEMhu8lsdePMqhF71vLBU8iMY6PYzM+zxGrPe6gStWPW9+UjzhKSs97GT5PGBX6ryLRvI8NjOgPdxErjvT4ZC8d3wXvJp+G72V7im9BPD0OxbNNjxDcSq7P95cvRmWSbw+EAO8EORLvUaH87zt10m8pVHOPNaWV7yKWsM5kqyMvA8UwztBFzc8l6uTvB6Id7y8VJm8r5YJPbzPnLweLRI7whQyPXoskTtHQYQ7U22pPDxcIrzhk188qoXvO8YRFTvmYpa8mbNAOm5CAr3uyUA8ymFhuypIijvainM7MokMvIgwuTv1APG7dG3Eu/5pLDw912G9L3RQu1XY3bs7epG/kaXvuTVcyLoPB94+fgwLPEiA6TueXRs+/E5VvUUR6j1az2g6yXrWO+qfaTwL30m7oMmLvSC5VLqZlPQ8krfxu4Hc9zuegzY8nGkgPG63kr2pBF08yS6QPYxOKLvE+Ue7U7DHu/NhBzqPdzW90cCjO7G8g7oNBmw7q/dMPFJDcLv6nB27r/2kumnTW702zVm8uiBfveD/cr1kgL29bzu6Ogp2wDuXQFg77DS7u1Zd/jrLzjI+015qPXj2Kju8DVK7fjAcOUV1gT0Zh+053E3gOk9qUz3fjcE6dr+lu85rKLtMyVS6vJclPBK8qztABvU6hN7KOqI5obtCNEY6lbbCPLnf8btYaKa7AtJpPEijl7og07M7",
                "YA1uOoW5xjpMjaQ79/2wum0jm7uu4UO7ijC1u2Uf1rt77w8/aQTVPcYCmT2rtwa+18H7PWJs2DxY+Gq9E2yJPKlKiT1eRQE8UlHrPeyajT2zMvM8N438u4p9Ej32uoU9TZUJPM/Tlz2jWLa7I48dvbo3sr3Wp349Qn4SvZcZtb36Byu9H2cXPJI2OLsqus48luCCPLzQhrzJEZo8bRhivWIb0jxoGFq8U15wvOSqlTsUK688PH63u1UzEzxlM/+8WHfRvJ0AMT1dgPG7sQctPVVUpbzeXhg9nsN/PAWUcTzKeDS9O2zqPI2rbzut67+7GObhPCE6nLws1vK7du8aPCgroTtGJo68zwOlPCzUlrxW5M48ewLEPIurRj1YC168AxWsPKw987v99gK8Qp1qPPh487wgj7I85w09PeO+iTwUiHY8APNxuwOfAbtrmti8i7R2PNmRd7tN3iS9MqiKPC0VOLyrpT++MqB7PFxt6r3o1ms83FZIvHPet70g/h+7ZDfivKdUJ708X5u9Gu9xvH6E4jwIqCw8rKOsPJea+DzCuSo8pMCdvcJfwbxTnuK9P0LKPZ8NTr2aY0o9gZX/PYnpgjyntgm9pubAvLlHeLx0TlA8Z4U2vDgcqTuxYgw84CgPvE/RAj5ykYu7x4rzvIrtMDxAruA80USCvNr8WbwVOd88B9uyu3JueDtfxY47oeAXPYRbwztl1Ue9IZQ8u4ZykryTJoK82QkxPGsDOLx5/J08Of0Dvcb/Bb18MA69P2cqvchbvLvaO4c5YUhzPffKgjyQzjg8s651u5NSobxbgKW7swwYPJnukbs9lfY8l8pXvIGt1Lsq85I7MHYPvY7AZD2c1IC8DN3DO12Z3Du3g1s7iWe2Oem5sbzQ4/08E+jKPOG/bbzPJLk9IZ2IvIFCi71T1oa9NBHSO+2SmD3SsBS+WWuJPB/KAb7vVKo8zSp2PYVOHD3bZmg9X0K5PdNArr2aiCy+FqgvPRd/5DxKKje9BnGyPqqwVr6TmUo7",
                "OihdPXPUfb0+dJM8i3xXPVaPyLoJHxa9M1znvNxLHT1a9oc9LduPOzO3Zj6Ooyg9YNWGvGwLBjzjjS+8md3iOzx02zzeTEk8KlSfPCvcHT0DDEu9WuL/vJZisz2pOOq9bJ4zPQaRLbsKigi9w9drPBNpjrotXcy80GrvOfOn27z8D3E7VvsjOzmfFLwoFw09s4sYPDw18Ttr7DA7c7MHPBTDJbwNBK+7gk18vMJDBT3o/W07SxXGukdtNrt2dRu8HOBTPd+L2ToERya9vHrevDHYBD2yKAm9zez/Osy57bzkD4G8eWqNO3uOBj0Bxym+y0mPPER2szw5j429njsIvjv6qr3UXdm9RWsYPsRV0T0ymyE862GvPWLb8zzOGGE9ybSfvS0r7T1oLgW710ZLPRJIgLsw8j69Qm1YvTAWsz6iAY+9hbWwu+DRt7245dy7xa9UPLEWlLzcMpM8iCQZvZh5H72i2zM952I1Pj3yG77A37k7J5TbPImfD7venlc8SRsPO9uuVj3mOvU8RcyJPQ8ZczwvbpS9nm2iPYBQDr2375E9HA6PPeUE2brR9F+9jINpPem9LLz0GIs8nYdFPEhfAr3THZk8aNXSuif9bryX5E+8WOwTvdDWHTvFCwc8fANVPG40jrpTUDi8m5wIuzBlbLwwECe8JSE+OYkbUDx/FCs7/yRdPTo/PTwbeDc9kG7tuy5x+LxK87K8HXGtO0UiEboy0Mw8cIhsuuwDCb2WaRO+keYivvPStj3dkmA9HbuqvcHYMz1lQcw8Xg0uu/ssXzyAEKS8RFkbPjYRtL017948SaO2u/PvSjyODIO8up2ROxKZSjzcgfq8s8v2Paw2BD5ym2Y9YYo6vW+iIT6V+P67WsT3vct+gj1lRA89dZu/PCZpx7sD93k86JodvlxGKL2/epe8PjQcvCyrgDyHLIQ8Puo/vNqQvLxt+5m8AAU6PRPJ0br+NM29uXKmvSdPIL11MVI7fMiIPX+ZijsoWQa8mxrxvHrlRbsD1AA8",
                "Ywt0Pc/ysztot7G7ovuXPGF3AbxTogW9YMiuPCHHjLwvCFG6QkEtuwMRfDsNpBi8zSZGuzdwjTzeqvS8NWAMvcrfvboYH8A8pLO+PK6gjTyCnqa8rjRVu64pu7tabR2969Suu3UY8jyrZLo6COo6PTODFzwp8BM8V9F9PfOpIr2md6k9rHVGPInic70vYy+9rxCmPbhiHb5m4jE79jvZuzt7E72+rrY9tmwmPW5ZrTyE2he9NaQUPd+22Dz90Ce93xfdveMeh7yt8628CZeovcivUD29hlY91M6tvHwMC73LW9g8xR4lPfIFMb2VqTU9gWeSPEpUAbwluoc9OH1PPQj4qzyi7ls9er8ovcKPuT3kosq8AGGpO2roWT0Nax69Bw4huQApiDyTkpE6c0J0uw6lh7zHeyU91EGovA8a2zxRJrq8hkW3vJSkFTqtXhw8s4aEvYRmUL0Gu788/2kVPUhysTuQJ808JdTPPCW35Dur5I06PvDLu6fq4zz8cCK8zy5SvcDzwjypUe88jMLfOyQYLTt3DGO83EF2PeEO5jzl9RY8xobIPBXOfT34Xgs8mxcXPHcRrzpgZkO+kO7mO61ssz2Y5pc9k+h5vZZEYr2lAt697d9DPIlicz3uWsE9Wn5YPUHMEb2Z8kC9JBcqvI0w0r322+e9I1C7u70Jj71/XzG9meGDvcMeqDxUufe7VqYzvOlaFz2LLoy84qwTvalvabw5y8A8vPYFurf0FbwccaY8o9jJPEjMxT0wFhi8Sx0iPVgohbugolE8rutivPOvXD1pW/s8fQ7mPB+QDDq2W6O9kNGYvdKeiDweKd67KLGePBY+BLrskTI8PwDDvNi747v/VXG9930UvUgHkjzXeYa8gxcBvE4EBzy/6Uo8US4FvWEmVLxjsbM8MBUVO6RlrTwJQ2Q8CoPnu3hXHr3x/gM9XVNLvQmYSr1nWNq8yE6/PGPnVDxIQUY7TASUvMkThrwKyo+8Cx4DOTlwDL2LmEg7PoktPBEb7LyKsWa+",
                "Y+y/vNSloL15lMk9E5o4Pt1h9D0fZvs6lIuevauVcz3k4Uq7MdatveC6Lb3+zjE9k7xAu8Vrwb2vi8q8azFZPaxoFTypidw7SgwVvEzgbDyv15I9BeC2PS0qCT00TQW92vIju66f/Dvbj589CGLxvM00JDwBbi89zWPWvDbbBD0/cyq9saZSvX6HTrypAgY9FWbYOtH+8rxh/HA9LvhEPOG+9Lw884S84N9IPeKXp7x3lFC9UDO+uAO33bxX3Is72dppPDGjpLqxEyA9+EzJN7/J6TwOToy8y3q7PDhToDyDtBM9Q20BuoayAbzdXB07ltNKvSrIe70OsmU8oOnKvKGDnjopiY48bNDiPHz2MDv+3Tc8cyNXOxBexDx8OFi8SP64uyvtKrzQ14q8Rt9cOxi9G7tS1S09WsRfvCvaZrynqUi+TzqtvdFkob0pB7M9wnANPRE5bb3WfIy9p2qtvYbS0bz8tFI9gsBcvauLqrwew2e8u/DsPBvMPTu5DkI88ykFPRu8BDzS4r28ZdF/va+7WD17LNM9slUNvfwBmbyQ1Bs6nQQbvRmkTT0xcWW8wZetu3U777z98zk8yUIgPROFWLxgTZQ8xpQpu0SWHb2u21+9v8S7vAbZID1DaBw7sreYvK/oPDxxTh28F1hzu6w/uDxiiLI8SbJsPesY2jyjkH+7eNujPC2RhDzvIJU8yu9/OzykIryEsr68NOPjPGRk3TwjdLQ7WjFFvd0jnrwHAIk8cGTFPFymHz3zSK27lpZSvGW7nTyXfG48xbZQPCqfuDzuoXy8dfIovKKgMT2wDJ+8l7dpPPU/37wbtSC9J2lvt26tH73zo3g9I24fvY48iDwubva90aAevv/Tbb1QX5U9DUX9PfxI0D3Wv9i8jU2+vYYXZL25Byy9J0jKO5hzU7wL6hA9rVOROwzS9DzVP7o9A0wWPV86Vj0I2RM9v2ojPSQ7vbxUS809zqnPvE40R700M9M8UDI9PQX1qzxrKpa8rtLAPIciprrXPvI8",
                "abe5vedMo72Kfqy7XpWUvXBpUrvpEdc8X23rPNNabDwdqBk9QhmYPOHkjrz38I68jA5vu/rEqjz5Xom84bW9vDe6ojw++SO93dJsvA9rebxsKwI8jdOdPEgXjrv7rrM8YVssPO1vnruZhru8CI98O5viKT07ta28l0wtvWeeWDxn2Z87OtkRPRbv/jzwqdo8pH+MPGN4jTt5QNA8l4UTvYD5jTyXfSo9262bPLLlhjy2vqu8612VvIGByzurIB+9BHpbPCJAXrxlwrg7sOxLPHnp2D1+lLE9OFwhPMq8Az5IJLu9ySUxvG4ASL6O8Sq9IxeOPTwaMb1IHWI85YGRvVPQezx9TmQ9+9vjPBj2sbv3y5w8i6qCPcXZ8ry8wgk9TVDePUngoD3j+cK8PqfXPNZyLjxBtWo8IDnxO31n6rxyXr094v6qO0OQub2M1CI9CPfVvFQHhDy7xeg7tzcUvK3JAr066NQ631SYPUywi72CR9a8lceAPL702b0GMB49ZyCFO5z/YDwxhbw78ytvvS+g07tVlgY9hhonOwAAwTzHB8S7zpalPEs3LL2Hb6y8SRm6vCX4FTx7g664N1iCuo9nVL2DJOW8+YCTPOA6T73nuzE8cnJJvfzHLz2sLA086wPPPMcnTrz+I+I7HGwJvYkOfTwAVi+8F3CZvOfSaT10UlQ9+Owhu60cGD2KZDe++L8ivcsu4T6PCs080u0xvAUNpDwCZKI7xRbtu9CVzTy96bG9hmuHOy97rrxcWtA8rGItPJWkw7w2Ydu8drsWOwKlZzhMMJS99rFTvkh42T1csA88Lu2PO1Ctjj3Cs4a7VIPMvCFSDzsB2hi9VYUTvNOsSj3g/iK9a9clu+xuwTxCWiu80oQDPHmlW7tKD747bIiRO1U7abxNFFk7ukUrPIkONTzMeXM90e4FvWKwDz6YAkM9sqsYO2ycyroRq0U83Cp1urSPqzs3Sjk8qxLkuqctLTzCg4O7CDZsvN11g7yxXhu95XcOvJQ5ObpD9g88",
                "1HnvOzidY7xMuDQ7nahFPID8RrpR3d65AckuO9hDjTt8qR48/HIyu7dmSDvCWqo8QXPGu3p/EzxoO4w8/dpTPOJIRLzne3u8Bpefu2QHFrztaaM9k2D9vPlLET5pjtu9i1TAPPHSPL62OJQ9sN3dPKlemrwrGdA8DEIbPCzJwrsTaX885TuWvPGYkb20rhS+I+MsvIG/RDxvcoM78pnWPu3A7b3d18O6Mch5uh6lmjuBIwo8xBs8PPpFNDydEwk9LnSour3jAbygnfE8hzOWuzCHCbw+YiQ9Fu8bvZRN5zxPYda7Wj2zvPntNLzkQ4s7/1fqO3AqUr3b5Aa8fb0KvH+rVL0AZrS9+9UyPRwWibyTIi69ef8ivBvl/rtg+PI8YU2Au9MrOL2Yvh47wjUPvIH1CzxHOek8eZeUuLFAPjxCeE0749SrOm6pALz3PGs71Ff0OyDabrzxlCc8eugsO6Ht6bqMFgy8UN2EvGKm7Ty3Lii9SAxVu1FptjsrstS8igJcO6ed+TtrTqc8lmkRPKPyszztr9y7jWs9vJ3TqDwag4M8Qt4mPeXLS70ZERA9nDjbPPvsSrxzEAy9YFsEvsdLZL3mppi9FBmivOKwCzrjIPM7nI8UvLKurLsXPCq9PGQ/PTWAgz3yUhS951g2PKYFLD6fCKi81M0cveIhJz0N2U080ka1PFs71zyRWoK9zfLKPPNpCbyhFIi8/4HRvE3Kjjf9bRk8306zvLo8nb3v17q8I/eQu3nTcr1qwhS9BH4VPXht7jyAmo68QqxVPBxt3Ly65l89ggq1vWWel7wvDU09cQRcPefAujwFdS471p75PKy/57sSM0s7hnOUOxBgGTzOM4074DG8PLR3LL3YYBs9gRz0u2grCr35Dbg8JjeXvYYZK7sKPZc8d+G1vSmiYrwPp2g81/zZvH0zirsmNzA9++CXvC/nM7x7iN68Gm8ZvNCp+bvbFsI8C/X5vPp4KD1RjtA8oltHvdv+KLw0zmU9klV9vGQBhD0YYfa9",
                "kmmjvJSDqLo8G5g6m8WRvaicmr1tdau9xGrDPGVuvrvpcpE9/s9EPnelPb12G0O79ckGvb2hHzw9LzY7H6H9PMGO9DyUJKg9hJujOyXED70bXnq8C42QvXiEUb7Qqp4878UIvQWDijwv1V48P8mJPJVxBr1exWo8nG5JvVjf5TzUQMC7f/kivG59RTv+2hC9hvuePGaLB7zMok496fYOPQI+GblXosC8s+f1vJ81iD1uF0E9ah9LPSBasb3SpqC91NXivKficjwtcqa7E+RhvM6D57uoK7s7sM40vCOBWz21NYK8BJmuPHACGb1dE0i81hgZvLquLzwQe9e7qeYJPdCkuTs62B89gw/PPLvksbzfObe7DCfsPBInsTxgnIi9sFi1PbNzvjkaHpS9hL6Kvta7Bz755Uq9/sdAvkACoLwB0pQ9GifCu9RLtbzlT9A9/oGwOli1Kz05ckk9oOnQvBXZrDoGI469nSaFPEV9MLo9u7i7XeN5PR3MsDyAFFE8iFAZPSZadjyM8zu7CYolPbIDh7ygWv48KSQZPcSjMjwkzMM8CsylPEA8qjw9zJk78rWJPMFn+TzGzeM7C2f5vC0vRLwjKdA8ljGxu6hXJrrGxTE8tlAfPUzZmzwQJbo8sdyTPG51sTtPyDm8qO8evVpNNTyBXO06O5fePMySzrz4FEA7jCrFPK25nrtfdSW8k/jyu2VhAz2934c8pLSBvL/bY7t0eyi9apKnuQsJjboKOaQ6gJMnPKfHDT0NNn+78SDVO/1yajyO54M8prxjPLqdIb3pVCw9FEn1PFrDXLuQ14C+kYL6OzX65LzyGdA/yHc9vClRCLygudU9zSxGu9jzzLtCjYs+ntIgPF9p8j23WGm7Eq6bNo2EkLuFcbQ6ip7EvbmhrzutMxs9bSJrOxxdcjzj4jq7clWhuhDLGL7NG4Q7dwluvRcekLtF5SS7XgFXu0pzOboDf2S8oCQEPIwcTDo/R6O6Ix8QO5mjULoFX5o6ZGUsu8ZZfL0eAKu8",
                "S516vSF4gb2a6rw8IEwNPHCmqLu7Zum6Ip/VOyTUB7sm3MG9I1NAPawmjLuyBoS7t9ODO+LFZ7uFqC67Vb7auUBdUr2CWYq7KyYWOk/hzblUCQi7c/cTOxbcLjtHPtK6w3aKOt3x6zpRxwg7wqskPM3mMjt0Xk67+UGPPIwYz7ojooi7bgYdOkN8iDr2Jkg8nGuMOmSZPbsBv807oUGRuyDJQrqL5AM/R0XQPC5aSz43NPS8ElRkvQnwFL0pWa498ye4PCDpjr2xCfm8C8SjPcPaCTyVUn28KhnIvON8oTrryTM9h0DXPPecKr28ZUQ9e/4iPhnc0L0ITtg8H5U7PTT8orwIP0Q5Av42PEpP9Tysq1s8mDUWPdP+gjs1Y5I7DCoRPLnUbT15GjA9uKEUvSvTnbwgtTS8Tn+HPHiq8rq3J+A7QJyBPdHm17z16YK9w/t8O3Woqb2o1qa85SDWOzOlqbv2LBM7cy0dPDPH4Dsg77W8cbXwuvzi+LzvwEC9o+ovvQBShLxxKRk9GadnPMZTlLuA3oS8ncdJu6JyBbwQjTc8gJwnvVJ/uDwjj9W4Vvs/PYPjxbzOi+C7oR6rO8dzrjtpVpw8SwcnPGPuErxhJ7O739TGvMvqgj148OE8yOyWPFODDLzxOP89o3XTvRWIYT0UDE6+KxtOPTishz0FBho8CBuRPVyrDj0Cm3Q9EmPjPW5E6j0/MB280iTQu4I5oL0P9+48kxZaPSHSY7zjOD88yPgEu8hknb2RZya8e667PCrp+b2vhYm8xPOIPIzpjDzS8QQ8tO9fPEMEazytULg8mWPku+DCgjot9Lo8uORVvJYukjxejGa7dXb+O2/zpLzIfq88uAYyvPcixLz1v449dy77vD1b97zRHFW9jzErvUbzj7wJmcw8do9RPQDv+bsrnLi7yMKOvN91Cr1TsY474yyIvHq8ITw5oQc8ExqBPI3mwrtnqCC8q+fDumBpbrurju0706EUO20YkzsgDU89Q8Ngui4qwjwpdfa8",
                "g5AFPX3/F73X1hC9b0wmOtAeUjskqdU8kFmbO0rkHzzmXRE99FohvawdIT35xIe+"
            ]
        },
        {
            "shape": [
                140,
                141
            ],
            "weights": [
                "Yi8nPD8toj16uYK9paC5PNmWJ70C4sg70yD0vODRjb2/sIa7roj9PFqjwDxFiGi8qiN4PNSCHb0WVvm7fAYTvW2Z2Dzi9ny8OGsSvHxGfbwfDiO9L8mPPPaGMb0+/oM8LyaLPLu9i7xIdgm8vxyIPZ50ODwufvu8GCC8u6QP37s9vQy9PYWXPTWOirzoChU8a0S1vNzKDT1Xzpo8nya9ubj4tbz6J/c86qiRPTDJr7wO53S85cOAPB3rMT1j3YI8NbH2vMyNGzzd7948sEGqO6vAUz2/Mpy4WUAHvGF2KDsdE3Y7azwmPLPiE72niPG8A302vZd4LbwJ1GG71IqMu1ksaLzO5fu8FugivZeXkLtilBU8xVUUPI8Nyzw+D5k8L4hxPWudMDtWOQ49ULjqvCFBsT2jvJS85DASPYEk5btSQqc6ulJAveJISLxDf0c9vaybPE80TLt9K1Y8uo9duenZs7wfyY08oANWPAL2GL030xO8jVxHvRhCQr3p8BE9wGWPvMLfcLwjOkk8itj7vA6Rg7zeAPk78V7Bu1HFTL3tbwa9E86IvAbe27xQrF87jtqtvGwa1Ds19Us96IBnvcKviLt5zyo9LgMNvfDblL0NEUE7XfvxPVx4ij0CVaO9oy4qPaHpoDxmpda8xdmAO9bBp7s2QPg8kNYvvSuGpbwa4SM9d2+bPCBLEL3KGKe8ebE1vAkYwDzmwDe90RwKvTp+kjzw9UM9cZdIPQiBOz0HY5u9rUezPKEgUb1Pw6w83HyMvMsn9jxwsy691QvsvKV6Oz0EpvW8/WLpvCaeW7wfHTq82djovMU84LoW1Km8rBADPInXmbw8KI88g7DIPOEpxTu3G7Y8QSXTPCS7oLyLvxo9F57nvFOe3DzLLqk8g1lqO9ylTLw0hB48l0OsPK8Mrj0QU3m8uX64vHz/pzzs+Ba9j+anvDLVhj1mxea7lEbLuw5geTyVtqk8AqusvAzMeTz9Jo69TLD1vBaNh70AxZa9lwO0PdVECry5Mgw8",
                "UlH9vCrRnj2WyYC8cOhHvAZ0vzyh1Zm9DvpCvamtoDyjJHm9Sm+zu76ZUDzm37K8ZgvXvHG/Jb1Av+087h+vPJdPdzwGHu+8UA5YvO8xlLyzuWu8K3i3PJLXsL3OUKg8EZ0uvDxoWzsRY7U8Ib4hvWeHbTqJdx28+D6RPYyJPT2RbMS6C65uvOYorjxtijC8l8egvSLGljyI0qc9G8SeO8lfYTzIBqW8rz4hPaZ1SLwPSu88JP8kPJtsJjx6JgS8MD9FuhPaQLslII68x1gfPH2tBLz7V7+9ExkPPFc+ib26NU09I2u2PDZs2DpNc6S7tvLavDI8KL3hkI07ySRDPdTYJb2sMBM82kP5vDSvPb3+DFq7VckAN9KPADueNqu84OO+PMVE+rxxJcK8vZVUvGbI5DyZAbU8DeH3vHULqrw5oug7TckKPRQJu7zoUL68VxvxO+qZYj0ThM67OJfavOCbYzwgtke9YWR1vcjaCDz/5N681eyvPBX1Fb38SAg9VYdUvbiOMD3nZTG9MnsKOWemwLwn0iA8Ck8XPFo8vbt0jI09I7cgva2nJzshf7k8pt7kvEIEK72qlMY96VKtPZX/E722lEY9X9fKO2htVT1EgcU7jSQsvC3m6jvLBPe77z/GPQS4xTrqAYM8wXodvC6kdDsBDyM938CHO42bLD243+88qq9TPSytWLubDwM8VW8hPL6wO72psBM92LXAPKXWtbyPcSq87O0cvJyxJT1CoVs8o7jzOcEhATyz8fo7P5VPOw1jET0oEVC8bjwFPS1Rgb10UeM7F7a9PN1CbjxXwcc9Uf5kPC82Sbsi4v4867N9O+mArrsZbWg7Azy4vI+6bD06S8u7Pf3JPHb8Ar2hUk88Z+TcPNnaObwdKxc9PvMkvGVKpD242+I79W+CPE7/rLohGZm9d+/jPJbWnbqm4ZG85HYHPbiqXLrrGzm7LamWPF8rEj0awYU9Vtz3vOPNwrucPpm8ucdMveX62Dw+jiQ9h6chvOp3iLxyi8S8",
                "/YGhPJY8MzxZJPm88PorvMvHgbzXV+W8mScjPIheBL2DdRW9lzK2OvnBBz1fnA49sP/TO4c1y72m2b+70AapvDofoLxi73w8m2rrPFdEXr0KkcK89Jj8unUw+rk4uws+TNSEPEXsQTxipnC9/OjgvDuVpzx+1To9z708vWr53TzfV6o716GGvAXwjzzXa5U8nBqGPZOwcTzQZ6a+PZThuyHZOD26RJK9vcGUPa4PVb2qX0g9zzhOPHOgSr2t84s9T7X+PH1E5TwoK3Y8mZYxPb1W5zwcIYY8DzmYu/6Q1Lrou+a8W2YJvdbEpzoafnQ9d/OevKtUnTyt8rs7iCrbuov03zxMa1k7cU60PbL4+Dvb+DM8Gn/UPBRSoL3Dcic92yaNvSJgjzzvMwC691ECPe0phrxUUPm7TVCCPIzUZzyLKLy6yWPwPdefpL0UFI49wyzeO8cvQL1bgBE96MxiPaeAlz3uAI28aAPOu1uiBTxXucs7sbUAPe8fmTzF/1A8nBNNPqRm+byPH/m8uJAvuyycQzzOoLQ8VIclvKFbpz0/yIa8GbjxuyIna7y9RNs7zoqLPAzxWj2Nks08jsrJPA3/fryKYTY82g7+vH0oDrvcFp88IBs4utCqwjw2Cnu8QBD5vFUihTzDYCO9Cz4BPXUrCz30edQ8iweIPKAEkL1ZARa8kZvBu3uQpLsTTjo9nRhaPZn1t73VpHE7nhrFOFVFRLsLAM49yCwHvahEpDw0EEs9Q2RqvESku7wVJ368bGqDPCbgdr2xlSW8CpaBPQSggjoBlHO9CQkFPfVLgTwpbEA9/hkCPVMTCr3fR/y8KGc9PeOvaz2wSsm88CNyvKdbKT2ZTi67XJ8Au4Gw/zwW2x69aOqIum3YjDyKkqO8rTwbvSNKDz0ceHI861LSPIwMNj34/p67FoVWvaHAbDzH84G983xxPfMDJz2EVYO+hvc6O/J69rksMio957vSvIoBujyRah09ORCDus7YPj1yzwY9CE5lvOFILj1kBqm5",
                "b05AOykp/bopf5Y8cH8oPFS4OT1GfJY7mdD8PLxaUL3HtWY8Ok41PAXHRb1Knnm8Wrm/vG6Zjrz8uzy9jn5uvFtkKT1ktpw8JsykPG3yFj1KAEy91AfrO50EMDwJhoO7OhOwO2exID3uVo48o6zAO46YNr2HhIq9HsAbvXiWpLvUVpY6G+9LvaJvA72gSyc81pXgO2miljyuZjM9A7lfPGhIKzy+Wrw85l6YvNeMsDuwjX+8clglPXVCOr3uZYu9JbUIPLHUC72b3M08T671PA7i7jxFYgc7ZL1UPC/fqrqfBhq92UUQvHOz4zz8Fhm9wxSGvUTPyTrkzwa8RNKTPERK3LzaqLG8LVNhvPiVBD3DjJA8X+yjvOLkSD3MEgs9SV/gvGlharzHiq08snQCPQohGjy/F1U8sakQvdH3UzwHql48YnscvX3VCT3uy5w6fwGNvAa7nzwt/9e8iDbrPL/RhL0BuNy8AN0/vRD0Tb1v3Ge92BLHvNcXir3EhzG9YMpBvYfx8zxv2cA9IYmPPJIexr0qMRO8qnfKPdjsUjzIMJi70H8vvbdgvbxOT2Q9ayQ7PR8LgT09Jxg9FNFsPNVTsTxNiKw8k6dDupl7tryj7bC7Xr/6PCQOtb3F2348tlN6vPjJeLwRZ+882pwKvHMZN72oovw79AFxOtcPerwv2jO+VsoAvcaz8z13AU09mATfvG1DubwuJyu94PUMPU82Cj6BwDm9L90UvYeP/zyhrJC7PYXLOmFECT1ci8I8Z6KzPASq2TuU95Y8nM5XPF+74bw6oAU+7J6KvJSsDz0pxY89akDvOiol9DwhCo28sVPwOo24DD0Skcs8IPMlPZjyEL004lu8hWSEvMDEpDwi7b+74r64vHBoyTlstCM8uEiZPZwGizu8Uvm8OclfPR0+8TrxpoA94x9EPKdUKr0xI1m9+M/3vGihj7xriMu87d64PVVu17xa7a88neiNu9OG/TxSTa08GP4BvVcxzrwgf7+7ygUGvECcwzsPSP88",
                "3aEivJfGtLyA8xE8kGPNPFOdCj1aYKi6Y4PFvEsnQ70Djr68TiWgvBcxQDsX+Aq8Pk/QPFZQgzvuSBS77/m/O5JQSz0/WDE9xtMEPdQOgTwA+Rk+7y05PMqYXL25pCY8IhhDPEvgNz2PMeo8nv0DPAzlDj2GnNs8vgrGPqEoHrwkHj88fLwxOw/KCLwdHIa85ua4OuL1JTzRZso830qFvD0CC7xMm1Q8iBjEvJDyF76l2Oi7S2n2u7bl0Lwvoy69FBzhu8fnHbzwke88bkEKvQlWxr3by3s8wJ+VvKHHCb0zAi276I29vVcZYTzfUSo9v6GcPDT6eTxHklc8j+BgPD9ROTzyG027AZGlvMueKr0E5Ye8RiJZPUeoOb0zhP48QNebOxv6R71UHUC9uegpvWTIXL0Jxwu8OFA8PRL8aL3U/Ra80tG5vR0HGrw0g8I8RNKQPBui3TxHTtg79ItGPFFIn7xXCGQ9qXuzPI1+SjroE4G8OhV/PTWgrzxUEre6ri37PO2x6DsF1VA8vHShPDkZAT0Sm0C8wM6IvKGaKjwU/MM8CZoEvf2fLz1SfD68+VKauhnGgz0ORQ09p32SPNVRAztfCJK8OFbAvGZek7wqPfk8ajzDvCaXaDxtJYo8mkc1u1REI73febA8PUUSvcvsDbyh76e8Fp2NvPrSgL3tsyG7xMIEPR1K/7yhAgy9U8RevT75Qzx56/g80QtDvVfIbjwcZUg9fr0BPM5+PT2Xxqa7uQCmvOMSTrwWH1+9gQOzu090xTzqVFI8MlgjvWS6Ez2/wg29sioMvU2Hw7y7YrS8mvQhPVNi5zyKJBI85zk0vDTd6jtoseM8Kc9WuzGvZTw+6ve6ERoovbLwJb0RV8I7yq2Yu32PsDwshTa9cPUBvSy3Bb6kKTq9ZnA5Pbrz7zyNY+c8ISLkOzenOb33bA68KsOyPNsLibwjwSU8opItvF5/0TyNVB49JvsuPBckNzxacvW8K3hWPHwmfDvwOA89lvzPPQBAjT0YwvG8",
                "o6nmvFrnUb0jo0Y6u0gpvdkPIr2QPxc94WFovZ28hTpp/MG7KbyHvT+ohb3h1NW7GVxauUQZYr2h1tI7rcITvbruMLybb0+7l4MNPEyT1TzmqFK9yoLdPC//HD0lm7e6WlgwPOuQjDyUw/I8DTgDPRDuzbyb4rE7TVVGPYoBdrwVala9TtfzOzvYKTzjxHg8x5I5vaponzyhFVe9+zXRPTwpsjx/ASi9tAZcvPXSvzzd6hM9W/6Su8hTqDyvadW8TD0IPKpEzLtZd5O8gvSLvG+y6jskcY888wqLvMu9qLxMXvw8RqCWPBsrAru6MbQ8jLTnvNtvszy39rc8BvLbu5g+XTzh8em6rd4CPZtWPb1NnzS8iY0QvcPSKbzmTYa6s4uBPeyL5jxRCbo8IWBEPQ5xRz3ANT29VIAvPMnydb0hIo+70nm1vJETijtOSA09slU+PCXOQ73r/MC8Y1gxOwvomDzw2OM85yXVvFOvNj008kQ9LcpLPeTAhLu4OIA6xzbZvG2cK73xNh08fCbAPOjlST2Gjqm7hz78vG9tqjwF6Gs7jE+HvSdrpztZJy2916AMvXzxqrxrxo88OOXfuxt8vzxwuak7VxgyvfHdKrx5Kki9wGruvLa+ojyV5EG9ncO3uq0DEzxCKt67L7fSvHtZCz2DKz+9SEJKvNXK0L2jMHA9EuCIvTVowrx4E647ZhQWPZlrlTw+MaW8JZ8OvKwce7u73v+7ISKYvCUzszzlov+87c11u5HVtLnLoAA9pi8+PUpZVT2T5a68O7cmu8A1TDp2G8o8dbu8PDxgdDrZ7UA86S+Uugn9m7yV3h28Chk7PDcB+DzkeYY8NNeevMx8I7yO+7A7EJ8ZPWa0Mr1OuK88fD86PFkgIL0gCQy+kvgrvbC45rz4KmY8Qi4avfexozzf14G9mOGEPGclHDxmiDm9w0xtPa1w7bx5lx28PzmJPNJ5J7wlgBM8+zREPMQVGr1eAwc8UXUTvWnYhr1FYMi85orIPTgtcr0iRAg9",
                "jAjgPP8nyLz/q8G5dtzeO0JvPbyTf4G8bWJUvZmkxTroDKK8+FjqvL1Xh7wzpc68Wm90vfom/bzvUeQ8aXIwvGZ8Cr0GglY9gEi/uxnvqrzBvTK8Kbh3vT1oMrsOI4G8DasMveouzzycMVg8PqgMvRhl6by1p0E9bEONvVxSnzx+ezC9mYKgvIP5uz2jT4Q8mc5pPNyYSLwSH868YGeRPNo0Ij3d5d88Wy6EOZAcxLupdqg8Wb7lPMh4l72jkw29+a2PPCpXjToL6Im8/UkkvTHBsjwF9hA8rCKRvGz1wzsUBYS8NzeQPXrv3TxAz6Q8wxsfPaM6UjzhEhc9JAFzOwQf9zznpy69kYAnPIJbET29dxG9RZcGPCNLCr0o2w69soUXPNA6BT2W/cw87OFCvV7A8rymJBW9wpwjPVSP4rxzMx09WtAOvaOM7zt3k9+8qrFhvaOWCr0HvdO8e2cVugAPIL2wLw09epGBOpvT8Tt+amW8gFZ5Ood9Mr2Gpvy8u5DlvN5yADsUxCk8OXyLvLQaXzwmCU69rCQHPTVg0DytO7i7jyDkvGuy2DsVCHg7xMpBvLpnBz4WYjQ8FMk8PacJv7wNaO26qdFJPcsJcrzd1YA9R9LDvOrAR71u7ek9k6ARvRSctLydG647OqA8vULLOz1/cWo87JE/vEhvoz1XbGo8lg5NPA5uVzwLEDs9b/sXvRjrdj0Cjow8akiEvJxYh7yWESu9QplCPVshyjw5mMO8JO9PPdAkhzqngkK8ZSg2PLcdZj3gAj49PfYfPWLdgL1xGqU9wLKBvJd/8ryCzO68JwV6PerlCjzdcro8Sa1nvPnRx7yrET28TPYpPXzCEb2GMUs6TCO3vFOHBz0UDNK7+x+JPfeiHLvqRvc7x40xvNfDfjz8Ize9Gwy+PfNThLzfsjy9e4G3O7f5v7yjziw8CbbxPLddf70/zco7S14CPQsI7LuPbTs9C6TtuwyjSLy6XB09y5wzPOGtRDzsEi698F0vPBZOT7zGWyE8",
                "m7LeO3vMSbmdWJG8ppf9vEY5iLy2fwY8YRKVvKj15zsGsyu9KFqzvF2aXLrx5Te9U1fnO30SGL1MdAk9Ib7AvIgD+bt3D568XYA8PUpufDwAdCE9CoYXva0W6TvJDsC8sut/vMOC97wRMpa9acEJPW5axT0ojMQ8I05NPBUXBz3lrgq9yzPfPepve71QzHE9OZLUOu/LhrujlO28HBLzPJ1ELrydydg8ICKQvRaxODz/9i09n3xZvQgNxzwFUA+930KwuyZ9Tj03zfy8UgMcPXmSXT12v1o9gGNuPXHwPzwJkwG9PVrzvKulCr3eNou9L5X3vIJTZbxK5qC8/xzNvKwJvjyJf7m+E9yDPDjabDxb+Yo9uU2/vCwysjyjis6538MQPfhW3T3cvC49GZl3vNeiDrye8Rc9D+7DPCo7NTzCSTQ8jneNvB+uF7xYz5m8BBzsO6CdCrx+yga9cK/xPDydI70bqey89Xs2utApNLu59Ce8K8wEPXFAkzstM548Eu7qPCiItDuk7t88hdUwPVb+jj2bcAI9yxULPRjm2bxMoEA8HHLtPCCOpTzYmH07faeBPJ7E/Lzv5Rq9ihwGvfu4bz3ZYfa8VJ2ePI0c6TzjPtC5bJihvGfAYz1dRIk90SncPLyGtLzcW9S6NPQDPf3/9zw7L4e8DaWVPSMYPL0WBXk96pk9vC7DzrzdB8C62ZGIvIxZUD3I1nu9vf6rPSfxmj2BoEm9rLEVPVud4LsC3Zo9+yQyOdbOzjoT32y8AQC/PFu0AzweWXG86RNJPZcpd71pHYs8+efePIrSDz2c0Uu8yXjCOoGY8zqgAfw8Sz4LvWat/ztlNXE9+mGDPZz77zxe/q45CzCqPEknyDwgGIY8DrAtPav+dzxVuhA9QS/2PJBHtzyTxcm8TEqrvbuDtD0wWYq8lJkxvWwePztz/ia8iCmkPIVHhD1/yQk9dkb1O4NsvrwMchW9kLAnPG7XJz3MVmI8Bs9tPYbgiTz1aT282ckkPcNBOL0RbVU9",
                "g/6ku8ZcZzyCkV494v63PBKLiLzyGHy99bW/PDATDD0UqbY790iXvDvYST3UQmM9RCR7PSZVBbs0Ek6/pvVDPNxtjzxbjEG8CMFfvIzFA73ZXsG81BpQvbXe6bvg2Io9CWmOvJOcZzvSWpK8G0p/vZIrvzzg4M0899ArPOH1R73DHzK9csSCPIRoGr2Zi4m8pn6NPB23grzRVau8w2AZvfVwgrz5+MM8Zz+/vEn4xLtUa0S8sDixvGMYID0iu2y9hwrPuwK9HD0vIoa8qmhzvQmASbwiVb88+qvkPMhQtryPAqm86KNBvXHNmLr51yq7HywyPVJxJz1+MH89zbjMOqNhzbwe3GQ9d7QAPZIZtjtwfwI9YhRYvBPKibz0dqg8cffzOr0M3zwRfbo8n+DGPGXc5rrm7b67ETFvvI0nFb2wkRm8AGOtu33U0rw3RwE97M5sPDC9g73CWZ86+/z6Ogb7Uj28yei8W3JivWUeMbzjqqe8igQEPjUlJzrHUNu8znK0vSVOrTzk9f08JAcNvCA7Hjx5WDe83SLLPPlPVbwp0Ji7SzjiO0aUCby/1Y+8XHDIOg+DkzuHUlw9TXlDvYdgrryRyj69ryHSOxQRi71vS3W73/uFvVqX4zy9CVk9hd2gO96mXD2GYoG8sdsru+R38jyOHTo9vnMuPRkV7bkddT69GZg+PHiUDj1etx68STa7POGVCrzk28W9ZgJbvS4pT7zs1JO9VLoIPaAy9DyiboS8HwCjPBbXgTwF7es8Tt19vPuVB7zSHBo9ifJ1vNwy27p4BrO79DKfvALNxjxnEf27ZZeAvbUrMT0PCgo9oac4vU/3pTu5jxs91x6JvLZelrzU1Su96qS6vUNFn7xJ4Qq9WT+QvKDp5zxq9Us8BgVVu6RHvjt4xkA9tafGO7ZyDbzBoYg94R0FvVDjw7tQdAa92AAQvRl15D0b+bq8/86EPHIXFTvD2Ai8UIK+O1EOGLxxdRc9of3Zu2zMATzWx+I8Hs0DvYAnBLymahA8",
                "lXstvUBXnLxUAYW77myXO6OmFbx3DCi8Qw/kPP1Gozpbg1a9AmKHvLlGnrxXpnC9gTwQvAgZYz0itq87Ka2wPKu9nDz1VRK9OCYcvI5lPrwuUBS7q6CCvCzTBLxTf+u8pANIvAqyF7z25SI9lkClOaMQ/zsj3R26RCR6vI8LR73okTO8SrnLvWi+OL1H0Vi8sqoRPTXnmLxhcZw8H1o1vfWn9bwVebS8wgfOvN82Uj3C1B87VJOVPM5lPjxW0K48zGEtvGJe2T1MCRK9OZTgvBd597zdAyI8YtRFPLx23Lw1i/U8FgXhO3NyPr0oF8y9X9cBPDRvnzyPbOo85LjlO+p9QLzmB/y8V0S0OP6EKL3bPSK8NwMSPLXGoDpPIge9RtGXPJKTtz1dH0I87pBnPZMeqrvrPQe8DUDSvJOygj0tCao84LjNPG3BJ70hnzk9qgffOndLuzyyGOG8UlTIvOTFzLtwPd092V2rPIdZnLxMNh69eLrDvF/xvLzxeLE8knw4vekKjD3O5CM9QKLFPEjsAz3hY0i8a+wmPYO4k7zc+wS+HJPyu0NuZL23Lui9RQ2BuRGrqrupszq8XCuiO7xWsrs5Og073bDhvDeUlbzt0/I7JofjvC0y3rqBfm+8dpUDPJLpcL2vQaq8mi6IPOduXL1py508mnfzPEIlRDvAQyw8rzDcvG3LN7xzAGO8epeovTSBB70uroo7tziyPLGb67xxBgO8sPvBvN7giDs0CCc8/fSfvKpFHT3gZH08z/EZPN/naLkBifK8EaudvVDVurqPYNm65U4uPBykGL254Ke9BFydvHhuzjpzOnE7IhEWvJqF7LzOA648ie6yPNxidDrTWwa7iAOqvPD0Pj0plhw9XaCgO4LT3TnNSyE9f9IhvQeUqLwrvbs9DGg3PeQ/hTwc7Uc7LX6XvSb8ZDyK3gQ8iRnNPP/QobtgV2W9RXrXvIrHOrwO88w8JJKmPHSrqTxM2ui8coNrPId3KrzIRO+8Ur2EvCDj77z3BuS5",
                "ApSfO8AwOD2ZLA49XruIPMezYD0bCpI8n8cxvFya7rwTmEU8b7SaOySFCr0kxhk9h8jFPHCqJLunUEy7/u1kvG0hGD2zkyG4ScqluiH2nD2JI6Q8YwURvdVwwzzNTP67MjjqvL2GJL3Q3787oMUSu7rlCLwmO4w8JI/BPHLQn70m3gg9Q4k6POGYobsuDIy8tELYPP1rA7zXoBa8zKB8vQ7pUzz+Fvm7O909uyH1trvZXIi9Y779vOFuSD2fPJa8HzEjuxQUJL2kR7A5pppKPLm1E7xgzWs833MiveJgq7z8C1a9EGC2u2AprrxgLYo9HS4JvdTDoz3Wov89UEwqPaRd8bxDPLK8dlWKPCrC3LrK9gc9Oue/vO0aAbzxMwK8WXGKvI+yZ7xdzHQ97m2tvKNZ77wXZIC7HQ3xPMeZkbwmBss83uKnPXxwmrveeRw9GdVKu6SQCT3DZ+S6zXkUvAxPqDozS5I8IB81vFS+Nz0dWW48SwcPPJObTbsOglW9b1qovXRE4LyqvH288TskPAnKZr2FvsI83EMePb+oqTyNKTE91BOgO5nouboRei89dIqbvHbeUTxSVb48CiYZPgpFs7wFWyK92K2wOzrL/jsVWiW853Btu0bt2Ltbfv48SDk4PJT7lLwOPgM8UJd6PAxrbL1/z9G7WJkhvI8VEbs7HjE9La+Gu5xQPrzDIPO7q/1pPCHaajxl8ei8COavPJXHyruNndO74Lq/PKZdST1HdIY7b1sSvFMb+bwqzaA86I1Iui4yXj3yY/M8OP2wPDqIRb1KFiW9xlbPvPbdib1+AzU8gZx3PMvOCL0HMd28C5IqvEmwJjtohsU8K/rEu8a9B702K+m8CkwCPVIoizqP0Xa9KZHEPLdPFTxb1Wa82G8MPAmtKj1oEAE7c4Rkupj3a70u/ue8LqnJvKATlrvBax68SPyWuSBx4jt7ugS9zYGUO+giyrxvtpq8lt43vclhDD2MIOw7ef/lOw22AD26An29zpuYu2H0mLxNF4a9",
                "qFiZPGEHBb0eo4u+IS6hvJvs77roM9a8rWbYvMjTs7w13hQ80lyVPByMm7yHyjs8n23CvDDUybwfdVC9wAcrvQoNjr0vIJq7fNWzvFe1tLuu2I29m4f0vYBt3zsceg68xVvDPOHCMjzkzh29lVkFvQXfETxSAY69KZm1PFJELb1Ukva6I9qyPORtIz0ot+I8bDg6O+/px71Rpo49VCfLO16C1D3u4wG8vji3PJDNWDwkAMM8T+ylPNJjjTwsuJy9mkCcuyOMnjxrbJi87wKhPScHfTwcDs06hEF/vGO76L33A528am0HPRxyPb19Jhc7aqAtPG1B9LscbLK7MpEjuT8ZzD0NIxe9r9HQvKH4p72lAxc9AtdbvYLReDx9AEQ9Rl3Vuz2WSrwMvk49Wu+IPSJXJr1xrnO8rXu0PMUEkTz2I4E8fF+VPOAstzxL/jO8WToAPXKTDL1r9/w8zFTnPf+337vG8aI7hE/PvekKjDxTeKE95OfnOzfXSr3BDL09yijXPGcZDzzQzwk9a2qnvF3fiz3ayIQ8Ely+PGJzJj0D6mo9bcbNPNG7qbyhA5E9Lbv+u6KdJzw9Mgq9DjsUPFo0iry0+zs9AkTnO230VL3ouVy92DXdvLKoEr0TpLm8d7nIOs22PDzYGDc9v3WQvLE/drwiTHM8K97XPCxANL04vUI8Fr8ZvdqMkjy9eg+9r0MPvJHgxbwthrk81D1nPThGWj2/SI27ttdovPigND2g1V46VA0WvZ33ejyqVrG9+PUavJaXFT6nFKC9DaHyPH3Sizy6NP68HO91vXcABrxB2wu8rgyHvJbJV7z/YzK9xRYavaril7z+X5I9EktqPMRbFrswKok8sE/mvDKGXjwVzGi921qTPAd66bwANsy5BA7lOwyPvzyuWvO8534VvcrI5Tx7IqS9iSatPPWpcD1qkC09V/AlPbp1NjtMdLg8b18DPbWKrzwoPIu8bV1kPYZrhr2N1os6CiUSPATdJTwnWga88VHMPHlTJz2dTI+9",
                "qbkJvKpdYjsk47c8sf1APfMNkju6BtU8eOm/OonVK7z0Tl48X+MUPRKpJbxQNZG7IiLRPAYjyjmE4Vg8sBAoPULKo7zBzK69Em2UvJfDo7rUyt+8CtUzvJu8K704G5c7oW50vObGpjwx/Zw8Ux0FvXA1Lj0gOhA9HkVnO2EisDxIo8w8Ou0hvTKBvDy/6pU9HIn7PFthlDxgEjI9E8GhO1P4mb0svtU8sJt6vF8GW72e84G8FapvvPqkWzzvvmU93CYdPDjqzTp+VYu8iU22vG4/pjz14Oy8p2JAPcVLAb1l4Hs79vi6vC4w2TxYsIC7C6qDPcw9cjueGky8mNYpu/z87zoYudG8TIuQO9W9Xr0qRya9V+NcPlPCi7wgo/g8Nff9vKvWc7x2Ho08lhfoPCFK5Tt8Wge8AznWPI2skLwPMaU95IQDPMrvyroxpkA9Nw1GPeCgPzs4Y0O8vHf5vC1+2b2gsCS91qGKPNRqG70RyWW+d+5AO8jq9zuscxI834tCvUcc+7ww0Es7LTC9PAYO17ydPj49Y1CQvBJ+mD1OdSI9oAA2vVRWjrwMigW8hHmgvHfBaj0IrRa9Jo2VOjEnY7xJFJc92lp9vLZpET0XX+o7xV1evRPswzwQpJA84Knvu2pjGr2+OEM9UokMPXDprjuxmaa8MZKTvFd/UbtLL4O8Ou7MPPPRJbvBuiQ8vJY5PbNrPzxxIAM9P1CivCVmtLwFjJy7qk3jPCjHCbzBZ5w8r1BMvZ/6sTyNPy69wAh1PbdnorwwlmG81f94PReOxTxYhWu9Cj4wPA87lLkwGI+79H+Vu7GsVrzHhmg8g/CGPEv8urvlvdy80r5ovZwYvTzXq7s8y68nPQ5VOD0xdw+91MMqPdDxz7xCnbM8WaYnvRY+4LxpY6u9R3Lou3rGTbxgZYY9hHNQPM5jZLyBHwQ94dWQPBlIeT2R15I8+OOHO3kWrrt49zi8CvUePN8khTwki/M8d0TJPFFVGTxZPlo8ajSlPIImrryuVCC8",
                "Ux4aPaqhSTsypWW8ff8XO6ZcLb1IMJG8RATwO6MXUD1dURY9Ap8uu1thwbt08ak8r5kPPYpOsLwBYLG9ZpdDvfzo4bvTBU28gtKdPBE5Ij1DEw+9/NQNvXLSBTz/KDe8l4JovBZaizwdZ/o7sqsbu0rWu7xl8pC7KHSMvH3zXL3PVJu8FSBfO/u9vroNE/K7epGsPPIo47w26Z671vvvvAyw5Tx6mn2+lhGUPAo7Sz2Rm/K7f8ycvI7r0TxhqeM8uansPBqJID0svIA9o1ucPYTa3Lzfl2q9HFsGu5xNLryjVkk8Tq02PffInLsVaKs6JAD3vIBwf7yeSZM9Icw8PGXFmzxeeYi8MkimvcER47no5x09LdI0vagTHz2v2bc8wLrjvCPBHbwHex+8BmF1vVB2ATyhzES8eQKIPdgMrDxeVRW9O7FTPWuxWj1jIgg9O90fvRP3yT3tVII5eKSqPAORwju2crI98PcKPJoQrrw52Wg9BPxKPGImGz12i9087jYmvezW0Tz2WiS8CNaDPLZRKbziXgm8K8yyvfKnAbrmevu72bw5PHMSHr32XDa9WL7dPMqtZ70pe5+8uz2zPG8aHbxsrUg8djmoPOseGj2Egqq8ygaJPErgbLzvkne7h5UuvVSYQLyKX8+7++nvvE94Bz3HAws8oYdQvEip37xkvFW7OYNKvGVbRb031AC86nzevO+1GzxuAyG90XoOvQxZPLwieo88cqpNvaM4grxL4Y892jKhvaKoi7xxNC08ynRzO+nkZrxREG28fV3sPBb6gjyI3MC8qbHvPJdIjD0mP0C9vyhpvERdmjttAKM8DQldu7ZBzbpt8d+6GfypvC+D/7whUTK8QQZUPW0D+DvW+Y87wzmNPN+zGr1QbLK8qUIPPSJNg7y1lZy8B1rtOzAsHj1DJ7W8uYKgPBXPaDsg0me9hsEUPEpwqbz2BJa8KuyovBpiWb01Oli+TcfcO8GOsLvDNns96b54vMw1WT17X1G9V9RqPSwRFz24BtI8",
                "9gafvPMbgDzPae48XYyoPIzHfjqlcqk8mP4CPXcHIr3zdRS98BoxubHX1LxFRlS8fWASvdGWC71pwLQ8Z5rlvB1SoT3t50S4qfofPVb/Yr0thwA9642wPQl3MjwMFPw7RbanPE0kpDxynpm9WYluPcQHND2ZXHG72HFEPvVIwLxH0Bw86E0JO2jV87yMcNQ6AYEePYV9t7ztOok7H6YLvYcDe7uAk6c8AMBcPKpLETqcOSC9gaq2vKw+J7z3BDa9ESWHPX0GID1sBga96/aqvBiYaTwLYKO9Oq6GPL41IT1P9bC8roa6vJl1jrzn//O6tJn0PA41ZLs+CF28gGqKPARkhj2FixM8p0IfvTf2bbypVws9A31UPZ/HiT16YxW7LamRPFwV17wsx5i7jTA8vUwHCTvsP4q7EAy5PMwoBL3vAje8WJyVPCPaFz3/D2m9STj4vJ8/MT3G9mk91ezsOahMPDyLBPW82BFCPc3U7Tu9wR29NnrTO5pHhbz1//+85aIjvRlYjT1qMD89p5ndvL2owLzIhQE9zugPvPs8djy9tvY8qowfvdTfgj0bcZG5DUbePKNnnjzCxCI7/7xNPSC3f7wBPrK6M40aPhQSWb01ec06rjndu/ix7Tx6XVs8xXouPDLsQTyrQee8X7NgvVCH7zyVFD494ZN9PW+QOr3/Elk6eRRiPRgIFz041AK/qaleOyGxBr0D5OE8WzP1PMmNyryG6w+7YQX7vM5IaDswsq68ePZYvBh+Kz1blMm8+ULxur1MdTuwO6O8LQjQO8/UYr01GQY9QOOevQ9KDb3OgyC91EGhPE7vFr1WSbm8qDYKPUrQQDw8RKe7nJwwvTgeibvAG0g7Bu/wOkG62DzkGVu9nlwSPQwlNr0g4LM8e9AQvVXMILgY77A8W2CRvMYvGD1ce7c5I7ugvNC1Wrw9S6W8q25hvZBIXz0GsMk8/NQKPW2Xjrx/zyo8TZM5vcVRzjziX/c8vfozPJN797zO7z873RprPGelijy3mcO8",
                "JpuUPfHsajyVz4I7zUoMvJUiYj0KgMM8e/BevYysGjoTZjs9mOsfPTZI47zPCde8bRDmOwI1tTynYl49zrI/vXnRdz33Xa87K/cbPD8YIT3VhII9FduEPUwbQ7ylhdO6Pfvku8XKfL00fuK7tggBO8ZEiTvEQVM8F28QvGZpsrvVGck82iYkPY7bHD1ltRY8qZJQvZBB2DxWxTU8B8osO2gho7s1cdc81U2+PFlatTxNN0K9xc8/vd9uPL0xhGu9dax9PQFZ9T2Ed7091MSOPOiVjLwJQhW978zUvOIyMr0PHDK90DGZvB+aLLxSCqK8dWO9vIlDGT1IQQm7xjtdvTI/ebzhE8a7C/waPVtVsbsWSRM9862mvfEe2Ly2L+S8reaiOjRBej00iEu8tt+4PJC3a7xUpqY7cpk5vN2vqDzpEyO8NBFsvNB0qjzECJM98wWhPCZf6DwKGoC8P1ESPX83Xb3F5TY72BXpvECK4Du4sES9ghzEPJl4Fb2KqYq8W5UqvfQGY7zZrq87d5aTPWk7UzxkNES9o8jKu73/Nbs0uvA81+mgO8m9pjwp87U8X9+EvJtD+TsSbQM9jPMyPd4Zgj45rsg8zL1HPE3KA72Ehge8caTvO4EBJD3uQH48fH8jPVitCLx9Cks9JkFmO7Bhu7sIZ+C7YIhSvcEtn7virtQ7h7zovCG5B7116IA6fc+jPFtik7tKtHM80ybrPP37PrqRVU29JgT/O11YVD0o1V45emlYPUGbaT2omsk8RG2iunDVGjuwIys8Yu/mOn5HXDwtAjO7dMmtPOK/yjzEI8q8VCaVPFM087qtfCU7UkCpPM2EZbvVhqA8Z3X7OrQjFTzb8/u8WusxPa9u9jxSVPs8KRCePMVKKT0Uk0s91hTEvNHHNz3nJHm8UwwEvcIJwb1YOwy9pWd2vAFGfTz3IUq9aBMlvayIr7xCTe06bFoMPQgO9zw/oXc9QXR8PDKvS7wDT3M80REQPCA2DL27DgW8CoOcPBFkljwSGpc6",
                "GY8nveLoizwiovy7VzskvJemhT2UNd87lg6QPbnn3bu3ixU9cgsTPGokIb2h5Rm9b6+1vNjtqjxkrii97ZgSPD3VRLxLh5a8eRJIPD/opbsO5ie8LH6FPVWTg7xZoKw7ysZXPG2jKzqmBhU7t3/qvKtfYzwJjdO+CYaSPC0TiDy3MIO8Xpfbu19frDzRRJi9MqwfPDVcsrvUNtM84x9EPVgoUDzwrJY8B5KnO5OrojtMUl68WQM1PUaRvDuo90C9lWUhOw9zpD1RdVg9ljChPCpr+DxZa8o88iqzPJWVVDwLggo8zYecvL9StL0x4KQ8yAMRvC6xAz3v2Qc98ouFvA+c7zwdwmK9C+8GvR55Bj3PEC49ZM+qvAmTnD3cQR89atoYPamsdzxoItu8aXWivN4Cgj2W62q96uhuuzHdBL0UxtC9aSkFPA4UnbzqIgA8tkD0vKzYHj3WFuQ6mqb1PAVoBDs6E0Y94JdkPBQLJT0EKm68MikauyeACj1OiOs7AvM3u/9SlDvnCMK7HnfYO2RQET1ya1u9SAJbvShqT715//K7JBgiPKEl7DyyaYa8Vs0KPKp9TrzR+JY8ZJZMPJNPzLxOLY682XgvPKr4gLy9pug8c3nFvJMvY7oe5+A6Kyoyvd8LPz1YZAC8VLjDPCXczLl0KYU9aKCIvDZcRb1TgnU8gP83Pc99tDyZV507sJcFvGfb3bqrjUm99nWpPHJzk70/dGm8hHqZvLbNo7xcRC69gyvavMtoprxWuHS8+q6EvL6AFzyQWZc9kozQvY0dVLsqntw8NXKqPA2s3zyu9M08Phu6u0KXMbywzB09mMG5Oy8kebyRg/A8K0rIu3+rBL3jQYC923jNOocXijzYkck7GYUEO0YqnTzvCR49tvI5PeMgz7uynjm+CXsQvTN0Oz0up9s9Ee7gPW5lLr2253A8vfmxPI3TLT1RztA97BkdPaVr1r0oZUm9tlCjPHjs8rvPYqC8cIx1vCF9sLwAiVQ9ko6mO+4HurzDa229",
                "WqdkvGeCEbxBrSe81WLivCa1T7uxNag9Gibeu+iFzroGHr68NP1ovUNGmLy7Lps8pWC5vJ6XhTzOUGw8I5DGOoJkrjsX34O9dFDAvGH/Mb0dDr68l5aruwrARTvqoXk9brEOveDwdT20BvM81aQ1vQDzp7yOOzY87b2FvN7MSDtA1AK8/hLyvLDfMbw2g9q9XIgbup1quLymYNs8uPLsPGSe9LyfdGq9ffYsPSwZpLzjF7E8Ok9Wvbpf+zw6/CU93aHxO3aSEr1p0Ky9dodRvOZ0JT2rP6k8BgyFPYKAyT0PrW08CqyBO6cx6Lv+C1s8g/mKvfUHPr1B0iA8nuj0ua6c+TyKcoU96jdEPKzvRzuEWne9d0qHu45nDr3/7I+8lr/bPUjMvzwM3pk8P97GPDLDlTt0Deg93eAyPQZnID1Yt/y8nyCEPFRLMb3VO4O9WcThPBrVGT0V3p09d98QvQmYEj4Pyqg8cYMJPBslJz1FUBI8OCV5PcYVA7sJchO8Wi0tPff9ED2851U9OGpNPQ5F6zvb5A86HLRYvVDb+j0RH+e8+13SO15HLr1Q0Nq7dZItPMX25Ln19sy8qAq7POfV+zzWe449xmyeu20nwTrZTa48jTPwvBBBdL1EEzK/gEQJj4ImCY8EXAkPProHj8Q9CI90QQiPCh0JjxhUCQ/5hAePZEMIjyOxCI/p/gePQxUID0YoCA+D1QcPGaEHD+4oCY+8gQgPwWgID81PCA91rgePEmgID436CA+hCAmPe1YIjzonCQ+aUwmPQ0oJD+5eCQ/18QiPIGkHD25DCY/gcwiPYkgIDyzACA9+4QgPiIcJjwZRCY/IRgiPXBsJj1kuCI9N/giPJUYIDwtQCY9zIgiPc/sIj9ycCI/hdQcP6GcID/J2CA/rSwmPF10Jj77tB4/PEQiP+rIJD2P0Bw//XwgPZhgIj/q8CA/ZVAmP1PcHj/+JCA+DeAmPgKgHD+32CI/9TQkPZqkHD2KgCA/rwwiP4TgJj/4jCY+43wiP",
                "3KMIj1tmCQ8MWQkP6yoJj7DRCY8jMAiPuV0JDyIvCQ9RiAePLJcHj9FKCQ/ZHwkP7soHjyPtBw9SPwkPyesIjzS0CI8UqgeP0FwJjx9UCI/n2ggP+lEJD/dECI8HvgePnYAID7jfCA9iawmPGhQIDzlUCQ8iSAiPWdcHj38NCY+U7QePz48Jj4bkCA/05wiPsugHj2ejCI/mlwiPvJoJj8CiB4+qygiPnxgJD9WACA8fLAmP3mwIj7hMCI8OgQiPpcoID0uLBw8B9gePEnEIjy0ACI8NAAmPAmQIjxgiCY88SgmP/NMIjyvNCA++ZAiPJZoHj2ZHCQ8k+QiP4+4Hj+HZB4+Y1wcPcV4Jj7yECA//NRm/1gALvG4WoTyl9im6zdKHPQGniz1T3FW9yoq5vIBl2zj5FvY8bDqYvK7EEruNJiU6SZRVPBvFtDxtndK80EGnuqoqBD3Sz5a8+MpWvC4QCb1QWdU8h1S3PNmkCD3zct48cDxMvUjuST1rblg81cg1O7LkTDrBue68jkzWPP1hyburbtE9NO2FvQdoHL3Fumy7mK3hPDpAcTubXtc8EguUvJyq17vo1XG8T2f+OzbKTzsNbuk8OCcAPehKqDwGldA83KoNvFWZqj22T069+fGjPFhBsryi3Du8GLSMvXhKpbsJaq28d1x1vBkqbD1p5nI9BfxJOwMSEb16NSw9Q4UbvVKVDLzeTw09G5gbPWVMgTx5g2y9fomOPGd6XD2MvTG9Yrc7Pblgr7zvCTu90xJ3PCUWG70V4TS9pbwiPZeRq7y85q08HaOePK9QhruagXk7BxRaPfyt+TtRHv283APzvbJfoTyPxbE8MJ+UutsN97z3Xsq8lVEAurncE712wH88umXBuiTRMj1kdqa8RT8jvXeAg7w3KJ48cykhvGFI7rxqOjm9eI0QvUcGLT0dJpe9IO1+vI7gkbxPKGq7LeOXvHsv/zx5B6s9uUt7PIEAK72YZcy8dcaAPJyZ77yd5EO8JILQO0zrfLx1Xcg8",
                "+3AgPPwoXDymdUS8y4SsPJxbET2k8CQ9IrCYPUnedD0B3MO8PddNPHzCRDz20gg8IrQkvA+GTL0cTP67fL9gvYx2ibsr/Qy+/CdvPbKPkj30ZxU9CWfcvEy5Mz1zR4o8sgxhPCoh3r0O/Bs81XeePJWs/rqUI3Y9pQCqPNAesjyoa4c8qa2jOywfS72eCoO6Sg+8vOJOHD1YWh09Kbfsu3GNSry6mXC8lxbHu6aSnTxyKqU8KPVLvCPpujyEG9E85safvP3/jT7KEpk87gwCPIreBz0LDO88opYDPlrIGzw5KE090wS4u/E3Oz3LVNQ6KROtvL0SKTxdWo684pravHON/Tx91l48rNEwPcCtgLuniKM8ilrNPVGK/TxeMW89FVxNvHDEYjwGAtO7sWWkvD2JED1uvwe7tcrQOyo+Y7p7qWo8uLYdPfjZtjsltoU9FxpaPRIRNDwJZoA87AkEPfIrNjw4sCU8/2i0O5GS/jyvylk9/CmbvP++k7wVlrk8HJw7PRkvFz14jS67ZfmhPABprTzq7tQ9oSCUPN9ZxTw5Vn486SHiPBgWKD3guyo8JYBsPRLPFTovTG49D2Luu6jqZD1p8eq7SNw5PRqOaz0BvNE8ze1CPakaNz3863Q70Ef7PMIP1zxawls9Rem2PDZTGj1MEa669NA4u6GN+Tzqu5o8Ox6YPcNeDz044hI8/URTPNauDj6IFk+8DdaPPM5YqrwAMz88rjpCPXUsFT1Uv308LE8pvPLrijvalFq74TRcPe50PDtgqBw98irZu2Q2mjxzIZK8EbLOuYBYmzvcgIU9BoGBPPEZID37ixY/iq2FPHQMuDwDwJO/GB+ovN9G3TxreIS8S8PQu8IQ6TtCH7C920fLPRNqgjuD7MK8d2nhvKJySrwtvza96fmFvLN7xryPop+7eQckvDC6NLz8yku9IeEYvcRVmDywXg89tR8aO3HFK7xUgxy9M8k5vR5c+TwYCTo+GikQPErRoryLO+O8jxTJPBnj0bw8I7S8",
                "BfoFvYQlwTyh+O49XJoVuyEVAD08y3G76sWVPe6mqDxQAum7ebCavZkd2zyh8VW8/TiHvdx3vrz1BwY9kZmFPWfdSjzRpkc8panDO/AL7jxCpnI8Jkp9PDu0sbyZwoM7t70VvH/SEb35tyg905KOPHEaGb0pDHu85Xz9PJSLMz3zsrq8Zh3YPAETjDyox5E97LSKvOlfDb1QUx+9ETA0PIoSYr0wAV89U1wbvZ8SKTz3idY509muPeW1LTyr3iA9RQQou5pjsTxVVD09b+zGuZFBszvX9gO87O+QvdUas7utqP68k0u6PBkxzjxuRwA9usMfuzZITDxtiwA8U1VsO3Wmg7xKKf08yp6JPO3eHL2PttW82xcVvbt+BjwaB4m9fOMGPTnN+bphDEs7X8kMPcQ1XjzW0Jo8sWErvH5x9Tqn/w297iqRvLrKbry38WA9M/pfPbTzF70qjva8ao6nO2CTOr1oou497XPCPEti/7x3+hK85+6uuzslh7zLM3O9F7ybO9EGR723Ua29xgAyu2pNHr3cBdM8EedxPN+Hijtcce87diBnvRbCYjuEAUq+xzyfvaHYFrv734e8On0uvaNjOTyBkio6VQ2QPXMtDj1EGtu8X9iXuxFZLj0peea8CuLaPEWhvLyinlM8Bbc6Pao37T1qfPq8nYhfPcGVHr1KYEo8/FGJPZ7RFz2ISFg8zWvaOWKmgj1NeRw9cPRVPKeuH70UixA9Qs7gvPbK4DwmJ7474zBFPOxBAD3rlwy9TYXNvNKhJb08JAU9BEdbvBK7CL1EMgg9j9qBPY1uabxbDwg93CWxPFLX3bw/vIK8aoj4PMpo7DtyYpS9EQEsPHkYMT0O5gu9EI3lPHJnWbzB9249tQoCPYalcLwXiR08ROWOvMqWjD2aGZ45BbuJPfA5Lr26C9K8s5YfPJo/qLzObls92EjhPCRTCDxygri8QVHNvN9KF707bXU92dWCPeH95bxMQCy7+rAbPcK4rjxU9hC9M+XAPA+HEL2NU/W7",
                "l9ocOoIrrLyr2mQ8zFH4O9JWqbgVD4A8XFABPRvFS7xUo867o5sQPQCIJb0+FVU90x4ePSrZoj0UFxy9bI3rPTUJi7n9OR08Zy7+u8wtjD02RKs7vHrUvLMTgT2tIXk85GiUOWETOr0q3xw7tRdDvOScoLypKE09vDoVvZrb3ryx/S29Arf+vPHPfjtWBhY90/t9vARIB7xTJWs8qwsQPOMKUDyNGd28jLQ+OwIuX71kznG9esPqu9fOYjyhXxq9N+RAPIeUbz2aQgU9IBwWPQ/KCjxxYjU9B/R4u05l9rzeQOS+KTgRPIqhvzx5Bya9c/q8PN2mpTy3iRm9k6EePenNaDr5QKi8z5YnPVYNiL34T/g87G+Wva1AXD0W3bO7jqoxvYDmaj0UlCm814hPvP972LwWKKo7m/PnvNQaOz0Qn788YKAuPQ5Esztc0VG8cb3tPM/KLrz33gW9JlnnuwqvkDztGFG9OkjqukwzrTyZWEQ9jPaPPb4lab2Nnyk9ze4fPfVqCTwevw494vMwvcoM373y/BI9G78xPUfJMr2Gebq8tClxOrVkVbz4xy6910cpPC6YLr15MQk94JlkvJVyFzw7yTQ9QeWgvKQcyL395SI93I2wvAnVkzyG+rA4F4s5vfrsg7w+/SE91ceIPPQ9Uz1wfja8lF6rOy8PDztStym9RXyXu76cajudIoO9eX9qOhPvQL3T0zy9Wbg+PdVhsDwc7iu8VO7SvGg/lTu3MNo8Crr1uS/lMru7+MO8tPeHvUC53LzB+Pi7xjv2O1hkITybiXU6c7ytO2xshbxzLA298n7Euzb2ObyvGNi88V1VPd0pZTuKwC298LsXPce227x7w5y8NuwzPVrPITz/pE09jjWLPF7w37zWQck8xiW5vIlirb06Fp68oVjXvC+nU7yl34W7a00BvWxGkbz+w0c9IZNuPZu8BTwW8Su7fAoBPMTZVDxP6ha909kNPacFfbywE+C4g5bNPaOUM70M95o8xCHfvLhlYDwMO/G6",
                "VX2PPM22Yzym5+w8wRQovVQw57w38yi+BcYivdwYQDzCklE98/WYPXnCI72zi5s8lw1xvYTHn7sHFm08QB6FPO/2jTtjF9K8wNJLvQ0r6TzgGPa85kg5vPOFXL3MOjW7Tw7Yun53Vz1FZLw73EKUPHbGPr34vSI9DURuPKSIDz0jSbu7IOp6vKDpojyHhKO8uHvfPP3Ihrzkzc28Z4UPvRMLzjwFy0K7x9j8OisdYLtiPdk7ZDI9PbrTj73Njxo85psYvDZ0Wruaqbe7zBE1PcRCtrxTdKa8IQzwvBIeQD1nmem8XYQ+vPhRqDyFKcI7s+dGvZcQ0TcDJXG9FelIvGm8zTss3j68hysIPOz/krw1P4g87gIiPU06erz/5uq7SdTzPKXT9jxvaXe9ezOIOlehJbtj8Bm84XczPf0FcD0Gc2a9eNlSPabxSz0CCGM9mbkfPFxn5jzFgFC8mMw2PLVFEj37QBw9k5duvYHiDD0/iZc8BoMuvLTwpzysdOK7784Ju4D2n7x50v28z3kFOmzGLbzyHZG7PV0EPOooMb0sUFc9NOgWPEEYjTyCZUS8T1+UvH4XSr365qS7hy17O/ScHDtEWnI9O8XjPAxc17rggqw9Ps33PH8mHb3vp5y56ZFxPTETBj3fCRm9GL/jPMAPT72zZVy9Br0HvZv0CD2P4xQ9W76HvXyltTwkUX08fQO6O4ImDDwk5iA9IpbqvCxXlr2LOO87k7E5PY8NOz2GMIu8O57cu0ayNjwogIU6wXOrvGOWFrzWvWq+g2qouxyNJr2Cceg5PWaPvOdtrDrhGh+8v4grudc1UbpyvZo6v4jhvBCTWLyS7U69GWToPMuZGr0LJQG9ndGsvPciJr3lQYI6qweEvZcgbjusx2e8C6cOPcTuubypHBA81QOtPKwgSbylfM49gd64vG7d7zyQ7888McpBOz+zHD3F7Z292PUOuHafrr0iaJo9zjM5vYEGpToxBdW8H0GUvO+6Nj0F9P88j545vDfDmLzPfoG9",
                "eYpTvYBCcjwg3ao8d9sevQ0tJr3Faa68le+su4wen7oRXLw8OoOgvBkAbr2KU4k9kgNTPCKl+D00m6a98i1hPU4EijyCGBm9eBZvPJxJBL3lnDA8FrOVvWwXuzvrvXI92bzSvO0FyTw836a9B93vvCmon73XbMK8G3ARPMgY573ifhQ8HUg7vJd9Eztannm94fRXPDPY2LwvN049T255vJFtDTw+RHk9FfgIvcD7OD0ooDa9VkysPFlCkr2TR6o8c44FPUSQ8zzjLQm8CD4vPTWwVry8WPo8Yj8UvdaLTL02Xxm9kuYiPR9D2byTYEm8i+FVvQaTJjztfG+9qRHZvCYTWbveq5I8vW2GPFEaAL0NvJO84qq2uhF7BTxXFs08uKqQPYnr5juSBCs8MuHEuiPyPzwCnAs9+U0cPeC1vr3NFFk7/AAevATmEb1Yi7c8oiSnOyi+MbxXwv28Ai5uPQs4WD3yLp68tcQOveFYqjweEnO8J9pePYZvBbzmf7u9BpCkvCE7mDyYToC6h4muvDZcWr1za388P2JLPs/5/bsLgFQ9RxM0PTPEnj2LApS7jJBNPBF0vb1d5AC7mskNvRVP1DxBlqa6PsgBOsOdSL3ir6E9BbqIPR/2/bvp/987KZNmPdC7prwR5BK9h4I7vUr9lDxN4QO9MxwBO5/UiT3jKPG8xv5cPTwwfD0YxYI8NXcIvYevcjxfnfe87KdlvcjY3by24b48CU5lPHo4EbzfCIc9hgLKPU8JLz2l5Ty9CBObOxxwH7yVemA7IzHRPPNfdL1fN288wacqvAhfSjy5HZu8rQlku4RIr72UA8E7id8IvPZKB71sGDe9NokAve1Jarwy+dK87vX5PFiIozwFWtI8tMbJPQK2yj0ErYk8L9UIPdFgpjyIuEm8hzZGOzq4Pz3DW/c8iIH8vEiOfTuJWSA7ZFrcPJ10ybwaxzu9Dl7EPPkyDzuPlUC95JiFvKSSwTwbAaU8exYmPUi9qj36wr67Vz5SvfwLQbxr0lc7",
                "DWq+uwYkvrzTdYE9ua/pvO9W4bytVRS9oPb7PKyQhj2orYg7tTBgPpbS2DxHcZi8JpuCPAdChr29lXW7pLqKPLmvYLtS3KO9yICCPByjTT3QcwC99//fPWwPlr02fwy8drn5PbFV/TxZH/i7Fy0rPSIdmryC7xI8p4LVPb9Uez39/eQ8d2MHPXt+Gr2hq569XCVCvbMCs73HcjY9moDEvW6YK71wfn49aQG8u5dBLD3AfVO/GTZCPSQd+DtkqSG9pVRTu5/Aq7ynpDi9eqDJPANyOLyfVXO9TVogvEcWgDxsrDc9zZfYPGXl+zyRaSM8HqJTPEdUAr3eweU74EElu6WiFT252a68YRiZPBrgKL0cUhk9VizCO1cNPLwprZi8e7GePPXkQ7xUhWI8MxEavRQ267wFWi8936AaPVt2KL3NmgU8/F5cvWf2jTwpKmw9XR31uz0Uo7yBVBg9hsiFvIItkj3kCMi8gHoGPbstjz0GwVK8FoEDPZcpAD04cFA9LxNJPNLIYjt00kk7kYcGPU25BL3SCki9T5urvLgDBz3PBfU7aa0lPHNRVL3jhZS9y07vvK9iojxl5Ky8BoyOvacDQjut2wM8kAlJPbQzmbwX/t08N8+rPAyyqTwAE5A8Q9iNvRoyVD3DcBy8ssKGPcOs47wr1ow9E5piPCmOlT2SK4o990KovN+vRz2n69I8ATNgPNtssLzN06Q8qXQYPbGD+jyvsoy8mxjYPPAyGDw6Phw9rEL2PQjuxDziMAa9sPsMvBgW5rvXA3Q9MxsKvTjULDz3KVQ97tzgPTMqsj122CU8TewlO4UddD1/cIi4LaQlPWrLmrwIK/i89fKxPBBVibxHLi49+TyfuorKcD2BtaY8iqmbPWQYlz133Ca94IBlPU1bBT1vrAQ80v5gPehBcDy6R289XknGO7WU8juXYQE9oB56vKMt9zxIUpO7BgIEu1rhI7wXDhU+F8m9PI6nsD2/4Sa/mX7GvLGnAz0vQQs9IvRSO2bMmjzwtrg7",
                "r9OgO8Bmxbsjh1S8CxQSvDEEn7wbRrO8pCgrvc2ZUb27aMw8nPwDvXpUtzybedW8XFXDu/FuSLzRmO07ynLIPJE+GzxrWcC8czsju36/ujz7Cta7ET3numY3+7yfNiE9IEglPf0xtr0ARzy8wj2PO1YPkDwM2xi91IjVvduCqLy661S8yfeXPC2Wo7zT5ws8jrGkO0OdBr2z9Pa82gE+PYXjIr3SUOC8bRCjvOUGSzojiXy8IFzXPOxmdLxo0bW8JFPovLwjv7wsW6y6kI/KvJBQ3jz8nqG832give8Rbjn3Zx891DsJvc8/0bx0POg7JK6+vG2lHrs+lRw8wFSFvDVIBDx1U768TEvBvBMRIr1xw8i85jMLO4y327pDLnm7GNhwvNuA1jy4YHq8WJVYvc883rpZ8nk90pxVvRza4LuvLkA8Q7a+vPghA730hRW9cxmdvBZ6TTwVBju9i7J7vprhp7tV0Ka8PD+WPCWoTL0l3jq75mRiuw7n+rtrqCs8U/MrvfxYLT3/w0y8307nvLXpTj0YIYS8SYgQu6VeBLzIZCu9SUmkO/hisLz+pku85toSOlYbAb7zk9Q8irqVvRlHCrzezOa8FmlzPV16Nb2/QqO8TD/oO3YCDr0dp6I8O8syvUUvrDsAIi29nqHAuzpqULsGNdG8Us7iujh0PrxU9pY80ex5vDettLzyGCY913NhvBjVKrzJ4YY+eyaDPKID5Lmw18u8ZSLjvBjLpjsulhc9G8R3PNj+4D6LyJa81pcfu612Oj2PTLk9gDDhPHWWgL0tydq8agO7vKpcb7yzfbo5eQaoukkoobv+X8K9TeXcvLPv/zyvHtG8uXZ9vKfI4r2PUnS8fqSJOMytwry9ASq8CsravfUCGb6Q/mC8YbEGPXLEpLy4mUK8LmTtvcnjrzyG3Cw6u2q2vZ9FMz2kfDe8ErmYPZfuuD3SJbk7i2N9vJ0TdD3HBAo9G0L1PLsm/jwD9vc87Gs0O6cOGj2ul6S9MJDmPAi3fLzSW5W8",
                "HMgYvDN+yTwcPts88NO7PGv7Tb3Idju9Lj0RPSnrvzxT5588vNBdvXrXh73d3Qo6+Xx6PTuQWz0wEEk8edSOOTNIJT16NOY8TJbQubf87zgHPPa7pCcZPVEda734z1A9o/khvUWQcryaake9Z9vFPD3ROj1YDEU8O8xFuxrwNTwuYQc8LizdvOYVbDw0rQm9G/cIPqpCPz2+yRc9zSsRPacLtjxNk9M836N1vQMcZj0RApu7ruk4vLS4grz4JzG7pfCJu5WMij7rJzw9cDQOvYGWnLzRvY49L7D/PIKM4jzIWwm9P5ebPPDUxL0sqKo8wnmQO1armj3opzu8rkeFPnZwcDy3cOq8mgMcvAF607zEeA47v3C0usHLx7y+uk89FWr7PElpEDqgkKU8GMvYvfDrPDlFVtc8tawGvWq04z0HrXm9cbIkPb7OGjl2Yve+OvblOyqU5ry3JKE8KcaBPIkUsLux8LW8Rq+mvMDLiz1wpyc84vNuvep3Vb3dH7+84FtnPSJNEb2U7ww9BrEFPY3ipbuqvr88F9b3vID4Cb0fPfy7KNPyPH5iOrzjvOM8U589O+vyBb1oai+7lYQ+O722UDyTIZq86aRXvQjJ1zxcgwY9QLe/PDGGlbw09s28AN+YPaB94btQDVk84rTyvGk2lDuDCDK9byLsvUi4O71p5ik9DjYFPanZM71pMwM9NHpoPG9FuDykeM27bcEaPRnKNb2sf428iVdVvTOGMDoBKTo91GIxvXeR77wAPjm9yiHVt0X9hTzAC/i8A4U9vYMOQD0roL25j8OUPMXiaLvS30U9FZpWvVswCb35bTY9lVsAPbSYdL17hxC9wgFLvS344Dz7y8e7XEVSvaQDMDsT+ka8a1k/vZxU1rxO1nS8Mb0IPbFaiLyzTdW7uvcaPIR8GD1tMmY7Kow3PEu1p7w2h3a6Wdx2vYEtzbvFmNG8qKlbvU+rursEI6C9sbtAPJWntjqzZT09G0wRvQ8jvDt3Lbg8Wo24PF+Z57xNxbe7",
                "BB36PEQ0BD0z8ZY8tehOvX6QrTvzdu67l8CHPEv0a7wfdTK8ZxOVuwEVH7x5YyQ7apMZPm4Co7wW8Qg8b/TjvKiWITwLeZS8MYwOPC2UeDysFUw87wtFPAFAMTwoq1w9BQ8DvQoIs7ugFx47bH8avHwaKb0C4J+8dIALvR8OTbxw7968DNcQPQayAz1kXpu80Q9sPOEBdDsmNQI9fmbZPDUqSL0ztjw8/tPoPBwl4rzEtTG8HsQ+POZjiLzRUcy8bZV3vYAn7jur0jK7096FPGSBlzwJo0C9DMAbO7HrAT0lFgS9yO1wPcbBz7yitgo9W/WBPL8nAz0bX1+9D4NBvF/+Rz6Dau48qxYcPTj1H7zOTKU8vo0YPtcat7t8Zii92b0Wve4udjxtunq6A7QyPY9I2rzbjO+8YwZFPE782rz33Qc8OEcPvRDonToOtYy8XjB7PZ9sJLx1qCe9uY6ovEgAyTzKvrc8h66EPeuE7rwf9TK9qkl/PGQdzzyz++a4MyLNvCLhsLwAWci8KW/mPHfCn7sBs4a6t0ZHPFkR0Tv46zq9sm0WPLUyo7yc/PE8L7iJPCbBjDu5mC48mUsZvQe6gTzIzMo7pOC3vSkVib0cul49LzwHvR6oCT3MsKq9O0HhPCxxADzIt5+9D9R8vbUXg7yXcc28Y/KfPOPZFb1ta8U8Q/ejvLZAFr1MkQq8uyqhvLI0zjungKm8M24dPbS9Q72FcIi9EOyevLbZsDz6sAs9ox+0vHiptrz1Mc+89+g/vQ41Kb08eW28N/JPvB/LdDxVhfC8A7OhOrwkhD0IcUC9ahlQPcJ/nbwhDJY8h6FNvdw3wL0Bwp08UcP7uiCM6ztmfjG885g0PL7osjyLKRQ8BvlivHXXjbyS4Xi9i8imPKnctDwXDDW9g9uGPFpST7yjcrI929nIOz8lZTuMOoI9b3MyucnA5zyaVh47H7ILPWQzfD6T4Fc9tlwjPUB5qz2H5hE9Ej+xObMNobuIedQ74EbdvOKYTTrMtvi8",
                "WPwevfmMHD3Dpsi8t74KPUVrqjyrD1g9MCR2vBvvRb3Pcr+8D5ctvIEoRT31uXc73ujmvLCsazyECDa9eQVPPQkeh70aBDu8k+SMPJ1wOLwmRm28wyE/vUcrXzqU2wk9LmoePAhNIT0XL848Mk3jvAJzWz0Odjs9U6a/PODphTzpC9o8qDjRO++PubuLN6y9WYeVO9dpOD1dI+U7GPjAPXzdR738Bio9IVdiu2qrFr2Mh4K8c7D1PA3h3Ly4Og89/6YEPaa3NbwCRvQ7AUCcPBrhXT2O67W7XjraPKUzyzyl2MA8mg69vHBdpz2J/R29dN3JvEXDF71t+9q823rtuq5CWrw7DpU8qPc8PfDTXT0ON4c7Ipg/vI7ix7zYhxG98JInvTyFZr3NXDu9DFMyPerqQD1Ua0c8xasTPZjN1TxrsYc9D/U0vTY/BbxFYLE7srfKO76qOTzEJh4801ppPRYImj2Lwtk8GmF5PEkfIj1orKc8NupLPbTiSLsWfw+9z/X4PIW/bzx+dtK8zYqCPY+29To5F149SrdqPEscvDx8YWG9GBJ8PBwgVbzlTRe9t2k7PeFeUb2uS548sSndPJVkVL0RU5E8nhIlvXWXOT2xbt88wk0ovef0oj0mlkm9AdQAPVwsZj3FEU2/SnINPAW5BT0+85K9FPY4vK1LMLz8dKq8hXZdPG+oND1Jwj49tJ4cvGi/irzPk6Y8yZs4PaiuGD0irpC7tBZoPGgjRLqz1yk9dCi1PB1rvzwy0tI8++AdvAfknzx+jkg8JS9fPMUeiDxn/1E8WtvAPAVqXDpkq6c8gmo6PYS6jzmwgyG7Gr+9vI7kLjxX44I8DNIbPCjEMrwD78s7tdQWPeSLHDw3x1g7ZW66PYzfJ7wGeSM9bGoWPXKFYrzNA+E6n4IkvV+Oj7wwfhG8WjykPuikDjy0tl88tH4PPQJAAz30k2C8qrGzPVfPE7xuzSU9HIKJu/Yvdbyal788v56aPCoFST0r6kI9scaePfn6o7rNf/y7",
                "7qkUPB9LIT1RDwU8PjiCPFx1AT1w2ri8ew7kOwbXXr0NK0U8Y1zdvJrzzTy7pjo7lFWUvXyMQTyZ5lK8xDlbPAg3HrzGi5A9WWGgPBfR8rz2xWY9Gl5kvT+GRzyUThI8D3IrPaEBDj3MWtS7bZ8pu0x3zrkEi/A81muSvL4+J7zkOr28TFUGvdeW6rzw9bw8ANmNPLzF3DrSrKk4qQe3PPr6Dj33N6a8jvPcu5e1tLzJw308UZv7PDS72Lz+R5k85CtdPWM4wDy74yq8ZaKVvFzNuTxyENU8YFk4PZp3aT1MyGk82GhVPJpGMz1sSP0608VgvL64KLtkDA69PYiUPMOkLD3/Way8NnrxvBJfYDpVyia9iTHYO1QQZLvAXAC/Pv1PvQ8HM71te0G8m/dYOrI6dz2nT0y9hxmtPax2orydRG49YtNwPUa3t7ljd068aUyPPZi1Q70Gd8m8tU8vvft4fbwbTkq7HayVvIOYCbuZ/GA9mqmUPU56S71O/Xi9n1+CPXCHFz1CztI75w8mOwZLj73jY4e8aRONPNbAqDym5KS8unOEPRicezxrYT89lNPDu1ATaryd8fy7R300O36vsLykrf28gpzuPA/PyDxNm3s86aCWPECYDb1Ay4O9b/FxPGrxxTxL7648oZAbu+pMrLzqGzY9XTnGO996Lb0gG8I8lV+WPKWzkD0RwWQ6PlLVvCLhkzt8sc28Wk3jvEKoHLyhSNo74xkEvfO2U7woGW89lvJ2PRvuNLtBd4+8JV5/vBmp/TumsA294u7KvCcbujxlZTE5mYKDPEwGlTzo9+c8EPiFPE3mKbvHaCg8puABPYR7h706S/a7/znIu1JyKj3RqEE7vuVPvHsz4TzvZQQ9tgG6PJSvrbuK2Je9HDiDPOp8QTzsCnU8XG2hPO+NiDzy8yG814z8u0oFsLzU5gK9sRDtOyzhcrt+dMg7W7eKO7rAVzp4Dza8YeW7PMSJJTw+BoM8LArevCFMKb0ucPa75ocgPToxHb0k5n08",
                "OP5UPHp54zwuBeg8ihgJPRF0yrvX2ni9rINVPX9aoT3h2eW8guSePLarFL2UZ7U8N1qyPT2hGb2RTNe8Zfy8vMKbCr359TA8U6ejvaf8LT3mYSa+imQ+u3NLsb36b4a9A8LdOwNzizwb0iC7SwG9PDdJB7xBlom9AOavvfANWLymgJI7L/6FOrkPV72g/zg9fKz4PN3d6LuliGM9ynAcPfUGybuMxA87JPq2O1iED76dSZM8nqdEPbU5djzX70A9SqNSvOvoLjzjbYS9N5WUvEHPDLxOllu8CsdBvCoA7DzMCZA9tJERPU+J+jzpsZc8xpMFPbFKNz28/rG7O6X9vIW/4Lwu2pg8z52KvBEqCjxJjKE78oy4PP/Xgr0VaYy7lZOMvGSW3z1kCQg9T2kzvcCRhr20FJo88UGdvPRMNb3V3Ao9iQ/rPB6T070Cw4U6BJJTPUcJQbx3fqk7WhU6PG+xPT31X1g92WILPOM7Fr1qBO+7KxKPu8gScz0eZ/O8tfiUvD9mf72LcIo8RCJePWggXzzzreW8JcK5unuAbbt63fw9ll+QvTTqiryHNK48VMCpPUVZEr2tKLG91fCKvBOx/rySXiy9xHreu/Cwhz1hIAQ9r3ubvI2P37wfo608JQuhvcRrQb2JYiy9rwDVPAngijybRlu91SHTuiAInTwthWO6BNdquoVyjjtDZNI7xLSKPJTFVD2eGFi9yz/qO/5R9bxpFg49eKcNPdutkTwsUK89IxEGPAiP17wR7XA8KKcXO5ieMztxVTW9JSd5Pd1rib0VN6+7RKLJvCvYl71/iaO8dwSzPP8mSDxBzQY8vu/MvHw5QTtPbpk7GhyHvA+H0rl4Hgc8YhqZvG1MuDzi3eA9QpRJvAk+Gz03qwe9xeILvfVq9bxPJYO9p4P6vGcwMrxs5qi7j8B1PYzILjxA0l67Hj1YvFjNOzwzOEs9XWzkPEIE4jxoivQ81GDoPHx2wLuos+M8Pv+BPF1hkzvC7Vm8wlYnvbBLSbx0HZM9",
                "WX6RvECza770tas9IJoqPctQFDyOXmO8YadcvdGxWj0M1Qm99jbCvM+KFbzSLm65fKHBPLikqbvuEja9+F8QvXpOVD0Owgi9CJ1rvHNdW70IDU88Dk58vfaWjjv7YNg75WC2vLJ9/bwKvRW8MhONO2PLR7uMAok9F4pRPd3vSj178xO9+RMAPX2iCDzEros96hv2u/9Lk7wlB4S8f6y0vL9xSb2hVw+9NWtgPE2Lij0xRkI9AnyZPB+8abxqWd88W+1TO4lEML0UVGO8koKoPEbVFT22dqq8+vD/PLd5D73Kkj+8tE/EuxH9krsLySm92yxKvQWpn71w24O88omtvS46Hj2XiR48ahQZPIAk6Tyg6U298xlcPXlGQz26en88T5k9PaRiBj358kA8xFunvBFcdb2PyF09OLJ1vAkwprxscZ88y5FFvAJ9vzxkxaK53jyfvKO/N71jv0+88W1xPqwI9bkdztE95zFnPYd0nLs48P87VjTWvHH6PL1pTwM9kQU4OzEsA7w10WY9/foHPRQ+CT3+TEE9Dz4LPbFOcb2pqH+7ALqcPEmxRLyrkEs+CBlNvItjOrwlA2E+VWzzPPjepT2von09Bh3WPCZ20LxHmMC8d/mKO9Rupz00dri8+osDuyvnQD0Fxeo7dCifu3Hqpzxf0Cg9XlfPvLoLgr2g4bs7Nv3cPF1KUjznIz0+NiEbPYIVSDy8lTs9HRDdPHKZtjwS2uO7/aq0vGnbLj0hRI29TyNTPHIK4D1XmuY7vc5CvNxuXLsXUo88vCEpPUvSpDvTDRE8iBgqOggFz7xEFq08D8UlPA0xkruh3yc9HiliPS7TQz0qDKi9ZdUwPRYXeT1CPjE9VGl4veKhuDxGcI28dxkEvcv1qrwdmpM71PF2PSpH7TyEi1y8kC4dO5ajrDoWMv48+EM9PISJ/TydiDe9FJ4/PTsoTr138u489++ivXR3wrscgyU9R7+5PMI9yrsPZtQ4eG19vPC2ajqtV549AAJZPfnN7rzpv9q8",
                "Pv8YPVG3jjvD+BM8Z6UiPUvll70zTJI74iBIPYN/gj0nhi49SLhSPdtDhTx8sFI9c5VPPnmztjyTiCE7gg+KPTKbDT3vN4C8SXJovVsX7rxaH1299mAzunSZkr1+D808OEORPDynKb2hpUY9MQmZPMybSz32FJE8JRS9PIm1Vzxhgzg96gTFPL5pdT2K3j09gqaIPVcO5rzt8Qo9aopRPcOLFDuEuYc8cVlRPb0bDz0gVoc9HWs+PRFN/LvEvS08N+AWPXQ+u7wOZTM9a0K6vIjcDrxaaSE9tG7ivJaJx7yqhX+9hanru2NfxLxU4WO/thBWvXXamLpXQl68pxzoPdMOW7zQpxK87UWBvV3bGD1yolS8WVS7vByVvrzSS5+8SMp3PArFkLsfCQG8smsku0uAg7xaPd+7veSwPf0RA71JFdu8Mu6nPB/XAr3UraS95bY2PdNVTLw/KK69fplrvb6Sszw/uXi9fAwGvXgvBbxqCkC9OQEFvWrMujwDNls8tqpGuhsrnrtsRsK8WdbPO2YnjDzM6l69OV4JvLGGCL3K97Q5UdbIu15FRjwfrkg9efOWPEgjYb2rVM87tFDdvEG3UTyrfFw8zyssOh86mjx1+Zq9/D+Suylzjr0WpZA8awIJPbM61LwsNxY9qJ0UO8iERL3DYgo96WMEvcEvLzygvoG9B2CKvchqTL35zeC8QW6NPAkvobxfSuU8EF41PUpYKjymu8A8p3iTvADOZDxb+wc9GHw9PaxbH7000Sm6bNd6PHuq4LyLdkK9tj90PNP0Mjx9HQG9qXYJPRkiNL1EKgq9Ls3NvLxxAjz2Zmy8laRUukibzry4BKw9F7FuPQlA1TzZy8e8K1wTvBPh/bzxWZW8P1/SPTSfhb348IU8uJufvGCktT24aRO8lsp9PRpRej1xZA09NjInvda3ST0yZo08NZWhPJacATyh+4c8hsk7vBbisTxIEzo8ae07vVAdNz48Mru8mFAwvIa27ryv5RK7q1qXPKjo2rydBc48",
                "AJuZvETWDr3V0hQ6RYFhPRrFj7we54y8Fw5Zu+wbsjwccY49eseDPDYpeLqGJJo7q/0DvS+rQTxV4xk9ORprvd17cDxv4BG8l7WjPF0ak7uiNhA9Q0J1PBBdUr3tqOS71SJ4vcClXTwAb008+WQavSo1+bxA77671f16vWBXDLxKWr+6jlW5vC4Ynb3QsLk8duoFPdanYL1shO+8RiDuvSGjwLm8JC08caDdPMlUNL3d8p88FUAQvAx47jzSQxA94/PMvL4KUrxd7wi9hro3vIjzJrx8Agg9tdr0PJAbgbxTq2I9LyAnPbOWQ7xdb2g9dk/XO/TVULxhNOw7JwhevC1baLxdJpW80OG6PBdZfz2+iro894sXvX0F77wi96M+CXyLu1O2UzyMviS8qPknPExHtrwlNk48zZDIvD1AM71HoUK8tjcPPU5Ms7oAzlW8/uSLPWVriDxoDKW8k4PzvPBRqL2Mv/I8rOAgPBpQGT0DBQO9BBmlPADLgDwrfCA8qoehu14nTj3guqk87pTZu6Yh3Tt/MLA851stvVXGIr2i0Wi8MlOhvBOo17yB/QK9QeEHPc05Ar1yicQ8amcNPB8vnjwHB1886jIdvHrkwzzPIyg96YUEPU23W7vMWJk98aFwO0AQ9DzU3rC8nW+tOwqY1Lx9DyU8ZqJUux7BqDwnRr48SjUPO3ne0TyCYpW8D+K9u3T3YzqSH807OGMvvC37gbxDak27THwlPMXz2LxAxc08zGMtPmDjpTxcPtm7pdEBPCde5zzVi0o8ZZ3PvD+iozzXfFS+/YxZvAsbnrwHRyI9QSzrPNX+47uAMFM91MnHvHWNgT0ME9o81eJyvLwWPjxyfGI8PHUWvJFICb3K9gS9vUXbPFjVbz1Fibg7ErcjO03/+jw7M1I9Hno3vaQlgj0Cqp27URiLOTg3hbpPPAy82TGFPDX1OD2out886jdDPTsNGT0nb+S7fYfAvNLokTzHbQs9NQ9cveRQ1jvJ+AW7mLGrPIVDJT0XMVC8",
                "kuMAPXMBVbzj/IM97DYaPKfTsjy8tY48ADN0vS2X47xp8QQ9Q/Z0PIfC1rvjArm7502/vBs9OTo1G6A71tg1PTpfBD5YV647jdg9vTGxj7uHW1U9SibsOtB4iLwDb3O9h26zPH97gjw/fk68w6cTvamh5Lxy3zE91mLtPJl0pjxGdXC9NVn2PHcjOb3cZpe8HqmtPIOnaD2pUvU8dNuevEon77uB3Uc8P3NtvGckYLzQWzO8EEz0PC5nOz3pfxw9jx0jvdZrXD2mkH87JGZGvTnBkz2UjrM8rB5LvbU6ILxcXW89nbvGO0/Hsjv5lpO8MZLcO4H/tDw7rNY7/ylWvWsrI71tYj87PAPnu7crnroSFTO94Kq0Ok5xCj3SfRw9lgWavRJ5MzyWEKs9vMivvGxs3Ts90fm8WsuEPfpKqjsKhgY9Y3DWPHfwzzxNlAu9HzyrvBr/dbxt+Gm9RjAZvSIrhLxDXms8xETLPDVOPr3hvSS9PaqoPas7z7vMuxk9ieWLvcKJzbwCStC+r665PIh+Wby/v7+8PFUHvAbTmjxo98w9oYCrO1r11jufe7c9dpQzvRTDGL2etfQ8/aR8uhg5gbvQgBa8xu7SvFNotDvCrRa91ToUPTB6Vj186zu8OchBPftsmztaJxk9wOouPXtzxjv95Ye8Sy79vL3jYjk+CnK9qzREu6AOBbwofh49YrMEvOteAj1RDvM8Te+fPW2CXjyrMey7785LvJPfnrx7Aja8oHP5PNxYRTwQjP88LFkevIw/HTzuWJI8/eNEPLXdpbzn3Yo8egvjPF1CADzvS0E8/AoPPSW3trwNpLm8H0V1vd48sbuL0is9eaCwuxQrWL3pWSq8hYuKPKK24TwjIW074VcLPIYyX7zPTPi6RGFbPcF1eD39bCg8tOIyvT/tdrwGgIO9geXFO6d9NTu0cCs9et4CPf2YbTzajZ087Q+LPFUJO7z94Nc8CYhEPGUYAL5GRPu56mV4PKaaWrvBKDu7iQiWOoOXGryM3pE8",
                "+5jkvIM5Hb2oXDo9RKEqukH16rz57Kq96g0XvUs2FT2kvk48lrrhPb+nvz0bgZI8ob2YOsK5HTmUXJA8ykhzvQqVLr2O8mA8IinbO3oEWbxA5rk80qNXvQeqDTw46oi9zy8kvA1Hibz09Sq8SzCrPMA5dL3NhSW8bomePBVe3jp3A968/R8vvWQFcjzp9sA7XN4qu1Jqdr115nG9d+UHPU60Or2ylgG9kWhJvS2IIry/VDk7GeINva/tOT2ym8m9mZ8hPq54D7x5QRK9/EwYPRZAL7ybyMs9oMJ/vctJ6zzfwn69h8dJvQlN8jtbBH48B/mwPMmjoj2d7l08P30VPZQYBr3DQn88y+SCPAWC4j3gzey6le4tPDstfruc+nQ9ckrcO3YDAbxqEIC8C6+0vBPRFj3Qhb28kbouPDTD0z2Jd7+7PVwAujwff7sKbEG8DYtNvYQphjxE7gM+B24ju0jSeLumOFM8LJW8PNven7wYWV892X9MvFFIqjzf4Si90psAPa6BEj2qeyU9OMeIvJK4IL2p4nW8ghBFvdeKd7sFdkO9JmJIO0Cbsj3QZ2W9D/giPivai7sZh+s8/CMSvLGY+Txs1Ku8/yQvPZ8CEbyxEFC9lchrvfHoOj3wyxw9f2ZCOyhnqTw6ypm8zPLlPaF6CrshN3w7/EnxPH+VXzqOYJ89iu4IPVjdHLvgQpS8MDZ/vRFCr70nV/K55dgpO1rJZr3f3Nk7b4KmvFAMpjxR8N28VF+zvM4/Cj2yOmq9YlAivaVCb7vNwo698GCcveUzJbspp1291YOquxGtobxvGMS72wdjvV19oz1KJ8G8iIjSvL0YTb0SyMm7XVd1t+LtrDyfTxO7TnRPu+Wxuz0ilEE9kP/ePPQ7qrxmghq9WP/hPEknIz14LvG7XxcMvDxDAz10S4a8vDWzOs/aNL3qOAS9EFPDOmClrjzSI3o9h6XUvGGSlz17ERs9Q2RNPO4ljzzIOXg8duBpPfFRpz2njyi//MOuPPUdBj3FNGO9",
