{
    "input_shape": [
        72
    ],
    "hidden_layers": [
        {
            "shape": [
                140,
                73
            ],
            "weights": [
                "jJ/2PGN+MbxCaEG9Uj+lvec2Cr2apti9w4+uvfaakLy4Zw69L9z1vGZK/7xQZyq8g+1Ivca4kLwTUFA9Lv9VPbVnu7x7yM29vuKOvYv1s7zdrG65l2eUPK0KaL3MiXA7AASFPGv1GT2KlxE9kHEdPYVFNr2FX8i8Kb2hPDA2aTxc1K678lYUPSbQgzx5Ijc7T1MRPPcpjDw3/JU8Kqiau7EvEDya7jW7GvNtPO9e6zwC+tI78Db/PH6TQTysGwk7tD67O+c3wrtIv+C7oj/APM2MBbwOKIu7acUYPOwkADz7gU89du6QPG5n7Dt2Edo7kTLnPBymJ7xiPSa9g1OGvD2CGD2FjS28t09dOwg5ozxo4kY8HzlYPcEksjzVgW67t7Y1vrITkj2KH5Q9snSdvA1uT72n1ve7vjJ4vaNThT2Xr0W+K9+WPAiMJTu5KIK8yjjbPNHeyLxKK8k8chBaPdhkLb2uves6foIQvUCYBb0vpMC6KA8gvecPhzvtBLi8K22lvKttAL0FKls7yR5ZO6XVND28FSK9FYD0POMOOb12Zfu716J3u+4jqDz+/gC9dda5uuXVBb1hsqw8Cx2TPL15bLv+LC+5oLIiPNGp2bpKX3Y8tWD4PHNkpLwSMo07e0grOn0nArw+KZk79XV5PIMJ7zy1v4C7tuG8OsD4oDxaCKc7y9NNPLpQ6zyuxSk8mj0kPAtNCTxFzpw8wcO1O9njfbv9fdA8+69uPJ/h+rpbV128dvnEOnhlXbxaVdC8SQ6UvKvt6b2bY7671zqHO6djEj9f/jI/GWHFvZggELtsAcg6sy4uu24ol7sM11w8nT5fO8N57TvlVF49RSyWPJ0rNrvYyyu6TYRqujyVcz3r5gS+vcyYu+V6IbqJ/Ks9M8g+OpGPLru45Rq8oG2uvDJEAzsqARA7sJNjuq95yzrRURE89nV8uuLG0DufSi66W38UuywKIL03M4G8cyIbOy/0GDtzDLs6nz2ROsbRmLsAb684ki/2Ou+0xLqM1Vw8",
                "wPBzu15mrTtj4Q68lQztuFxRl7j2Sc67TlLdOQW/Cbu8i9m5O2zNul/ErrpBKkW7rdCCN/hKgLoyURq7fRScucLRh7tnCLG6ei+oOsf8ojpCYjW8dVD1OvxKgDoO+Pa6HgrNONX2uDrmr7y6tW/yurqy0T00b+O8DBoVvAHjxb3FkqA761N3vSSTO70YXKA9hht+PBJafDxfG6W9ZEZAvU4BVz02FQU9FjCVvTHWVDwxr6w9L/WAvTRT2Txayq88cPOoPN48RTvMI9+7qEdqPD2vyDx/AAM9NuOjvAeumbzLFZs9PnNgPS6c4LuCpwG9eX4Nug9zODznaGg8RM9LPP0GB7zKUYa9nnK0vJbJ1bpvw+06C5dKPNhwALxXNAE8pprtPAeHx7sRk9E7R09dPKZ0CL02cBq9/WoEPCtJL7y9sOO7cqyvu7ayLD1WG/Q8VrsQvZCmY7to9Pw86y0yO6HUGruAkq68fHE9O6gVpTrdItG8MY3ePMnvDLx1uMi8h2x5PBfUx7vhBis7c+8bPeOgKL1ArOE9ED6kvM6Wu71ghH67Nl9+PTu6P70siAi9muUwPoAsKb2mAbC8wPKPvVvmkTtRLhC9Vi3LPKFyE719x+E8HqREvWKG7ry8YaA8n4ByvB1pXzyVFF684ZVNPd1rGLxYKwk9AWSfvITLO7zquGw8vHbLO0DfkLtjCSc9mR8NveHN9rztd5Q8j8QoO47HCbxwKBm7SCEaPRM2Hjx0qAQ8La3AvOKu57z86S69iEDYu1v8Er35HaU84eUIO9rAMz0KGSi8rShCuxvFcbzo4rW8vHtlvBGNxjtl+xm6pkGZvOzEJTp9ug48O1OIO5vSI7zkBZU7OgBIvDF9XTzGkqG7j8bgO1sS2ruAQ8o8xNnwO3XIVjqj6Pk8K5bYvKsURb5WzW67y11uPWWrjDzKHhC+OF++vTDkfTxODWW9EfmvvM9+Ij3f+OW8/Qvzul3vVj4+Ee09K9J9vAIofbtInQA7lPIduKiFpTwl7+u9",
                "efPHPA07yjwgdBY97HoAPANnJDzmN6c7eEKnu7idrr2IolE99mQbvIV4ErxCCGe90n+fOljJ9DsWD8O7w0YyPBtSB72rfXw8KCZuPFPDsL31XOg7LheHO1namDtptIu7JtcvPISUi7whYxS8iTkIvPYgGT3xO1y9fwtsvb7GIr24KE48jEYRvKIMNTwNebY7g/aPvAr+yTugtA+8atiJvMux8zvhy447JVjIu9nC/rwZmhW7DWEJPGg+7bw4WBK8IFyKO1JlITz/tVq8zZPWusJdmDxsyiw+PO6BvQhHoTwxmcQ9unEfPgG0Kz2UToc9YZEzPZyRpDwJE0E9gVJlPMSveD5oHt09IN2oPG7YBj6ziKU9K+WhPYv8Srxn8Rs9BxVDPTVWmL2REfY8YlrHOwEsAD0fmNC7TAMhvRCyY70/Y5S8Q3wovLYbiTx9DD48MU2EPZzb3L1r1VA91gQ2vQULhbw4RZY8E+CKPKnP9ryM74Q7hbEpvKHa1j3G8De91ktvvEaxr7zpUoE6mTSrPETxubxdG9S79nk/PYiX+Lxnfbw7Dy0HPU+Ip7zz3yK8eMyXvH+I5LycyWC7ird7PEK9VTv7BTu83z1bPErBZLwGfyo9KsrGOipx7rul4aa7GNlGPJIOBb1IiYO5fQy8vJxuDTxR3YI7b9Ajv49Z7TuakCY9m2XOPAjPM7rV7N07OPA7vWmuLD6Q1Ru8GxQUvZxokrpfMCo8TOpgvNDABDwSuY+8g+hBvEeb+TwG2h48Xc41u7FrBD2FxdY7xVyFu3zUULw6kV094Cb4vagfaLthufE6/zVOPOvwNbzeEpK8o5/CPdkJFjyl+jm8HT9hvC+jjTsRoqg8GJRNuhGRDTsuXbk6wpLDPIRpfDuD1ZC7a7AAPOKOxbtCgAW8eKuWPWioGbymtkO7ynAHPMDzlTw6XfC7dTOxuq472ztKaz087CXPvG5WiTsIYUG8vXTwO+jA47qAhDc8af6yvAXtMzxWks6879yIvGqUqziQvNo7",
                "Xl8hve4SNLvnb9Q5DmiPvHjjTDwrhQA7mJG7O92ThLyrZAM8mE4ZPEP8KT5BSU69ce68PQPqhzpbw4y8fkFiuh7Wpby/rqI9SskdvBfhUroKzgq+QLE5vrglsTv6BZG8e8D0uT90Kz2elTI9Pc61Oo2IA7zLX+88ob8xOmqPzjrw3JG8rcEQvT7XSDuFLEi8ob9KOv2KQTw5NPy8pTEdPCrFkjpU6Zi6eYekurSeaj0beZi7fQAlOw9IxbtlUkg7YKEpvBlUWjnTS4e6Gc1PvIu01rrJVwI8JnLgu3HBnbvsJ1W9KV4VO3KDzjsWs7K9TZnKut1orDuDjRG7S2B8vDd3u7sXEPQ7/QD4OpsCmzrkgCe7ZZ5FPNsQ0j3eEKS5jtznubglsbssJU09LEvjuis4U7t2c2I9zBNYu3fz9zs3AH6+UdyhPBDylz0Bt+46ZzVuvUSP2DxHc1Q7aoKGO38dpzxbOwK9pJvQvKbJBr7w69o+JlDMPM9geb0CBNm8iSOfPEv7uLu7CvE76c2cu0D027zL0sa8Xb3TukSsCL15pkY9d90zvEP+krvE3Ge9PaFnPbvQCDzEFbG9VcKmvHoyZLxda4A9eODGO/gForw8joM8v5c7vGaagro6LeE7wN17u9Jo+DvJ/fq7/6HTutBUXDwjbWO8XKBNvOJH0zsJyng8z9ZuvBYOAr11vwu9rYnAvKVWJDwTt028NKYmvJ3I+jrfaiC8ZZkxO960rLnOqzS9NcsXPGcyzbw6/Du8TCooPPDEIrxfgVy83D+0u/nkW7yS8O081RE4O9T4/bpNAqc8hMwtvYSvajygELG8rqE0v7ZYSz477IO9eOpSOdV4PDvoEX87DD5RvIRmRL2z2UY7d18dOx/aorzsusW9TlOBuYvZIjwGEt67WSGmPWDZUT4PI3Y7I6MguqYBxDxmp6g6uepEO2FkjL3Yjx6+iqY3vIJbdLpTg8q7ZQ48vN08FTxKGxu84tLoOwCw3jv7zUo74y6XPF3JzTrfHqa6",
                "4aACvC2I4TrZMTu5OWp2O+M1RTvXmMi7XqB/u0ctybzcFw+8ARJluwQiCTuj6wK8e0ruu0ELmjzr4yG7alnkupOzWLv1JYG8hfIEvKh0ijuKgtM7imXzu2g8ajtPSA+8CpwpPUO51Drigtg7mN8Du/5WCjxex4E75gFWO1ppzrx0tfC7R8ulO+zwDj6wEpc5w4qLvTpeIb41Pr49HoLVvZn8ez04iwe+Es2VPJzhkrsjAi+9zw77u0rzlz2GTxO9gLfVPYmpQb0DqDY9tHYavIck4rzpLVi9WTsavBZlg7wBkPY7h8VEPE4soTzk/Qw8MQJAOynsBz32wL68DYUQPa6cDryfth29x77jPOQKQjx4VyU8jhLDO5I1Nr3qSGC93z2JO7ADpDyo+AC8uXiau7J6B72Quyu8UgNyPIzhAjsDcPc85CZruyq+kLx0iR09Pv3DOz74XDykZfQ7+E6zO1lUvrwMXBu6cd+PvF4W1TmbKZu68x98OiMzGLyOae07tnC6vNMK6DzQgRY6QlYJOk9zvbzNzRk6fAYOuizHfTx1+/y5RaT/O7Mt6DhXV969uIonPgDghr1mko69tGj+PIULkr30yms96MguPUvQBr1WoBu9L4l/PGDBIz4WIs89yFcpvbZhdj0BjCI9miZJPcCQZTwlAYY9YNaWPJXzGr047aY8TLlhPGsLaL0Valc8X6nGusCclTpLR2m9jEwCvf7EozumOAQ88ryGPX08Lrpd5o66gzlfvB84WTr2Ecc8vGjJPGLnED1ug9+7Qgm8OYb0KDyweY27zBHVOhDUbzwR6zi8JZMFPbYU2Ls2czu7ay7YPLbntLy9LJc8ReDUOI99tTqEgOC7ZpK6OnqlXDyq3Nw8iZ8uuzVJvjtIMbA65TLkO1ODTruIAfe7NBxmu1dyYbxXUm47G2+NPNdnVTzlb+o7ogsTPHWfXbyKe4y7fADtPVE2cLuq7y68CR4+u1d/kLyond69iIjvvEDG0Lt/+mQ8elLLPBQA+L0p2vi8",
                "g7Obu7H9oz2UGuY95oH3u7j5DrnBqwI8Hz8EPd88WD2HR2k8UTqvOkNOJjy6haK8IAEqvOcZd7yztfW8Ka9KPOauETwVOK+8bvC8u9fIQrz8c1k7IcKEu0d3tbxIgD68PO8XPW+c9z1+LFe8h02Fuz31zLsQEAE9ocxrOQ5UorvFdFY86M/gua1DgTv233M7I2bhO/iWYT22ac67WY2VO+lUobwwnF88XgL/O1ItTzvdDAy8KykCvO6GRzu9zaE815cVvGdWCDybeEW7kau7PDJUnDs7tVs7rCw9u8V4vbw12Ts7Mmd9O+wPpbyL7d87RI3hO5CwKL3ZH9u8ol6oPHk86zsT534+eagiPqw+1Ltp8Ve8dE8PvYQZzjyIUts94ZzxvJ7zwz3lM1S9kPlPPmX9obz9Yj68tgGnurwxaz1/dd49KSdDOz0UE7xRu8684le8u+X+YjxT3vq76FebvADkI7x3HRs8XsZ2vG93KLqP6Io92nzaO1Yomzs244c8SVPGvOboGL1Zp5Y9lPg4vOW0Hrp2rr868O/1uyO6h7x6vIe71EwIPAF1gDrRGwo9dLIfO42NITwTuMg9/i1rvCZ6CLy96LM997ssvMKcwjvyXzm7xajVO2aO9TuxfA+8MKwLu8weIrwUAaA7qeWXvH0yFT1iciO77kIDuWveErwryZA78SeOu55jH7xIymq92p3CuoZgdTzlcum+XIWxO2Qihb3MAOw6d13cPAxDCD7sd9G8OOqhPfSj1DsWcf26Zx3JPMAjKLzKpaO+svzSvIUP0j1DKUk6CjPNO054rTrWwtM6KUEbPZbkoLtXVt06POEuvF7MIbxh3Gc9GtnRO5YsnTuRVv08B4Kqu+AOuTzVAcq8ktL6PMSuHTzkYQa9TILwOzB3HTshsyS8Aq8CPZyMBTvPiKG8Jqx/OxnwqDocvOI8+/6auXs1ZLtT/yu8yfgKPT9yFTmPq7m8xZEePITGErnoHY675FklvMIle7ueooE7ZXO1u+jiMjv/hJi8",
                "Va6yPHEhNLkwQwA7kTWzu7Z4FLx509s8/lQPPBH8SDt/F2k8KUObO0+6mDyTKLU8OfDSu/9dpTp0uTS6o9eXvRlx0Lvovxs8uYQOvhmGkL0sTB4+sV4MPH/tMbsC4bu6wbDqOp8CJD7Ohai7IhSsu3QctTykpFa+M/ldu4sGlbv3X2474JXHveS31L37z7I6mweeuh/BuDwu0a27b8i6O3a7Frw6MeS8o2R3u0QSuDtrBja7SbjPO0sBHDwkvP+6vxZau/zIoLskrl68YkGqvVVkNb55VDA6gH3Uu2+VDToL5B07+qNAvNCZ7DpzWos7Tk3lOXVaaDxde487ZquCOmkzib0AM8E6I0RbOk/bODz4jgE79gMfO2onq7r9sDi8JclDu4/U8jvl4qA7IDPYuxPBHbttcrA7CpBIvVt5HbvLX6865kp2O1iuMT3NcvW5FS7jO3/DjDsqofk65hhEO8Xt1L32AaI8FhfKvF0rXr2N6oA99TXUvMtDlb2HHJm9fTfoPSbfCj69Kdc8uniKu469Ajy++b+8yCEOvV262LxYq7y7WRspO5j9xr23MFq9iMB5PTQjCrxrEte8Oo37vIGkqbkB1RG9AyejvPqogjzLVkI83iK6vP+8sLxCQcC8t7bOO/ZUx7ya2zy9gPKLvBc+PrywG1I8VjmlvWzNmjw5EIC7uL8sPPu+wLz3Izc6mbtzOihWWTxxaGG6SKRjPD2qjbtdsSK8FA8OvHDqjDusTiO8XlEeOoTqNDxwDVI6QDwePN6uxbwgMik8jJk+vIUkDLzs7oM8CNvqu/Di4bwKU606M+YYvbr3JTule4C8ppruPCrntzx9atE62DuJvG0reDsfygO+rJ8TvaI0lrzX8cQ5YDrOvQ16i7pZV/a9jxbCveCpPT1rHQk9UEAUPAbqrryV8LG8PApVvMz09DshI+o85qLHPKOul7u8yWA7kCg7vTHoDL2R+F88/njgPBS9EL63i0i7y39qPCeBAz0Rp1u9Yojzuxupcb2+UJm8",
                "0CvGvJ5/Nb0X2I88aNi2ufYSAD3jlYO8A14cvd5B8bpI3bu8MI+CuuQ/XTwPG7M8bjeYvO7HXzybDzi8I2pduUoInDyoDTk8fL79ul4naryAJfy70FDgOYBroTzxGRY8eiUKPE+quLzHqpC8jDzHueHYVjpNlj+85BClu23AsrsL/wY7pNhcO23oqbxlLhm7OTWGvCqv7zqkpPq7fOc/vMFOl7z5WwC8uqT/vboqb736ptw8gj1fO3ksg70ZRAG9mXJxPdhgSj1oouS8+hwXvTBOPL13ei++L2XkveW3aT2ARJW9gSaxPMHTJDx/8WA7P+JBvAiV/jpXWLG8DuQ9O64Axjlad2M9R4MtPK1qXLxvtda8bHnfPYk1lD1Z/DO75/LdOnFpErxTSLY6gj5mu78iRby9opW8DXO0u8aD6bo7oQC+CEwjPSMfYjpB/4U8nOYEvDDQIzx4xoS9utpCPNOz/jtEoqI8ZluWuz6W1bzxzW49ZBQMvc8YhzxVEni8E4oEvIKceDxKWre77qZqvb/wX7u4lQE80VKWu/LhK7w1fiE6aGy2OkFwgrvc6Ri8XbVQOw1gEbwmTQ08HpqOu3RQc7srWUk8Wq3kuso/6jxfQA462VuQuh+zVjy7fOY72MsePnjnYbsukRs8HUxeOy4fO7uJkIW7GIVeOz2sLzyFEX0+gdFZvmD6nbsQHAe7CtG3OWH7Db6S3No+BUXSOyXzNroZJcm9EL5UO4kgEbUTI5e9phsuvsxY8Lr4+QU7mCtdO6C2ALkJWxG9qS+jOl5qJzvUcl65F74Nu1bc7rzj+Vk7mpmIO5htSDtvObq6NfEGO8juDrhvMIc6mIb1utUiNTup1IC9YxQ0u8x8yrreHRQ9JHCCu2evfzt6ULM9+ujGOFj5gbrOV4I620b3vNWZO7xiduU7WE+gu/ysNDsV3FW4dYIuOwNUp7v3Ryq5GageO7RIHjshAgu90+O1OvAgWLpKS4W9pRrEOlyZn7unk1Q/q04dvSP+a7z5huq7",
                "qXJfPSKEGjvFLmM799rhvYVjrTx008Q9F7d0u31JoLz+fuI7J7ADvCsNJT1OAEE9ZnQ7Pb6jsDw5AbQ9xHegPKiRLjsnGQ+8JKicO17TML0O5r08QYoePXypiT1FGrw9ol5SPKuP2DvKbGO8+zpTPBufy7quW8m7tQ+2vHIKPbyzkce7cNwKvRQ68zxdo6+8V8wTOxaSuTxDRhW9DzJWvILi8zxBX7G8Jkk4PNf0SzyajYU8FkwzPRTtDDw6aVo8Jp+oPHzlrrxFudi8kUX2OwmVDb0304K5O9d5O0oAUzzBjx+8051jPGIGHjzsYjY9MFiGPLTnBrxhxYk80P0TvIedQjuZi868gKguvCfxhLzFuA08RWJfvThCBTxjhxw72iUiP+kOBTzybJi9Ph/vO1ewBzsZyHi7v9cpu3oRvDwgCx+7p0vcO96x2z176fk8cQwZuqBdTbvaPIc6IKntvGL/Ub6C2je7/aZPuskFCD3taYA6oqZuO2z1QrziAK68vLDoOuDCs7ouL5o7vNAhuypBK7wqJLK7tBRDu+Z2v7r26nM60OlIvT1PFbyhIqY4ZKGNuw8RwLmlmuY7YasPO8XcNbs9NxA8MzGcuwizYb2lVrw7ULpSuy+ALjtRBo070nU8OtLE5DxHrkm7F5Gpu7LTmro3U0i7e9dau237n7uveO86NeCgOqrbVrrPAZE5KcCGvUees7lkKyQ7gVuRu6zX1rq+LuC53wHLOhpA4Tw2S6G5fFnuuXQBED8uKQM9tCklvRyThr2+EXu9aGMavaLvGj2QmzG+WugHvm+BBzzl38e8PcIsvQKvZTxIrXi871+fPHGrrDw3Dpm8xmrzPWrSH7vZmiy8sWDuOXdCNr2/xLU8owVpPG640juLH5E9VhuHu0b/3Dz1uPG8N47FvM9cQL2gT/u8xV+aPNfcxDyrh0C8VUxzuw4qWbmKYDi7Qn4YPdquBz07xeY80vHJvBztCbxyepA8faV4PIEkKj1n/s+7Yc9zuqnpKDwe/2g8",
                "hlFZvC5wDjy6fCg8mGuhPK6Ftrt+WDO8VGNxO9VcHrwYwYw8vdH2PCU6RjufJso7zD0WvMxDeLxP7fs7kA4xOdHOJDpydnU8c0axvHzN0DpfQBG7Khhouh/dJDyD1Dy+CWVuPb/EKr5xJdW7p55HPbjjFz11tw09CzCAvRagnDzAtW693ENvu8JOpDy8cmA+d1JXPUrYor3YaEU8mVJWPfxDwLslxGq94C5NvSH01L2/XXe9lySvuwa0lLy/Y4A9pqnoO7pAC70l+i69q53DPE7DDby2ei28Oo51vUPkqbzetW89mXYGvSTJSTzdfoi8iOvfuxzzGbw+8Jw7eh0IvGr79bv8QOe85qlsPBofnjsHqjW9KOlKvcJsPTxqDDO8O3IKvDRflryJBrC8jzhhvEQbQ7wuVPg7d4KOvAP3cDygNpe8P2jMPMgINDx9Pf686siWu1hVmDv15/u8uTS+u6mjMzsBiJW7k7VAvLd0KjzLKrI8oh0zvDO7NjuUu5E71ia2vtB4b7x9KhQ8yACnOxfEObw9LuA8TzOdPV2BKT1pkHQ6y/nOu3E/ojxZKFa84+MOvBrtdjtnEMY8OQhovAqcQrxfbRQ8mhrJvAqB3TzLbMg8yFRqvFJ1pbzyewc+9PLovJU8KzzzrFo8V4sLPaHr8jsLQZg9KogoPZ7vn7x6M208NuNMOtWhhj2xjms9cfYpPHmx77y2tZU8/gfzuowecjwefkE8ML54uwATE7zXakm9FlIvPBVwErwukt+8PmezOy63kby9bqk8FOylu7vTjLzkHo68Z19QvEBtBzumo6e8ZvFqPF9kPjzwgJY7zk7yOz/WYDrPPiM8ilEaPGDyE7uO7wY9XVZbO8HqWLx6toC9Yi9kvNxqODo0n0u7xyAFPJRYCL5yaqK6VSeSPFDUJTwdVrS9JlYOPuIkbTtHodG7xS6mu5o7FDw9U58881InvL49d7t2LYw9QkIFvqp7dLgbQE+81W4bPEZykb3WQUQ8eMK0PMhOAzz+aDW9",
                "23gVvKdUGjzdNiq7iTbQuzbTD7wFJIE7ZcxVOu1oD7xIGSc9bm7CPFMixbpXydG7FYLZu+DZhT2XS4s8NFIYPCn7iby0qRu8ogHfOy7FhroY99q610IoOja8rrsNBa89XDs1vAm6vzyeXMi9ErsDOvuuTDu/RRa9rjJ+u2MVrjv72P85EayQvAMAhbwzgq+7YmU0u9ToWbkTwcM6ksa3O4y+dLxHXmg7cpi0OudqYjwBbS09THwjOhmlmTvA1lI986G3OX6PbjtCAGa+B9JFvHpZFz4IAHg6H9c5PVUDsrxkYAc9F7LOvYohE71yeDQ9a4uWPN72hTw0J2i+R50mPXxBwT08mUg8vxdMvXVUhjrp+TA9fSvUPLVZGT3fiS89Jnf6PMwgcDtzgQm9VkZTvHSAUb2ML4o8hNkPPA/xt7oKuUS9dZspPRV4JLwNwxW9lEvhvH12kz3Z0Iq7md+kO4euFTyst+E8SGy/Oi5LLbyEJIU9SLk7u7yKV7tevrg79qbguzUKqjwqRk68+ZXNO+HZKT34UT88ETqlO0bBQzw8xPK84UkPO605bzxcACe8D+pCO6b0Lbw3qIO8NzU6vDmCY7xcnxC8co8DPHa2DbtbxSW9mdgePMS4gLun8oE8R0llPDjrm7qP6Z4741niO7M3Jb2n/FQ94BAXPpB5QD6sdeI5FUt+vP4yab18PZQ89fKNPC8UnD0tJCW8ux4RPgoEGrrcsSU+CZwCvOdBNLr42ZS7Kkt6PSDl2L0LcuE66ExqOzUM8Dy8+Iw8E89JvcaBX7uqJtO8RG2zuscrjzzG0II8X9nBvGlRsDzYTXo7rqoIPdSFRDwNYhw9m+i+PBTnMDzYih27n1Cauy+cSjphwV2847wFvG7Lsjp0pCc8FxiGvFdhMTzuS/c7S0G3ONYjL7w+B3a8skrqOqi7xjz41Jo7UkUXvLkw5DsHW5q8ymMPPC1HobqJC8w7o+aFu1aAFDpO+kG8ZJZhPFXk2bu7ukE8fs+PvKlT9DtEsEq8",
                "yGPXuxudP7oHLb463rMPvF8fmz4z4re7rqvgOFerKj9Atky+P6EoPl6CE7pb+0I6lXCdOuB1gzu+Vp48LsJeu7pokTuyQm++TtqjPTF7lblxdym7PysNu8Mfi71MyAY+PR4vOxmXrDq/eNS96J/rOqv0h7qQu4U9Ai8OPlGRaTseB/26CUrTughwDjyBY6E8ZOZpO8JRKLtvN8y68BD4uRMCjT2gIti8YJiDu0UIDjuK4AY6u1QEujpKg7vRc8S4Vbk4u4Y3MzsRgiA9PDNmu9Qnrjs4Q4W80PJGu+c+47pLNES9n668OcfJA7sTd5m6N3MoPD6PiDsybI+7EDU3u6ej2zm969E5a/kOO9bqLD3EY4O4X04duycOmjsX2qq6YkiIudXLJzuhxIU7HNJHOqvdSTqomu8+ld52vleZZj2dlQ69vP+BvaLEC70CQQk9eBgSvWbVTz1Gtic9tY/4vMPUlj3mYMu8UxXzu6VJTr3f07A8uM/HPJ2jbj1qVbO8CVOQPNlNNbzSvnQ8sruwvH/2BD1Fm4M7cnTfvJsb8jqwV4M8uPpZPNjazr1QAx29df5aPLt0K70gPFe7YBITPVp2fzyA8pg82//5vLKKBT3ezjy7ThoLPNYg8TuXYtA8mRwRvBTuVj04kT88aTWOvBxaSjwTGTS8iLk/vG3tq7v9G3M8/qZpu45O/bxD12G85IQ4Pcqd8bqVACm9RDTOOv574jtt//k6aAcpPfW7kTysIlc8TluCu+bYyTy3N7S7sQX9u3HDgztwLCO8aoPKO4/M9Dyux6a74eIqvrSu67wZQ709ea7AvWVCJz1Csiu8r7v5vX8tuL4P7VQ9usv+PQxvujxJPT29HJSSvZumyrwsHmM8tpEdPMrszTvpELs8uoPOvI1c2jyIgem8QiufuwCg3bxaIma9tgeyPYT2Lzzf19e7QDQYvQwatLyeaEO8jxFsvTfFDbzr9tO8GnswPJEn9Ly1N3O5gsj9O/leDToXpgq9tbMcPO/woTv5dJq6",
                "KbVyuimq3LlN0Zu8fsQ4vLqzuToeC0g8UyQnO4bImLxcRGY809WKu5QpfLqciwK7hYivPNj3dLzPQ907mO9NvDrM3DviOI+6/2AfvCEXIzyw/Bq8U/k6vPGxG7wvOFy8wQZKPI88jTwAHmE85jcVvFgFWTvBCuO7JJ6LOV0eu7xRefu8qagUPkieDr5P2Ra9OqFKvZ+UA74Dr0O+alimPA7iaj5qa9K8jPY6PLzQKL0fk2W82eTJPItT+Dy4or+9TwhtPWAH5bxc7cO8z891uzwPVj3i1fA8cBaYvL2vED0qiJ88y+u1PBKnvLw+Ig+9KflJPOlV3DwDfDW9nj0LvT/GB73Z1IA8BvjhPHhL6Lxgd0O8S74jvbSou7vYfSc9gCXZvJ3gPj1tH9K7ygzrvLnCxbvlOhC85UsGvCZOM7sp2MM8VNUTPKkxr7wiXFE8icetvFeQCb0wirG8G98SPGynLjz+o5q86OxRvC7iprzA4SK9qegyPI5aZDsDvK277x/7O42MuLuT1Lq65dGAPA/v/TuEIh87fYCjPGb8ubzBb6m+KyGGO6jnlryhI8Q6o3WXvStXUL37m4K9yC7IPJyc3zwf3cu8xdq5vHWSAj6sLTC9GMq8PNHtdjy7q/U8y470PKtdnjs9dmG8LO3lvBH1IL1ekz28XUxFO0pgWLyC+fM79eePO1hZnzzPq5e8ZUbUu/EqTrxb2mi8bSd7PO9QP7u+AUs8guwAPc25wrx0Wky7qZvLvHHNujzdu/s7LVp6vQE1xDo+0PG507SLPPlGxTy3hbg80CszvG4UnbxGayc8/mTuO0kmi7yJ3os9aBlZPFcyLLwe8TE8zlHeu+HvSLwFL8S7+tVJO/D5AL0SGaK8Jf4lvOxVnryjvAA9zwRAPPJqaTzxR5k8nbQVPHT/nTr9Mac8ctyCPFIzIzzAd7k6KV1JPZUoMb10RkK9iq0YvERCgb26Poe9aVsTvpiDlDyg2EA+zPvFvAaUEztKoy+9IY+gPFJ6Eb1TmuE8",
                "R7wEPb8Ch7zrIL075wJRPF2WGjw7WeG6MUnsPHbhnbyvL9O9cpAKvhH6kTy08us8CZEIvEXsTbtWscy84gokOu78EjyC+pg8BsRgPNG3FL0miZw7ad0NPHEw8TsKxG69vHrIvI/BWrtR7zs9NNSVO2ax7jtFbWa8OwAFu7mWSz1zYLQ89fK8PEKmNDxG7Rg8qxIUvaRYODty+aw8GbNou+4ONLzTprg8TqIyvLcGEL1WWna7DQFpOh74CrwtIBy8EjlBvPpVXDtctTO9Ot3SvE9vKjwCgYY8qmiAvMFL0Tt/Wri64kEivGQ0Jr69eRi8yCOou5yffT7FgTo+hf9bPqLEX7scTlY77vqlPIFHiTyXqZS9BskFOi2GqzojS7u84E43vbqVc7pP3z28IOoVOx/c4btejMa9l+YKPNw6lDt90og9+jLyO5TE4Duivma7l/qou1XD1juR1AI6CXH/OqroOLwJzIS8ALBFu/nyM7uGTv07SeGnO1T61byxcrc9KFZWvE2JoDvJU7G7zXgLO4dDkbmM20k67BFjuEjaiDsL/Ns8kW6Cun6B6rvDn9m86Q3HuwioIztAMBA9q6qYO+j5Jbvos5m6xLHXPC9fkDw8uHO6mRgaPNW1k7pzZA88uug1OxPqkLuLTDk6ArMrPHbkEbxKfLe7FJi7uujbsru237m6BhSTO7QnjLt1Pj09WZsIvvH/wz1YN9W8FPeQvEotCLzwaGq9z6FgvS6b0TyZ65Q8vYGhvIDLAz4CiA4+KCUevYxWhL1fw9Y8JCnPvLMMj7zLkzc6lC8ovcDqAj173VK8BmgrvXRCmj3wtGc8nzB3u05VCTwvVg08fyOTPMk2ajySeUy9i0EUvTG0Tr3PJDE9xr8mPZRzBbzwDi09ZCQHvcMn2Lzhoac8M7xpPHLyFDx/nxC5wyGcO5Gut7smVr+8B2TYvNnfhDxQhvm7llIDuQ1xwTxXfsS8kpe3vKkfC70EI+y8buUFOiKYHjz9r2s8uWwwPEuN4zqtSfe6",
                "r0CCPINxsrvefsS7OEcgu6ozljw8wec6HsBsuhqIkbsld5s89VBEOfSVtTsho5e6S7gBvnTsCj1Puza+2PNNPbdjyz32iAs6kR7oPSpKl76hqds8YAS9vQzXyDuGbQk89XfbvOXJQbzqggE9720AO13Gm7wqoWo7MTxDvZW/Pz3IGKa8ZpSKvP9wBb0rjiU5ab41PbijmTuTsoI8aTGIvLdpTjzlFhE9suDrveNQVLuBKuE7WK87PYt827uNaxk9wUbJvHNaqzpQi0E8VDVBvQXpLzk2C2q851NcPbhPpTvLEr888DhivUVzFTzXkV+7GR7nOvXkI7zEuKe8nLlXvAU3STxOMFe7YtOcO6nUiDh3Rzu6FyDpu7hYXTtT1Wo8KCWpvDE8nDsFsOS8Z5trvOHFgjmAznM7LhkfvGsnRLxLIpw6y0evO9uzzjvfPBw7K4XcO14dPz6OVZi8BFW3O0YVDr3r7Ae9BGgZvBINTr2Aat89owiaPDa/9z2T8I67z/VjO7mcVzpulgI8TGwIvc+J4TzEPRO9vxHcvK2IcD3pE8a86aSOvGHTHz2ol948gjacvODrD7rGig89AnmyPGWwBr1w0567P15tu4uKIT18Ijs7F938PJTpt70Ldt+7KRoAvXHnqjy8Sp68ONjgvKNkCj0eKLm7HaQ3POkYqrxEzK68ACgpvOADGT0/8iE7qdAvPJI1XLthdUg98LVtuxD5irzgmIk8Ormou6Efg7voUEq8UKgePHJ+C71RLF08KQEfvLtYDTxv/Q67q6JbPE1YHLycq+g6H1RyvDBVdjzb67I6jAzVPPrQAT0tgQk8ryqaPCq9Nbzso8a957Gvvb8k8Dzo4xW9kpWFPEJg0DuNFuk99x05vQP2wL3rr4I9huvWvNvhY737crO8HqKQvP/XnblIURu98czjvPkT472vLi69uo3svFNEyrxly5O8I4vXPBBf7DytqsO7FifSu9LrWTww+D69ScrWvO++hjy/RlA8j15vvP8u/jx+LZW8",
                "kN1jPTQUDT3FRuU7OsaDvGfIZDyobJo88DXPvKdsQr0eW4U7wznQPMARMju/bJa6ke4lvLCMqrxTWnw8o+CQvNALIrxqx946v2p+vGNRuzwvuSo9hG1nPEUVmrxZLWO82X8MOJS0ALwrfGU8xDL7upo3o7wb4vu7W9STu0KAdLtUY2A8p54RvBldQLsNPVI84YyVvEz1Irx/+0O7bmffverEaTvWlwW8UVQdP4nZnT7Avsg9QZk9Otr1Ebvg1T+6YR84O6XzbLy1iXq6FE5hu2nkDL7UFIU9ZtaOOSSrZTuptBC6oa2qPDrWgj7gdcA7zDrFumQ12L1SvTS7A3Cluo0SBDzWhqc8miW8N/vqv7pNalG6mlTquj+FojzZhgc4wJwou6YzszqIxjw6Vz0pPWkfljqzR5q6HTM7Oz+VxrnGrs06MdxMO8tymzrOg7U6e5jaufcDpjwdUSI66nXaulOoaryu6q+59zXHOnb7b7xrP2E6PwOOuk0UW7rzycC29G86O+BEvjp9za46VmV/utQxM7hO2PQ5q+SnPLsJWzritEm6uJ2XumyU3jtGKg66/S3eOtoB+jtOtT675e9qONTZgjoNYwI+SVDiPd81iroC9ya87GOuu/Js8L30QA09IimPvVi0zjwgri29IAU7PuRwy70DaSw84HHSvftvnTxufg+6WBy7O6ULaL11Dw+9Se+vuyxklz3sYxq8e5WRvMrXo7yzb7i6Fl69uwh5DrylV467+oY/PV1LBL1cy0+84mClu2GGlzti3wK8n+3ju4UvCbx7qn28sm/JOzFpkLoMTVY7d7+oPPr2yDxXZSI6tq7VPCRfBj2DOW28tmTrukh0CDwYbBo9qUc+vEvVBb3FBEq76CWbO0HVkTpG9LG6N1g6O4aIIbqYmeK8iAJUvL1fC7xijha9uhdCvYHgA7yTHcI6wb28vHENj7wcHlS8Gg9VvNDJejv5yd+7UB7/PEfxxTxCXi6+PhUbvLOY3zyGzoO9ybhrvXAZgbxfS0Y9",
                "seYPvgMLob06v6s9tneAO2zbHjxcuJs8VXcBvfKR0bxKMLS9hcWfPWsPIz0IIsy8AIMUvPuBrb32dJm9Q/HiuyKA37skWLY9D38yPSO/wTx1/q+7AbwpvET+Erx7Lq289CjuO6sMQToJHra7pJKGPFzwTL0Pq4G80C4uvAPk2TuEgYk9X+IAPIeZLLyV0la9HxIkPCtU2Dt0+kU8lTQlPKUYIzofCGi9QMHwO47ABTxq3D8874SYPF5/ibvVaGI7YNLcO72nJj0Rv/E7Nm4FPYlVbLzxW8w7kuE2u9RUFbzHBAi9PzSauwFwODxslre61QTyO0UFKLzDXqQ8sxgqPELbULtGLB07g/Y4vrY9JzyaW128Pvc1Pi1mDL7xK7U8xvt3vDEj+bsN9UQ8m7GWO2rQmT1PN6S6U2gfO/7yFLxzeuM8/2brOuzDSLtzzTC6Ij/IPIUDyr1EHiq86P+KOVJHsT1FPYe7/7s2vIsqCjwJzKg8gS7ou33RBroe7d87I4uCO3CLkb1r65u76lVGPETWnDnSR5m7l974u9aKajq3zr46vsYBPPDxX7tmE+k6nayjOy6+BbyJzLG761OvO8gvnT2Lugm8VyBhvBBp0b3KU287AjgmPM1vgr3UIoo7BELBun4wWTzFXAy91oLEuzl2rzr707a74XvWu9rMZbtAYtA6EXKXPd8IWjsh+Im76PgENue7Tb3YDXq7abmEO+yfBTz4N9o7gKKtuwiSAD8qMQa+l9sVPXp+Cz18Gzu9ATeYPJSDYb1zSny94G8ZPZjz0Lwo6LE8lJgQvRrPFz7YnWs8Sm1qPSIfN73R10C87i5IO24X17zfVpO9S52Pu8FqBbwrtDE8402pvKUACDxD28G7+dBCPHvITzxcUCG8StbcvNFtMr1ApWo82CrvPOUD4zyg5fC77PBWvEAiE7xEfx285BiXPGJyRz1QdQM9zNAnvcbbq7yrXJq7k2VmPdgz/DxQIbO7O34HPVGad7yZuYG8/aIJu7CoWT3QG+G7",
                "odUiPe3NrjxlrSy8oenLOqYPS71Kiq48eo1dvFPHn7wCGtG8XQmKO/ZZXTxXrXg8f27yvDknXDzfyjQ7Qoxzux9tIbxnro08mukQu9dEmbyary49HaoGPbIRaL6fob08KM2rvTuSiT3Ooz08UxHcvMmBEzzw9SK92Fy9OxvrNjz64qM8Xn19OyLx2rwyazw8q1S0vYIugbxCEEG9n5xUvcPfAT3LZqk8tFS+PB7xPzzpOE88gZ8LOk/Ewrs4Glm9DryjPCmw4jvwxVu7o6EDO1WmJjubKuE8CvjUO3nfw7wCbe07pF6aPKY6uDrZ3qw6/v0TO2vL2LsOZEg7oeK5OghVjLrKNIa8fvqEPOKZRryQdQ09AN83PSLSgbx4h0q8GzGPu9EMebzD7zU9ydFnvI8Krjyu5Mo85r5bvC+U47yBi6I98b9SvKh9LD3KoZm8097iOzTuC7m5bDc9xNp7PPcL+LnLti+8j71WvBToMDzyGj69bY7kvUX3+DyB2x6+BFYIvlIA5Lu2+Tq9LEAFO6S71z31MYw9D787vtx9gLyuH4m73Hc4PYLOm71Jaa08QBEyPJWwRb0qg5A5KLjFvEBmWLlwBrw9l6OHPdyPxrlffRg9I0DJvVkEDD1BKUQ9fXOpPahjcr21xTg6vTQQvfM8BL2UMyE8RfIAPMjzRjsntjG90+yjvCvmc7y9AKW7InAIvJN4irtXqdi7+Aj5u7v3XzrSlco7C8K3vFvXnzw3OWs8+THVvJUvoDzSgog8vYF5OyO8ejxERD+8cIVTPKWDOzkOaD4861LRPL1Zzby36r27AOIFvGyk6Tt9iIy8O5Hdu8Rkz7ooe7E7Wj8tu9fQpjvZdzI8UT29PE+0VrysA727so3HPDMzSr5JFHm7EMwlPFvkrj1f3Lq9YpguPYk7IjyHhw08oOeIO+X8FjwIXJO9+HYFvMLZqjssVIC9SNi9vVFeiDu7taw79Fffugcchr0EOlM9PGF/uz6aiLqzzl+9X0pOPHHYijrS8DM9",
                "1GvLPYtrK7ym/427iodfu2kWYLtJGcQ8UmsEvES5sbqxBj465/Vkuh5axDsvgZY9pjedu2G81TtWSqw62e6Cut4bgjrKGnS7T5ZAu8HmCzoiwas9AskDOwm/ILtZzMw90DESvCP5pDtKlN48l1wrO8h+xDuEQO46JI4dPB4CCTt1Kj+7XcD6up7x5jukL++6Vy9lOhfyy73WZk65F+koO3pnzznLF4M9wvAhO9iO0zsE6Ig8VvI5u4IiQzwWEwk9QpcePBqCRz0byQC+CZjaPAc2db20GuG9VtBnvQB/+D3bxNA9d80lvGTcFz29xty81HIdvAFsKj3MXnk9kDnYPO4O6b0ypRu86VPRvAaoHL3BRIY8UbbSvLT1Nr2ONmS8Pqg7ObEwGz2P5zC9EadVPav0D7yubiI8dD9RvWZdYLx6nZM8hMJevH5JP7zbafa8s3bLu7gHTL10P8C7X40FvV8lcz1Jdkw8LrQVPBu2GL37wiM97lKLu6fQ9rrRBZc8cm6ROmFd8rzFb0G83h2/O/+0NDvpGgm8CarPPAwZDTwYilA86sFYu4x+c7zaVvs7NasQOwQZBboz1BQ8zz6cO+NjVrosM6Q75SmBPNz+vrrNE3S8Dxxsu7w4tjzNqnO7HABDvtiSP743JnA9stoJOlQPrz1kqY68ppaFPtJTdz7HBn09kE6FPbcTDjwZNEg9vpwEPT01J71kQlM9f/YYPOTyIz08lAy8WJh2vCdyBD1o7Yk7bDghvOy+JL3hZb08doIIO74bJzxhAoI8P+qRO2QXebzjYL89obOFPaJYC7tJG2Y9ICm2vDqIHL0ciCC9oBAGvHlg3jtJI/+8HXhePNhmI7zRlTw9//PKvHorz7pHLN+8xIQUPHjlBD3jhXA8UYwdu7hpULwHp8A8imw3u4oBkjvPMKO74h3Du3nTUDtgDG287DW+O/xe6zrIRKm8oDizO0v6C71oHhA8OXlKvInUCDw7x0q8wYPrOmWQBrvFjYg7NAq5O/FBr7sx6Lm6",
                "Qz6iOvO9sTyYY628UcHvPYr5K72JJoq+1EzeveQESDzNJz297KIPuze6PDzigY29AESJuQvHWD5fVsA9b3pkvodgIrrB4328iYcYO9/SLbx67we9da1svDqgpDsSDrg84sWwO2YauLzyJTW7SfHhuz9ul7wQjco7CCUvPG7upr0vxTu9hsXGOq3Piz3pF8i7u8nwOpcDELx94iC8bWg8vPNFULoJBYw7LoMJvPsaarssWRW7PvwIPG5R0rwRgpm8sx4RO4n5STzbbyM8va0UuxpJHrw7N+M80276uqQuSrxxayy8MGYvOmxGg7xCe3A8YkMHPHGfTry5zr66nN2xu8SWjTyBONU7RE7VOalwxrvTnBU8OnNdOjLFhLskyn47iawJu3cuwrvd32A7n1o5PlpfOD6bE029hoZhvdL7HL0k95U9qn0BvXVfob3LYIQ8Drk9O7082L3If5E9K4+lu9scZDzbJ289OiHuvPiV4DpxG5o70ycdvaZw4rt9zEo9ZfBkvaSSKL0RVHq9E8B5O7x94LylIIA848zzvCDfnz3XMzG9aO/qu9ksOT32DTw9lgMtOfqNG7wUzgw8zWlVvYu6hjwZPYg8iQRDvF5nHD2D0rc8rJM6ORv+YDusBuG7MwLsvPO0DbwBssi8dqL5Og49mbuGj068YI5xvKzy4Tzd/Q+77jCiu08ThTq79Uq5Ego1vEhhZLucfMe7c+0CvVX4Tr2sPbG7UhFcO6Vce7yTiGC8x5QdOyhmVTylJcO8xbdiOw5kYDyouOE7xGMKvmsUvzwFGam9lyeEPQ8Hi7wg9388ZVoBO7wzmT1/b5A8OMSyvUWA5jz3N4o8NbXoPW+mKb1PDZ47ws8cu8HSRz3PhI49zv+MPOL2Sz3O7Is5+uQcvJxx17yzcPi8kwFBPRszlDzhWQm83B9qO3NogLzZkV47ihNjvVpBBj31t+G6QAtzvK7UYbwVxoe9GeR7u2pZcTw8Bok5QeHRO6Jq4TvOfs67vjIUvSW+qzzTAQy7",
                "i9wPPM9utzzHvEs78MnYucBQsTw/jLQ7W+wivH29BDsf14Q8d34aPXeUpDy1DZw8YeGaO38LLzyJJS87qC2vux4u/LvpPcc8cULuO5HpFzvhyV28c7iQPJRWCzzTQCC8vs5evOJQortzrlS6K/K6OyCQZb2n+by8CydRvqUvCL094Ie7+sWBPZhvRz383sk9osd/PZaaGrpMvfk8ZyMbvUnq7b1C9b2757zRvX0e3LzI3YI9WaMFvUKmU7389Oq9OXqvvAG36Lw8hOy8nGYSuzOjBz2tWFk8PE5puaD3mrs6ShY8kYZhPex9Mz2jWnu9HwlJPShwTL0+nf481pULvAaKPDzdYwE8HJeIPe9UDb3J4EA8i8D7vE6blTt9gwc5+6zyPN/pz7yYYg29PwSNvIznADxs2347kyCnvXap2TzCfXU6Nl+JOs56yjpxKs07KBrpvEQeSD1b+pY8q2lTu4y2Vzyazc48T+qevFU0CbwfJBG7pQCdO72417gpbyS8X7MsvLpjDDy5t8Q8mkVkvPs3PbolxrO+jvoPPuhBsj3V9929bCiLPNkzF7x+y3M+7+dnvdg3eb4Gfhw98PVDvH86PTyNsSq8lsnQuyVICD1mYku9MvctvGuHcrosLhI8lt7KPPy62zyI7Ii9JNSQvKIW6D23YMQ9/PP6ulE2zTzg/mc6FzuGPX6UYLx1Fo25c/S5u03Hj7wV4zq82EuJPDSgKrxAJom87MY7PFEAIz3ejBo94sOCu1i45byHe3K77WAFvO5HdT1nw9o820vXPEvgfbzmW8K6ccRFPLeGwbvDEww88T5vO8oFhTz3WPC7c05UOvE+o7uew+Y8HjKyPNGABzwvu848kp20PCkctjyMs7K7Qy0mPB/FbzzDJJE88BGQuifFMLy4eiI8t7Oiu+dsmrwhQUe81rkgvZ68Ib1wehc9GpzePcOqxj3aDa88SgYnvUEgartjycs8bnIevNIkrTzix5a+q+ulPt/y2jwy8os8aoirvRvWYDwDyqQ7",
                "eFJWu6bCLj1v8jy8jcvFvRUC+jxymHO93i8LvEK9Fb2PyGy9XJuzvGuojzyeAdS8LVVmu/Zti7y2/V09Yr6gPSnoyDyMfIG8ll6JvEbjgzyyOPQ7vhvVvLtZRLwVlwW9NB0zvbZh5LveE8071OStPL4BYzxggU88V/23PKPsArzL5728576LvQ0hpzv306e7TFEZPPb2g7fCTr+8hQ4EvBet8DrRooS7DZYVvPOBGbqwdoG8e6WAO1fxHLsNaBU8FgGhOhaI0DpLyUy7iLMGvVb/HbwXb5Y7HBxEuvxl7r6hm/y9cinVvO+DBr1scaC9/JowPKn9Yb1zAd685BE+vNSNJzsSpNi8DvDfPrqLMrwHxB09aKfXvYDsNjxjsyM8oqtQvH+hqryUp/S6hbiBudxGqLuTggg8L3dQPZXZC7zFE1G8w13avPq2kLySEHm91Dj4vP1j0Dz41w+9xGB3veHm9LweNiQ8FZeVPC7Mnru73oK7BgOKPLw9z7obIq25hf5OvFS1BTyLwYU58ZsFPL/PXjw2DZO8wNeIu0vaATy299C7eISNvGYVBz0/I2m8QyaBvBQdcLy84h68yfyBuloawDqCPDG8S0zLPDoCNDtq74W7DaI2PLlgLLv5rAM8XKQlPE+nF7vkQLC6QQQFPM/yyzpIK6K7PkT9uzqElzr30AS+jHsvPdLTjLzJCdK9aQY0PDHGDr1Vs8M+2hxZPhGuU709Mci9OQGRPCsDXz1gepg8GHEXvcgb3zy+0am7iOiMPOKmeD2DPWK8wMDSuvarLj1Kdai8B9zvvHdOqj2vDWi8Qmr+PNrOjTwNWAe8B8GtPHVTjj3HnYM8P3CUOybhEzvmWbA8/GrjvM56GrxQGzQ8hItUu4IZz7u8aAI8tDGJPJIrDLzw0IQ7ozX9O+0CsbvUsYQ7FXo2PMJMqDyT0fU5NcwpO+NaJbwz0XI7TB8bO8dMobuhX7a75efdO1abCbwsZqw8klkhPBH5MrzKnAW8hceHvOqi6rqoPpi7",
                "vGxpvCKN1zxwz0+84XGfOli5QzxBK704fA+UPKA9Krguney6TPqNvu180z2e44W9N+ZHvTczSr7qin28GeazuwaOQD0GFBy9xbC6ugmulrzmv3m9ltX9vFTepDxaU5S9P2pvvHjdv7zrjBc5lNaqPIB7gTyqcxC8sjttvFUQ3rza5Ea9TWGYO9TOnTuZYbA8IiKBvLA1wTwnJ4A9bY04PblHPL3LUkY9cxINvaJJyryJ5hy81H2XO/0fVzuFQ4M8VPuevAmWrTwj3628HllzPLA1/7sRgF68YwKDO+krEbzD2q485mD8utVbnTuyBvu8SDjVO6SJxLyaOds8vQcxPOxngDw9yAI8XbfmPKB5IbxcnIC7iaKBOrZfBb1Sy5I7VwiGuxCTpzsw6W+88SRfvLYWpDoq3iy7uGASPHPSsLxL+0C8PSwoPDkdUrt6kQi7b9GauzP+070Yvio+KYuVPbkatbo7ZuI7/S0RO9g7+ruDZkM9R3HGuLLC8DvF7IG8EqTXPabA9rryf0i7wJGxu7x7bb3zatq9/7EvvPUInTs7/Ku9O3bEOvymPLmhrAA+ueqRPp8u3zruN967MMSIOqE9oDvPtr87wl8nvImDHrsusLG6vGsQvCd9abyUmP27jT6nu/s57bsPlne7fbKAu+7mzzqGLjw7OIZfO2YDsLvZO1O7ayA6Ouu3Szrxppi73CTbO1Mrl7vlXKO9XL3SO3iVN7pYLjG5m33tPKxNjDw+JvG7IIh2uoWJpjqtm4g6HCXXOxpTDrxBQPe5EjKkujN6/Do9xQU9ftLPu4OjbDt9CvU8MKROO+Aez7rIqrU9wIPxvHKmQL3cEzy+wcc0PNZZB72zlui9KwfePDXSpj3DgAm9Az6yveVdHL1ddEg639ywPA+29DzdkzK9RDcUPdZERjun3F098B4kvU9JLjrhLzY81mOjuwgRJrzlFZ08VBMRPUBMgD31wwA96O5lPLn4S7zjrAK9G143vGK+Njx3/bU7XtNzPSVLkbw1VpW5",
                "AXbTO8l2Bj05VSU9P8GNvEfUUL1SsU+97e0lu4rDOj2AZxu7cA00vbM5ljuDUBC9hw8aPTfxSrsckGw7z36mvB1+krwaOec8rB9bvAkKBL0aspI8v9QDPdBtDDwbsG08rW+Du2NbdrxY/zC9o8+Du+ZMKDyaR5k8LmacvMijarynpXg8salEuoww1TongM87ELyfvnprYL5rCZ09cCogPbz0YDwWwCe8JBqvPS91lj3wkDk9uLQDPSAAubwDlT6+aynVvfc0SLxSsXa9fbAZvEmTdzvmmus7ptkWvZ04qLzzszk9LvayvH6W4rxOx5E8fckwvHfS4Tq3YiK8vaycPBR/ozwvpVe94mX7vBKcR7z1WSG8plRDO1A6Wrw3lkO8pGkxPHRPDju/Wz69H10wPFgIKzo314k8WYXQuoWMsDp7w2u9lnCQPFY7r7xFtBi8VOcEuzewCj2G2oG8ELVLO9ZJQDxWSPo7FGr8O7pdzDqzdoA4cr+svIzrnrvkiAo9CpNsu08SXT0QgCG8gg64uhFc7Lqogus8rduMu5HkMbxsYOc7vEuNO2jTP7zVvSi9OjabPDiPhr0XyYk95axAOwT8+73llfg8tmzPvKdISL6cf34+e/PePRGVRr6ZAIU8BWC1PCJFED1RB8i8pUAcPYM0STyMg1m7+0xyPVt1YDzcMsC8o6pdOzkwaDxzJem8xACZOz6dWr00ekQ8zaTaPFXtiz1FKA082s/dvNAARD0YysW8Mma5O82YQrvkAWa8vHvuPId28LrS3jS5WeVsvE4vbb1kJzw8cSnPPJqh7ru3ef+7LAhduk0sFr3RqRA6CrAfvEvP0DvFV/27FoNRPJ20Grw/a/U73ifQu6Bjmzw5WJi6boctO8Nwy7t2DyG8p5A1PBv25LuL+La6SL+pO76SGDuM+Dy7PKHbOMIIW7xh4Mw7OIg/O0Iysby7WpW7faUzuiFimDwyDhO+K5t0PD+WWzxggpE9Y+TlvTJJ273hZTo8gzzTu0Dzm7yUjGm8",
                "g+/6vTnGWjzjsiA7aG+0vThkjD0cKri7ipOmOkSsq7uIcxk9n6AxPnK2yzr4NAq7T97ivDR1HjxneJQ6ZQCzu+5yuztkVZq72cUUPOkTEDxXvqG7nHw1PeX1xDvC6y286U63PEkVdrudvlg9RvLDPfKpjDxZ+ke7kzoRPKM5ibww2gm8/B7KO5bxXLoHx+Q704bvPNaYJLtRKNG720D/PQJs4re45/i5hCwcPVAXAbxCszI8nJTQO9CEPD2S58w8NMy5vDthdbsNq/474dIvvHZ8kDv+U2O9/DU4OzKrUjuBn8c7/piOvA/0wjsgUt048FlkO2xuDrxvxTG8DHNpvX839LzoD3I97bW8vJgSOj1hkIK9PtgFPQU79r2Njiu81NrVO6IU273XO6q7obehPQMPGjwld2294IczPH1lubyTDE48pELhPDY3OruVyqe5pJgGPBndS71KCKg7KvHnvGkG5Tw/8U89o4fCPHEaTLxv3mC8LpEKPaViCrxURZQ8jWKnvFVteDzIkng97IYIvevBs7ztUvk7eJnQuxxyuLxNwQi9QfCnPMR2lrtdBcs6BXTJvIWCv7qZBFe8ou1GPKI3tjuVtMy7l12eOxzRTDwR+PI7vYdmvfhmlTyx4PM8BxH8PPrCzbwi+JI8PladO53sELtrkxM9XGxcvccrlLzZ3Cc8DK2evNacbjwB1RO8F7loPAFoCLwtmL67lZq+O1Z2Or5JvEW8zTAFuwdtvL2EFzA9tGjNPfyh5rvm/OE79mKhORCHljz3Gzu9UW5fOzuuJ7yLxhc7B98oPS4iOjpyPyq8gTAWuzcVMb6fRaS7AqBtu5Kz4Ll8B8g9BNkOPOOwiDy5VPs8PK9vPQzHH7vEFRk82zADPBpKNLx5owU9il5mvMWEwbvN1QI8p80mvBto7r3MJUO90/WGujeADrtxQYa7TYARvGDQCTyCQS47Qq8rO5N7lTrfHHe9CM+PvJv4+juN4/O7UKN7u2kd9Dpg95M8Wcvgu528gby/ZAq8",
                "Fqp/uuZx2zugurC7JmmVugDFsrur6yi66BuPO1JDiT0d1bW6gr0FPFyUCTvevxs9Bu6GOwFtCzwwvQS9OY0AOvsoDzy4DqC93hb3PHd3T75CkYA8QaCpvFT4l7w54ro8lMG7vZosRTxWdb68LIgkvQ6iWrwHymc+RGWHvOFqqr3iQuY7yx3nvOe8ezs+ORm9bwywu2wT+LtRLBu8elfUvLU9OryNFxM9I8kFvL6Pk7yv15O9JJIWPdlfhLwOO3o9Y2hZvPlO67l+BwS8QmVnvGqZIz1pCYE7bbaPPDg/KTzf26K9ElkIu/uVEjuCJio9WVR2O+wv6Dst+IG9aK0QOxdPRLuaTTK8tjB/PCXLz7wbQRW8yWkLPMrOqbuinkG4R9WvulG19ruLH1M8vVefvDtsSLsOsbI8Ninku9oY4DzMfde7+sjCOm65aToyrHA87Aw2vN9tFjttH2a86h2buzT3ZDtXlO+8xNsFvTO1jr2rMyw9gN6rvePgFjzuHUq989uRPYmsUD0amac8t7fGva82X71005m9pkxavaY7UTwCRi49/DdDPEc5fr0qCis89aD+u/mgAr0zmY886F4hPe3u+DtdYEM9EwiCvGxkoDxzsD48E69AvTawSb1ywQ898+3Bu78lYrw6dSM9BqYJPfgvsjyPV7M8OJ/8vHWpBr2O8Fg93T1fvc9ftzuoSy69IvGpPQi0DzyLC+86rAw6vJIRZbyq+3i84CBHumPJgDwln9y8e8wGPc6IaDwLz5k81o4Lu1elILytAQS83rzzPIcWz7x5wLI7sdDsvHV7hDuxz/Q8CaSSOyaAz7uYH5E7StqIvK8rLDxU15u8DQ7dvKsEEjwDhNs7cAU1OZon8b3ExPC9nLy9vTc6jL0/Xzi8mOiUvSgZmL2mUpk8YdzePazlXLzGGJW8kb6bvc1OAT00XRo8pN9JPZb0HL29wKo8AuzeN8Brpj0CN768SnnGuvvYwrwCexY9gidmO7pSFjwOiFS40AmgOpR3EryW9AA8",
                "HAUcPaPyQ7x5Gos8SUMBPWP7DTzQmoM8GSfiu9gGnbwgCvA89lYZPWbzET3vvAa8+Ou8vCy+m7yZ9HS7BV/MOv+5k7yrSps6sNAAO0wNYTvR1yE8qeMMvGcb4zwbJ9Y7mI6JvFQZhrl76Xw7woHQPMcWxjzcY4c8PPqQO7BgiDwUiGU8IpOhPGUit7wKEGa7kF3nPD/aET0wIXc8sdTeu+M5vTyFJ4q6YVTBO7P3v7tc7S49ZwhtPcdPHT4Qp/s8XtmavR30BjxseTa9gB+/PDgzVTzD0wK9v6pCvEZg0zztEqC8NKvlO5PGpbziLY69NTlVPU8HjTpJ39278oEgvCR0Yzx+QGa7PeNBOwooQzx49MS8aQ+eu8v7ITsk+NA8utsnvYwA0jzH/JG9+SmMvDFmNLwo8qY7Os+PvPQ+Yjyhiuo4ukBLPAZcQzyqohs9Tj1ju4PMZbyffrq8DnEzO54iZTwDtCS8cdcXOpBFmjsUH0Y9drgqPGKEsTwSxzE9E6/3vIhmgzxkSbW8uT/8O7kjAD2rkpm8c4WMPcyOmbz6Ar+7aKfWukELK70bxUy8jnFQu31xzryHBpO7bJc0PF/Te7wZJ0c9sxzFOyhuiLv80ea8PU5nvVhyvLrKUNu8WRwpPt1ehj6XEKQ8Tv24vMaw6zxSbEA7SEJjvNMw1j2Y6i08amIJvhJjWL0e7Vo+nq+LPBfdd7wmBQw88Z5lPROuD71pKXc880FyPCpZ2DzLbte6mDSHPDDByrsTCiI7IrMkO43YprwX3TU7ckAyPPmXmT3qVCW8lejpvJkUTTwcIgw8Fewiu+L13TusYVk8obc8uq+NVrveIbc7Q0r0PMhv3roxule7xXbRO0YZTjzO2eq7bgSkvIr1ErwZh6c8r+OLPF9YRz3b42W7G33AOiw5V7obYaO5v8RKuyar4DsPJx28GnNfPARGBzymOZY8VLGtPPlzqTu5L227VukzO+0pRDwjpZS6CCcQPHV5kDr8aNW5PkLeu2zpAj5Ppwe+",
                "xO7GvQMoZzqhbt498/1iPPWbazxFvBc8x9kIvWjy6LsqFcQ7ipuvPkhGsr0KhA09wQFjPU9F+zt47Nc8Q/HFuzK2fLslR3E7FTZNvC7eRj2riJw8bsYvvVH5gL3Hhsy8J2A4va4bFjp6KZe80GaEvTmTSjzW2/m7HcdBvfNrujuAi4G8ovi6OqYEmLwU/VM6a9YvvH8K5rvf6hQ8TGLVPJLtxTvgWNs6+aizu38uDjoLrBA8bwfAvEH1Jzu5Y4G4ST/bu6DcwTzyryk8Mm84O1WGqLvs4tY5vZVqvL5DvztxkUc887iGPLMY9rmVZ8M8jDJyOne8NLyrMDQ8S+wWPAHshzzW+Ec7Em6CvNTXrTyM3387Y7iJuh4VI7kyM0m+wH8EPUflPb0iaBE9bmlGvQ8A4bundge97wErPN4i+bzxtuI7sHaFO0E+0j3+mnm9LIW9PCNB8ryLo9E7rOuHvbLAn7uasyA9MkiEvaAFxjuMPQO9Wrr3u+Cd8bqOg5S8XD0ZvCvFg7wP2Bu9+deWPD9sOL1I5IM96O3Iu4Jp/LxkI+68aor0vFCXOrvWI3i8tqM9Pd9MoTxEfrC8Tt/+uqpIgbtHkh49ymQ4u3KlI7xpupw87TPtvGcV9ztCRaq8gKZWPIZoRr2+TI+8hpbmPD/Jrzyg1xS5llSSPIzL7Lz5rJA8UvvnvOi+H72JnC+9YRKuvIBfAzpZdMy7BU6/O+QSa7wPMwS9k0zBvJeXhLwSEOw7YYXbvCvyxDw96BI8SGCmPIkEurzwDgS8pmJJvXgEe72PYow8su4Nvq6yRb22O10+IvqWvEMUezzTPxG81qgbONl/3Dt1Xg28ozySvbC0Djx3TjC8OiSnvUU0Q72A0lK8bWxOvFl2eLtrWQs9lbLPPKnkwrqOx588yII4vV4Psjz3R508h1DXu9TBELskvZQ8mpgtPBSzOzxiLOe7eumwO7CFrbx9NHm8JxC3PFGHgrycgOK8/W/avD66L7wB5Su8IkbmPLgn/7kvVZS8",
                "pIt6u3HfArzsrig8AKK0Oy2aizxngUe9IOGCOxeUujwNFhE8TS1yvFyr+Tsl3aU7KojaOkVQsLw8biw8UrkfvMzeLTxkC448krpEuz4HszxHEqA8MWvZvE68WDx5Swc8+dKNPEoKLr42WeY8vcKHvdY5pr0OX389gQWAvduVbDwVfiM+PwSMvEusUT2aE8c8zfSWO6phhj0BH0g8nCWLPGJk+Ttd/MC8esS1vRYwSz1KOww8j5SIvaLFn7ssHAc8504bPcjXLr0FSwi6d7FVPTogcD2BIYu8R6ZXvFrnEzz94NQ56OsrvDuRTLxACUi8NhtevLy/uLz79T48L6OdPOagmDy3TNu8mLPWPDM4Rr1bCwI8xX7PPDIwjTke/j28zNssvCVwojy/1Tk96++DO7nWITy9sOw7EGX8O6guizwlMjq8Fd14PdZO4Dsaqbw8TecyvIRdeztczLY67EgzvO9vPTyPvVw8nMnkO0O6oLxTgwK740yRO+x1tDwvZds8IyKYPAEj37xQfHy+/DgVPqSYCT7GZ1M8wN+ZvTG4Ir3oBaq8gn+APPlDPz3dCEG7rGoavYF10D3dkZK9nFmBPa4gd7065XC8DtusOcoDFbxgqta7JY2bva1QqLrmlfc89VolPKeDo7zN/Uq7pDf9u8qJobvcT2M7p1upvar3bz3/4ki8Hat2vG2fBT2Wp2g7Uta/POzzTLy7the8gcnZu2mYiT3MwEQ9Hiz7OUUi5LwilsO8h+bMOk8IED08dww9gvpPvMoIybvx+K68QVe+vOVuSbwgbUo9Xg15PKfEPbuHPiw6WFrzOiFG5rtcHo08A8JNPRm+HTyOb/M7Qz+QPLuMNDwirgK7tJoVuwSkVjzmZ6s8iOLvu6pzCzwK1YG8oSAguhfrgLuGmhg8xJn6PeoBSryvITk84bHTu04Jib0+Oow9Kx8rvD/2O7zQAOO7bz/oO99tnDzuSJA6sKBUPKepKz47vwW9CWmwu5ggHrz96gY7SDR8PN0yvT1NGL87",
                "mMwkvEStPDyAdUu6IhSTu3E9t71xQUK+8T+nOuOOlDvr4eE31akHvKBbu7yvkA46NJUzOrODqjtrsXq7e2+rvHomcT35BLs6sWNvukhigzqNI567a2dnu2dZg7pQ0P87jYbUu1KzQj246j68oeaNOxd/HL1VhU67AGm8u2ClRLzPv8k5YrhIO76zqzpU5HC9+2fCvBjSJDwgUsC7ofqyu4PVBLwvxSu7Sg+rO5EorDtnhe66V4CwO2VCjb0N7aq6gz+du6aN6Tw9Req6Qb6JO085Ab6h7Ba9u2YRvcVsn7v3ef+7ElMSvRHqzj03PUY91M62vduFS7yDYHy7g0r+vQyzar0YjUw8T9/VPPd6E7xjxy09Qc1+vUlC0bwdc0C8/V2APGiaUzyG4Di76BI2PdH7XbwupA29MWCtvE8WuLqAtk68qgxKPCJi6DxKhTs8ozMcPQtCtLzDnTk41+jSPKYGVbwS0748TsR1PYOG/LyhEky8OxCBvVoJ1DycnRS8zY3Au1ERDb32Uea6I4y2O7aOPjt21t47uNqwO+oEt7y2A4A8Vbn8vLsQazxrRZU8+ju8uyktpTzlpR08mQoZPZFDZLuu8Lq8VoVdvObwYzzDv027o20FPVizVzylqki7lh4lPNGjgzu9xXK6uz8KuUyIsDu0TMO9UbPRvLg8VzxfyaS7FtfpuwX0drz4D2a9yCESPCpw1T1n68S9aaWiPfosVL2twiS95apwvGK11zyX26C8S+HDPNodob1Znfs95jJ0u6dCI7uUeBe9Ahozu6PtMzwNjs08isDlvIM5Uj0mZg29LQcHvGn0cbwODoK7RBYGPHlxRTttTaM8YhMuPXkrkbuMHAE96DBBvV7hj7xBLya9G8uXOg1RVb0nC7S71NF9vAhZeDzigts6HBZkPMvGZzvsjmg86gKlvMmNt7vePKU8ulZFu3Bl0zzUmhW89ec+vAMc6bt8p6A88sJ5vBIEM7ybp4+8TZ+iPFepxjzr2gQ89yKdu3yjKjxzs+67",
                "DoZSPLIQqDodLoM6zhu+u5WGdTymD1E8E2msvea59LxQu/Y898CpPicJt7wcHwm+Ql6bPMXYNTwe/Qs79cR+PG0QBTzEDBy8RB0+u13wEj48BFa97pJ3PHtKQ7vq6yU6SCCNPc8LNbwAxi68/A1bPByxOTzh7mO78sPMO8aukLzhrkq9LM8ZPPvYjruF8QO8zSOmvI3h0rsBqcY7gLd7Owu4VzzOfoM7fLkgvBrh2juJuSW8L7pEuzs+0rvhZp855NaGOzNQW7or+1C8vWT3OV58HzwGKRU8zEogO/CYAb03YCm6cgIpvN6y7bsClsu76yfouSs4V7psy9W7adsMO0D1TDtRMzY8ZN5sO7gE4TvCaT+8hOb3PNrHkrvzpmg7Nie8O7o4rryDFte7oGdTvFu0HbzpbJs7Of9Zu3wqiD60fRO9t+jKPenmxTtLzX498vlbvSHwbL3L2r88snoQPO5Jfr0DBIE91jQ6vb/yCL2RQMW8bU2BPRNWNz38Cnq49qjbPcR4zz31i6m8gjMcO+UZPrxwAuC8aLTIupO4V7z4sjM9czaoPZIN0b1IF+U8dAi0uog/FD0xFSW9tT6ePLi/TDsjiAs9oEedPGumujviYve8YOs4PPG96LylD848Pz+MvMtBizyjIlM87lyCvCwXxDxHhZu78emaOi6w4DyOH4686V4EveYwg7yfoxu8VjMlvH47VDyP2te5YJtdPJcdHbp1KSo8ifYGvDGDgrknW3Y8gbT2vP3UTTz53So6FLxjPJ74gLvrjDq87FE4PJ7TIbzA8E+8hDnqO1H1Q7t8jdY8HfX4u5IdArzXR5k8evngvWKE0TxIYMO8Lc2fOZusiDyK4l48jy73vMZf2r59IpG+0D9NPbWu0b3Ns3e8KesDvZ7aLDoEMDo8EVlavMPPlD0kfLy8Use8u9i90T3G6Gi8JV6Hu+Lzh7uFBJw9AyoSPbJmtD1hq5w9X8pLvfpXjT0zaS69yRWCPHXhbDzMtIQ8eD16vGbt+bygiBQ8",
                "6pVLO8lt4bs9GGg8H/EGO+p6N7zMMQ886fmJvD6jlzz1kp+7ZceqvFqvhj09T/u8++gSvakcuTu/N0G7Tas0vNaV/ruOg5k5ojSGO8xucr0lYUA8ljQ6vYtzdDvdHjs8L62zOhYyerxl5E+65RUvO1akFbz+rQm8FukiPAhIxjwRSxW80Sa4ve/GmzwM7KK9ZnnKvSA+KbwUwmG9QZLXvag6Rj7UZ5c7Hft/vU4bcb0Ymro8H9J8PbYVPb3zV0w9YTVXvLt1n7wRZAk9Ei77vfl2Pjpg6wo6S/npPP93LjyOgsY8GDrNvH71Iju30Aa9MSk7vJ2UCz1sOgg8FQQ4vIx+Br28HaW87n8AvdevW7sJ84y9/BYnvS2pLrzuhGC80Di4u5XdIjjlK+07CjnjPAgcjDymtw+8dL4VvOuBOTrLO5Y8i7NOvEI3iTzscgI9rzF0O7M7o7lUC987kwInvfsevjm7NLE8k0LtvDY+DT2ghDa8c7yrPCsMuLqKmDw8JWJNvVjCgju+4aM7CiY/PG4coLyAyN47i5GdO0Z7Ez1QULw6wdemO24idr5GNtQ8q9m4O13OdzzCHzc80fsNPtok1j28ia+8f/6BvHB6VrxwiJA8f6j1vUW+vT0Q0cS8kERzPY16QrsYPbM7C0RgOg4wWrs/aDI81u+mO0gC8zxbMY07awFnvYYTbb0OlIA7dabmOT2AOzvsWsU80CurvVU72zsVx7s8+XR2OchRqjzlsAm9F6G/u3IXpTwvAE87pPPTO4WuhDzn3RO5jkpXvE9qHryE5Tq7ZYkjPSQlCT0QVj89qTuBu0SUNbxyo5271S/bO7kUizxa2Xq7Kcf0PPAkhLzLKTK82U+YPBzb7LtDYZ+8OAk7vR+fOb0TVk47Gw4eO1jAzTx2eOq5QmrPvDSSHrwpyfg5VzLWOuNrurueX4C7romqPPOwFzwgo/i9HmFZvS1Ucz53T1U9jZeHvZo3RT0sqCG79RvtPCwPFLzZ5g49AVgxPbbJsbut93y+",
                "tRD/vFRL4j3GZMm7OrWpPOEmMTvnwLG83tAbPDCkB7zedse7fHnwuSPkgTmWMH+83RZRvFlW6rtmP1I7s+ehOnSPKDswmhO9DsdVPIcuY7tft1c8uWKAvCcuiz0zWaQ8GzaTPKgXBzxbNCy9NMOau7cterzOIZw95X2xO2f98zwfQrK9+9IqPQphTju6aRA7mJedPGqIDb31M728O4ycuicO7LoEuKQ8cq0UvDfapjsDIN28QezSPAJUULxfKfI8oECDOyUGE7t+CwY9qQSNu6cvbLvcsD48Zxb8PMjLRjp6I8A8nbqBvKQCITwUMai8XDsBvum3QDxUbye83jSpPtrb/jz+HNy95uzHOoFmJzpQrRK81/1mu5IKjzsFIFG4aB1ROmP+nj5WAWQ9D3MpO3fOXzpJEcG5RBY6PQsJAr/dYiq8bAR9u3ipST675J67NCvrOjjO+TtPB6s8sdIjO5OYeDvPoRK6a+LfO+W4Sr3F9YI5VvhGu/v5cLtiRJS7ijHDvUhemDvoa067yuM3O/znUzvd5SG7NImZu5Om5jmCcss6+qoFu7eqhLzxTLK5/Ga3Oacoirz2BlQ7obMAvPwrQrx0tB64RG5XueDCyrolWpa8sr3mu5ykGTtJ3l+7Ok8du0AvHruMt5655EYBOpbW7TreJLK7Mn2gOT7nOjy5HaE6RWSPO8zI3LsmzwA4bP6uupbaIz9PT0480kaNvCvSmb3D9qM8OK7KvHOHmrq9XG8+2mT0O9+D/r3jaZW7xMGnu3kHAD1NQnu88feDPFb+UDwzCAi+n5+Ku6rIrbyGBvM6u12CPJTzvLsZM0K8OInfPMoLmb2MPQ28fwGhO4tG17vjZas770n0u1KyBD0clGa8+9oAun8CjbzvO2c8AfJkPXDmDjygWRu7QUVhPAWXoLxBZOc7PV7hvNX3uTxD0y08ubnMPAM/T7wrvBK6NP+7vMExzDzkxKG7ZiSJuXoW8zsQcaq63bvTujo7tDqqKiA8LbuyvH1Lfzx+MLI7",
                "aSu4O+vsf7tlnaW7MU4VPHPWWrvhToE6qP5LPAXCs7wgWhA5B4efvNi6s7vIw7G6z000u0zan7wwUv29ZvJPPhiDk70WtGI9uMOnvapKbz2fQeu8IZRnvAkRJ72anbS8wli/PM6THD5ONMA9BWsGvX8P7j1NNJ68B79CvEG2BjyJV468NKA8PUDdUzy5seu70u0wvGiC4LxFt0g8iA/iu35Y9rucIpw7Q+43PLnhBD00lKs8H4PRPIbBbTzKbs27C9wgvf/5G72IWAQ9pEgMPTHyKL15gbo6+aYMufApZD0miJ68z/LMu752u71VXu48QmRKPR2NUjsymxm6kdYYPAmbCj3cgqS8yQzNu58gqrtBs8i7MDQmu/muwLxO3uo8FkK0OxlqcTz4iGe7htzevFsEajsYrMo8BgFSOx1WBTxQbEG6qQGVPL8+y7zIn5a7S/B3vDFym7z8WCA8vtXjvRjphb5b3pc76FC4vfn0wzzooc28qoyMvSIror2zdjE+zXWTPXhunLylMzA8LBGmvCCkKb1OUec7ZuPhvSrkQ71yrKu8X/8hvXe0izyxZJK93FO5PNU35DwgJ4m8IxzSvKF8LDz9Vxg9xVeAvfo9Zb08uyw98xCeO9VImzs0X8K8+bAlPethFj1sDZc8cclQvQxTrLvPOt67kCD2up2vcbr5kgK9NRK/PHRZcDlp8ou9LeJXPNLHe7sDqT29mrcEvFdodD3L7Au8yEHKPASMkLrngcy8r7zAvO2VITxwVos8oSMdPR7Cujw5iqG8CrOPu9fXKr2vhFa84v61vKSkuDoepRw8N2gAvH5M6rvimk+9tU6DPGFvID0jSjY8yWjuO/3ghL6miOK8r78Jvj5g3bwbkfS9Rqe2vVSK4byfZp09Mgk9PPf9+bsewGW9K0z6PSFodr6NrF09XUYpvnf0jbt2jLy7Ky+hvDE/BzzC7Qy9uXFPvFwkHDvdBiA8RzDEvD9GvDxpCcC6tni9OnJ/8rswplm8nQyqvZpljjwkr/m8",
                "Ok9LvUI1Db1fHTG8Pme7u4mOdbzp5um7+LB5vJFZZbwBQTC8WrCBPCKctbx+k4+7hbysPKboDjzU7ri8KDoEvTUaETjAyri8P5oSvHj8oLq9GYw8umUmvFkt6jlQBTS8cJRbuwj9bbuPUpa7uD7/OkOcDjrTBa48EJp0vIaVjbt5ONA5qew+PGVcHjzByQo7F83nO8M1Grz1nxU8xL5MuzA+crmxyj+9W5sxPaGQZTunjKQ8C141O7DprryIDeo9/22WPeNYCL5txVu+/jEDPabv6jzEzdI8Is+NvGhf2LxWJSI9bdMJPQQyNL3gf3088qqKPL+LT70YtcI7e2ayO59TFTxqycC7nFKIPCvjIT1m+aa8WM0Ivfrmhjyk+6A8K0uKvH5wLr1uJzI855YTvUHhg7yxysU7hmsvvW4xDz0b4pW84bQjuw2cJz23mzy9k+lZu/95dDpXfj88EooUPLO/Eb2hEKk7B/+ku+B9vDsL9nc6F9J8vCeomLroVAk8zoVLPNznijyd8ec85OITu39WVLout0O8RW3WO29+Bry/RBC8iJDnO7RwpbvO5i06RcrXPMN3ybwbnse76WG1O5Wcp7yXG4w8EtElvvfi3r1ZkDM9V7whvYGB5LyofyC9Fq9MvaImyz0fhYS9+Fs5u5DZ8bynXpO9veSCuzxVXDxoER89rQ5Pvas1gzxUQ4G9GG0rvfoY4Lykvu27vuxwvWGEXTxmokE9poqIvFd8Er23/q88R/PTvJhqA72YDhG96v8pPdSuMjwLJoW9eiNzvPIB/DzLdaW8upZbva+zgjxrZYk8xrsOPPWWg7z3wpK9Ul2QvJFP37xTwyk7+Th7PHE+pTsZie27ualBPFR2nTxKI8a8Qbh4O5YQvLx+xyW8CmcePSawIryQdBs6t2tLvB3alTzwVQ088I/aPNZ1nbzS08K7xr4zu+0j6jsGEDe8++jIPA2G8Tok/Bi9/zLgvMnBqDz7nL87VPHJPN1qMb4Z6S87xZcqvYGHBz5+4sO+",
                "AGdZvpemmLuPz2u7fG+Nu2HQBDyej+W9eDYsOz6rFr0S0D8+ySeTvkY8Ojt4IIc8oMinuj5GIDyhz1C+EQ1RvHHLdzstA2s9HBFHOTKFkjobwIW87LvrvPft4Ds9BUw7PbrhOwvSwjyp+Je9Qd2QO3HyOrwnXa076giMu2J2cTubn5K9zZDLutW2ATxJYxy7iw8uOwHnpruKVGk7ANiIu9gvKzyDsCq9kHrCO2OVVDsPWxC9KG5/PPHO/TsRWos8c/Q3u6XjADx4pAA6s7GzPK67Djz6Ofm71x1oOwGH/jtKV8O77kc/PBan0bw/hVC7Iji/OoahODtVgf48EsCVuo8HwDqozhM8oPLxu+VxETuywts+tpcvPS3SLL7HCN69QxojvejWwr3hAb28/esFPo5qUj3Qpjq+qjs0veSiGDxhlaG8TdTnvOm7Fz3AdnO8BdUrPhECuby3P5e9iXXQvM97Wj12rCE95kgaPSmEDby0y/47E9PrPFgDcj1lWUc99mIGvYXmkrvzfI26/WtEvax/mrvBeEi9V5XfPGW3Hb1iKqO9xOkPvW/uors0Smm9Onq3vL72SDshoFC9dkTIuw60YDxa46m9R7GFvHbRMT0OVZy9uVGLPdo4gDyiZXo856nwu0CKwLv1Fhk9W84jvJ20kz3ljEq82rWfO3vupjy6OSS9y0SlPCBVZL0bytG8Oq2vO4F9lruxw2U8fRJ9PD+1njvIr9c8FrkqPcU7i7v4KtM7Er7KvuCZiD0e8Jw96cokPTRObD0GC/C8cd26O+ZJDbyaaCY9Od45vNDTmTxpJzg+r3bhvYqQbDlvC508rmQevSy+HzzsaHc8ZfunPTrLSb1wYz67/+KuPA+aSzxs6tW8V+AGvZcdbjxlkUk8ZKQcOyr0wz3UFLi88LFTu/u2Fj07Xwy9LjrPvCCyC72YNZc85jYYPLXjSTxytGW9PoFVvViCFDxfzJo95o8aPaHtCjtsGGY8tkpYPLr5+bueJF88A4+RPJw8l7wlgzk7",
                "61K0vAy16LxKmcW7+6bbu3MbCDq0qvA7UaEhvNrC1by8jZA8KT5ru1i8Q7wpNoK8M9CgPGTFw7q/yWc4psu1uyjQS7wHb+e75vo6PPxOR7zsILq8yqVrvNKxZL388NY7KRYxvbn+UDzaECU9Mls5u3ad8LxI4d49aXqFvO3Q/jwBJ+a8FckJuRraCj3I/mC8NEzbPK6vIbzh/so8pNmCO7hpRDxL+LO8Uw/fu4fAtznm6CO84y0uvPmQfT26tda7Oc17PCDEn7ySfuM7fr1zPKsCWL189Eg8W2S9u0bq6LsQiBI8kfFrvVRlvjxEuVe8szeLO1u20L1JSos77ou7OuS7BLyvnJY7fSYOOnAiq7wz5WQ81FesuwUc3DzK6UG9tnpNvURkL73stSy8BcKku82kQj1PLXy7n24ZO6O4E7s59927qbmEu/xKtjzUBLs8QilHvbr/ebzZChA8BCF5u5cfJT0pCHi6ZkRfvKjwFL1rjw48+/DKuGxJtbycMZE93KdyPV2LVL4kduC819OLvSPskzyukDe7Mz/JPIiRojxsryC9IjV4PF/SELulRcG9iNUVvcO6iTuUhZa8ihxrPa7SGTseUpY82PMMO/Uo5Lz72dG7gbpYvTCh+Ltguxc9WXRCPMo23jy3Pqw8OtAPvI+4lbstaYI9kjqiPObdITu5UI86nAiYuh50FL0scy89VTMZvAC877u/6cQ8YhDdu0rgjjxYeZe9F3QYus7KjLw6jkY9ihO2PCM1ObxdrOQ8PwBlOnXHIz1tAF88l4LyvLmYi7ymaes86SNjOy7hLTzF3Q07xWlkux4iMbw8G5M8D6O5vCMzYT1MKt483yuYu6x8oDuQhDk84KHlvHGNmrxzAYu8xFc1vKqkyLv1moA8YIOtOyUNrT2fQzQ9HVRKPd3MDr2TTZU9dYjLPIznZzy2j4u9gNKMO7HtHj0TUX8+uP8Evoq/cz107GW9R6qOPcUshrwn9Xk7JGBSOgzQu7x6xHS8RvTnPaK3b7wLxa29",
                "HaehvSdzRrw+Wj286+SmO5xxHL0KFLe9UejdPB93kL0uvjG9rb4KvUrkwLyW2+I8AYa0PL7Qsrs1OFU9GmIXPbjxHbtVxk47thnQOjrpzbu7RnK7+UNpPKgTrrx/sJ+73NIxvPoO2ryKknA7/YCHPVnbC72bFz07dnT4uy7Awjv9MJ28/NU+vLWV47voN+o8ITftPBXTBD23+BI9flgePOR5Bjup8gI8ITvcuiYuDryM7gE8uEt2uw0gqbnmKQW8frNfvM2pgb6gFOY6g8JhPLvBBr5GV5G+lPQZPbdwtLrQnVC5VpVGPGVcFjmqwAW+1eoYN4M9zruC89s8jV/wvT+e/jvDh0A7kottOUgJmjzPz+E9I/uKO9w0urvKkZg8k9TUO1QLEbwwLme93T/dvXp98Du+7AE7yoArOxqqKTzo7j+8aVCaOwHGEbv/1sM6nA2QuOxSYb0Ak7g8m1RuOkpvUjoSmJg5Ww8lOUJirrrxVbA5aFG4OxtYtTt1m+E60wYtu7NRzzqB08m8kUI6O6vYqjronJg9YYKkupfGmjhYRXu7uMKkvJN58LsoUIM79qXNuwN3RTssuh66lW9MOmC0kLoy2yU65CC7u6jJDTuyVBW9iG2qOjD4k7utZxq94tFVPORe8zmqH2077VATPdY01L2ElYs7kNBsPRejGb0qL8q7VtWNvKHMiLxCDYY90bgyPW2GWrvf8yw+GIvju8eppjyp+r+7B/E6vZjXiryf/7c9tr6KvZeLPTsC6lO7isnmPI54BrtaCUk8nVoYPXCIwTykYKM9jk0DvSHAsrucDlo6HJMkPWOdtjveTr08ObqgO9N/8LzmAT88V65fuvszdrwmsYI9RWYJvPssbTvSj1i9QCeQO+dX1TtQBfa85umRvL5WPzw2FZO8tuWjvDkefjwP8gM70iiku85i0rlaJbC7BdnAO4oNezxA0ZS8ZqWBPBha7TuERXQ8tZm5u8cmsDx3ISM9S0iBO3mlxzu9CZQ8xRw8O5t/Crvgk1K8",
                "voKDvIsXBLyuT44875IOvWoQID2DPm07JC9yPIfPPb3SwYA7M2XUOzeiAb2J1Uu8ntOdO15FebwzJ4c+EwO9vr/q5DwD3je9s210PPJZLb0dJKw8IMKru8XpjzyNWZE7fSLiPHMerzsPUDq9Av+5vGdMVDv/oMS8mFoQPSknqr1oI1i9W3wcPc5nnbuNXQa9Oo+JvZ9VDbxREs87smcWPOTTfLuRS3o6W5pVPIxYJbsLR/47ke/cPIvogzvoxFk86cS0uyB2CbzopvQ8q736vKkdZruLdfg8FY4zPVzWCTpPGwe6wpzhPFnfLzsGSP+6xIQGvNCJSruV6Va7TZhHPc/tcLuyIsQ8p7+DO5oSl7z/Dsu7L784PLCGsjudiIO8yUe/u/B+vbvwWqW7b5B/vCxtkr1vx489FK14vQo33Ls10hs9TFrAPCdSIj1I/fU9lVcJvepOAr4gi0q9DGRoPZ0CeD1bq1o8MWFWvJRFVjtt2S08gKWAvR89FL0tyEK8iOwwvHjXxTxSFyE9YaTiOn6SjLpKlOs57H6dPKo1mj1oWiu7opGFvFLZLb2ANiw9WzlHvQxyHT13tx69qLAovcvEajtomAg9hfl5vWsMNz3VMwo8BzOQPEvtu7yF4eC8vklBPLgXobwyPCe87MO/PElHobxoMPI89VtiPCo2c7w1kuE6LHqiPEDqiTweTGy8plQTvIJaSrwriYg7PruDvPTpBDybhtM5fEcBOogFKrwUcbm7ZTm8vB+mCTyNDYs6y5HGvOZSarwhQDG8riwiuyoEhTu3lz6+aNYsvtolTj1BBrS8IukNvWJVo73EnPU7iOCSOgUUt7znrOW70EeUvSNdeT1ne3U8T80hPAQmeDx5pds9oSK7Pas7ubpHr508yRZjvHPGNrvcAZC7XEGNvNkCIr1hQpc8Zg3Iu+9U2LyoaO68FMJAvDtoCr2YNfq8NXPaO6oLQrviVCO86zfVPEPJfDxFmEQ81W7rPEh2qbpaPIy8lfWQO36jOL0CYGE8",
                "mBafOwEwTT1dqIQ7g89uPNP4hz3GthE85ZnKO0LY/Txs+jG9eKREO8OJnrzN4ae8xYCwu6TUNbwgcTO7dUUgOnyxmDxN5d07IGqSOwTipbsO93u8s8NBOz+vdrwf3jG6BOZZu6eChLwGXLK68brSOfUQzDu0DiU72h0vvvPTxLv+Nfu9uzDMvYH2l71Im4489pcJPH7yDjyRXZU85qAGvDZPn7xRKAS86I6Ouh0aoj3cYRq8gcY/Oyi0v7ymJje6CoWyPZKoCL0Lypg7ja0Lu4NlTD2n8e47UU9nvbO8HLxZ9eG6ut93PF0Q3rx7Mxs9KwMmveXPvD3KmTI8OUIpPTPvFTy9raU7rq1tPDl4gDyXI5Q8nju+PHvhMDua2Ka7XfSvPMpm3TsKcTG8h+NtvPPWprzOJQw8GnTeOZD3yjzUChq8jElBO4ZTKD0XlYY8u8hKvMULFTwWiAU9HwhyPJY+I7wIhr27JF72O8YucrtEMfq8sHhove7wKzvYoRe83kPfvHgY/bybAI28uy8VvCm9Zz2CQR85xaAZPHqs5r3Kf3O7+1qiucD6jz2M3qC9kkqOvcRlMTsrMhS9q4Fcu48PbjxC8nc9HAezPFufdTxJCGY8WXIWPgqkqTwtAjg7PAgju77iRD25CUQ9MCXGvH/kW7vWMiW85b3uPH8cy7xFDt27VUc0vEtxGD1Rs7Y8STGSvTj+dr10slM7myt2vdzgKT1v8Ni6F5FBPOhFOb0aEY47zMGnvbfBkjy9gsc7UfC4PB2NKTz6nqa7Ge4AvJ96vbpIGg69D5SsOyxxs7yiPjE8pa7ZPGddBr2n9RQ9nLRlO6/apbdiQyw6An6XPBXZGLwKPIG8V5KGu/ozxTtn2y67a8ZCPOmdLr3/aPI6TdmNuyByL7zRBda7LBSoPLNTT7xcdUc8p0bwvA1oRjymrYO9/lUUPb/wqzwiWZO5kI+RvEuCX7z2F829Ds2hPGptfrsjPwU8qWI8vHJL5z2Mlaa9ehQGO+0ylLxu0947",
                "lgaAOuznmjpXQ1a9FtoDOz8RUDxw8rO8DyjLvErFgr2jlKG9G78EvIDvULyzIdc6REoLvr0JijwO5EY8ggUtvXbzVT2k5eY8E/TKPOLzk7xkMTq9d4aFPP5MsD3Q3509wvfEO3Jb5rwHcAi8wmnWOqIkjDySpDM85usBvBkAQjqETqK8YQ+nvMDk5DqL4YA9pgUkPFtqtzzH1pc6IMVJO8JO5LyHyMs7A9kSPX+iYrz0HrG7YkDyu6tARLtIUKK89MSzOWkWtbuLpwi78V7UvLndBLyOD/87J+cuvCfFwTuLH0y6l4oCvbjjXDsO75+9eD+EPWbm8j28/AA9W7OHPa8sF70ZjTI8OfxrPc3SajyNW6e9pxuovtTMRD0ZrT87LVXtPLFUt73JhSa81/3YuvJVbz2hV+c9xr90PQQVqzwo9B09XSYQPA9hGb1zlmy9XnzDPFqiVzzTNI88ZUYJvNwdUbwFWfk8CO+7vWHlUzxXVBc9P2/WvAsgmzufUOC7TsUZPOAXbDuCdne8Nh+NPUuVerv659Q7Pwm7vF1IhLqOQRc8kx03vRuYkjzbnu889oPtPFuH4Ty+3Ia7crZrPB5cdDxRPoC8/OPLu1X01Tx82o08BOVNu9xOJTyVtYI8iuarO0mH5zsiBj889hrIu0HOKLwHFsQ84ghdPE4Kxbxsope5JZlOu7DXHr9CE689SEt+vaAH1D1kcH49DbcVPVyKyjwRZbq8chIUPMN/g7yb71Q9zMpLPrbodz3SWv28v6sGPm6P17sec+A8gsarvKazxDwm/M493LLLvGkVjjwjT3y8XnSKvGwGPb3wncK7V+vcvLAL+7yZlgy8nG80PRtpZz3OMXM9/VQbPMv7nrzto5u9eYdKvF7q2jgDwke8BXF0PbVfizz7ABQ8W2hOPThXnLxb2pk7E4CPuuBXB7tns248otqAvFUviDvfub08VgNIvTUETz0nUN87ESNFPWn3oDv3W5C7QMx9vEJz9Tx1tUk8BzeLO3q2IrqJU+W6",
                "YoIzPJtDmzu9bzA7IG2XvNLpm7xPTDu8EMl5vEmEWTxpvEi8gWv9u9M43rnKbpu9J32RO3Xm5rpAwJy9cud6u+SXvT2Hask6CdK3u3qvhTzA9vK8VG4qPh9/Njty80u8lVBsPG1UxT3OWcU5QxpKvKiI+Loa+vI7w5iyvSUXgjzXvY88mgASPIegOrwwAsE8NpLMvJn/Jr3vRg48jdSMvAJosLvdrfA6ByG4vAcje7tJPiM8NIKqOyzDmryu6Py84ZHhPQe3hTt5aDM8xLtivHj3UDwRUdS7/m/AOyx+7rrjGFi7Du0qvYo1QrxWCKE8ub2pPaGDczsMWX26P7gLPecX7jr4NkO7MQV/O/uiML3mEbq8X3XNPOSMpTvvfxQ7LHm3uDRCSDwOdxW8bI9KO74B+ztQSec7t4qyvCeBtrpCkB484tynvI7bA7ptmMK7Cp9AvbTocL7YAqI9oprXPCYvpb2GAYI9Nco0PDtrNLlu/cE8U0cTPQlHkjzA6bo8WwegPHNLoDySqLU81MFQPZdeBD0IRRs8gixbvBRHmr2xbzS9Wne/PLHJJjxPKUk81ZsTPGRiHLvMvai6+tO8PFAV2jxOTKA8aUJcO+Dfuzz6aA894l0GvGnAkjwMYZ07Ut0ZPOhidjyYLNC7hecevLhlxTtITvs7NKS1OFl4D7rqmdq8cIHaOtJrzjk4rEk9icROvKc29jwdYrM7A1KTuzN+urpxBwi9JeSvvBYcVrvM1g89j1ZRvMixM7waRcM99BvJuynx0Dx/Qm67rP2UvLGaS7ovvkA95Kanu2gS9jo0Lfs8TazKu2lVTrwAaGC9SjF+PC8MFb6JP2G6X56OuVzAvL4kdH+/VsW6vYdKfjpHNSw7HUeQul9DJbuPUBi9JYmOO7VaGLtzSYE+z2GivaFgmbq1m6W62YTlukJ9LrwBhry+jaybu+B4HDtay949EGVkumQdozpq3lI8joPwPMHLxjpC7dI6Y7TEOprk5jv8kRe9Zuk/uSeiKLthMhy6",
                "McVXOZYxw7vShuI84exHu5i72rp6GrW6LI+eOQsVmzqPHt866O+RumgQeLrVcmq8Bj+MuqQUSbudAgw97eOOun69jLpwdnE7+nTgOkjAcTr0xgw7S90uvHDfm7uN2xo7Zn5YO/Ba77rT76W65No0u7vLPrrEiQW63RvHOpVoOjsAYz48/48SOdFyQTo4z8270JSmuWCmtLqr8ig/bLO0PLdIxz0TEuK9qGqLvEX/BTwra406wV5qvMpyJ72hDIE83aqRPJU/zzy8k9+7aHP6PDYJlD2J0IO8qxurPC9IgzsDNYg9GQwrvS5aQ7wDNZu8DgtWPVE7F70Rd/c9Ej+zPH4VKj3GHfG8+efQPPiImbzTVoM6m8wzPa5vWTuZF0+9wk3gvIxsED15yI28BYpcPCXnWrslzlu9VVupO6NHsDyTCzA96Zl2vO40xLyE4QO9KJxOPEd4oLqfZOS8PoTXPAPPTTz3eoc8LhWCPJrdETyBKGC8lRZgOmPZPD3YD8U8MxbrvFeQCLxTMCm8sJ84u+/CHjyKPC29v1/aupE7nTtsfp48NyjWPGrAETsYm4c7Xf1APRuTSLwCrbY8gU3qvWGsBT7BDGA9JhWzvet25zvHRvs8o+rMvLiKNTtcT4E8gYiFO0zVA729GMA7wdkvOuIyhzyuvdk8sKWwvL9sHjx52GE8W8kyPP8IkL1wLYa8CYsHu10EAz0M7n08mMJMvBCQ0LwT4B6908uYOQZfIbupb7W7Y4csvP5Yzrx/XTk8Jr6CPOQYyrxzea08K46APHr34LwHHTG9AA+hvBoTi7uroE473kZLPEMmlLzurmC9lIxRvUrlZLy1MgO8ubnQvNEZ0jznkIk7j/GHPF8/JTzHw8I7yySmO+mVvTs7i/W8XZUAveaTKb2ZGHa8DdRmu7hxKzzTJIM8nv/uu0ohVzuvsUm8xDARvS69Dr3ZCtw8RxthvAdl9zuzZtI8BuuPPK8oYL3uhwI8ApuMvHEplT1BRkA+okC9PXJC0rtX38o8",
                "DxV+uuCfHbv8x5g9+QolvZYBr7wJJhm9hRSdPig9QDt26cy7SFEqPEbhnzybRJ47yPpPOqvpLby/8+A7oRAwu/ClsjxMF0W84WTwvM2pGTwT0gE8yeo+vOBPlrthJto8IOSUu4NjErs0x747vHZnvOoEUj23d+S81D57O/67ZTu4vRg81z5yvO7UaLzKib67nzQWPOhxjDun4lS9yKUbuwmc7zvmVIC8LsbqOwm2R7y9d2K9RHkGuxSdN7uZUZS7htqeu1i0q7td2wG6pDWRvFgY0DrufgQ6iBxQu8t/f7wjP0o5j+3tuhu7UjwI4is5Dg46O6TjQbkzpSQ9cKjDO7jZFLs6dxE+zDPIPRsjgL3ETbO80zKfvecWnL0ytaw8Fk5SPRdqqbx5BrO9WN/+uw1kgDvHika9RXDhvB/REz1kI+g8v2bBPWTmXDyhFJM9N9OWvR+b2bxibC46DF9Pu50SRLulZ3U8jiO7O2RwELymPf68EBJKu7qfqLxr0wG8NP15POncFLri+Ci9f6dLvHYYODwObVs86MApvNPadL2DzJw53H04PPk+RTwHaSW8fraVvJbaLjq///67i42mPAp09jv3JbO7NFYBPBOmGT21bO288JatPOLeNbvgQ5W5vQqvvBjlID2lw7q8pffnO2wDq7xgS0g8bX35vM0NuDyPIT69qzW8OoIMSL0V4cc8eeK5POqJ6Dw8KQ49O/bcuxmeyDv+YGm8Py8jvG0zh71S0Qg96Q1dO6LcCr3gi4m8Cl05PQT7LT3BFFE86nHpvBYXk7uaG+E9+FNGPZ5toTybFQW6jsacOwXMdjzqJKu7InMePcW0ZDxXYlg7qUgQvXfesjzgEwk8wqVjPO93pjwqNCg7CZTGvCe3Yb1THwc8KQ00vGMoCr3OqQ69IFYsPfv+IzytK2A80my3vI9wfTyhwJg9Uqk/POIRTrzyzl470X5gPCURNLz7JYO8rxsAPKLOYDyYia69fdOgvGO6prypjYW9LOt9PdEFR7zClIA9",
                "f++8PIEpbLwinrm6ACtBPEIIljyBTAG9rXLCOyjGED0t2Zc70csSvBbIArz2xP47qzvxO1rgejwOusA7UPCgvDrwGbxaWpy7bpWcPEtd0r2kCw68dCVRO+ZfI76U4hO8PYJPvnv6Ezx3+og5LSQKPO7GqrvHPmY9xHOaurhkE7semqk8jBXevBFZgTs93yq7SgJbuiShrr0b3mU8fypWuimFnLveZee8Z6qrO+ZjAjzDSg+988ydvX7XwTt7fMq7rcs5u0mrWrw60HU9AcKAuydfsDvjWkg7CXeru5l5ebtPDL280DxIuhbNKLtOY307aH6mu0qKIzuJGla66Y+dOgqVObtUYHo7bk8rujV1qzqi0E29zQPou6nm8rsMYQ89iMm9u6vrHLnsW+U4T0V1PbfjsjylZU68V3XbO/MojzvbCZi7pLVuOxyBDT3w7aY6HDq2up9qRTwujny8Ey59Ovkg4LvgeyS9+Dq9Ol9n6TtSLq29JxMUPfTL47vt5XK9W9kmvTnU7r1ylEU9MClWPY8BvrsiRZk7xGcYvTql2b3qc4G9RRLyPKWoH71KW/c7QM+Cu/8bybt8eHy9zoiWvWXl2ry+Fqk8C3+lPJwnBrwfBlw8URd5PCsqqzzqWhg5maAiu0ri5Dxtlq08NpPTvDo91bmd0g28RNgDvfpZOrxK8iq9j5ejvCgWZT0A1sq6nOUEPCuEALzAuEk8PxO0u6/j+ryqDqA7dHPivFRV2ztlsA07AvWPPG6SNDxXjiW8Y9I+PVT74TxjRp88710TvBXDu7xHLZI8L+eMuzsvJb3d34A7GlNUuuUuATvtieu83emAO+RAGr3KkjW7S/VXPEJ/x7x6gvQ6pKI6O1zOPTzcpBe8iF2svITZR71mf4q9j5TFvRRJ87xghZq8vIGQPgg4O761aOS91BVcPeDhBz0Rmp49wutWvVCgmTlcClk80MiUvFcFrLvOa+m8W7oaPfn3PbxMyky8nyyQPO6x67zpEsW7adV+PDwzEjvb8xw9",
                "ldI4PbCdDT3RQE897a4yvYBhlDkNzAE9cnjPPGdpKT1g0xi8kDsyPCUUKjyFTsw8X06PPDZhjLzKQKw8jze5uw4R9DsFKv07FyucPCBUmjvoQ5W8thIPvFkCFzxDgeA7lVxyvND9qjy0Agq8gW4hPNO7tzs2UQs93OJMvIwBDj2mUrS7BbawvFKWQzufUI+8yvBGvOcjCTwj12k82+2bPCzzGTw2fne8lwAkPBnUYrswpu07ZGZQu2Uzcb7Mw3+9K4adOwnLlL2QLL+9IiByPYlpNzv71ZC7c6m1PFzMUDxD9Ci8YqHzPGprhjxKZoq8bewqPaH+Fb1/+ie9zlTDu8mTs7v5HYW9+xipPAxwlzp5Mai93QwkvDQggzxtoUI8DX31PNMDUrvgXpy8/BFnvdcsFb2u9yw94b2cPLw77jrgQAG8z+h/vFvKij2zQ5K9/DROvPHigDz+LgI7ehKWvAhzkzrmu0A8V/3LvCgs/jsCPQc9PO9rvCQXgzuNIaS7UUhWvAzXRTw7fSy8FlHCu1zb2DsXK/w6KOmVOuSQx7weDAm7kIfUOxGypzvf+Nk8lKYgOuNlhj09l5M7oEywPIcpMrywpFS8FoIcPX70pLtUVny7Dss4vL1+wzvgZAo9KBPAvZNBwzzJRkk9DU4avqPXo71rAy68GOwDvSEvgz256KA9ffZsvG2QxD1DSWk9LKAyvLCe7rwHMLC9MCDHvX3bYDtIqWg9dEcqvdKlFLz7Vwk6SJqtvARHOz3g5zi8bx+VOxzOAj1MqEU983iwPCGRzDvy+Gu8Ucc7PDFMAr2pMIs8GQ5/vPLqOzvwn6c84n6oO62cTjwwm8O7owBbPLTn+Ly/aoQ8ETKXO3a9erwTx7g7INHvO+AQBrzMyEY5rRBguxVW0rxnQ4I8joP5Oz4NWrs7rQm8z6WLOzbTjjy4buY82ZwMuyDGOzuZLN27+FUNPTATh7wmn8W8NAKGuzIv7zyBgYi864+pPEsOwbxM+V47h0J9u74NH7tOCFG7",
                "7+IovXYHgbzKQpo9VfmAPUscI7w9+oc9dqskvIDCbT2zRJs8lxQ5vVQYEz0M9ZS6ZRWFPX1J1bzcjfa7fmGWvP0mbD2icwG8D86GvUiRUTz2J2a9XkdvvUapn7yxPF88gy8bvZP3Pjzo2Dg9h2zyPLuGG7yrvyI851kWvbK+UToK78Q7lQBSPLW2k7ud6VU9fAW0PMw67bz+4QW8cLMRPOe8qjvjjBU86300PQ8daboipZK7c1z8uxobaz0Vvvc7OcbnvKigUTzBek48B1g1PJg4bztJ5608DO1KvYTeuDv3HQs9IzqyPB9ycLzF4U48OC1XvbRQGDzrjBq9nzkMvSH7fbyJPbc7TqEqveCPKrxrfKa701aFPPph/LzT6UA7hC3+O6GOCDyeZQc+Vpi8Pa+POj2Bdcs8/BefPKyfZr6AXDY820E2vQVOBzyKnaq70DlYPWw8gbzboKq8cLytu+S9HLwDlAu8w104u5H85rwchso88Uk0vDIyizyzw428jLGWvRbJE70g7Ts8OslOPLFnBLzywBy9mPH2veQbOzyJ4+67AatcveWbpLzDH4M8xWIvvIOlHLy14Ga6qIsGPfOgWTz2KYm5otEivY+2d7wU7Tc891iqPdCQLj03fok6LpAVOwhRwjtULI+8r1AZvIWjnDzVY+M7+p7ZO8dFWzzz4ZW74E2OOxidbruNcHm8iz0EvKi7H7t0Z666YUTmO3duZ7yA2LU6gAyfvF2EkbuToTq8nbKTOzH1EbyfN4q78XyIPCmGxju9Ieg7kS8MPiotnj1UiDC90un8O9e5Vb2RPNe+c9XlPQogE7yPmxw9Vad6On2R0b0gO4g9nKxevDqHhT1bBKy9bXWDPOsQODy9yP07lkNGPPi9eDpPsqg7dFsqvcfzcbqcc2u8pqPFPOBhDD3ZZHo7x2jAPHOpor0JVyU9F+HoOlkoXLwMGpO8CbcAPceh1LxIpJc7wBugPOcPrjwILuQ83hNZu1kHO71a6hi9UFktu8lMcTvjAas6",
                "vDpQPee+NLwqFpm8B8w9Oq/72Lm6xPg8IN3xu5l8CT2Za1m8MWEPPAc/KrwxIRK8Jf7HvKZ5nDwQZwQ9lyoLPTT6GD2Ufde7H0y1OyK+Qbv3yR67i3xBuk4nEbxx4Io8gMYSPK0Inbt7K067ocBpvgWcUjzrEIa8/tdvvScSqL13Wn650cOSOVBVDDwqV6S8F7t1vFrCxrwB5RA+I0OAvehutT36HbS8EO6gvNYJCrvFwF68DcKNO/NTKL3XBwg8zu2WvAc7Hz2OLCK9dW8ovcKbz7wM2Em9iSzFug9EYb0LuJ29h0J6PLFTbL0tu7K8F5lKvLGShzyJn6C7h8ntuxKqUDyCCiC8d/oGvMYLqDwiGys7vx6rPDirfrzlouQ82QOsPIiYerwdHBg8APOcuwNZO7vO3NM7alKBPdl3CToS7ho7jtbjuzZbLzwIZnG82LrBvLkNRr3T0ic8jyeyPI107zynSjw9Zb4evbwBxrt5iaa8chhPvAEdZbzW7UQ8HoEOvM6UYbxQzoq77oBAvONNj73Z14+89xrJPGSDGD0CSEw9yWzQPC1kBLzIK8K9yIGBvC4Kq7y0dEY91zPyugVhUL2qyxO9L1YbPuG9X7xFnsQ87ioEvdzQvz3xMxw97sI+vIM1GDt/q0q9EPODvOU9czuR+E496L4BPkBg6bzhN5G6vchZvD1iBb21rdM8YQaBu83xeTucGJg4yX9KPeOkTz0qMXs8ZxSjvJ83FT0YNxg7eVUavH1z3TqyKAW83NMAPFbD7LyAfok95FRpOpGPsrw2kkq94O8wvKaVHTtQuhi9ZxfNOhkgs7yxiyU8gMHpOzkRQ7y32Xc87L3uO/7eKrvSRHs8f9RxvNB75zy8n6G7xv2XPOGoiLzqFcy7l3FWPIaOrTx8cG884SIEu+NehLul3u09pW0Iu40ceDsTx7Y9yLfyvalVqbyH+oM65JnqO4hXhLvcw9E7SAezPZv/aDqdtHi7sCRzvX7ctb1zb9E7oEyfulPMSTtm60k9",
                "iqwqvKoByDoxyoS7oWF6vdKPTzuyob+47ZWvvO1jab2IaxI8NVGnuBYjcTsUYJ87MCULPTA+J7pq0qW7DfMzPB5DKjvHWUi8dTYZvZ3iEbwA+1+7MC8kO24XBDoCP887zQWGuzIAWTwK/587s0vqPf7gnzo7jYA7BGxyvC1N9DoMt7W7+lxmvLQ7crsntNc7cefDOmofVD2ne9Y8AHX3u3FxuLuJ4K27Q+Y5usT0xbsXT9a9mSFWOQaAmzqKXxE6DDPUPFxKczsh0zk7dS2APfcBmjsWZak7jp+JOylbSD2oFrG8IhkHPJu2ub1qmW89WIDrvAT91bwd+6E8MFgDPT/edb0QOpO8mBOJvAd7Z7r6yr89XOSEvef5EL3E6ci7U38lvRyiGb3B6tO8gPn0Oo5VDzyx+LO8zrJLuvzuJLtRB5S7FYwcvVm077yNf0c9mBtZPcPHVz3LA/47k1+2vPJo2bzUnAO8CBzqPOxatbwo2kk9O6H0vHtjk7ogG4+8AG1BPM9bW7veYco8FgQrPHOuxDxJiDM9sYI7vMEBW7wiRzK6PIHvOpEjjDz7OGk8GfGku/wNFTyvat68K70fPXmRGj2drM48DU7eu4XUj7xeDz473xQ+O1C2FTtsUAI9d2RXvAnkUjzsYhO9qjZmOwP3rbuUfha9p1rWO5WtYT2PMRQ++nc1PTUBI70q+ay9l6c4u4nHxD3JTH48f8PCPB8HQzuxmru8lrzBvhGQLTyWVrM8nOmkvVouIrwkXrA7dr3kO1tqDLzGr/m5wYdIvA379Du7YI86nqcLvefsq7znDDW8cG10vEyTBT0jt0U95/odPQ/dtTxPptu7nqxvPXAix7uVL4W82ftbPGZ3QrzLdPU7OUMgvF34tbyccxk79PDOO+dihbvEjIu73Pu+vOTjl7v6qY68Zg3ou/d46Tsyt9o7AOHuOpwl/7yxMY875uAjOwjl2jvl7vI7fM8XOXEgdDxrRAo8DlRJu1UZpLsxVo88wUBCPAGhBLyayYS7",
                "3C4LvNjgkLpvLVA7nzEIvMUwLDsRxio7GpLZuobMQ7vlx929nJklu+M1BjpoKqC9hy2QvEysTr7OfOQ7RepCu1jL0bieKye4QQjuvFp8RLxZaIm7P4kzvmmMJD5+ne46Ao76usvPubpTe1E+ZAHHvnq1MDlKAQA8CDTOPcnjqLsD14C7eWWAPfzeDj7qe0A7BFkHuqpOArwW+wG8a7RxPVi/rDro2iA7B0Wfu6Zo3jtt13U9yL+yPKzUVrvDnRW6TSnyOnMxBjujVpw72UtGuLLXLzvn2NG5RSCqPfNgvLnM7u06axDvvBXbOrsKrjO7u7mrvVQFFTsNRTm7Vm7/ur06Rj1Mo588CSJYvLHcBTxh0Vu7AFqeO/iWOrssrhK8Cwc+Ot8RaroqfJ674XscPbaHjjk5F6I6s0GFPTIxJ7sCm487CEw9P+fWoDxSY4I9uYrZvddpZj2wnfS8RI5jPp0eFr6N/NK83WyZvDPjt7x9qN88xd3HvCpT77wyqTc9KbPsPCYUmLyyZaK7jDPOvQDln73UZR68YGcevF+XJLwQ58q72r8KPFBdbzyBXkc8HHZxuhH9N7yQFNg8OUTivLV+Kr2owz84cH0cPeEtIr11B1A8duczvaV8JLsZCEo8I0VfPHB6kToPfBE9fS6GumsbUrtk03i8nl14vIWIUbxTYCu8Etu0PIAwGLu4ezY8ZKvFPGRjBL0L6Jg8WcCSPPhue7vzi1a7jXspvJFIzrxoppY6tQ2Vu9NMbzs9ukc7Y23pvPxRmrtBi6K61Oulu+TZrLvrLbu7ZKYovAUz+zzrhsE67A+UO+GGV743MU89WhZ2vSIVuL174Zk9/l4kvFuPjDuq3dE8W+YHvrRNXr3t6aM81TY/PZiQFD1QxBA8Uzn0PBnUnD2Ra3k9tJ0qPWyHh73VLpm9M426PInBxzyWsom8PbsxvCFCO7zJhw48GCXyPHqBCbsKDF+8DjsvO+b3Bb3LbCm955U3PHJv1ruQElI9COAJPLgYILxQyji8",
                "adTgPPoFCT3/Gnw8UGCpPL8HmLw5SGa7cpssveCH1budiTa9fXcpvIYGCLubwuy8Ny9JvESbkztAxBa9u3nYO/6EFbwZ5ou7TuORO421ULxV66s8/BjpuqI6nbzZw5G8yjHru6mHsjyCuIE8/bwWvEE5YDyPzms8+mszvACVujzp7qk8M3gHvKdwqDtGowS+tDq2PIcAQTyvyV08/RlVvf4EbL17ui099dKMPX/4iz2uIc89dL/fO6LYlT39mYE9I7TxvOrFkzpXdDE6AvjUuxzIibw/KVI96gq8vNTozLwE3oo6syrbu2dgGT1MOay8HI2cO9h2ID3GTlI89NQdu/eKgTuyVvM8+lNgO0s7FLz7aBM70jasvBdNxrwUqzU97RIovBvIh71BF206n4hyu2Z7iT2k/pS8q3PHu/hSortusVc8iaMFPfmkh7yHWS26s6wHvZw5rDyzydm7hH6uvH8WhrxOlZe85pUdPPUkRzy+l568OHmtu3FxXb0Rj8M7cUyMvFjTljsv5XY9lsz4O2vSBr2GGk48esWzPACuqLr9TyA8co0WPe6oYrxi/DI8TO6/vYh4Uz7DSyQ+w1gjvqnbAL0rxsi9f/RlPVSFVbzQ2uG9RQXcO7pcIr2KbFI89Qs9vdyNFb1rtvY77GMbPqrT3bz4WCg6splPvZ84VjyGsRE9z/5dvb5mAz1IthC9iF/ivB+r8TyMyxE9Rlkuu0T+oT2kUE693jsTO5sG6Lxn0TA82bLiPDkPgL2CCvc8Lz6HvR0ekrz816U73sWavK9AjruN2ik9+GxsPR3+iruIEhc92PVmPXRQq7tw6Ik9palgPa94jT1Tp0E7e6Brvdp16ztQMhc9/HR5PEPhszxYe7g8u8SfvLosc73wIsY8Fk69PIbdCj26Aw49ife9vFbjR7uDPci8Y6uIu1ryYTxoIMs83zEBveQnojypke67fu4quVgU5r7yd06+QLwdvhbHQD05W4S9JABZPDJLwjt3+BI8InrkPOP2pzq05/M8",
                "71hpvtWo6z2MN7e8+SHFPdKX/DwZt4e8mLqBuw7FTbyrA1c8kKFJuiMpW7yqzZG6CnHGPKLArTx8NuC5LAKFvOcQHLswcF675XEqvebhSDzsbhc9ia0jO4PRHbx5Hpc9et3FvND+pzy8/8M8+Ox9PG5vBzzh8rW70sCSvYXoW73J0Ck8aXCCPfkDkT06hrE8DukcPKNX2DwPE808IdfFuXnFmTvEcBi6qNjqOAs8Mrsty9S7C2qevIFIuLwGZk+9SHumvERbx7zHLI07PKG7u+FA9Tw7pii7bfQ0O053MLw02dU8mVvLPJLPtLzuK5e8vvaAPII58zzgyTS+jmW6PT7UhL2UKYw96pmnPSLWDLweKlm8fWoCvXwYsbmX6wu8XwkdPVGtw764i5e8c15iPM5/bj1FpjG9b4X9PPtTD7q+mXc7ZEGtPPGhLjzKyx69Lmv0PL3SAj0m4xi9IXK8O3RQJ70Xxmc7A+CtPPQCkjuHqCQ9AIMYPaZubD3nXka78bm5PA1EDzteig+8VwnUOki5YryPFCA85ydnOi5gLL37foe8qvvKO4VZ87owUxU8osePPGRHRjxLyYU83t9tPPc5Ej3ayQi9eudRPO9nerxM9Ya7BEAOPEBRNryrame8juznvNB8wDtrzl67zpaTvBYe1DtuWgS84eWMOjcpo7sAIgQ76pSjuf60Gj16Yd072b8evAr/Wbpj+j67Q7/SvR/nA71RdoI9qAuNPBMRcTrhrAw9DuA/vO4GED2WzqG83zttvRwzGju5Vn0+bKnvPpjryjvH4Zw8Bz/1PBrtJz2/HHQ8r5fnuwO5HDy9AkG9wkJIvLyMJjztY+88J91IPVtAH7oQu8G8/ldqvSA0pTy7XQ89FXYyvY3pB7xTEY281Nl7PfanvDppU/S8AD5BO9MnZTy8/zQ7n4ebvJYpqruIDI88fxLAvEuWyzs89KG8UUBjump6fDsertW8JZkQPNynZ7wqNEe9Ti51vP/hIbzWBHq86vpKPIVDhDy19BS8",
                "01PYu8CsDDzCXpY8q1jPOpozsDligUO8r2l0OoO8bby8PiA85JO1OipKjLoAepA7g8XvvDxWHztRPpG79WCIu9DsJr1/nh29dAYAPpvC1DsuFXi9tvcXOoUoNzxHZlQ8xzH+OjhWDb3Gigs9xFkavFBcIL4LS8c8ydk+upaQsbtHXk48ViOUOpX5rDx0qeS7g48PvE8E7bw/FJM8k/IKPLDQm7tFGG28RhPkvBP8KT2H+yW9aUayPBP+FL2QxEY8T4X9O/D86jz8jYW8qU0/PH10Vrs3PEw9N2hBPCrfwj3CGcm8reipuwvLAbzbWTK85MJcvHBvuztHFhg6URe9O17Nlrywo9s8/VIiPZWHWz0UlUo8xeQnPLBt6ryWsfw7ht4IPZ4aYbyszkU8ktecPI3tlLwgjd87cf+1O54qfrzoOQM8WUCROxjrHDyX2p87HIK3u4k10zucr5K8FZtJu1a/QDyoFPW9DrhJu2ftgDwO44y/mSEXP1RrEbx9Ql2890IdPL7svbp5wBk75XQ6u7G+WTuenYE7PCMpvfD6m7s8DgM7WtSDu5b/6rrGC4m7HSJ5PnRW2LrFiCU6KWaLvZErk7umo/a7NIr0u9WrZ7yWbFo7fMcZOmeUcLounXs7CcOjPESbAzvpPLC6Qi9Uu+stjTtKOYC8YrFWO3SxtbnSO7Y50xm+OY8usTtlzcY6y/irukxXgzqxVCY6LZ4NvD5NjTveZoQ7AqQMPH7lOjoHUCS613i+PJ8qvrpvbnC7SHMOOfqhBbvEuZC72KJlu3GvV7orOh87mLw1uxdgCjv0vpe8Gi7dumrdqbrj62q7OYZnvHXopjpPuoG7inIEvO5AOznpeoK7l43TPvE+j72rFfU8VxJWvDzPkz1kapw6don1vNx5hr31LzE6FGE0PXAiP7yeue695/WVvQfMVzy8y5y81AbKO5zDoDsn1VE9I5HZO8X/cr0gwZW8gyiqO2xS3zwsBWU8XSh5usiE7jzp0488V9t1vVPF97xB36w8",
                "GHsduxZxMD2UqiG8UJK2vELuxjyZaSs9jgUjPc+Wcjzv/kk9GW4jvbCmJDrnfVi9IK5IPSsw5ztxNSW9ODoNPeHuBbxwNre80WeJu4tnJzy0QW68pzL2OzYg7Lxvka87jBqjvIHYQzvNm/q7eCI+PeDL9TutOoE8nH2JOwzFMz2tsRO8p06XPHkkcbyKSds7myWQuxGUuDv4vgs8N2WcOz8cMbsh9Ie7s3kpOwL9+b0="
            ]
        },
        {
            "shape": [
                140,
                141
            ],
            "weights": [
                "bfH5u8xb87wL9MW8wNQjvU2rXryF7gC8s3fLvMoPhjt7M+w7WtoiPLajgLzyMVe9hTImvQynjz23oi+9zwo1vJ1QF70Vxpq95Ys1u6YxHT1+2IU6U1uTOuLZXjtzHRQ8riRRvH5Fk7wGthO8Y7gnPLgrlrpp91+9Y9drvCuylr32aY+9D5s0PUHJlLr3GVg8QmSpvCYuMz1X0zs98hhNvesPZr2Z7BA9Te6UvBbtmrttBBq8bEc3PI35pjzc/AO8Y3WPvJDG1TyD3Rk74+7JPC3t+rtGXoa7DFE9PR3vX7yZl0E8aE4jvI5JhryteLk8FxFCPQ0xEL3lKGS7ULFQvAGaDz0NnGK8jsA2PCHHq7wS1zW94CgkPOmotDsfOYy7tF9UPFt0RDuarw09RzzFvNUZHr10nsW9YUR8vWiG4bwwN+a8w7wuvSuH7DxNY3s54qbKu6LKujxFfYq8UolNPIXQl7vI8As85B6svf4YwDxb6jO7etuDvJkFkT0kQ2I8iT5LPDx88br3prY8JghjPHMCODznChA84rldO6kv6DwOnQw9yN6dvPhinDu9Wok8M66Mu8E2G701xxc9+ua4vOv8/zq6PLk8jnJhPRLsabwObK48z4zQPCtkULuLhw89O4r+vaxmyrzYD648pJPru4fDaL250xc7KEcuPMkNBbzVPQE89uKnPIDOYD2tSrc7BFoeO+rvhDwMrFw83MSjPGvdYjx59+G6ukx8PcIqdryp3Ca+e9pfvEvAbb081Yg8xInFuoufDT35TyY83gNcunMFpz0lzuG8h0uuO+7mPrzyRyo9L1qzPDXgvTxsdJu7zTLyPInd7LyEAi08rPo/vOvN2zzfX448dkFbvGQAlTxsb0M9J87APNzk5br9fzK9C1ERvdPrUj2bpJg82jlpvHUDB7xLIMU7R3+MvMrHTL2uat+8pnUUvT1IQb1lICQ9hTlAPWuAI71wqLS8P2qivB3mSLwGSyo8KsjSO6FEbbzDz+G7GhFUvdbcmLwbk968",
                "gvzuPC4L6DtAPlm9R4duvbs8IDzhIRy89FwTvRD4ebxNAvw6EFQ0PctjtDwNhpo91S1GPLKdqLy4Czw8hHMQvYopJTyJJhO8AhzcvE3EFbu4KXG8+c0iPfgtVzxX5Tm9uTfmuwLh9Luc7as8LiOSPEFJfzoC4Ag8GjjwO4d7Uj1/zfk71HzzO+EtsDsi7AO9zHDJPHYHrTvJbCO7grCdPVXX/zyFjQ49dhOQPZHbjDx7I4i86aGDu2CHQLwZ2LM8yCaeu0yWpjlibU67raQhPEyjH732mvM7+eO9O6LE6Tzvqfw8qZbLPIjpMrklgxI9BJoLvA/p+bst9Jy8VrLROi7QzjsTefO7BhGlPJONhz0lGKw8ovJmvZHcOz09RQS9Xxrlu4maPDx2+/+87gmzvBGZuzw102Q7WwaVPP42ij0HdKO8We1wvPG3iryrobM8iE7FvHaGrTxihOS8PLfTPHwinzw0HTG+bcEAPNNtgzwLlaA9EInIPDQCZjxWdMC8rGlmPZ7XhLmKzt28HGSKvXH2xzsQ8/s8QDpfPCct/7u3Mbg8Eh01uxYXDDxhBko7tpcouzGXvrxjt6O75UEPPBDC/Dwgnda7I8rIPIJ70LzQ+7C6/T8avJ8S2DwCrTi8a5Z8PO0vGz2ArEu8cP08PTvxgDvlBso82/gvO2SrmLu6qdK8OiGJvALG4LzsOBK9XXLivNLQZL0FSqY7sbQJvDCZ4rwDww08t/NBu6rl9zxRsn+8C1IavGEaZDzzxtE2rmJCPLNcqTwuS369uDsFPZLnljw4Xhy5+v0XvZlvDT2FBYy7mSGwu8A8Wzwhe1u8TOLFvDkpTT1u3sE8X0eTvGcsFrx5kdK8oAtluzPVKLtZJZ08fA2vPFYXFruansU8YLiDPE8/pzw5Gao85AzUOwhnaDw3bQ092CxfuwSxPL2xlTQ6lT+Cu9brITwVuSk7QI85vYYFjjz77US9HAlFOxf/5ztxkE68ulpKvWB5Y71KyDG5OCtEPU2Vbb1I2hs9",
                "szpPu0bBzTwI9BG9mi/wuyncujxwWDm9vMzlvADI67sGAuW8xKgkPaV3RbyjUnu6ah26OyNEgzwgpkq83ficuoXszTy6YZ+73r+Au8oR+rzUwDW8c69+PeMr2rtHV7u8TkjuPMxP1rvA/Hu9T4wFOiWFtjwFFqA8mF6bPHoRjrzuQ2S9GlzdPeaQlj2LlL68q8jBPFqaWzxLDNG9YpTuu34AGDwluyS9BhNMvPn1hbzq6ze8Hua8vF8ukzyLqRm9SIwRPa5KUzzzhwi9dooCPEP1t7wFhec83hNFvV5szjkP+Og7LnjSO9Lkw7xwBV08ms7QvKHkx7xC1ua7tEaRPOZj5Twf7528IPMUPe/VHz3aWdA7T8y2vPfPpbs4Thy8ca4BvQMMuDy+5AA7bkYAPMjM9byuL9K6VjkvvI6qfzxXP868WdLxu7PAdby4+Po7V0/6u7/jLjyV0wI8aLq7POwZc7liJpm8kEQUPGF247wFd9O8gkn7u5eQxbzU6tU9qAnlu7VZR7xwvfi8YIDGPOwiaLuhyAC9ELqPPFdkhjsZWgo9PzzBPFng1jve2BC9A3suvEIG7jySVYc7/rOdOzOcWbyXgNC7gAjjOy888zw32f27ptCtvIK/pLxIiHg82HV+PLcrlryRebg9dxi9PKmqBzwLd4I8WnmbvMoumDwCQa28zEeNvGFc0bwDZQC9AW1SvPYQAD39qfs87uIgvRL6gblMK8O8a/cGPCKRB70+2wO9C+ggupZJVzwDrPq8AkQPvfSQNjtLMDi95qAjPT+8Pj1oEjs8BkhrOwmFizya4zu8Ar4uux9OPT2dVsY8xDx+vTj9eDyuiwO9HwW3PBLCcr0Vk2m8aXWRPMVdJTyOK7S6VXX3uw+dlbzMvxM9Czxouz01fzz3RC+8SzPePL+y67sm1DK9xvHMPEr8gLxojR68S6BcvJu+lzscrQW9laacu93iCL1DCEi9ci/IOcVkBL0pvzS9vo30vOLfi7vQhN47oGp0vebB3Tyy7WW8",
                "CIm1vL4IPr3b3zy8fTcjvb5VsjyKWti8CgfZu+VQgr00SA6+vAbYPGOdJj2syD28i+EEPflvOD0LK5M9+eNUva1qXr2X6Tc9Z0jQu1uCqbyA6zy8wzBlu2oxkLxRn/o8JD3XO94JkrxEQ8E67zRLPDjyob07Pye8eDvOvHJTuD3LJ+U8uHCQu3YfebtPJ1s9mop2vFK8xLy3Fbq8K2O8vH0axzziBNu4dpLxvBbusrxtcW298M9svJJuM7uTIIQ9hE0NPLUCd70wy4K80gwIvfI9BDzlCGM9x4kVvdjyubytUzq92C3qPHhcgb2I6TM7yiK3vEthi7yqUb+75EU4vaPLCj2dNrG8TE+duWGYs7yN8888UH4hvV2aJrz936A7Qw1bPZeDCr3X8Yg76C2bPQEuqbylWjG9FZe0vOUceryHEa293eppvEOUyruCoWC8qoEYuy47mLuii9W8ELMJvZiiL70py9w7G7NWvGirUL3FV1o7Wxo5veNblLp20Q29eEZxu9hfL718r5i9ojOqvD8KiTyk5sy8s6T3vGbHjrsYdWG9G2mdu1NfFbw5eh89Ik0gvPFarrxYJAO92h9gvC2WrjvcnCY9BfCnvZpyFj2R+UK9YvkCPVmtAzulTDE7EEJwOygs5zqSak89nf8cvZFwXL1LfNS8QT5RPfLjprzFkaE+8xlkPAL6A72mUtk5S39vPEl8mLs2aaG8+P64PNrO/7wvDWq976BCPdMPO7yArEa8V+CPPJNEXjxoaFw9s0JxvJO1ATylmpq7EAYEvYFcQTzd1Lk8jMR0uKbArDwsSBQ85CNyPbLWpTpEbti8+xKbPDDaZrwk9wA9BOFTvEcsIz3fMju8HkBEvaznOr3PX/Q8CId8PBiXxjhSEIE8E26APHEmJr10AZC7leOxu1SzDjzxwfQ6GuPJvBbV7TvG89s8zmkGPUh9Cjywg9y7ph8HPVf6qLk5R0I9oZvhPPxE6DwUMdS6M/SJvMKDdT2WIEO8kDRcuxoPBr1GDp08",
                "mzUbPCgchD3B+je9BZ5/vEHOn7yloXw9268vPfvqkL1OpUa9GXYVveWKLzz8lTc8sxSzvAX/W7sHuBS9qBXivG0wTT2PItY8tHDSPN9GTTybJcQ7XO0mva87lrwZRFo83J4OuyFhFT2xuds8UlCevB4uvjzU+CW9DyzfPBFIlzxI1PM8CzMnPPvCST0inRa73sZkvAaj6bu6De28ZKM1PeXbOjz0tRq92QkVvZ9Tq7yjQTE6dO0hPTzprzsjX+Q9GeZxvKNSPL3y8dw8OMISPRwFTT3wftG8v1Avvb5BNbyJU0g9Z1XWvEB9HL0KsW67381zOngJqjzUiYk6/tUvO56wnToNc4q7mSf8vM7gAz24lUA8ZW8nvC3XOjwGIYq8YWFJvfi2izof4su86O9QvA65frx/Dwq+VgRrPChLmTxV10c95ZD+PMIxQbwkMFw7wCbaPAt0iTvu+Zo94ZoiPCJzB73Q1ds8b0jBPF5EUzuFKLS8F8m0POF63z3PRkc9ZQhzOhIzkTvRbfO7l2GRvJbP0Dx1X9I8vje0N9uq4Dwxc9m8H3MpOka9t7oE/Z+9ceQ2vFZmRDxTKwi8xVZTPF+TLjwNKgw8n2LxPKwY6jupGhu8RgzQOwYGYDyhCl08KrUyPW1c3ryY8nw8yOlNPI0PGLtJoIY8NifbPOa1E7zDBZi83R+BPLfd9rtLEeg7z7sUvCwe9TvH02A7fGdDvDIap7wOlRE9PouhvDgW6DwP7g47D7GDvAH0qjnl2cq8vWSBvNYWBbxfAN88az+vvG/tyTyjU948lPonvDq+47u4rAU8RlyGPH+7oLz0Ul480CgTPamgvb3Nw+m8BE9/vBaCnDzqtl086RasPEfKvb0GEyU98VU8PMw1obzX9tG7sOsZPBlLPzyAgoa8F9BxvI1wZzzIAwu82UHLvM/J7Tt7/9w7htwJu4g6P7zgmii9SE4fPZ2iEzyBdHQ8GYO8PMveozxCA9G7fpnSO8jpNDxAjEg8nGqCPN3WDDs06XW7",
                "WC1UPGiNIL0Eqjs95twXPTUjkDy7uZG8c8V/unalJTrNSoG84cOaPG5Gcbwz6GG9yFpwvOdygrw6wqE7jJ9WvEpbaDtqUQE8fYKhvNZF27zIeU48YP+0umW98Dsm82s8uCKJvS8wJTm3lgI+oWw7PGXYwjpnud88zPQDvWCW+bv+1JA80k0mvOa0rzrjgRG8RpE5PeGKujxGib48LJJfO7VtCLxLrWQ8FvGuPT7auTzd7Tq8jpAjvPN777u5pw28BmI8O9HO+DtSDaK8s7QJvWVo9zooz9S7JTIwOuo5Ob35fVe9kEY/u3QQVTxvFyq9jitDPB7OEL11ut+7g2kxOjXAnT1Ge2W8crNZvA1h/bxg6O06MS5mPG/k9zwQeBA7kpeZvLDvezxfoQ+8q9KuuxBumbzVqyk94U2ZO404JT0Sly89xyOru9kJejxRNjW89bw1vNoPq7u5dCu9XUCFvEp9BD2rfpW84WqDPMZx77xYw+M78/Quu4w0uDx+yBw8H7+vPKOctjsFLwC9M/eOPMstabzf0ku85+4EvSxqpjyjLM+83yUqPdtTrDw0kYI9tEiBPBcqzbuFNZC8vhaqPbhsEzy0ai+9rHQmvXwRHb0vUA85ffqgPNhtwrwTAcy8/9sHvG0RrzxohTa9K/8+veHiBD22mcI8xzQ3PbVQOj3/uh+85N/NPJa++jxdvfK6nUZHvC7qNDvneIS8JwuLvDpdhjvbuSI9GSivvOeXbTydY7Y7nthvPda40bzXL9I8cGVlvL5klzwK4+C6ZpWYOz7v6ryAL4c8SPcbvAF7JDp397Q8RYCAvFTYrzzkoJK8NmsfPSsAH72rj0O8HW7ROiJa27uQffC8Qk8ZvSYbsTxsN3A8i9gvvaec7Dyxv7a9h5uCvcD+Qr2C1Ky8+WOpu6gonTz9lrc7npQSvanHBz3GOKG8QQ/vu6xUPbuhD4O8t3JAPPPEgD0vRZ88ROyyvDN8yrxfaFe9wYOqu0lwRztKXj29vmlDva341rudCHy9",
                "ewsFPSVk07x1RRq84PH1vD5KorwLhrY8wOUfvbJirDylCCK9p40mvNd/jL0+Sum7yjwqur5HlDvOg2s9Fyj2OqP1p7wWPVS88Y+bOU/arbwZGmM8E5M2vEI+Wzz0iVw8HaGiO873+D105vk7utgHPf9vhLwf+Ro76tqvu4L6tjsKe3k85EUAPgf6ujwHUZ47M2nmvBKClDy69xS9bAdOvJ9IFDzlkiy8GHPivJyufruAVQm9jwWkvAxHx7yLbaY7vfZNPBsVvTq+gse7FwzkPC9IV7weQ6I88ARtvVLkrDxwlII82rGwu+T4Bb0WAg47mj2Lu0W/hTvJmwc9lzQ4PKVM17zgijW8NHA1Op/E37zqYyY8iBA6PBWXgTqvaBG8/vWjOxeOhDp5S9G8+Hs3vF5Ufjzout+7+ie7PPJjhDxwhP27/W+gPHLf3LsCvc07mYsePIEyQTzc27k7/zrcPLCFrbzh9ZI81M+DPd9dpbxoQ527HYAvPA/aLb0nsSI9nbX2PJxJYjzru3W80iQWPOFmUTwz8FO7CVgdvFNOcbx/ZZi8qxmpvH7iVb1E0EI9OGyVPOBRDD1+d1e7n9QYO8VDW7r4EOW8ceO/PHQuY7rzOoG9tjwSvb8E+jwtoVU50Z3aPOPX+TydcKg6N4C5OnjtvrxMHwY8AWNQO34fCT2wqtC83oOivBwQ47y6rau8ICdCu7P2nrxMgdW7iOqBPNwZtzmKcxm8g6B1vLoLpzu+4ak5f7OLPDyZIj0usYW8UFyku6ge47xJw4c88Zg8vMFxg72I13G99UIlvbZKIr3VD607W/3bOwEHv7xI1H+89SOmu8OBPb1AYeA7W+YIPCcDjjx+arm8OtoqPGoB8ztxwIo8UQ+Nu69KQj7+VEc7aNERPa5W6rvI9Z28O9asu3iGLrvk+Ic8pEo3vexU0LpYZiS8FmhmOgCZtbzTC4i8J+SfPCyku7ytozu8XbhQvC+a0jpU9gs9hHukO0+WhDtkaUA8rYsHvXizV7zr2cy8",
                "JwyKvCb047vxVds3sfuvO5olwTznC2c83f5hOxrambwOXi28IM4jvNh2mjobDvy8gpBvO5h8krtMp5Q8QnEgvSezBTx7t7g7Z7qOPMaOpLth4ry8yg0rvNQmdDxPD6A8rZukPJt7O7thX7G8bpdzvZNuBzsNWkG8WkyMvD6OdDx89w88jCztu2o1RDzU0yQ8jrGPu8QS6rvL0ao8YWwNvY5BCr3Ymsk8fZvrPKSF5rz8YtY8LddrPLHFFzxK8u890cSWPQkctrxTD2K9q8r2ul6aHjyZeg87PLV1vC5vCr3Ma0m9jr3GugXr37v2QYW7DL/eu+ky7DsGm3w8QBS3vOaTvDxrz1i9Da4AvCFL4bxdcCA8CZ/zOz/E9rxS5s+7h+ocvHoHOzxKGMq8l5xVPe4+gDtZn20888+7PI1srDyZp0G8OUTlPREkYjr/I6K6Dv84PKRsmry3F6i8oBmDOx1DEz3WUN07qKexO2mQTLyNVx89qwRivNwtK71X55K81arpvKj7DDpnbx28EatRvfJkFDxs+qu8TyIHvUW1oDxij2Y7+XJuujNRlbwjFJM8QyAUPMDPlbpDRbo7t8KKPKxx4btHopS7iL01PAYoCjxF8Tq8P1myPFM/AjxIOky7Evx2vAVCFL0nxFa9QnryPHNt3bw4Y6i8/q0ivT9OrTwE89O7eQtUvLCMQb3/C8689W8KvWMmVjtwYKu8JYhBPO0DJT23Mya6ZGWlvGFLnbx1cC08JA5JPA/1gzwTlc08CcrgOwmVRT36/X689EYevW9kJD0E1Jg7xCehPOMOaLwyD3M6bFobvSpfgTwWQGy9Qo4Wuy11Ej1ZRyM9nNiSvPILkbuD5hA9I0sfvT542bw5xZ+88mT0vIMzDbwvyyO975QLvLA1VDwC/Kc8KvLNvBeAjTydOlK8rti2PHl4dr0zGk+8RlEzu8nbaDx/LEo92Uduuox4Ar1mS0m9msbuvDAwSbxaeNi8mxMQvHou57uftKE8Yg5HPMCcPD2i+fS8",
                "nS7FvHuPEL3MStq8skiGuxS3zrxV7M08yOktvILpzjyn63W96GvgvL7uczwvoqM8PoDZOxeOuzykY287ZRdYvZwNHzxKg4U75k9CPce+RLtLFO86BE2VvMEOXL3owZS97WXEvQTtObw74ym7dPm6O6iDIr2vqvk6u3eUvaIn0Tz6t7686PE7veVVOr1HZ4m8DizIu3/Qa71uHgC9rP9UPXkZAj3rXTE9o7oMvVjdHzyByMk8K8ufu1bFBL2G7j28XBmePG8hQr18ezA8d5QQPAdvlrxhvZK7j7SJvIR0Ej1ZYru86UBivSKS8Lsla3G8CpIDvMUoODxwyF28ZUcYvTmCZrxGv0e9bDO+PK9y07vagpE86MoKvJaH/byUzZC9K1xvvCZv+jtwQHW9vNqtu3mKc7zVmVi83u3RuxuDBjxo2z88AHZ5vWZXs7xkg0c9Ms4YPR4AMD30s5S9Zya1PNUHibwYfjm8vnk3vWHatjxYpCW990jROkJV4ryTNMc8XuG6vfL4trzX63E8pd3Ku25Roz3AdWm9gNbXOwgv0bzV/o69udjVPGcmRLzavYq8TVYqvY+W9jzie0C7nAoNPJ3ZhDxCj6K8iEnXPJVl8715h5I8O9WAOnDsAL0lQk89BnpHvSBtu7xd1/07VTLrt10KXDvaCUs9Df1hvSHNMr0YN1u9vPpUPTlGLzvZPD28C7yjvN3SJ72ETQQ9RXRxvI21Hz3kT5W8aGUVvbmZ+bwTOzI6GO3qOgRRJTw7e4m92RndPTSQorydxTm93gDGvHA827xf/oK8kb1svf2z3b3GeQU8rlbePCMggjvanSq9DLneO+W0GD2I+e27oj7zuyMECTxa+Gk836ssvF4+r7wEw+88U4S7u3lmC72FGys8yWnmPDYZ1bxZpWc8R70DvFpRkzs9OEq8iwQoPfd/lLr+xJ680ukIPYqZ1TxCmks9vG6LvA2vkLyvcrY7oyYGuw93zrvVAsq8iw4wPNh/7bx6Fnm9nbjYurp0trz9yke8",
                "XYfHPMl7RT2sVwO8tZ0wPP01Ebqa+bK8VBwDveux7Lv6lYw84UahPNvMnr21AXE7gkNDu53doD2UroS8R+EnPdVopTzc+0I9DOCKPWR7CT3Iow083pRZvShJlLxzoqK8AGcbvQMsEz0ksR694LtSPEliZDyePTY89VLBu9tJy7yNMqO8qG2QvVokBLtlX1i99+Bbu+wRM73q2RW9GZFxO7LLcjzcPJa8SIYQPbp7Rrwix6U8hgjxO1NCv7xrllq9GfrCvJ/UAbpb1BU8bJLEu+0ZQDxkG4q8T59svRB8bL27iUy8jO5BPMDYrz2qKzm90d6bPCoUjrzqvcM8wgmEvMG+LDzQFXy9vGqCO9sbu7xRvpu8p04bve7eSLzjA7Y89fP0vEm5bTyYVnA85yfCPBXwLD15gb47Qpoiu8WJN7vDhs489zDTPI9aIj7DAEm8tWYVvYJF1rvVmoC9AY4bPOjgYj1K3yQ92QoMvWCRFL1Weou7MnyiPBTiijsnvgq8m7bzPEb3eLyonLG8TFImPBdKaDz3lhs9Fg8CPai5Bb0aJAO+0h/VO/dAWryNekw7agOKvXR25bv1kiA8f3epPOWbRLyhdqm8NE+tPR35djxktsE8W7OzPMdC6ztj6Pg7Q1k6vBaoQDuxQQq7i7ImPBMDzTz8KKE8DAE5PHOVn7wRWsc6d2TbPDSrp7x88sM8SZNuPFEPyLv/kX87Ou21u7FZ57zu0HK8TS+rvNvYnDp47Fm72WwiPc2Csbt8X647Z/wFvM8AEbx2JAS8h537On9UwDsSIG48gA81vBFr0ro8+D67JloTugTR3jsdqLs9JCsvvCbszzwxtra8NoKPuxyf9z2AuUG9lRN7vG4oZzxhwKq7l5NDu2/RZbw5dPA8B3KauzSYIDxCG4q8zZCsPe+3tTw032W8HUd/vI6aKbyDBpW9ddzjPC5j37sDTxO9bJ0IvTFLjLwGNqC8MngyPPrOmTzLefw7aA0KvRHChbzduu88Chz8vFnU/jjlW5i8",
                "KsWZPGMe/Dv6sBG9niAru3pZIj1Vkvu7KBJzvBnTcb1jRu271IhAvacjX7yleuk8zIMuPasnSr0oUHM8zf44vAFIhLuwjqG87Pc4PBrK3L3ge0m8upQDPWs6eDxaGTM8X/6nPaZK4bzQXtA8+XFIPfvy8TuN/LE8XJMQPXE5uDxastu8P2GrO6+XUbwzdym8sUIgO0v4tbsYoay81De9PMKfzrzMbys9U7URvGKOuTx0r1a8FB/EO3PWi7yzI6U9iJIlvC7pAj3o4tu8M3VevMOMcbvPRtC9a1QyPFbTUbscgBe90UiyvKU3yTw5awY8wHNavH9ltTyfsB09A2+1PQ7Mtryefpk65AkFvIVRhzyXCiU9/s0uPZW0lzwLIxq8gmuFPFPdNjyYEUQ92tfpO2RGl7y8kpi8F0cIPJRKEzzFQkm8PgeAPDNI1zyab6q967lePP4i57xEBbW8vv6POxzAHrx728k8eZH+PCg5TLtaW447px/Lu2JDe70fCSI9DB8BPLNfx7unSLM7Sx/lPIARFL0O1yg9FqQgvSt1KLzaRG08j4ScOxQ7jbvFw5i8NUP8u3juAD1BNZg9urKkvMGiLTxSuge8iEB1vFttGz1ZURC88WKgOxtRlDzuZK87TDsDPVJBkrzPuag60QvQO/YLojy5GFU9YC89vIxTb7zuYb68W+IlO0Xk+LzvR/M8Oh76vHk54buSIg2954PGPamfCzzbcqY84AJFvWadND2hmcG8/k8jva7CRbxJV/w8QSWDvBwqL7z1yZq7wHA1vNCwhjynb0a7TBb+PFVf2TwKPU29HM66Ouhnqz1dwzy8O9H7u7ydkbuP0Qs8+aEgPQ/mlLwWbI88mSagOzKPSbwCm789zCOHvC20kjxChYc8YCKlvBXazTynBwI9pzehu2SpFL3Jf9A7cuxrvAE0yrxp3vo7YWHwvFtzm7xyaAi985Y0uvV5wjxevJg9Z6mTPYjAgLvd5oW8Fv+UPH9l8ju2Jhu9nvoGPV4Lpz3KNwo9",
                "cGY0vV7iMjvyvUa+m+6IvN3dbTxOCA+9iRaNPISMm7zGYzK9RgpFPPVr37wmu5A7yrqxvGYI7byvwwM9llPIvN04k7xObNu8HqyouyfmDbwDpOg7vmOFOuLls7zEs+k9QDVbO1hXiz1hjb48UcwdvfBx2bxHuiW9g9ibvHFNCT2ZWpK85DKmvIqtFrtDV+i60NaavDM1SL1Lkaa9YJHhPMhe5rurbaO7N8wAvIumqbxEqQC9wcikvB3ECz2FtsW7PlTQu4VORLzHdpo8XTLJPHHqc7sfmNu7AzlhO4pwtjx8hO262QEnvDU5z7uex9i7STyKvEKbGrz+sFE9Z0WiPO3Su7xkeI48b6H6PKJ2WbtgPAI9Md4zvOsvjzyD0dm8yc8HPCWvvjyi8308+VibvLbA4roGc5k8eCKvu3DXnbyG2Ng7KEWvPCLjtrzlGbM8HoudvH5107j8qUw89YsBPfKu9zwELI68iF4HPZ1gyrzPxng8xhIFPF/pVzzkRra81IkSOkswTbuc1d86rDcxO8Hgjbv/hDc9wvZ5uW2tKr10QQa8EFueu1eIFbyftvW7rxY3PNasjTwjn0Y6Nt2JvKecOby7t8C9sVk5vILIyjwfTbO8190HPBu14by5gZi8VA4dPByMfzoIE+y782C9O/4b8bxx2N27Na6SvJ6Q7DtcYZ67mMwKPbt6kzy43Tq8CPuIPtkkbbqu6HO8F0YJPAVDhrxhw3I9LAumvH8IG7wWTKi7+vQava2CBb09IT6+A7B/PIhSFD3aY6y7tUMPPYzawTz7Bm087/w4OxxzDbthYfQ8X/cPPcEiGD2AlxK89UomvbpAIrxjr5S74RcMvd/jJLw/Zvo6OsuNPJJEezwK30A7qqE1vPmjADxLsUo8nhDfPJoOiDzvSXK8R23SO1+Szzt1YoY8sZc9PLlWtbyzJbS83sejPH1IT7x4WgI9f0TWvPRqfTym4XE9Yz4evfw1jLyqMwa98rNCPLNZjDzrop08dynrvPSkPzz3vNQ7",
                "2P1cuk4RhTt6MAC9qKqVvDqigT2GL2m8TWxXvDukwbyTdsA86OpSPGTGhT22MgO9Vo2CvMejkLz7YQc8wUjiu+yeNr0l9Um8Gn0RvcmbwrydZsa878irvH37EL2s4QE8V7yIOXkbOryWuLI6H5M+PH56sDzdBxG8NQrhu8EdKrwjmNC7x9yVvW/ohLxt5va8OhjJveNn8rs/djM8SCIxPXEmB7wxLKO8j4ZBvEFJfz11N5s8BjHcuw8+t7xtKDI8L7YLPWrZ/bzl3Nq5gyYCPShB1rzqfok7MovQPFxqr7zflTS8CgnfOwo70buHMYu8hz0lPV3IKr3+WNO8gJPcvJBjCjykHxs8rfmOvA4UHTytWkc6xkCiO+7WbryPQxc9r5hFvHep8jy4/dy8bYi7PFLtVLy4og29SVXqt8Ukebp/6LE7cA3OPNpqFTxEPwS4XWA/PSMvqjtreYs9X/kMN8cKijvKrQU8YBCzvA1ewDoliy694lyrPNsxmbujNIk9OPB8PbDlFL2y64a8pW6jPLphsLtCiB07W66NvE5ZgL1f1Y88flsBPUn9Sr3MD+27t0qHvEHMojzyuQ09pfadvBVfx7wubN2830c9vERsND0N9ck8TumgO90zZryxyJI8hTYlOyWNurxvhlu9V3goPEdGBT0GPog95odUPMR1FL3GxS69LlUJPYrv87xz1dS7dDIHPcXjJ73+vRa9vugGvScWgL2ghRu8Bw2gurfLvzp+CLc96VzpPOMQ8rymfKA8mEC1PQ4iDT3FEgY9OGkXPYmImjz0uQa8fAxCPGxsUD0ORTO7DSnAvA1/Ab2Ts4E9dBq6PMDzS7pioek8UWbku+NJr7yTEyc9GfT0vFmD+jtFLS29NuSGuxoCFT2ZbU09EIwIPAg8vz23QY06KU51PZrrb710k/s72Zp9vA3B6zuG/ZG6FRpZvL8ZWT2mdCo8Ehu5vDpMxj0A16E87CR5PfS1Ez15PbI81GrvPcQlJLwQ5aY8orQSPMY7Xbrjzza8",
                "N0+hO50kQr2aLjQ8MmbjvDWh9Tpn7aE8Pmh8uU7PlzxpX9e8C31OvKksAzxjUKs95fFyPWBa07yIeyC9E2OAuzgsM7zYIAY9VzcTPWKQbzwp9ow8P6dtPQZlNL1s1T+9zSsSvTb8ybu9ohU84Ka9u9xiO71Cm9a8SO3SPUJWKz0D4Je8mbpFPOfJZT1oSgO9ACetvM6DQ72i0KG8hSHWPd6pibvZZvq+idAgvEmXFz3P9hC8y5PLOxV49jsDs5c7MlesvQqoHT1qxBm7LqYOPKaIBTyva2m8J1DlPNAuNzxO3508dgOFPEG75Drn1pC9z0TOvDMcNrkWw8q8ruZzO0v2G7rcoHK84FuRPKEdmDzyIw48dkGkPLldy7zF2bc8aYxLPBifm7y4olC9LhdMvH0ppzwnku+7zzbuPCHGWL2BB7w8XTzWu74mgLx040a8W64lPAqZ97tzbrS7QEEIvCx4FjwM3/67tUhEvVI5SD5I1yk9EIdjvDJq+7uoFVW87taLPNwx3Txi5vo8qJDkOzDeO7xPx5a7lQfevB/CPD1OqAa7wBqFOXPSX7wk2Ks5M94cvYudS7tcFmg8eOAzvUydFTxBHwS7mo7FO2LwWb1iUM68pLhYPHUtDztK/+k8H8SyOSOx8jqHi7y8GoEHvT/gK7125Wo8wqL/PCcqTzxpnEG8Bx0suSRIhrwp+4Y8AEMavXIXzru7JDk8hSq7uhGtVLux2DU8LzKEu4HK+jyzJis8vl1evLJ6YLwda1Y8aTYAPOvYljwNTYe7M3FevERKmzwU7Ja8htYvPDqhqjs6w2E7Ksu7vEYizDxJpBu8YzzSu02DXL1VQIO8SNetvAKutbzAZhw8PCG5Ou/USDyQ8ca8KV0ovR60/bxxqs67xtV1u6usDrwHKsO8ToAxvESruLxuIj27Qw0BO9hE9LzGdtU72crkPNWavjvNxoa8MFYiPLhVbzyoplK9/DhAvGlFBL21NJy8vBSKO96F+DxwG7O7khl9u5PqA7wSWYo8",
                "dkjJPHCTYzu0LOw5i9LevGCnPjvwIZs8w1xzvOUHcL0bZvu8HZKVOkvEazy1YG29zv8pPGpPwr1XoDm80Ow3vZBjljyQ4Y+8Rp1DPM053Lz707W7aYGFPMDXzDzc/a+7aS3SPFlAqjxk4fS9oRFLvYznRDw5oGU8KSRevEaDqrwP/Hq79DUxPD8oCDyoNh69Ca/8OhVuFD0pZUG8E2NDunfmNjwrAvo8DS2fvaYYoroCImm98bOXPJYmWjxo4ze89Et3uy/lDD3GLLE7jDegPMg8ZDwJwwU9iKYMPdWcOj1pCNa868wAPZzarLy2N3a82fz0O6mBm7we1f48O8R8vBBOh7yXkYc8A2gtPMyir7zWBqq82S00OgY1CD0w+Ni7OBQxPGzIDzy6slu8BsWpuhggzbojp+a7h9z5u/Q3/LzGzY08LVoFPPQdkbvEZGu9aHpUvXjUqDvoxPS76U++vFD3z7xQJ+q8VugnvWwhrTyG89Y8ZtA7PSnuADlysUq8EbdLPFg6AD0WTKU8ML0eOwbDyTuFxq69dqPCuz4NyjuYugi8koJFvcuupzzHJ4a9bPldvLCdlzzVGJy8bOd3vSVahbzoGpa6b52+PJUPGb0WM6M7CXFavbu9pDtvo0i72NVIvfcHMLxVhvK8eKl/vMJ46TvsqaY7q7m7PDww8Dy1guW8ukO7PDurt7zJP3U+5S+BO9Z/vjwJ/bG7ydgfvX4Darxge0W8u8X0OxeTozxS58q8p7QRPWaWjLyZu5U9miqrPAkUjbxE8ZS8O/xHPC6DkjxeZUw9qYq3PATelbtJQNY76HnHPMTJFj1j+PA8jpTpu5HTWbtB+OG7iEvLPPd+Wb2o3Ua8iU7sPE6xcDxwklK8X0AePPhyMz1C1z48nec6PNK7VT2M3z68V9gxvGnD7bye+bg8CLuDPMOI5ruI0so8WpbHu0SbCjybHBk93PTZvGAT+by01zk8rMHIvEMtGD3aWS09OpXFPD08Krx984w5+D6ovLT4uzxAbB68",
                "vlmHvMf4BL3nEmu8RIooPbKTQb3rpig98xSou6BUzLxoAq26W8WvPPYgxjw1FgC9U9TjO2rCAr0Wb729NP92vThgWr0HW7Q8N7kKPbysJL2sqQS9LpugO6W/HT2eTzA7XtrQvOY4lLyqyee83mVYvBoKSb3m6vE8jqVhuwdcGL2a7hE9RlRcPn3tnLtjbpk8apVKPXc10bwqGw88lqBZvEecuzyZRn691Sx8OvTmfDpkQUc8kRzqu20Zl7u/+PS8Gc/gOvcNAzy0E4Q9/EKmvLfdC7tC1ge91lNCPW/VtjndKJA71YKOPJMqtLzp6za8VKj3vMNtpLzNqRe95NMBvZZwhjxKrTu75K8JvBwJGbzZr/E7FRYYPeeLobxyeCC88yQGu9/iwb23fri8xHcKvQWpmTxXkPY87TEEPWfRgjuwmoi+EormPA2LGLuMHM28J23aPLcNKD1vF3I9Ii5TPF2dPDyeUwC90bxxPbmTSrsZPNE8xeQUPRcLeTy7YEM8+a/Mu9Om37qQd7U8ZFH4PKxPIr38unI8wmzWupe9rbrLme88xEn9PG6gGTtcUME8MokVvWO70D0YHri85yeKPXLmcrzzt8e8CFErPeumvLz39US8Cnj6PP2WXbyieNe8f0L/vF1I2DyBkqm8QY2gualQE7zTaCu9cCKKvBeLiTwfuMA8Q5SEvAqAbDyhxgQ9bv24PP0GEr3fIBy9qpqYPOEWDb3+eXM9kLdXPNJSdLuWV4G7RfpPvW09Ar198Bi9XbaKPJLGzbwuEJG8Yg0gPJpXTzxdjr88++z7OzYtrbzOrm68w9sCPegodjyCDGo8f3cWPLC4o7w0TzG8kB8tPLjAkTrW33G8jr7JPHq3wjuYysW8M05sPBwRZbwgQD08j3IvOjVk2zvM67k8QJD/vC52Dz1enV094ej1POZenTuxZIu8MreDPNoIz7vOv1q77ZWoOy5mrzw4E6K7vmUOPWsdCTxqzaS8Wls4uih0Ljw038G8aS+9PHy5yjx2VIO8",
                "Ge90vF/lWjyum/m8JK8PvdOYhT2p6EK8waBovCtZNTvi3AQ8YzqdO+TYtrzklrY753vYO+aak7txqO28H0ysPKE8MzzYjAa9O8clvJHhLLzJHk29W3SFvNUH7boj15O66ilTvckcpTuCG527RrgKPAY7JTwYpri9A2gHvewtijs1KPa8btVdupiPg7v84kk8y46BOziIi7vB8AG7usJLupByUTzyQTO9NYVRPRuSZr0vp0K9sEmxvFQQijvVQBc8TOK1uwWsOb1MJNU794x/PGkqHT1upC88SFPyO8UyqLypPoi8L96xPEc5Db1a0vc89f3QuwNwfDsQQIa8XJ+GvCOQNby5KFG9/rn7vD/S0bvJCi280rcovGSzBT0o4Gg86CRHu9ET7j34Cma8jM01PFaF4DsJ2Ck6XMO7PCI5MDyyuxk8MjB7valsuzxHXPC7pUhcvCKrWTzAOvS7cDnjPKD2gTyhQeg89t8KO7frU7zQXfk8vEDau9sYA70zehG9w49wvMkh/LwWBAU93KquO4X5NDzZQEK9+WwAvAWhCTr3Jiq78csIOsLqPL39+t67PvPCPNUOHj3VvrI8k5mcPEC/Qr3B05u8HddVPUu2BL1gnZK8ATBFPR02kLsObmQ8vPviPH+z4rw9A8A8IdgGvBO3Iz33nfq8GViKvUcTnbvSF6c9xEhMPd2tnDwvTqG8g5B7vHv0/rxxTJA8EoBYvclugrxQ70Y8V/3nPNR/uLxpAn+73PsXvDydwLwBU4C9BINAvapE7TyxkyI8E8C6O4RVVD3mYd65pe5lvAAHOTs9HLm8/51APRZvmzs9Qoc9tLRWPLLIWL1MSKO7nIqYutDEu7soC0g5Ig1Xu4q8Db2b1rw9v99FPKeh17uRO2g7h15EPJzOmjw3wOS963+VO/y8jDyrEK6+ZGODu5x8jjyWeJ+6u76wudiqzrzbJz47jd65u6LJBj6kS5Y8VSX5u4tzgzky5Ya7dlduPDZL8rwa/4S5VSxAOn9nD7zB0B2+",
                "x7MxOxs5SL2Bp0A7OpJZu+XJnbxaZNU7T0SvuwWLxbw7lJ68RbxHO08sgjvjzJA8bP4buqlvbDm2RfM88+4wvOIvlbxrWq87+vHrOzbPr77fyWO8dWB9PP6OBjtynrU7pvLJvFxD2Dxg6p87VS48OxAYW7wMbDe6wc8UPLaz5jwdzBi85i/FPNzxrLvNBSG7RvIFPDdsg7wCwCC8C5oiPHovuLygr+G7vVqoPIKewzwFz528c/nJvAfz5zskZYM87Dkuu7hz2bwtv4Y8bBy2vB7kljqnlkg7gfJCvAY5p7yO96U7PZdiPHScUL2j04Q77Eu0uwjwjDyVHRu88+4VvJvVQzz6rW08ZXh8O33vsTzhoPA7fTGwPFmZ8jv5AyI8E3fsO/dUILpyBme8tu98vBy9krxmck294Lm2usDiwbsBkQI8keVavEellDyrHQE8XAT6O350DTwnhi+6gsORPAyLJLwLNei9UKhBPOaDybtUaN67CwaUuz90GDuG0Z47ZJjUu74ksbuWGly8RvKePKJ9KLxp3Na8O12ju6trULyQI8m8WpmSOmNymrzKV+W6H6M6PN6zADwltge68OpfPC9tqzymSWS78vQZO1lLYbv7ZEi7E5qUPn7jszvGDBE+X/5iPHq817u4JOm6pKyrvGE8wLx1Du25qmsIvRLh/Dw1Uza9hiX0vPSguTw+iTW8CSmXvZQPGDy9lAO8lXDgvCEAJTwz8nC8yhS4vD3FID62JSm85FXHvB1MSbzWN7o7S6mnOf/GurtpkVO7cSmdPPT7h7yXdEe8L2NuvcygObwWRak8YJODPPqODTzknA+9NYwBO7GtW7zjJlU8MlOdvEsPxTwAIyg9xtwivE8U4LyE43q9DyvePH09S7woC247wG4+PF9MobxauVM8xkr8PJMT8jx05xu72b0pu7vSqTwDpb48/XgNuYww5LzwB7S81beWPDtFkb2qYAg85/QyPCnoIzyGq427SShJPU7KYrvZ7Aa9G+lCPPqbPjzfH8K8",
                "mzyMuxmvY7yO+r68S9CsvE2VQDv0PWE89Pewu2M4Tb212++8ihBKvHpnKzwdl7o5s2dTvfat7zzemZk7QySZvE/Farwqwi67IzBjvGA4ory41Ha8Cnyru240FDxlAWo8d7BqvKpSMbxH2ka8R4bFO/IXUDs3num8Alu7PO8J0jsg1lQ8//XZvOJGFzwiwIa8hnabO2tpKz3JFRs83h9PO3/S5Lv3sCK6isUOPAymiTv+eLQ8fbikvA0gkjyvEJC8xSuFvT3GNDz+nSe9bZUCPVTqfLtAatm8/AmZO6DDqLtvCys8IAdevJS/nztm9828WBc7PTy24bxM9a+8YDBcOwuuhbzn0CA9NkRPvCQ9F70KAiY9LrQOPCZEvTug4wm96uBfvdxR5bz5jU88/NluvaRDK72HBB28vbmoPHZXpjzSvNk7mfgMPq/y0bugLD0855LxvDhpG71rll28JEAiPBZuebyyxzc9mxbtvNebNz2ok428Zc8CvYjzWDxOCoe85m7wPCKZlLyXGci7ph5hvV7Rujz2A3M8e4aMPWWczDulXOC8MmXZPOkIpDtRyTm8O7wOu0cTIzv6aRO8na4HPVHVgryvLyy72d/1OwS897w9QaS8NqvZuzPIp714WLo6mgYFPFmWx7vepfg8NOfwudFEeTrneVY8486KvDEtr72fYxu8Ic6zO4ae67xmvMs8xuaePBWQSz1YTRM8/SGPPJ11+Tt+TTc8ER0jPLtJl7ziO+g8dQijPFrgyLwi++85rtmeOj7yPbp3nyo8cL+Vux4lbL18mC68mKzWPHmSxrv9szm89ZC+vFRuyDszVfq8LwJhPd6zODy1S588cLxWvPrMLDx/50I8AeyPvMNml7tfvrS7ADQSPaez7rwX0JG8tf2hPEcZjrosyl+696IvuR0sS7vZcFa8xz9MvWCC/DotnSg9SSmnPHy6A72XAY48eFDnu95hTT28JAi9iU4WvbakrDyOR7c8z6+SvA9A0bvDVwo9EKUUPTYfszuBtME8",
                "eCchPfPwZ7wVqWg9Gx8DOy9LSrycc4i8cl8PPDo2zbxwKjo9mDgjPRjY4jxzaiy9Sf0aPOX6gbwbNWu9HNe3vNbm8junjgy+vqdNu7RO+DzZClA9YF4JvfaY4jvahWW8focpvOjjAjxufOK8qHYUvPF0oDx82Bw8bQxXPJ1d97wUoYk72OqXvCJ+NrzZEpi8qZhbvG6nUjvHzwy9s3+DvM47cr0MYYa8LizHvLJFBrzo3/68NoALvMLmaD2C1jI9uHZxvCdpgzwDltq8rDvwO0w54zz7iH+9t487vOHaIDrx6d6801xfvTJTzLz/YRw7mbgjvDVG9bzFOiO8/W8MPfl1orwMl468Lvk2vEjcnjxaedE8BDwNvfr7Ibyc2Qy8p2IyPBPBXbzfRry7LaQbvGaHMrzIaPS8rZuBvJ4IqDy2OkK7gkmkvHaRNjvrwXc9H9FrPMHk+bx1M0u9N4VZPM6tyj0NlJm8BM+KPKCAE7zzH568/jtwvAyb/7tlYqa7jNmyO16XiT1Y4c68GxBWvMu7GrrLyCg8O8dDvTD1+7yj5/+8qSmQveAEMb00H5A8yDfeO5UnVDwxKxA8tuYsvXtOhL2R6CY8mlX7vLtumbwpyfm8m0dAvaUmlLno/JK8C93zuteCdLyE/X68ruWHPIryMrqxBfg5QcHTPC3UwjwMNsM8vyisvJAegrxHlZU8KzPhvAnO9rl29vc9fFQTPLaeEruAESw7g9Lhu6s5jjwlGCE89se8uoGvRTzxF748fO5WPOIOojwdWrM8t7qWvGDeYLy7Cam8M/43PUKsjb1klkq9z3w1PLbVObyeiPI6ZfqqO311lr0HIfk8OHYkOlZtuTt9GEI+Epa8u/IvtTxNOzY8xOwAPFrUaD2E4tI9YRsVvH7+2r3Ff7u8fgsPvYygTbtAQYC7zPqEvE99rrs8R5Y7KSUXPQ5rdTyNpT8+4i4aPAwV0z0lUtK7xifzvCt4JT0APYg8M/6LvEYSa7xyMEy9RKeUPMwaTTxxaZi8",
                "uNG+uqnBNz1gGz08YpIAPHqzVDxILb08L5K8vLnQjD7Gqsc8zzonPOx60bt92u87LHWVPMnOjLxkJfC8alq0vArV2LuUBzY9sa9GvJfkGzuorT+9RgfiuXk5E7tLVaE89TlqPIdIqTwNMlK9zFpeu29pJzyaxqG7KaQrPWIaED3hCWw8rhCtPACOHLuoLam8mhxoPMqgbDuiGqo6uB5mOzMPeLx4w808F5DkOn51sbzm1227h3mEu6ngqD0QXFG8NifGuhglUbt7l+w7pjIfPCN2GT5zYfO7cd3oOjBODjwjAdg8W+q6OGRtHbnwVik8pSWKPLVElrz3wty78Dm9O2f2Qby6q0S9MizKvGfqajzOU0a8GVyIPJe/0juZBJ47HjWFPBV8fzw8Epo8yvh1PARXWTva52y9YAXwPBkH4Ty9ZUs8JszovPd+OTzienE9o8+DvNjA7TyjsQM9hQPnvKi76TyMM3487pGfOxBSGb2DBJO8h7mEvMjjpTucMJ883E7RvJ/iarxIFiK9zqCQOydWvLrE03A8K+YcPM7ZEDzMCqa7LIqCvmGU3LxZ7aO+1t/ovDLDyjvGbB69KyUTupoeCDyMwJq8iBfCuo6HLT2xvyC9x3kxPeViAbyc6hq9cGtNvK76gLyLz6G8qFEuvP4W37wDJsg8PKQ+PZeEaL3837s8eDTwPJJT0btXu+M6rjWnPIGN1jzsbI68dPnnuVLeXL10OKI7v2o6PevWIDzm70Y5Hzv5POSjhbkN9Ei7xdkFO7zFvzxITM68I9uIO0UdWLzsSuM6GJTru2vUlD3ZXHY7hBGfvfJyrzy9qwy8EVwBOrpotrpeOlo9ivEBPan/BzygQIu9b0MLPULIsLs+f6K8eyGMOlzBjTuKR9W7XM+6PAaZgDyD19W7IUeRO6jX8buFfty6JT/1PHHTvTttq9082rwBvJahzbompXw71o+svH9iprv2OBk9PvmAPP/diDuReDq9zw8BPavuNjuPtik9eJ6vvBmLiLmGnh48",
                "qD4uPAIrDr3ytHS7bwUEPe7VXDw9W2a9ZI33ufpwqTt+EEs90q6JuwHzBryh+eG8IAnKvSbZC7yF7xS8is4vuxB4+bo53Dk8bmqHvCw33rxvTky8mkGEvJtl4jpCepU8pP+9PA/8rjw9N9A8MOK6PGdkcDwq15W8nXKNvNOq0LxtxsS82aKOO3J2iTx9i8o8/piaPAYADz2P26S8G9kAu/7EH71mpt88KG5FvAXz3LxWtI+8uiobPVuafDzR2fw7uPtvvMHHWbw8nJU4XzwfPe/4zjsRBEa9lXnmPCilarxFmTO+hrGTO8LHxTxHiai88E7jvE949zyy4DU8TA2/OrRBGj3DkSS9lPkSvNWJoLxHhLQ8ePE3O9+rTTxTIls8145ivP83urxpqrI858PdvEfMwzqicLi7gQq1vHtegTvSAX49IMInvfv19bzE7+I8WrolPU8pkTyUpD68M1iwPBYBP70TKWW81whRvOPvUbz4tis8euihPMvznzzLHro8mM7TPMQWF73INjE9rLWivCA1E7z4s/Q7IOPfPIO7grygqua8cEhSvZrohjxUFzK89m7mvCxT2zxuXUC7zlUjPp2g4bzPxSE7q+o6vDlonDtXFla8szrvOwH0oLzLZu47iijSPCb2JjvHXR07n4clPAiaz7w4kdO8BU+KPEtJCrxHbKG6IqI3u3upOL0LueK8i/YyvS7g97nG3FC8Gbsivelbkby4XiQ9ep2HvOHtvLz3V4i8ORbbvPbYkrzlXdK8QUe1uy+zILqlU0k7VBD1O13LhLxUZGC8TjdPvM5FDTzm1Om8HkSYPB1QrT3fDV08EPQlvV9ZxTsKqBu8vQosPCM9Q7wb7Vs7gN2xvEQm07y1esG8CJOIvKzOODxOGLE8h0NrPBRNlbwzPAM95MxgPMFMZzxooki8ishGPf+DwzxNkYi8hQoBPDx2przR7mI9+uEEvVpJ7DzFS/G6vaunO19i+TznV4a8P/XMufYCGrwM+IG7VoXbO2sHizx1QQc8",
                "IhOAO2TdIzzyOTs8Kxc0O49dwrxFbDa9gs1zO9sEjTobtFc8DVo9vKrvHDy9rHo8J8Qyu2X2ILv6GTm9ge9svZlzp7tES7q8c8sXPb8/bL0hlLU9di4EPeL6mjyej4O8bUQXvJA76jyFqPc8ZrhyvFEk8rrlGwQ7NfeEvI22DTyCcXS7zOWyOzaeTD04LSa98c7Gu6Rt8Lp/cCG7u9u6vEYzQ7z2sRM4GEx7O8CUdzzsWCI8MW2FPGi/dbzUZ1S8I5cSO6DARb36pba7bYGSuoFLeDuYh4Y8CTofPTOPqjziHqI913h4Pa/fSjz5Qfe7qdCUvDf9HTzLd5M8EoWgvO8XrLyJxbu7HjUDOwb+ADw/Oji8DaKwPIT++Tt2sLK8PSCdvFnV6Dz51qq8JHumu4QeoT2aeoY6GdFJvC520DwiDZo8yF+EPKNugT2eyJ08n70XO6coSL3tdae6lr2Gvc+P0LtZVo09UFz6PEgLUb3Ay9q6a+UZPaDa37ucQFG8jQCxux081zySIHI9YseIPD314TxExGQ7KRZ8vC6g1bwz00o9+AvbPJ+1p7seHAS9AnniOw8TiLvNkGm8u3hNu0RCCTuDTEc9uwioPMYVPTsldso9pYkFui56ZLyq+7c9bEoEPfn0tLmZ1wc9t8ycu4OJRr2AvpG8TcHLPKOjCT1Zfdc6gea7O5COCLyxrtY8Rws4u7p5wTwFj9e8IRdPvHiYzDx7Kea7GqPUvAYoBLyFDgw8tiM4Pa2IdDykgmq84yyMO2/nHDyyM2e+t1mwuwaAhzwDJm+8c27ivHOgKbzsWC083VNCPad/ATtudNS8HRcDvbciyjyMeO289iafO7HV3zvel5i8vVPyu2VLGjwRYP08RDypvE5cZbw+4PW61TknvGu+Fb09rMY8qGS5PB8C1jqks2O88Z2jPC8ezby5C6+7pZolPFtoVrrebLm8xd0QPfuN2rtQKoi6L+wIvC5s/bwvLEQ87kuTvHqJoTv/nVO9n+1WPP07u7z5CkE9",
                "M3FMPLwGYr3kj9C6fBhPvFdzb7oyER28wMMfvZy1pLsWHZi6t102OiSFCLyyNOo8F1sLvIv5ubzrfhO9sh66O7G1vzy4vYk8I3Dju6i9SDyG8OC7fDQNPXuPYrkzFcq6wqOZPOxu6zxKdic8fWuvvHNP1rowAT08kq/hvGVqzLr657A8k62xvB2JDbsf/eo8rii5vJhrlrsXaK08c1qfvdY5tzytGQi8wT43vRN2mroaF5w93QnDvNLUGr3E+J88kaq3uyCCzLzLtRm9eLwMvaSuZL33xWG8jMJHPIkFYbp0e5K5zMmKu7S7TTx3Z3c87kVhPepmk7owMzc9/58PO05EIj2fPpQ8KOUpvOZBHr0BHI67sjkMvJf/GD14bPA6xsyEPPJ1r7whfO27O2+aOloi3rsgSyQ81FkHvclwtj0gyIa7bC2fOowWurzBEGg6DrgbvG6hEzymncI8arsevYUVAb00dzG9qJRLvQb6V70rfwW8IeVIuxYSJTxh7jE71yBRux1JCj21DA68LqVoPRMwPbx6FJ27cu8LulPWgTs+Zw69BkOmPFHJKzvaRh28kByHPAoaSD2HzhK9zxChPJhRAD4fi6s5cIuSPFoCtjyd3BK9ZEM8vV++KD37Io28qneUvDP3JzxUolA9puGgPPnWkTzXjBS8LPpCO2yXkDyR12g8Dn6bPG1PcTzrOoq9R52HPF4A9DumNA88F7DJO2lJ3bvUKsE8OCGjuxQgizz0IFI8ZsiCO3o4u7xdiPo8smjqvN3aOLsQ1le9tr/vPLm2AzzcREo92TzQu7hZQzxFqZS60MiUPKJYH70P0Cq9ybu6u87UyDs/TYk5a9u5PacFmLyeQec7KrRrPBrhrbtTHwi8lOO6vN6cQrxeVpo8fS5MvEayCTzfVCq81Ug2vJdc2LxiGOq7cN/ZPAL0Gj1ch2G9K+c4PMJr07w4myc93WNYPJ5Rsjsbf8c8KYOrvNCp9TtI46i88bnaPCjKnLxfG+e8zdukuLmAgbwnpXI9",
                "yaMKPMLBGz1FmuI8H6U4PCme4zzwe5M80YMpvVNYRT2Okxe9iSSXvAE7w7tTSG88AT6dPPdHSj0Ir8i7pKYxO/KQGj0pOUU9d1N2PasATTyHE/O8iIxCvU4JaTwVTgE9moPqPC89gTzZqRC7qpE5O5mx4ryLqhK86mSfvCVFJz0/lJS8Eq2IvX0ahLx4Rfs8rtkPPQxxc7xGqEe8+gM3PclQtjxd0pY87sz0PfYrhz1zJ1y+P3ooOxFNGby39c+9G1shPBiMKrw6RXU8xOa+O0Fv7rso/Rc8mHavOj/JW71nxqe8mzyNu9A1NDzV0bE8Vi6avB0k3zsgrzg8F1fFO0Fj/jyQ3Bs9h8fQvISQtb2as4s7f8arvHbDObzrVpc95Gi4PIeJKDvYPem8ZWTou4OGHrx8ERC9E8o2Oy9hfrwXZOw8LqQTvcMxfjvuUPm7JveGPJSdSb2z5gi9iGJyO+iesbtQ6cS8qF2rOpA7oLwF8ew7xCl8vChyprowkmI82DP4u6nySDzEb/68r08GvTwQhzuaXBQ8ERTju9VjL7zFx9S84hxuu1xDCzzhi/E6nCjhPMwRKr2h0mE86xTaPN9Fgzx+ThO6aHafvG14Ejw661u8jIi4uwVAZ7sjWQg8QjiPPOpTkb2ZGpy7eFvJu9whub3p/NQ8iKOOO3L+FL1KWzQ7Ez50PFy5Sr36Qnk8MBbdPIR3hryjRNY7rzfUOxHk47u0c228dfGKvDYbn7tEH/84tpjmvCCgfjzg26k8bqQQu0Lgnrj06Q89tC82PZ4Bh7uuEYk7ZMSvu/72MrxczzQ90F08vVddbbxPm3C9UubrOtpktLzQOlY9LJOVu9IDNbz02qq9kSOfvG5h3jzuQgC9nlq+Ow+kiDwoYxO8oT9hOzBHtzyY4gC741BMOvqsXTzqmiS8GKsJvfLV47xr34I8peeePGmOEr1Fvp88oWMcO80GP7ufibI86rufvYNRV7vZwa8+GcC6D2souw85y7qPAdq6j0JLuw8Ws7qP",
                "BZS6j53Buo9jWLqPu2C6j0A2uo9FmbqPv9G6j/lpug/LZ7oPtt26D4pXug9lWrqPH2K6j3PLuo/UE7sP9dG6j1smuw83+rqP5l66jzsZu4+RxboPypO6jzFcuo8AQ7qPmZK6jzMGu49477qP8US6j8IVuw+L4roPMPe6j7z/ug/BbLoPjDS7jxrvuo/gAbsPqV66Dwkpuo8IxboPGT+6Dzfyug8E/7oPhXe6D1cOuw/VnrqPZzm6j7Iruw/WI7uPSc+6j00Bu4/Tc7oPRY+6jwM2u4+RSruPy6W6j0qeuo91drqPKxi7D0NNuo+yFbuPX7O6D9fnug8weLoPTjW7D2wqu497A7uPEDG6jwrKug8R8LqP9iu7Dz0ru4/Xs7qPpJC6D2Ynu49UW7qPcRu7jybCug9ci7qPFBG7jyRjug8gILuPXuW6jysoug+DjLqPhZy6j9xDuw9gl7oPySm7j6Iqu4+PDruP8ja7D3iauo9wJbsPlKa6D8yBug/5S7sP8uG6j9aGug8yC7uPW0K6Dylruo860bqP55m6D/lKuo+XcbqPjlu6jxaxuo9VnroP6n26Dxlxug9aHruPGyu6j4FTuo/EVLqPL466D7Nmuo+I2LqPLSy6D2bMug+r+rqPH0+7D9qfuo/rWLoP7TW6j6zouo/gO7sPFz27D1Myuw9Ug7oPZAm7D2sXu4/uJboPh8W6D0Xquo/1s+W+HJXXu6vm1bwQEsc9sVNxvDtcIr1RYcU7ffr/PUP4jDzeWUc87P4UvRHsUT2jaPs8PowSPVPX9rlBXdi8ih/ovOC4QzzkMlg8vVgCvZ+myrwcaww9FHrxPIM6Dj2k3fE88D4YuwfcwbyvhX08mSSvOw+4ED07SWy8SvXLvN+2I70FQOI8m2axu3PYgzoy6e87+p7RPLk5Irz4Lhs8E2qsugHMZzyqyHk99sYEO910aLx3KpS8GMiLOf69ZTmUrAq9gue2PFv1nj2MKZY8bORxvKqATb11ANa9Z4COO0Z3vr2/VOI9",
                "HmIJPZAOGLxyagu8znMYvMN7Lr1f/6E8pvEIvcn0b7wtCQE8pR2WvIBDoTtDfJ47l0dGvD4RgTziUgY+CTnlPEyBCr3aCpm7ICgCvTvvhLtTq0e9NIrevDS4rDyVGxO98YWevbPKFD1JBmS9HEm8O9+Rbryxtim9HbS3PLgOIbxzGZk9h/l/PQyy6TvVnba8scSevK4NGD1VrDG8eL2jvIo27T0/WjO8g0VZPBfTrDtNaoA7yFSEPNCw8jwfLMQ7PXoTPC3hlL1Uebg9PyIvPfL5nTv9exy8EMeRvK2h3zwXwRO919NYvSppAT2hO5U6A5ptvYJBHjvd24m8bSkZPSe1kjzGCYc7AakrvCvdfj2Yjg69cfK/O2FU7LzVbaW94dBIvTkEnrwo1Yk9V1oevJghTLxcor678YkVvTj83D0aGzw8VU53vBH6p7zfBBW/XxhYO9IwLLomVbY9spkNvBszvjzHFi09P9jkvAz0FTvNlem8ieiaPPNUbL1AMEE7y5wMvLUjK7x2OF68zhiDPQWN5DycEII737QzvO+Ubj1dohw8Dkn5PGYEmjx7YUA8I9U8vShpobvKtqa7jI3fuiUv8TtqMcS95fnwuy+NkDzVcr88D52uPE5r4Tyla688GupKu5QGzTzAcZA8ryH0PLn8QjySJAI8/BnlPKizJb0PA8Q7mkRYPcnw/zyVz049mO8CO5gcAjvPzn48GLloO4ZEnzzTdhM7UvTIO9ijibxVfTU9zpOHPBHiqTw79049OT5rvGkK8Tu7mAs8EPEDPX1xCj3mXV09IOpqPSWWELxPvxq9f1NDPCnXzbvwfok7dcISO24AMD2854s7KPRkPZfzIb06/hy7A3x8O23yFz32UjY9pgczPafTkbo4YhU9/ZUTPfwq6jw7noY8XUZMPex39zxnsSQ9VqbUPPDMmbr51ju86Oc/PV0x6ry4nIk87BFpPUFP6ru3D0g8u5Y5PFYWYjyHKXc8nY+rvFe86bv26Mk8EClNPUZrMb3vzM48",
                "GvYXvXXr4DvQWWa9dPGMPGY7Zrw78/28ckQKPItx9run0qq8KoYWPby2hjxwTIO8wEfBPGgX1jzAQUK6ZljlPI5RQTqV4tI8WP7vPOSrtjzCjUM9uyUavDDU0jwkixs9RWeou3N4NT1sonQ9dv2gvP15ezy29I880nXdPeo9MTyq4Lm+B4O8vCLycblLca67wbVOPCgVbbwFWZq8RaWxOx6MEb0OGLe89GqNvOfHhbqov6S89Jt4vNdmhTwf3RW8TZzkO5+xC73N9WI8y4xOuhTctLw384q8NSq2vNYzb7plTro8ksMiO9Rcez3Kzpe8jKYDPJIzurzIFsy6EZcIu/bAaj2DzaQ8PDUdvBgsKr04p+I8Su+DvMoqVz1Oo7c8aMmMu7qECr3885C8iFS/vDap7TweIh06beS6PB402DqZ7Qg8gY0pPUAcND2uPMi84fz7u8FWA7xlec07f0oePOgQtDuVvnW8kKADPg5uN7zvWTa8R3GOvXApIDwMY/68noNlPHPChLy/e1K9cSQZvBeP1Dwh9wY93J/3OmK4MDudMZS8AxuyvAltebxNWCS91lviPG3GcDxjuAk9vY7evCTNj7z++Z28qYlSvM7pQL0d4IE8N78aPLkn/zx0lqq8DG/mPCST+juzeVi8TXNSPQw+07sS0OC7GHWvvCmCHzxMLLq75ERJu/B8grwwfWc85EdIPYaHQ7xw08i7ve4MPCgo0bwAPjo82h8juogxCrvmEGK8IEmVvEZHuLxeu9k8BvXpO5AtDD2GWxa8hfmSvO1ID7yfQ6+8GH0xu1VgpL2liBa7OOSsPbhu5TzJuzW8dARXvaJyIT3rgru7agFFOwcPk7y5nrM7HJeiO535ErysKNq8FO8qPEKn8rywzIi8ogzHOxBkBD2ZnUO8A9WdPCGWHT2siea9UWt/PLKHqzqzjis8T1DaO+Hd8LrkaOc7eRoDO41+J7ocCFO78xUpvKAmV73PsVg8Bz23Ox3Unzzdpn+88WNEumegB7zFAeY7",
                "gUt4vA+XxjpuKvs7YoK8u8Mq4Ly4sJm8PymEu535rztXLUQ8TJ2oPKJk/DnYme29SzDBO2pXUjlezTc8ioLTOzXo8DuOZxg9ow4UPNAvQbsII7a7khunupOChr4gM448p613u7oYlDv5LOc6CU60PDNaTry1AXE7hfpjOzAttrsRuKA7DKQ1uoRK8TvYc/s7oM8BvJkhmrspCOG7zfdjO5MenzyXbUU93xv2usXyBz219ok54Y/eOxenhDwQDVW788jLPC/XajxYkio8qGYPPA4047sKFrI7puigO0JKTzwpvbW7uJxlPKV/qLzROSO8x/TUOqosDj1dQgO8g8KtvBs5jjy7mko8yJFcvNw1kT5DZjm6ATmKvACkTDtYp6A7xflOPHearzxlsLM8J+fDOioejTypg/c6Ye3Tu0Iwn7wWbte8kQ1xPFW+Z7yMgh08LOLRvOWgbjw/Z7c5DuL/OwXob7tOx4u5jhMVPGVyyDy4E6K+coibPOQ5X7y/Ax+9th3wumFt8bpCKDo9OqmgOhxDqjtEQ2O8DCuFvKi26bukn7A5SM9APOftx7w/7o46EaFuO6VVGLw+Vz271+iaPPy1zzxSE5A8SGejOxdVXDo2GH+8IuFcPBVxDbsi6vg7sjJzvMqYxTxiYwA+/LZ9PPIqWb3hTde7lxWYvNIR6byYUz+7rrysPP5pNjnlFPS6bwzMOb/M5LxjBIc8QGQpPPjzcrxcBSq8wi7gOzFjTLwzTmg82vM0veGXebyMOWy8TQa1OwDEiDvw+3G8lliAOadnNTxtpjK8xahSvSZj37x7k5G8MPInPQgkZr2De3k81vJMPMyp2LsK1Ku7g6nMuwjEWr1PgWW8P/ikPewgmL0S2E29YAQrPdL0dTzigBg9RRkGvU3zvryxUhO7yuSkvXnQjDwKjHc8JUGEvdY2Ej130E68gePPvDrKg7wss6U8c/D2vK5wBL1jx967vNMQvAw68TxaGgA9fjc9u1hsOT1Bx5K8ZaD8vDYUL7wN7Yc9",
                "9ZzGPPMcubypvAY9/OXkvEtoZbyWuQu9y1w6PcKrA7xZUj88+KBhvV2LSL0cx8A8dj0vu/o7eLx688A8uNfFO7TsLj2X5U+7ranCPNXiJj2UhEE8zo/jvA/j0Dxamn28adLJO4XHCb0k97I7gOkePQdIOr3sapM8QbegPKxitLwSCUM9+viMve5hF71G3mm7R+KtPDxTozz7LxO9WFgmvEbG/juk6qI6xGN3vCBUjLoHtaM86cKpvGha3Ly9IAQ9/nrHPGzBMb3XSmu7yWIOPf+yF70yVte8S0CgPWgjcDy/H9m8NAmhvF9c0Tzo8AG77TfSO/S82bzf9qK8RCUqvMLxJL2nqxA9QsOIPJRcSzx51AG9DpvaPclKkTwVHya+0sAnOxU8Gbyba/Y9uxVbOybyMrw2H2Y9hToQPejjO7w2x7Q78m7yPG8TS73Eg6S8j4aZPGA5Z7uxJoU9cuTxPCeqhju1Cg28qokLvWBeEz2vpMa9KfeSvBPwBj5Lnz68GuGgPO0Jrby2Lak7ikEFPYk6Xj3O5OE9qckHPB+rYbznsB08r23JPN6kCL2BnhQ9yN9BO4nxwbzb5sC8C6JpPIh9uzwN5G88JPWGvEr5zT04BKO7+xo6vENg2Lxz8jq8xdtAvCKPw7wZJKw8PNMkPbbq7jxtV3S6bY+xvB2r6TwzESM9y4uTvKQ1jDvhrX48flWCvIOU6zxMoBG8x019u6A4iDw7kg28T9igPFZwX7xebQA9Wmb7Oytkcj2os988A4slO6spHT36Qo27q35TPKfDwjpjTEs8Y+AQPMh8MD2RO+U55kA4PcTwH7yZ0uw644gwPRNnCz7uxRC9hK5SPREiGTzWmqU7u28mOx0O8rsm3Rc9yJ/lPEm3hTxghRU905rZPH3PJD3Sve+8RIPYPOdmaT2iUrI88SbevPXXFb0P7yY8A9XgPGjxnzxZKhk9XIhJPLvyqLx4pjY+0kOyvGnf6bwfeHI99m0qPZmUMD0IZnA7KHSHO2AFMLxkvRA9",
                "9uo+PRjsUbvKWrO8uB8CvRayRbnJXas8hBX7OgOcLD2o89w8c4YsPvY/h7t7YIk8ApWHu1munDzsOF098xgiPTfQCz11jgk96ThZPBMIuTx+ovQ9uAu0O+/Niruv/z28sG6QOsF3obwVZ6g726MrPciS2zyJxBm9jnm3Oqh4lLzakka9QKlEPFFwLjwfUyE9VgicPHewwry8/Sm8Zf/7O7SQB7u8Ge6886qIuvKkJLxxFzc9CBCfvITBljverjq8F5awPMzHrzufmcg7UMgXO9SzHj69sg+9XEXEvDJrRL0RG5i8rwRtvK6CkT3+mV09YndJPGJNmrylNjk9tJuIvc+qQbwTX5I8FCQFO/nTSbz8PLk89sOOPOOvAL7R2Vg7EJtaPDZf3zyhHWG8MtsHvWWPzLw2Mvc7uUEcvUrGBL17/Fi8ilQAPXDslbydVIa77WDbO+vavru/J408Uv96O8PuajzOECo9FlAiPD3Ks7wAjlK7QGcFvHEYNLy9g7I82G7CvCXtmzzR/DQ83P/IPD22GLy5Olm8wRrRPKdCp7w/P0g8DluKvLCLd7te0zQ9aewwvNsMczzqMEW8//7LvJURXrwDVMU6k6s0vcYxoDwMlbY7T6gIPCqOtLwobtm88+aBvKVpiTwvI1W8M88rvP8dgbxY4Rg8+YptPNJVBL0I1RW8gcoJvZYgpLx40Kk8mLOZvLWA3bub29K8EeOBvNLkyrw79YO73g7cvDrjorlIvQa8KLiEO66whTzk7ME8jWSAPY2Erbzl53E86cv4OqEWajiBoGa7oawKO4f82TyVh2s7zbA2vctsIzwdCpm8fHHKPBRrWbmoYUy4jvGkPKFWoDxRmmq9QMrKux/aHry8rWS9OpUMPf/iGr3wLqI88LYQvTRcRLwgK2i8L3aBvBU+LTzt4d47lb+zvPBNfLxG6uG8WCMOvZG6HD607sC8yB0CO9XD+jw25MU8QZPgu6XoOrwnl2g8khcnva5zozxpycc8VYgqvS1QobziOpM8",
                "Kb9GPP4AGjyKiCq95ibAPLP/IztE3bw6Xy7TvEtzizycwue7BQXnOsQVCjzQlgK9uDR5PJFEHD1RhtM7LqTQvNPeL71ArqY7MkWcO4Pr+DyJYpk8FLAqO5/D6jt9eie87KfuvBfLILzQdJG8vDuTvMo8MzoBmyi8Pb2bvCKWG72DyJu8eqblPMVE/Try/oY74Vg+u0/cT7yd13U75yJkvGNj27z+nL67IXOhux5AFzsVZL08/cwQvCeyiL3IqGk8uB+6O0Y++zxmE3I8d6iEPD9Bmjyu4Ie80U60u/quLr1Uj60836GrO8dcgL0aLmG8ODkSPDpwB7wJRCu9qaXlvMx5Gz0Zk5+7E+acO25JTDzQSWO84RomPVBTJTwUx1w8GE5Mu1bFAbrbhBU80DWlPFY/zLr/3om8UlMwPNyS4rudCb68yGOcvK0ElbxKkXi8sZqYPOhkGT3DbKo7CzK0PK098rsiWIi7g2iyPASanjvcH9o8gGeWvO8ePT0Wgbw80hToPE+q9jwTnbe81LE4PTYldbwAzxw9SmI5uyORcb10t6q8Pds4vM8mnLsoRQA9tgQmPRfGqbuFSwm+Zw10vQQ+sb1q1VA8jcwHvccC+7wZEUS8X7U2vG0Ljrw3PJG7GHkwOx/kDD2M5QC8R0NZvPxdtrZsPDo8QFEMu2A94rtZSYy8/HW5vA1v0rx1vic8dzCyu02lV7rgToE9/7e+vFsmAjzUbHY8H/ezPFPlzTz8TUO7COL0u7wDS73CYM88fmg5vNXruLzby6U8uDgNPWSwBT0p/DQ8JzNBPOq/Hr1UdkQ8AGtLvWmHyjttaFa7vJ4+vPnjs7x1gIk8UG+RvFjmUz0TV5O8iArnOxmOB7zrmTM8zsl2PcwqkT3QLYA84/BvPVeA07xtvWi8uT+qvFO/2DzFQSg8+948PbnLOjy/r5a8xFJ3PJubDTy/ES295qVfvPeSpTzS5N479V+4vJ9MEzzQngA8rJ4BvVKdAL1yhiC9wEMQPVmawDxT6xG8",
                "k+4pu7EvlT1WW068T+idvJuabrwWbzW9D5OhvPAniLkeEHo8YjgXvAeI47x1LZE8ppiwPPOn9bzK0f08jYmkvPY6WT0qMCe9mD9avEhFdT1Y7is9/msFvbLywrxfjsQ6HXy0vFIUsbz5YYi8SzmZPC7TGzyJaCI9Eb+eu8cLMT1x/tW8kVi+PCEIwbziEAY8d0IivHJxgDuXYha9T4IvPeqmADzj0hC8f/qRvVVqh7w6YlA7olLtui3tJTyxKNw5sIttO5a+vTxXTa+83ZZBO+Zzojzdjoc7BhkNPblGsbqvW3O7GJpsvLJEBDvpv82993f+u7q0gjyUm2y9jYMuPAdAdLw060a8eiQ3vSMoq7zn+fI8NkYqvPlacT1Nh9Y8kKfAu+X+Yz0UPPS7Re3BvLiBGz0ssyO8JYw6PBfqzTxUJpw8cMNTvcoH+rz2Ti68Z9gAu3j22rywIrW8yEmZPCRXbL3d4N67S5CPO4asAr2SuZm8Ja6dOxSoM7wY7J28MMI5vUCRPDxZa7U7ZrYiveFEsDzYnxg97csKvGe+kbpt7/A7YVXAvL6Goryjzke9c1G6vO6VMzsHldE8DewSvS3DurwQilW7agk6vOehWLtZopk5Nn94vKv97jv2P+g7e9TcvEIPMD2B2bi8paEbOxLElryv35S7VjIhPXE3bLwkOcg8RGqlvGsLlrxlF3E8+4+Wu2gQD73QK0U8FGiTPcE3Fr2rSku8pl8Xu5pRULwCpN2832wYPZOi2bwqwCg88n6pu372KDzorpw6DK3yvIYP1Ty+dww8k5KAvPucv7xHoJE+52A2Oy4ueTzNgX88uZw3vQliw7xHyug8apCaPGk+8DucDn68ulmJPK4r4zrNoIG6SXnEPGqAJr1pm5C8kyhoO+Y0M7xFOeS8fXorvJg8BLyGy9g8THx/vEoc0ruLmb47nEXUu5HIOrx97828qJ+XvML5wbwA5wC8SxKjvNvub7tGYV29l5i5PIt56rg8/da8u+OKOuuj6rud7F+8",
                "u0Lgu8Fy2LvVJYS8vFkHvNecqzz0Af86xZj1vJWCLD0MDBu978qfO7HIubz8vr69gv4vPYjP4jzT24u8siAKveMl87yXC609BY5IPNGGM71EByW8kjQbPVNUoTx7Lr0809IgvYsLcbzimKq8aeGqvNMQm71opIA8wysxvA07D71MTN+8+S4rPTvv1jzTZNW7n70KPVWzhj3PNW68V7a3uyvhibwaRHo74MG9Ot/A3rz1iuO8g2fyPHmPcryDLg488fc8vWr6Djx3BQU9t01hvIIrKr2IQre8qGCKvQClkLzeECm9HmZMveLOUjxTNIq6S0pfPVMqKbydKH48NiapOtXQDr3mKe68oshnvBQcQT2v7ZI6tesivJnAMLy6pye7s39BPcVqiDzfLSe9fxG+vZuecL3Rj349jwSUvOWCADulbVe8lrcAPJtwmjwtRgw8d7ePvSQaD71k0f28cvfqPJyHcT1It4w8ckTBPK6FxbwTYZe8piEmPOgcnzyjvym94/mfunx8PDtj5Za7b/QGPZP/+7z3LpA9LwGdPMrsAr3cwiS8B9R5PVf4aj3tva48q0bOvPoMXby1jtY6bhosu4EKQz2ULE+8U4BxvTFGY71LZ828Iv2EuxQ5Xb0TwRs7JzRBPEZtib0i8JK8Iq8fPdfJ+TyW4n49vSrMvDJpWjyQa+o9nDkwPKmP1TsFvPG8R0BpPAMkAD2FEu884v0ovJZm5DvTO5+8BdFUvLK9ZrzJR9q8BwqwvFJ3fztNA+K8lPAruy2Vd7zSawC9FVKPvDB+x7s6uM08MHOVPMGOXr1R0hS8HHaIvDzhXL2sSbE8/9ZhvHjq/7xvejY7wD5nuyssPzvbHjI6WRe5vGpYDj0vWPc7Pp6hurFVLL03Tag8+XM1PYHSirwehU88FE6UvJXytjrZrie9G7QRPLrZYbyfSwi6TFIbPPeFSjzDl/A7N8QRPQgSGb0QpjS9oH3vPH9KID7DH4y8ERJNvObwG73TI0o7c3V/vTgMobw3aHM8",
                "ocHGPJ9yEzxu3+K7oWd5PIhyFL1XcwS8QLbJPN0Unr2uZiG8ijJMPRbNgjzWvSM8JfUavLNJP7yfk6s7UvqmvJSuaDsmAls8+K9IPSnrMD3d0Rc8XnBQvIBeDrx1ZTc8i3kXPShSDz19FE08Ku6yvB9GLbzkmKM6GCKuvE+UgD0u5gi9JZ0jvC0uMLvV0YC8xRaEPAOPmrwv2Xm8QIgJvPSZEbwNOT88vP4yPDikGjyvHEG8qhXgPMRwHD1s+Yi74P4NPKouUzyeAJw8SlVTOrCxAL24ILq83XGPO6jQWzsY4M08hs04vGdfNjzK8ES8umgwPJo7eLtLEI28hU8zu3PgBbtJLgA9GAZbPEYtL7uzL4Q89QznvGLfEjxg/1g8oPJhvIMKAjvHeOq8yKvHvJUq9LxYjXM8ibucvPIx9jzI2ei8DjgqPe7cOLzskBa9MCX0OSum4DqCHpW8X8EHPGjMjrxD1si7R3mhvG4qHDyMLQ88r26FPHES4Lvm37K8oYdKPBzK07y4Cb+9xTm4PAzk8ruJgXC9P6wxPOxIG7wMVQk9XEa9vMhBFz2xFg08fgeWvBf6Cryemly8TZe1u73rVr2Ohgq9S68SvacvgTw/34s86Q0/O630gz1s4nY9TcCUvFIIMLyWiDw8PeJDO6TqVjyXSOE6/c6VvNfc9bz8/iu9KC24PC/nID2U4Pw7W8U/PUANxzwUUIU8gT4PPCRJkzxRH4Q8USYJvEsavrySCCa865eYPFrVdrytKLS8UxKUO5rbgjzOWQa9t6sgvI7EHD0t+xo9R2kdPcDKQbzL7+o8/MjmPM3VFbywSG284s4yPB4FRzypgnK8gcD/u7GVUTrqmAY9malWveh0ubyMG6Q9H41MPbA0Fb2bHFu9nA+DvFhlB70hsce8Xu0cOtNOxzwF6gW9cH5WPL38Hj2/S8u7+7efO6EwzDy2kW+8QXcSuybpGLsGJrQ8xtueO88caL34Tgm7LdqcvIFQVj3UWMK7n9cgPBsaOjz44LS8",
                "8SEfPVNlZLzkR5E8DHX3PIe7JT2e6I+9YWbbuwrcuLyd9bw7zxNRPBhHu7xJG4S9zvBNPU6HQ7tpPna8OUXzOgOBjrxMln88gTzxvDiUpbtlLmY7HIAGO9ZejryVeby8MERpu4P9PLyzXCc9bTMtPEL32bwg2CE9rFMbOwtoQTw6bjw9y/aovBl6o7y7wbS894ijOib9DD1lagW99oeAOm/i+Tx9c4C8OGQjvDwU8rywDpY8nPdVvV4uXrxI8pS6uzaBvN5hGDfT0y09TVedPK5pvrwcdny8R46SPI+wybvTFKa8+QEku4X0Az0ckRS8EMiSOxtItbs50tE9OxocOwa07TsAnRe8jcByurkkVbzpXbM7biiEvNb/ET3g8am73do6vAdqqjzuIjS9Qc77PAofG7yf1/s86GlJPC0KV7yr3Qe8gHQVvAJXS7yBTAG9UDa8u2uWSbuRBK26pCuMOyMNBT33ybC8gF+7u63RBjuQWeg75wztvJ42TjxZn8G8akxuvBCGnbvTAzs8DqJwPIJxeDq+Pr+8ZJuZvDMtfzuoEii8BOzdun6dkDzYaTi9AC7Uu1Qs0ryZaiq8InEQuwIL17y8k9q8jCu7vFckw7wGicU8Bv0XvPL45Twf/kM857qZvOeZdbwJCRI9maM7u2yRrzyNGqi8aP0JvADdpby/z9+70107O9AB87xvuom82dlUPJlSvL2QxA288CbfOy9tALwxc7u8HiY5vCQ2hbxdTc67qS7COmPVkrz1kOU6K/MTPSRxLTwyY4A9C1a7vOwww7ifga+7GeKuO1c6CLz/7pE7upCVvEh0VDz81fM8B2Vfvf2WC73/cFE+epzIO+Jpj7s0eTG6CWxnvFEaqbx3+Uw8MIAFvBZmBrtb/hU9EeN5PPKgLzwFvDy8Q3pQuzaAWzyua5c88xxuvKtv0jgPMZ+7NR6KvWcjYbuzsoS8O0kcu+Yx2ztWQ848hFiSPJDxNzxq/JW8r9BzO/466jz7bRG+drI4PWal9zwGWBc8",
                "x9rPvEWRUjzG6907gkQlvHTtiLxZzdI8KdnBOjzCVrwTRpc83d+JvO9YxzxqzIC8amGhvEXhzLyTS6o9R3savSG2SjwDHQA8YSB4PRcIGj2QQLc8SOXwvGkj3Dy0EX68++y3PAdgSLwPkaW8jzbWPEl9yjqNnLo8vTOCPJ81BzxzDAC8HOW8vNqqpjxFTIK94okCusuzc73H6cA81A+hvRk+fryjlRU8r0CSO+k7Ab2geNQ8wfTzvCSc1jwYZHs71pC9vBSfFT0W9Di9oUAMvVCggDzyPfm89IwFvINn8bzbPdC8DtwHvbb7yru1XI09nn5yPQUG+Lwesyc8mSh1vBlNqryFLFA8amWjuwkYgztuGy09yx1lPYBitjyoS9q85IwCPSoGP7v88Ey9uFsjPVpdMb2+/aS7GBdnvLaR8j2iiSw9SoQzPUG2nDvDC508Y2T0vGO2Fr0Op428TNVTvBxbDD2uRcG8AYhVvPibz7ub2jQ9/4v5u6RfBz2YaRo8Fy7rPLvvKjwr1GI82mXCPKW31rxGwRi98J8nPdjepLuXOBC8MfLyvLMxkDyVDBM9ttlevUFthLpC8x68kcxVPc6UnLt6C488wPuMOUKmbbts4M08fVwkvX6cCD3o//a8yrw2vet7ybsT5PW8ZDkbvXs9Lz0vTT68+BhHPYibqzwMtUk93+mBu73VMT16mqu8vuKbPKPjObxROL68d+FNPeJk3LtnWne+ewaEPC7uTT1X4r899iYpPdYnYztUKRC9zR2GPd+EOjiRN+W81N6QO/88zDyNOIk8HUHKPGUVxLvTSjW7lgYoPaL8rjsERV87iJgRvKgRDDsRy6u8Wi5CvFq5q72zTGA8yhZnvf9mo7psugk9tn9cvLpYkj0ZcAq9zdwCO5NUKzzeXBa6VVKtPNDyPbx/aNE7dvqeu4++iTzesg89VykAPJawmzzouju9MMWNvHzifb2mMCm8GpNYPf+OubzxZdA6/ZqFvHCLQDwfDju9ooAzO6W6J7yPdtI8",
                "d+4Nu/sqGT0FVJ28VNyeu6UtAr1fhSW9xOOOPC8N8bwT+aw8EmexvPVA7zu8iwg9jcRcvD+5T7uoD8E7fzU1PDP8/zxbqhM9iH01vUAVnbvRYRq96LHPvJmsxzxeX9e8f0eOO+Z9V73wjxy8x/aLu91lurzaV6U8uVThPPmwHLy2nPE7x5vTPJf8CbzlPhC9YmAXO890Ljx8EuO9pgIoPFVjC71vTYI7rtbLvKQyZ7xKlh69zOrZvCpF3TztlUO8+XucvAj2HbtdQ8q77fH5POd4+jzyWM48z9spvdX/lj3lyCE9lVl6PMs4nTw5rIM9oeANPDOkyrz8U9q67hjbPE8nyjvfjYQ8zrkyPPYSlDsqY8e7dq4WvDcVUTxXoLO8viqKvUmRqjxpocK8NheEO6i3XrxSal68W2EVPbGBNzuqRs48Y7IqPQPdWDyje6+8lWh8vcc5/Lzoa1I9+J1lPHtmAz2/kcK7r1x+PVAWcTtsR5m8ByC4O08I4rwbivC7IPm+u6Oj973Q90+9iflGPViDQ73cBkS8ipalvNGmOT2XFEc82HEZu/Ke6Lv9dN68SJTHvA4GBD3qC5U7BB1NPLRuVLxe6yG9976HveFe1zwx65g89kR6PD/FCbxkLv88HD3UPHPg+rshD8I8aFURPZwTi73VnuS8tEEBPLlVar3mK0w7GK96PMzkrjvDpQo7InGAvERZFDvjluM80PFbvA6oSLxVaYg8s7ByPTvdBL2hnZW8ZAZnPOL7fzsvg1o8FJt1OaxRejwYhKG7RSMku2VSlLwy6K+8Lz24PExwET1p6ns94s7FvNU6Zz1dHxK9KGqputmCx7xfQmC8Ej1UvWIQ/Dsy08S8RdkcvfdP37yYAQM9GWg7PPrtorz29Ri9wzooPB1CoTyUoFQ7WMdNvQFCH71ZHuk6AkwPPHtbTT4bHp88f+8dOkSDuDsUACY9ZYWivdYCt7y5Jx29+UPSO4bG5TxydwY9YmbEuscA47vYFHm8KfOwvAvZFr13lzc9",
                "qAwJvI2Bpbwk0+88OnifO1S/3bs3HKc8RtAMvaXuR7wQx7e8FqoXvNauB73+58e6IZUOPYqoD70JVQg8ARiYPbZymzyrQg69u1xDO1pzQDoXK7e8D3pnvAxs3bwC3287nsx6PRvWrDxf96q8nqgTO/MURD5TKs68XHAuvOi+jbwr9kq9HHTlPa8sIL1YwTe+zYmvvLoMxTz7Cc69Eh7+OwGG+bsXBR88G+RhPb25NDybX0u8XQwvvFhKXj389GA83QBDuw1+qjwV96874b/fO39VO7zozDe8MSeCvAY3N71zT2w9JJCtPEJbdj11d1i7VuFMvXavgDxibis9BWufO20s0LwtvVS838MhvIPQ+Dp7u6U8PvXiPMcPeruVvBY9ahiGvVDXtztPM1E8aw9TPLDkUr2DpKK8rb3ivFJhpDsl5Uk8nT+bPLEiFb18XsY886AlPEIl7zysdFS7yPKKvfTbYLzXP7C80M1zvOdkU7xThZW83TmDPF5JurusHM+5GnEGvAYmvbpa3rA8OtAaPc0GtDyLZ8a911e2vFeq0zzWksi8k6YmvGFvi7yCWQ88eXdnPGECNjzbZBY7fpQLvRDwEL2R5E07I0egu1ECOb2f2H88IizPvE4KqrzihY084QmxvPJmuD0Ducq8ZowBvYboB70oYdy7FNf5vN61ejwrF789uqS+vDqsnzz3+WM8oojBvRootLwbXdW8Wj5lPItkuTv60KY8wTalvCyLnboAhCw9Drg1vIBAl7vqntC88twdPUtuZ7tkWJU9dbdLPGuxR7wRtTG9VsbLO9v3TjylXnU9nBSsOzBikjx4Efe8JIvAuy2h8Du2FSy8wZoVPUP127xaMJ883aeDPIYtmLxyfbo73HesvLzMqrw7MLW8ndghvcpPJDpwbai8kLGePCECqjtbPgi8oKQRvXfiiDz7YRu+SaCEPVZF4jyZsx09XUsnu2yhAT3gq7S8+vcvvCRlEzqfEhu8aSE2vZX5GD6+BTE9isyzO/3qKzzXTZ07",
                "rz0MvQqeljyo1jw9jbKEPG9EBL3k5Di9yeNKPfdZ+rz2kjE955O+PC7MbLxYJkI94Kd7PI6mDLxFTwK9mFLwu1eaCz0gSVs9E8rXO58EGjxbV9+7ixCAvFdpEDyEdK48kvcTPfx1O722Zn07nJISPMl+Cj1qeN07s/26vO28OT1TlJC8G9MRPa3aBj1S3Jy8E9mMvFvT4zzQAgg88K41PWnGpLwVIyO9O7RzPTMMnrzbsHi7c21UPYx9qbv2SDw9WN2Eu2rWIzz8NTg9AZA2vFr2tDzEV4M8mXXWvJOFqrxhc/q8pnNhvNvPPT1d4S890UfEvIuzZTz0Gdg8bRkjPWsIaL3CvjM92BjBvKLiFT1DiCK9cHhpOp+lJT20Hx09872mvD8PfD2grgK9+voNPVmIBD2uC1697MnsPMHp+jzKIP065MWEvErVA7whm4e9qB5OPd8GSrx/Ljo9qrTlusxl3Tw63Ci8xOtCvTrBBr2d0ua8LdO8vE6pZb2VQw++JalHPYadkTkAOFW9/KstOzDZILt/sEu85ZJlPNsITz2QkzO8RnfDu5uwTby9awY6RDLzPNutJzyMtgU9Uy8yPYrsdbwnMkC9jsQSu2A5UD3VnTY9/c+0PBzMNz0nuyC7exb5vEj0PL3hNwA8PWCmPmUzDT3pk4G+pVDtvB/+s7xJmk+9d6Siu3agkDw7qq48Ve5ZPObcHLzb8le9oTnhPIubebvzJjG9m9EKPXzaXT3hBBW9HIJnPR9tgr2+tly8RD60u0hq8LtdJ9A9tj9svPtZHL0EHUq8rx+GvJmqbbyoaGe8XAppPCuk5bzA3ka+ZQDovCAhrjyMd6I6LIqvvJWowjssdEC9156BPDI1HrzmMek54pUWvVljFb7AMRe9RtmZPOUziLvlZ/g7bAfNvBrm0zzydz081DEkvGH3BjzrrIA7rkYZvYyhqrzoWX0827iuPJ9Z1brv9hI9guubvH5lYLznK5a8UgNMvD9LYL0/zAA85YaOPY5AVTyuOB+9",
                "swouvVxLDTyOytY8IeUQvUdzPLzDMrA8UFVHvO5egrzYlbI8mvadvN6EgDxnM7O8RPyQugMDbDwEzyq84yzKO5AbtLykaY48PcouvWvWL758jKw7Ao9YvaluZDwG1uY8k9HNPMw5azuXg0k9z32mOynBq7y3gSW9aufTvK4tKTtv/X89+w+BvMPl4DzNfaS7KaqGvGApjD3EbkW8elGnvAHEyzucF3e7R8NZPC5ddbplv6s9FX/GPGQbr7xBX3A9E11OvesGhru9VKW8VHDNOksGOTstvw28ts1NvdVZwrzuyd28d4M5PdT+D7x+4I88+pgfPNafFb0/ASw9cojiuwzQK7whRwS92N2bPJwpFLwqgCG92bgXPb/nKT1uVry8ypS4vejzJ7tJrec9+T8OuxqAErwKz4y8RGYwPdKeoDz+yzS8wpS0vELBCb2uHsW8JrBzPDKtxLxYzFa8YqGHPL+RZL2v0YW88mKUu1s4t7zGPBS9XrEjOxToULsFN1+7QcANu7K0xTtRPZS8oE4UvRm20bncxJA8VPonPB5ktbyvNfC7jhMHvYwROb2sxR69RgzBPB45Tz2nUs081ogFPGFb/Lv98pY7aV23vPTSoryoU0Q8D35mvGvN4TvEW0k77SoAvUFQ2zzsYsc82YyWvKugm7s+LJy8ex+SO3X68bxZWiu8rmIGvWqBFTsahAg8Ivp+vbhqabw/vxA8UIQ/PFWFczwSL0I+wI//PO6bHbzKIjq8+hfpOh0k8Lu5yZO74Ir2u2faGr2fPgq8N2FZvOI4gDyS7xy8RcQ9POniNrwOo8Y8Je/3u8j9WD0LToO9nYhJvGXDAL1yi9g6d+D6u+ztAjxRZqw9fusevfJ5HzqZ3yy8c6CGPD8mJrsT75W8amdevRkC8btYnRO9TxUFvD4HMrxi9yA8OyYMu6qsU7wbMMw7h+UoPGvisLx6isC71+8vO8OcpjzOJgY9NG6BujcIhTx/hbo7UJr3vNJ+nTppIHg8EqUoPJ/pbzwtqa+7",
                "PPiTO/jCvjzvwCq8532bPJUmRbxbdl0819XZvN/LqzzNJtu7jnMJur3pzbyh7h09KxQvPC/Lqr3hWkA8716pvC6ngryiVxY8AUpTu/Qhijk70I+8hUPkPB2n47s04IS9ddVwu+O8TDwlt6S9IoOwPNPEujswqaE89X0zPTUEDj0pGDK8Re8cPCydazwoVBS9iktdPDfz0jzC6yA9seGMuwHmazqUv6i8e2b9O1kkpzwkjtw8C/62PDyr7zqkrg29HWhNvcggfzxoQUI84C2nPNhigzxzPNo8b5oZvZNgPrzMv7Q8axHMPJ/pED0lbBm8TNpVvfZdwzzFfAA8c22QPFfgtrzW7Sw8QsuXvP6I9rv25NQ71K/Mu+j1WLpV0Eq86gqgvEgm3zsKfCs+RKrLvAb1g7zEOAu9A0Xxu4oyPTyDpXG9CehUPJr0jrw18Xy66dgKPcD3Kz3Bm6o735gYuxp6gDvnKM28ueJgPRon0DpVwXk8KEi2PD5Smrw6fUy8GJKevDU6FLzFGqI87lmgPDVUM72rorE8wArSu4P9PLx5ocU62eyTvGJTzjziVyO9+c9vvb+AmDkrxL+8xGeBO34K7Lr8Wj69enFAPOI/2jpfyg89MnwQvMvKe7rAfKO8024Mvb9QeLzcaC08/1FKPP3M/TxYhsG792UKPMcxi7wV3wS8yHkBvWvU97xcmpQ7ZB44PMNnMr1Wq0g8WAr+uyGzs7ujCka8ru4rvI7OxTynm3Y7QNN0vC7Ud7u3MJ+8t7ImvLDp7jx0ehE8VQDdO0CRoLu2vUW61BqWPBSmSzzhMiC9+llHOyMFq7yuzzQ8yhQPPKjurDmXJUm8IEWAvFgK6Dzvh/4844CvOc65Eju+wfi98OEEPPsVKDurwXm93NQ/PIK2Xjy3jf68s0aBOxR5Rbw9bkk9pM+CPFcc1z33G5g7vJU6vF2ENjxQ0/c7+kvxPPDvG70VBS+8uDmaO8D3n7z72qI9wau0Oz/rbz4W6js8JLwCvfcQx7uK4BO7",
