{
    "input_shape": [
        74
    ],
    "hidden_layers": [
        {
            "shape": [
                140,
                75
            ],
            "weights": [
                "hsgVPUG68Dw87529AgChPXN4p7um+40+it5FPi7hlrwuDOI7NSbhu6nzcz15Aak9tpYgvdN+3zyUCDA8MzuIvGzeObwzcAa9AAgBPfQPoTsM9bU8Mm9ZvEEWWjywp5i8KeCbu9gsZ73pOqC8383AvAqWSz26A6i9rD4evXan7TwvE7q8XNcvPLDMhLwXqny85/EHuT9eyzumJau8mne3uic0h7sD+hy8l3dXPM6TsrsKKhq8+Q3POlE6MTsHnhM7MHGZvIc3d7occGy8shzHPBUKhbyfK6M6PZTgPKZNMDz27gQ9ynIvvZrqjzj9KAW9dj4MvdjIDz1+VSC677oXPPBjYbxdiIk8N4opvCqJlzvx0iy8ZCM/vAKa7rsQLi28cGhROyGURrybyne9LqiPvJqM97mpT1k89yRrvTz++D0HUKU7VDe5OwG2FjzRvEu8+BQ+PtaAtTuF2LO6V3xrvRKxBb4Csg48vCH7PIObsbtXFX46kzA5PdWRzLlzEiE7SlJiu45x8LvVugg8AXpsu6xJaLy6gSa8eqKROznB17u3H1m8nnOyPaKOjrtyXJE7/sAfPPRZ8ru1jQQ9RccnviOeJ7woW3M7ebAGvOTjCDzxcLg8SK+ZuvM6vLtCyS+4EsOtPXGg3rwlAlS48E+1vRu4/TsnVQO7GOxMOyKjvjuX5Ys7ndqxu03I7zwzfGy8Z0pZPPQG/LrpVIA8rX9EOzShVbwCVRW9g+Iuu1d7l7ojSca7biUKPQ5Kuru7u1y7bQ6EvGfhNzsfj4g7O4ecuxhYHz3CfSu+CnpdPHMzKb2NWC48Q5/cPHIF6D1xoku9jaoCPsWgkbxhAYS8R6LgPHXc+T1L7R2+57zCvCUGUT2S03u6Nf0xO1Mmo7qDoKK8SoCyPex5OrzI5CY9DLKrvFRAaL219Nq8jG+nvHIpm7wLeFY8SciaPKIQ2z13raE9KgFTumL9RjyKHGg7RxdDO3Zvx7yhQEI8kAE2PVpC8rsEvK86Ok1dvFrgMrsO8+M7",
                "rOxVO2QFCTzrjLq88aMuPe3ix7q42vK7wxZmPBpp0Dy0qDG82AwjOymjSjurC5K8T3XctzKQWbwsYBQ9PfnpPCoWeDpo14a8ihhdPNNW/TslCtI8TURsOwgSuDzp3X87ZAXgvISNZ7z61DM8xjPyOvtGabzlfSU71Sc5PLrtDTwZpiS+A2ldPUuA0zy9V529vzcAPYTjtj0kjkc4v1oRPFrLKDs/g649IhnVPWUQaD0aL7C7gpeEPBg8FD2sZwe9YzHFvfbXgzySN5+7J28rvTM1h7zTjwI6GpNwPPnPqjzlcWG97JIZPbqZ7zu2NbS8h/+9vMnqtrzh4Qe9PJ7mPBySmboq4/o8RlThvES5sTsWwxu8TKgrvcLdxjxwh6w8+OqYvB18DzzCC207pXFSvKbLELx1R5Y8U9B+ul2Uszws7r+8xKIRvRf5obmkKAi9yccsPUS3UrycI9G8KyN0PJb5VTzLmR+8tei1O/3LnzxHVXm8koa7vAwOWTzpbRQ8UT4NOkqtILwVpRi8DckGvOCv3juVIBs8jSkXPblTkLpuy7u8IHL1O9Q7tLyDlsG9m+OVvIVNyTuBwiW+GQvoO3UiHb34dNE9FRwBvlFs3DtPFg68lgb3vDalLT381Ic6IL6YPAhjvD2vrCS917d8u5ojOr0o7GS7SjjBPFXy2jxpDUK9PGI7PbdD+rrYsA27sdouPF008zz6h688R/LavBY8Bz0gggA9ePcwPR90vjyYro4820OjvHf4dDyPeBg9pdknPWJLCL3FYv283qZZO5palbx78tS7vOyivBOfqzt5tKe87506PFabQjtc6C68zGY1PZ8w4TyyIwI8E4FJPVFXqTrmEbC7hGcDvEctiz2qwgY9XKzUO9WZILwNJaq8rTM/PEu1fjouq7C7gKEVvPaftDzT8Y48geUxPV2vO7xyRUc7uRIDPSoArLsFAeG7Oy+fOrhyfDwnrmy+pZNlvCumx7w8fh2+EN/bPPFwl7y55NE+3BkKvpxkoL1/LTG+",
                "mwOMPInTeT2WQA29HguevYX0xTxX0RY90zjavRi+B732b2w7sx6LPO5jKr0rR/E8VtcbuzWpXjz5ftK9UH9UPJpZGD0BDqi7D9SHvTm9JD2U6N07q63VOO5ZhTyO/r+8mhL0OzGbRjuYiKI7pk9IPBGddrwoVZW9uYfiu/88Gb0oEzu6CjNavEMdCr0ustI7QJMvO1CFFj10YQc8iKTZulKQCjoa7v8592euuyWLZTxLiqC6xD5kvII2eLsVemK8fvx9PMMRmbv3lCS7jxZIPPZAT7z6Mp+8yjBFO1O9QDxsSDE8lTWNOz6RBb1kRIy8KAQ5PEi9ZrxvTLI8gkG4u92oXbw/PoW+t5UgPlTgfz1r3nS97c+DPHoDlb0Awra8S0fivUBuKr6z1r892EnQvH2dNL3qjCs9KnVavdQpVbzLTKy9SzNdvZ5Sn7vkdva87ZBhuj0GhjzObAY8rrXuPOmENT2ITX88PyYBPd8AD7uphaa9PIcmPVtyqTx0aSW9lrEhvCyqHb2k+v28XZOyPBQyhj0Udga9S3HlOkm7qLxwPxe95+SIOxd5+bosbRS9UAEiO3yy0TxJKE09yZZhvNtIFTxOYj69WKqUPajSM7x9PZO8whVfPWJTirzw6FY9TkTnvMt1Ej1TPTE8aqpmvc1i5bsgTIu97qEhvJ0WLDyVgaC8xEB5PHih5LxU/9y5S2czPAu1EbwNvxG9Ganhu7wcTLyT8d87wz5SO079Ez0Frrq+aohXvd27gD3ZFNG8ojLDPISAYL0N6qg9qa8WPbd9CrxB2BW+2UCYOhjoar1/U2s96tcovZeBNj3mqpM9tKSQPdRnvz2Sv5Q8D0aZva+Mfz0Xmok8ivbJvDNgp7utk+o8e1vcOmGSBbuD7Yi857xQPclmHj0fi/+8qWM8vDotRjt+KiS9GEyGvK5F27w8bC89gx8xu2wuAzsTxt29ylz6PDavgDuZ2CU9lKaQvFQEmzzPVaI8D2O/PFM5NTuv12Q8UtorPSLKdjwE7DU7",
                "ZYKyPIb6Fj3cfXa8nWAuvE1D2Lo8sos8unOwvI2OADyjgTU8CnqrvMUvYDxk/wA8Z/0gvSaHtjz+Xzk8B2N7PI6SgbyxwaA5+bDwO55xiTtEUIO87Uuju8XAZDxewoe+E6xPveC+azwYEAG8V01YvTTGq7yRFsY8cyw4Ph+/Hj6Garu9Ux1HvOXmAr1ZpEy9C784vU2q9jzBrFw9LORQPXJtRL3wDyw9I+xDPJhfIz1AAQY8P+E9vI9pG7w+3605N3ibvPLfU7zQxPK82YQsu3WE6Lwk/ko8CbLVPBOwLrtCs308jOK4vAvmXL2rx9o8kQauPJ2CmD0Fm8A8rHGXvCaHPbxHvwk9EY2du4QzCDwlldi8bZ8pPJGMKDvo6Im7Zf8rPCqqfzxWtS88gQ0CPcnRrTyA3Ge9XjHnu1n5yjwWTc077TZuOibVXjwTNY48GdyIPB7ZADyJpgC8gQ9VPH150DwbB0O64SrvPLItnjzH+HG89Ht+O5KvmrmuM0c8cDPBO9oZpjzA15m+z38avjcVbj0Wjog9zvmIvSJ4D70YiVS9xisAPu/3bzxNstE89zkjPUDdVL1WLOA9xMIQvZTLqD01n/g8fNsRvHRpBb2YGKI9+18KPH3C+juLG/A7v2hHvdsl/7za74+8qxe3PEexeT3PVgE9oAInPYpZjryGZuS8YzjCPM2TQDueN4u8FdwEPd45ub3zwhc9jL81O1XPv7z/HLC7an5IvK2ehT0qdsg9ZZcbPLB8Krvo5RC8uMYPPaGf7DvPl9G72NVfu16BGbydcco7b22Huy6iJrwmhw69INZqO3tWsDz5d2I6eCAFvKbWIDv2X7s61UnhvJe8a7xewaU7V8D6upWyKj37GcA8O3p3vGesAj26YIy8GzHku3HILD0NLPi7aeSzuyyDTrwbhSc9urhFPcZTCTwvXJM8PeYDPaTMnLuYhxQ86d7WvDMkg71CbZ09827zuzgOV73KaIk+uFaZu200xTz4HDY8ot2cPJ3+jbudODs8",
                "34DbOy0odru0Nc88kucsvA8ALz3FIum8Ip+lO+fepLzRSoW8vhnSvBswmbuujvI71D7xO3fsQL2rTKG8te6buxcEyDy6UAu86bkAvGiXzTyU8Gg8PVubOyVPy7u1QHE8OXmsu5VuzjoEUe+81tLru5chTDxuipG8MvOju30OhT3a1t08RYUxPID2NTyMCVO6NpLPu3X6uDvWO7W7//vdvJppQrxxUAG9K/Swu3oYUDtz2pQ5Qu35u1oiNr3z9xg7H+COu8llWjxVSbq8uzG4O8v4x7ts84i7Wac+PF4borySvw2+2MtuvKuKyrtxtYg9b3tDvagKcr4VMCW73F+0OkdbV7yfrVq6f5qfvdty/rvEypU7prMZPAIYuDxavi48le0pvJXs/jqBZYq8IsXqvGfn7LqYVJm7svGgvO1nFjzp+wi7xskLPcVf8zwh60g7JiFhvIHyJryB8zg688llPRMp27q7ae47YXgQPEDrZjq4fGM9uHQgvnRCDzuLc5y5fyHHu0SaQjwiMqI7BSHwOoOZSzvH6RE8symJvc0xBTo9bhm7e26pvdme1Ls3KrO7sTl5vCUO6jty/q670Y17O+gxlzyQH4Q7KVrzOuk97jo5uTq6khTLOpr1Jzs5+6K8NSmnOTlsXTrcaXq7ku11vBuyAzrtHFg6e+SCPdH34Dv/xuQ7ocsAPIDbmb3WhuE9tDmyu/UgkTujEKc8pp/cPFejDj2AFay9dmmevZT2jLxDb7A3gdA4vXZ0ITxpERi8fv9lOrKN6rzvy4S81Crgu45wsLzDaOa879K+PXkcfjygltg8xxefPFIGV72mwZg9RnbkPK0CHTzkxKe814A1Pd43A716v8U8FyemPUjqBDvcBpQ8o1+Qu8+88DwEAls9BJSoPVh5LTzKmIc8/W+LvEFHCb2STds6Dp6hvOwrZjzvIu6876mCPDJQnLty/bu8dl/GPXi8DbvWFvo8aFB9Ov5kAj2PyIE7z44EPHg48DvaVVy8IJ4/u+K8Vrxrwuo7",
                "QPFsu74Y8jurwbe81CJEO2h7ALx1Gy28zGzjvDao8LxnNmK8RV/KPFVW1Lwnil88RA/mu8hBgDv5GxW98xqbOgxCAD4Gons9QGoFvYVD2Ds9BC89AfLeu5afEjxEJgw9D+0Yu5XgGr6UT4U8PcS8vI9q+jzbfrU7M8JZvLZDhDp/lw+7hyA/PR7MCr3zKkY8af7Xu7dYmTz6amq9z0VIOyv4i7oenFU7+jvEvK0TPLw9ABE7UZO9PDSlL7zSD687UzM2vLA0eLscruK8luq9usxg9zutrwA+YccXvKmCKr3iwz88ynMDvHTYtj0TXzm9+OhVPGRyFrwmH4Y7mdK5O5ZHDDsXK5W81n1+O51KoLx8tPG7AW+aOoHTwDynb4O8cqF5PBFfi72B12o8pB8KPM6NHL0TM6a84mV5uwgkQLsRPLc8D7pYvGp4ITxFPZu7DKaPPNGztbyagnY9zaASu3kLjLzafaq9V3WYO1dMSLy3Dwm+n9qJv0cevb0KZJC585wHvCS6ljuphOK6Kthwvaayubvh7RA8/md4PttfHL43tDU7U6iYuxUDQTkW7o28yoeTvnHU0ruelOO37caEPYM5/DrJUwO8DXGQuhgxzDo6EwE7eGqeO+7RmbpKZ7o6YUsJvbD8eLkzbRw7IZ5nOyKGnjtHy887Sk6AuyZJ0jthl2c7YKmkuielmLvmLb+644WHukp7O7sc3iS7SzbavJkqTbubQkU7Dlw8PYq4+zokkNe7i5YdPd7MnjoH9l+7LUe/OtJcNDzbmbc6Cq/UOzefEru3QIY7qS2kOiAvJ7uL/gW6uB56us7TZjpcjwc7iMHkOhPQmDlRP+g7IO8JvRxJTLuLiKk6UpLBue/61bzXoC0/B/iEu9TJlbzf3W+9ZCYSPve2GL5U7CK72hVEu/+1TrwWdc27bkpVPRLqvry+XCy6H/WqPZszbD0/ToE8w8qpPOz7ortBcsE9IqztvAoGHTweVya7vXPDPRM/Bjyvx6A6l78ovRce3LwBRdS7",
                "34qZPJnt5DsdyQC80vsYPCwRnLslPeg73N+0Og6MlbtNktK9vwgKPRjcTLorSwA8IEYXPJJNOruVTq47tax1uuSS9bvsa827uCZhPZ70ojtyJIm7UCANPfVapDtkTxC7WnCsPdN/l7pD3ie8RDbBO9f3ALxF1248Vf0+vN/8izuVRca3d3/6u+CQ6jp3SMC9FJdGu+Lepzs/U1a5FlshvV6EGrtF0Cw8urqtPADnMLtII447c8f0uoPaPr0Kya697znBvWf/OT0AqsM9Q32bPMiJXj1I0dM8g7AuPLGsxT2rDiK8t+rrvLgigDt1VA09ydmrvOeUybuo/t48NPCOuiNNqrtF5da8VLL7vCpodDuaUq05QLnXugqlvzvHAeQ7/XC7PJhkiLy6YpI9rekAPcGL/DohKGg89NHZPFR9qDwbY2U87DMPvKrLEL1hNhM93BILvG2e+L2oXou8NEOtvLgcwjtBNI49R7F3vEPlOjqwp8s6WZPyPJJ3eDxFy7w8rya9vOI9mr0pohY8O5USvTUFaLut44I73ZJiPB+tOzsiV748TRnFPLRh6jtbj067kwtIvdQ/hDuRPTw8MtCJOp7dLj3AcTg8IBuiO63rHDuN59S7cN0gPQ/dsbpDxmc8SbORupdRF7y2BPo9sx+VvUZ0yT21Qwi+qsyBPRmjAb0SZ1g+RdYfvtZJqz2Xb0q9ZBapO3e3qDzoeJu8op1FvCvRcz0kS/a9ib/UPCZoGD3c4jM9DFdvvCQwrjs63Rq8QSHNvFYoWT3XGWM9WhytPG82Cj3cozo9ZbUgPa1Nwz3IuS48Fs1nPcVNYzwDgge9ndMUPJi/grsx6Ak7+CSLPKR9+ztD86q8Aym6PJrG2Lp/IuC8LiLrur4oIjxMsS08G2MNPYSj7bwnWZ+7MWSCPKMyCT0Q13m8KRX8O21YOrzflGS8QE9fO+SEoDtb10s7ex94PL1oHDzFJpu7EIadu6AxCz2RnrU88nmNvKzKHTtbgbI6NtKRPGQlsDxWTFy7",
                "M3WGOnUvBruCqau7TbKjO22a9Dz8Wx2+ZiowPM7d1DwBDeu9FjWAOvGdwL3WP3M7upj4PCcNZbwcWNc8cuqVvYt6dzuVzio8jnThPM8U1T0rZDg8t3O3urNWLDy8jjO+EoSkvdmFJTyAD6m7vqpZPbB5NrvZlS88j1YLvYOdBL15kGs8k3VoOtAPOLxIxfW81atkOpMZ8LondRQ8iv9IvJHDvrtsuyu99tlaPRZlCDxUb+s78b/UOom51rptwUg8DTHkugjMs7yPceG7u7B/PVDExLv2sY08qwyQPXO22TnveP+72LiNPX4cOjyuHXS8T3sBPCDvdTxB7aq7HNntuzqINjxA0iO895QUu6MlirtCca89uk/6O8Aq1Tth8767TC/EvMPy9TpAvxK8uU97vM8s/zsGk0C7h7AQuZ/IUT3RBhO+szCzvOLGP7xsP8m7xzfEvWrLHL2uto68PYyZvA1upLxIaoY8ckpjvcJ5g74drBC/U/xzPfN2Kb760t+8PZTFvJjDGLtp3A48W5Q3vQrYLb3jJ3K9KgcNvEsriD0Pl2m8GkzBu9BLLLwuH6c95lkOvbmRMDt9itO9OX9DvU2Msj1x5Ke7hKqOPJoWyjw6XPA7EDofvfzEdLw/iyc83MsiPDxVgzxC3Ky8eREquyK4zjuBDY262QECvZVWqrzm7Iw8cLZIvG5hU70p3li9L/IGvLuVhjskPLu7xHO4uhYLyTrNFPa5nigqOwnTrjsahja9EyS1vKBFjTzqvGi8nyzPuvzbRzwRlN67kplGPAgW+jrjfbO60Z5ZO4Nac7yMH1K8JtmYOcb6ObwHCYW9HLW7vYJExL1MpCq+61tlvagXcb3CfYg9mHHHvbX3yT39zCi+MO03vauYO70NzsA8Fi5cvamvhbxkwWc7U6WFPb/NsT09pNO8E4eTOywSoL0aCQG95cdaPamngzxQa4G8rtzvPJZAjjv+zak8aNMjvffqnTtoW3U9S1igOi1PRb2yOZy8s2UdPPKQtjxptJC8",
                "Zcruu/bPALwiR/a8tjjkOxTcBbskniw8JAQlPKWVPL0Xuk09HJy5PJutXb0Pv7e89whHPUP5t7o7DAA81Oa0PLoOsDyXRyc8zQCzPDsIOzxIvfY86ZqKu+Lq77zS8Vo9QcEBPemZMr0Drb67D+8IPN0/YDpCLgu86g4hPNj0YzthVeW6dI4lvGU9wTzLOG88FXOQvGZmUjwksbq+66sfu5GDAbxVzTs8vxCVvZMKvzv9jqq8szISPZxm3jzzxKE8emI/vLt6jz07+NK9pYbWO30th7zrkii9WmC9u/3jT7y5AJu8OWKcvH0QD7zb4hU8ZNwEvQ3fH72/zoW97GFUPFXjPjxkhTc9VjGWPDwLgj1MwkI9G/myvHURJ7y62om8Gi6WPDKWnb2e8CC8+HovvPvXcruorhy98oQAPbWbCzzxMuY7BTAMvH0MvbwcjLc9ug8XPboFgLwtf0m7Cr+wO/Cd+jr0m0I8FJn+Ozzz47re7uW8Mka3PC6lbjz7QFW858PTu52QWLss9Zy7GtDYPC8ptDuARAu9/8h+vBvEJT1oKec7KyLpvEciMTwJJna7vaYduoa4UzwFhRK66MuvvOEzEDwx2bW9ivi2vucGQT75glQ9nUPOO8+wlT2VaNa8AVZJPQ3f8jyHnKQ8QtO2POYPmz0awNW9AkOrvC6xHD3F6ow8O5HOu6DU47v4k968LVxSvaLcGTySk6U8F8IIvDgKJb2gshC95AeTO8vl3ThUxBc7TfN/u4IHcL34yjy9NWWFOzS94juNCaE87fJaPPOHwbyyF6s8VJqxO1S+oLoSqiy7/5bcu5eeYD0BmEU9tCW+OhNqaLwgoQA9rKYzulndjrynM6a8VP/KvNay87ytgMQ5U9i1vEEy47qjwQ+9iXDUurtcGTyBQTe9CLeCvBLbSr2GNQy9BfzwvIjki7zn54o8j4AYPDgxjzz3pAI8R66GvKCuuDyc45i7i/vUu0SbNTu/zto74nH6O/bPlzxbdYK9013APORHuLy/Gi08",
                "HfhovdDTCr2WY3Y93aUwvpAJ3r0e4Aq9ZLKVvBlquTwz9jW91e+7vB2Avjxxaru7eJmmu8yw9TvJgKM8+GMEvdI0gryJvgQ8/EbWu0NNDL4K7gK+cwGPPKcaQjyMCxa9aEtgvOANTz1GpjU9ogFBvD7NEDx/lU48BqIxu92yRjtoTN+78r68vEOmAzxXN7M5BJFZPBCdQjyPAAw9grRmOvtwUzxhywe9yUsUPOJguDwIr8U8I/u9u42/P73ogmc83xqMvFqLEryR5yS6XJExPBCmirw+HNE8NJmePLhUMLxz6g87nbYru/YDMryo6U08lvIpvD5SID1hAuw88mSAOwkl5bwtm5477JjAO5BegzvZ6HM7vpwKO/w8TTygz3O97iboPUXVxT0UlTO+i9/IPQCspLzZMc+8YokzvD6S+b1nqU4+RR0CvWfnHL2q7ji7Lg1MvROvRD2gYfY8i50TPXlwHr0fUtO7zVsOPZOmsD37RqM94bH4vMaP1r3T02c9Q1a+PIo70DzysKK8YSbuPGJGEj1/XLi9A6nivPPLZD204qq8P/TEueu+fbyK7Bu9FWbUvAB3h7w9sH+8P3DXPK5XN7wKAWw87hrWu1ZbwzvecH48a5z3O8s0Arz23iq8xPzyPDaJDzzqE9e8BjZBPB1w97u2j4o82OLPvCLGsjya4qm7diFdPHNAw7vOvgu9p7CwvPueErrJLs07jSMCPGhFSzxIyb28FoINPJWv2jurwCk84mMzum2B67ym66K8islsO/d5a7uniL290rZWPWlYlb3z7z89bHIzvV29Fjpp6l6+TjWxPVm9l7wtkYI8k8yfvGNT4jxeH468T2WuvAkipTzNj948gsxLvVaVBby837Y7wYoDvNBJrjxmbtW8xecPvA5fnLsBK+Q9N0xxPNmgBLutit85ddd9PRR89722Fpc8eLbyu0ukuzm4EN88ebgwvL2MFrzHLCS8DlN7vBxii7xk4M68my8PPJd97DzJUNY7QAq0uf4+lb1kQnA9",
                "NjRCOzw3pLwqVpM7mdi5vPPaDzwD1h68x+yUupWShzw1KMA8qngju3ihKLy4UpG8xQc+PHXVgTxLb2m6UGN4PAn78jweou07kRBlOQqGBbxYe868bwuuvH1iWDwm3Ys73Jt/O48GOzwvdTU761q4u5txMjp9aVu9X+sLulWwHzxtBRa+3y3ivZydFj2snIG7EWwdvPICojxdtFW8CoBlPVpy5js7/rs8Z5sEPvbsB75kMJA7bquWu9kKXbsTl6Y9IIuSvcLgh7x4yoW7NGhjvQKA+bv1i7K78RzgvUIJ9L3dSTA8xvs0O9D+1TopdXU8I+c8vb4tBzyi7ko70d2OO1Pt2DsuU5g9lqdBPU2WmzuM70G8yigiPM1rPDsGEVy7yHfEuX2yObxwRD88iUMRvNQd5zugtQW8B1HbPE8pWLvYrHG7hkrPPJ5C3Dlc/847FpoyOxOimb2mhbc64eGCuxxDITsO/qC73h6MO2rIYDwZ+r48IVjJO9zg17vyKgY8IS22vXgj1bpd4AA6ghOlPOBqCLweTSy8owbCOh7poTyoa5a+j46uvSE1C77ZZ5m9U2yZutk3Ib3ugLK+9jDovSXHoz09M2w9xc8mPd9xaD3H8ka80ut8vaKLtTw/1is7Trq1vBxm/DyzhXG64fOivEAQjjsNhQS9/hy5ug3LAL3a6ms92Lz2Oxy8szyio/u7itSnvdC/RL2/JtM99lypPOoMXr1mwVc83akfvCQZZrz8S2K7ayojvLK/Pb30HfI7KZ0xONE7K73jtwc85NQHPHmtXjwVF0Q7TUQQPfI3+TzG9NQ7vzoRO/OIIDyLeGa7lVyhurqFK7tIGde7SQAJO5WmijrTZCK8ZX/mPDK8Azx/VH08M26ju5flh7xIn1G6GzKVO5PIezumlam7QFX9Osf07DszPS47fwgpvMhgjztUsBM651RhO1gDMDouIEG9ERTdvV13M73TN8K9Gq8ePUncZr0BkQy+QmiPvrqg7L22vPQ9SZQ9vKhJfrxl5RK8",
                "lxi9vDG+KT0sSMg8excHPekPn723ijM8DeMMPHUVV7wdQMy802n8vDK9Er3JEcM8syU+vLmzjDz/ewW9EHZ0PArLN7xEZ4Y9JsaWvLHk97zqIW+8UiUIvUplIr380au6t9BjPAopur2ZApI9bUHYvM78OLwfjAQ9w/cDvC+RoDyWrxo9MDQRvBNEB727EFs8sqQivdxLTjyGDGg5R6wavYHCeTyZFci7RhyfvLV+T7zvNke7THlIPYxyW7sZx2w8KEOCPI+2w7u9Hgw9MSocu1jjzTxDmLO84brcOwFtNryu76U8+nrNvDeyw7tMHG87ajpuurfCdTm83TK+s9csPtr8n72V9Dg9p3A1vcOvSL3Yf3c9rE1wvUZ1kL2QFpW8yA/SPFiVCD6sbxK+VBr4uzsZnT03eeW9OB3BPC+7GDsFaYc9/lPoPCL0rDwY0rK8j36Mu3UwhDqEnAs9keutvE7vzrxO8Qk9OH6dPNmd9Dsqflk8DbrrPBsLJjsiq888E6hHvdEG8jxcSNC75uvqvFhlFTxLhoA7/AQVu/LogL3WS5W965rUu9jyRTsyjw87sAhgPVRIKLvk0ps8EtGvPFV9ELydYNE7GQAoPS0PPTxTYok62ibVOpMkcjwQvSA8BQ4tPMaTUTvFiA28nbF+vLdKnzuNN2m6Q5qcO8hR4LzJZbe8bwl1PEQKnLwdWLq78ehbvML0rbvdVCG7zWrcO1zg/7xt3RE8vzTUvT9srz1Xamu9rjysPI09Vrt+vI09xPwIvlHbr70b/UU7PX8xPVigdr1TVIw9QzF/vXlNpbzaDQO9G5S6ukQMLjxHfWq9EOyFvSOjlDynqYg8+zGJvFGH9Lx78Ce9/3JnvIZ277vOMs49TdeZPeTaLj3n2a487cYlvGHakTzpca08PgELvNlJHrwdp8E8iqXLu5Xt2rvMvO67NwUaO2bkGj2tizo9RYBpvL42yrvcWaE8layrvEFQMzp4rK24aNOrvG7fMr27hZG7VF+nu1u2qjtaihU9",
                "ClvAu+4am7ujKb486pCpOg0UmzyvvS07c5MDOAYcobyrWIM8145xO+yfK7we1oc5Br+BPJ29grrruCc7SEoCPL5mC7txzmk6+ps0PMYkkjxl5i2+zVWPPZuVd73t39O9lXEePNsh+7yU+LU9AYgdPrhjhb3f+w+92P9RuiheWT0bpaW8gQSAO9xx4TvANHg82s24PWDWv7wjq+08+Cq1vMFunb3Vdac8RV0fPGm9Zr1xq8K7gQjNPLpPTz0NmXW95Fjiuljt1ztAdF+8FHjpPODuJj0CbWs9sfDTvA/+tjypPKK7a6lIPNZ6obyZ2nC9OGm7vMDmmb27Uuk75q7JvC2dzLuAwii7mCnLu/kIYbxomog7rsy8PF6RoTzvDSC8uqdnPGDz5rzkEgw80OtJvMY2FDvH/6U80aslPXEPsLysFts86aSDu+xzcb1Mw2S83cGcvM3UP7xq4R48RQvyO2LPMTxbRoc8cEpMPPUGV7sVKSg9F/bIO+vM9TuZdnq+1DRYvdPgA71wTfE9KkHxvM09gj3z1PU8rgpWPZMyBzxLBge98gRlPfTzhj79SQ0/eAsnvAWIFT5sO549W7CGPWHaNzy6so27rHIRPkqPjD1242M9da5ou5+aYry1e9w8LWN2vb1nO717MJy9Ga/0PEpE8rulyDM7w6UkPb093L0iPRQ8zu04vYq5P71rFKo7d4nbPFGquTyZz3q8VEeBu/feKr2W26o9dmiUOpkIuTy3ffw8QmCdPB9G3Tz4jWG9ufXnPGtseD08now91yYRPXjiq7ogch481hFEOuXjwrxeJmK7BACbvGVrDjw37Dk9VVn8PNNkgbxyQDU9yJwru7IpuTs+eQ28vmBFPBQtDLxmxY28eeYVvXPyJTxgSx889KzPu40P6js8May+etiSvRAw/D2opSu8tVFGvZpoz7wqoFY9T/K1vJ9bO71/oua82ZmYOy7aHDwvVGA8M7w1PVeGNbxRc5A8Sk0PvVncVTzrF8O7hRRsPJNZ9bzV22M7",
                "U0X+PPxCvjxgFEQ9mVzJu8xI1DoPKZi8VVa2PHiTv70idQE9FLENO14VQb0yl4s9ep6Bvcy1lTw2PYw7Jjx4vB3zKDxFIC49zVqgO9aIWr21IZS8zS5rvPYzvrxJVKc7kA/RPI8kET0nbyk8+c8VPcCyCr1gIWc9GcuJuxP79Txsgw481kYbPEZ4HDxxZN28lOQtPGwCDDwQR6e8ncamvOr0k736lbM7PJSAvK5bUzwV25o8rGu5vAd0Cz3UwPQ7bAs/uxFId7u3q9A75+mpux/cDzzuhWK9euHvulv5F73DLHW9Zr2YvDOofDxz/YY8mpVKvVgk/r1payW+2ivLPDjRnjxK5B+9fwo4PJUEC732q3m7n/GYPKhGkLz6oL28rCARvJ9NLbuSAD68SIo8PGLIbzoJ4bW9CPIsPXmJjjnY5rS5sO0oPVkAQLkMNd47XzwEPLUPprtK3Jg9wi+WPeWX8bwdmwe9LjXqu/LzFb2RLP+8XxAjPJFIsT2tIJq7XUBSvFAKLr31tOE8lakbu/zBlrzQwHE7YMGLvI3xqTqHA8a7+rmvvKgdwDrWvFO7ooxOu7AxpjsOa3U9MXSDvPzrazvBHwk77NTCOj79mTw0Ri69FWy1O/nKOzzTitM8llGrvAcvB70oI467ddV1uUdBVLur8967qhhQOf1UNr2YWqO9Ng0hO3sSBr2TEjO8DIvrPIlE0DyvwCY9qLTVuqeoxjtlDAC5gkaePNrjLjs4qPO7gETAPFfcLTww+bK89c/MPYSazLyDD7I8igVIvLOADD70lDW9RzyDPaVce736JQ4+eo9tu0Q3rbw29oW6MBqHvPpeIL0Q+9E7KWsbvVKEpzxf8Rw6H6SyudvoETyF2KE8heU1PSDSz7uktom9eBGEvBdSJbzgKaA7ixjcO/+gkr3bV6U8BAA5vaOqCb2TeLo7aoWkOwekHb2R7aE9iGAVPELSd7w0qB87rr/fO8T1r7xzPJa8+zVLPIRWT70V3P48sDWRO6/JT71kwS07",
                "kQZWOZF62btNDsi8GPSkPMdTA7kvBJI8jnaYPKAyGLuzsg87A6ZrvDTNtDz4NLe+j+2gvf1iRD1rx7e973ABPlb4Cb14pF29NiEsvj8v0rziijQ8SfZ0vIYE+bvi/F+9K5/5vIPBlT02ugQ8JeOWPFe+6T1qEb09CaQCvTwV+jtZKEa9NO23vMSprrz9RRQ9GV2kPc+bOD0d5Xo9h32Tu5J3XDy0Ry49v8B+vBu1qru+0ve7PrcCvMXDuTwgCr86lymlO4w537spcuy7eBscPRORUjxAJ6K8UgiBvBSPS7yZpXE7FL76O3ozCzwYowW84rShvDpkb7wsGDq7q3OROxOsFL22HRy8AzXEO8rAQzzojxo8+XzQO9NhlTs/APY8HiVkO2JBFrwxSvg7zIBkPAa0xLuEUlM8RO9uu6RsEbxWF1A8AwIbPHASXzutcic774uPO6chmbsTsKW9+o0TvbTc/zzpwui9moDKvfhzjT1eyCs9svv3vN5Xvr0Ivha9H1ECvK3bVT1hCz+9qE1DPDQ8GDur4S28ATb5unUTprzZsIA9i7UpvUFuBDszeU87I2tfO1t6xbvtjKk7FLDbvD7qoDvMyEO82em2vJD/QD394oI8U7CBvKGNDLvFL6W6Pd7dPDb4urxhMiU9ha0vPff9BjxwKgi84AD5O5QNCj1054I9X7b6u21dLjtDWCM91nUSPNuh6LyNOWW9o+PGPGJAEDz485Q8EKl1PPoXwDsF8LW8giaIvLP5tTvBMUQ9gGqsPDBCeLwHzA28pdKauYvHHbznxWy9W88Pu6yObT1xeqw8+AONPDQOjLyL01o74O05PAcAt7xrK7M8x4UbvD2Oy7wtd0a+R1RIvFKugTye1uu9WxU+PdmCLz31aDG9j9x4O1NkVj3raXy93i2QPFNYED0kYaA80F74PNL2qLuFRp88HYXIPat/hDzGDUq9PmHBvf2ivD3cT3e6h/RePPkMyTzkCyS7w8qDvFQtUzvFyZ68I07EPF95J7yGkPU8",
                "Z8uMvaRbL7tidZi8NaduPd990jwJmJy90umRvTzDsTzVmJG8XPAEOqWNIbz7UYo88Cu9u3mpjTz4BlM8uj4QvY97gzxL1qQ814OCvQBmKzwJ1rk8FFKYu/H0SLzvWjI8DZGnO0OrIjy2dpM7MuRBPNhA9buB/oI8Rx6/OnwwILmKIGI89Vmmuz5AvLzqrOM8xwnYPOG0ebyC3VO8g22vO/UlH7vIcWG8e/jtO7vcDrx0JK69tSSIPprIIT4brdI9GJM6ve6qmj3WtwY7XTfMvI3Vib1iiI4968bTPMc9FLxieAy7660zvZbgyjy4jc28AnbUvL1wGzwP2fc7HFvVvOhb6rsxbjG82VJnOx5+jTwBSQ28dVe3PLSRyTy3dh69sD26PMxpErxaGUU94E+OPKwR37ztMV05NooQPeV0KD11U2892QyivNBuwjwVJOS7sRB1OjdkmDy+o169zBYeO694aLwx1zC80d4ZPVJMabvz8+O7WknBvEc12zwTvuA8B0UZvbAEtLzhVAM84pAjO0ywNjs2Rkk7Dn3IOyeOKrzcKRQ9Yy5fPQUW+ryYrQY9PMJMvOYMK72r2+Q8MENDvAitpTujPns8rxdJPBVua7xjPLu7xRXQu6AffzwISOM9MXMlPgxJDD4EuYA92NY1vdN5bj2jgEK9WN4evUYi3zvsES08BOLhPOps072iGia+7Q8XPYP90bybU3C9Y5eJvSoRSzymHh29RacdvOkgob0c+LG97GWePGb03T1THHY82YRvvGIlD7uwPII8Z2WNO7Tyk7z3FMO9lh7UvKMQQj05lq86U6n4PLg6Mj22/zW8Vc3EOrfxD71urUk8qUIQvCGjwzyp5cm8pivUu5worDoKBxs9Z508vCCTojtqboM60gtFvXrbcL1VW7a8f9qJvMGZoTuMWf48/c/0OxtoHr2f+QA8WpIqva7jozxcrmS9axUNvWPOzDtOe5U8ltunPJV30rwaWIu8hrWIO3oGqrzBmsq77fAUOuuyNLz6HWO8",
                "Vb1UuzupTrxl14O+OMYDPu8tnb1rJ5q9OYtLvqG0IL7QBPs83jSBvTFHyDxx2jQ83QfbvavHjb576qw+DwPkPSl1oL6d+1q73YcmvH8WSLopQre879TbvapP0DqcNkI7QalKPVbr9rufRGk8gQSNvK91X7ySH029OFUAvXOVtT2skX89BKWHvZpqJb1HyL29KN4Eu7cYj7uo+Gq8WJXWvI14JLw5Ob+7CCfxOx8CqzwnELA8XmyVO7iDPjy1lfm8Pf8kvQSoFLxZt/O8U3eYvKcKEj1anz+8FkcSPXEgHrqdf648KsBNvBD0azwWyOU7nOurO6wpzDsJBbc70yCsO+r4DLx2tRe9mtbGOxCsd7x+MOS6Kki5O6uQ07ubjzg6QFv5uz5PWjqsPNs5kXCIO5tXprz2ByG8ZXgHPr3/lbyeane8PHegvWRMjrx8D2q8o0xvPBKNlzwl4Ik7XLdKPMJ8wD1kZj++Qu2svDQhWD25Z089O39DvP3DiLv/X9y7V/8xvf4cQ7xSMiQ88L8XPKqb3zw1hUk6QSsBO0/VbjtTO3E8RRK2u0Rj2DvxRQw9okTPPGsY5byJmk+75np7vGOBlz1mYW08aJWjPHMVcjwAQDA8FHXyu+3hML0aq329QsSYOzf23juCDMS9aclQPIcpNjyVzZg887KqPLBKyjwDu826azLbPA2Md7yxMdG7E6X9usHHebyfmd88mgNNPRCuDr1OYr28I5QUvDwDkrvcPCo7t14tvKuFAj2Q45A8u37uPH2BiLxbF7U8Wt6tu0Tb/rwcjQU7ROWiu/22dTuxQ569Nw4curisJb3juoe9HCqTPKu4pr2eT+q9a5lvvcq1rz2DZZG9agKRvMB5p7hUvQQ97RMCPXyV1zw8A1g9lJHePJgwp7yLCBM9Qs0pPMT9ez3I1jE9wagWOn0Rlzz0a688lFexvAEthLyBslI82AakPC8hjryvD4c9d+cZvMkYV70Bhyg8b0/zPEp0sTtxn9k8IpyAPOr2Jj1pGz+9",
                "NzD5ujRYIjzizEm8vwchPNbVhb1e5wm9NYCzu07D2Tyvnw69qXuxPHarDzzP6N87rqOhPNK2ibxf+mG7pBtBvJW3yDwwguC7JFGAvBE/JTyGEAY9DmL6PHb44rzzr5y8KBWZO5aqtLyvORo9LYO1PMl/PDu0PYS8F1Nkuxu3Ajug2m48P9OmO2OEsDzRVoS935FTvOvlhbx/v+y9IJPGOwuaI738vx88BTQfvHeeoLuONzG73pLUvJW7Mrwfl/07BwYEPlOtUz2V8Y86K26fPNnwdjs3Hl294TKhvRNbLzxpbGe8wGzNvZRJDbwdt2i794mWPDOJjjwoZT47RaKfPDXR4jwROjY7QkRkvPWqlDzBlxa7hGaVuj7LHTxIQXe9CAgMvp2oDDx0aEA8yia1Ogt1mryklBW8JuHjOuhC4DvHtiq8OAdNvFqxerx7ItO76JdpPDCsyDsaM4Q8PCADvYwjfDmMccc7KbzFOxudob2tT167Sy5quv+KTDyvrlA7kwN6Ozyp67seY8k8jw0/vDBNTDlgZ7W7bDTFPFKq5rqAKLw8dQZIPC4pSbzwlPA7MOqbuzLeAz3QJW+9xvlJvWEk9T074iC8DOYXvkDIOb37e9Y7prCtu7sRQT35dmY9/GGQPEPf7Dygss682kmTvId8Yz2NhMU83+aVvC5MMDzJJoQ9mpLAPB1VrbtDBB09muF5vf6cwrxvZxK93Uj2PHkqQLsR6sq7RSemPNE6Qb0F8aG8UBA8PU0TvLvHl0o9WbrovEeGTzwjVJE82szQu8/cGjw0G4O953PPO+FS6jy7brQ8e/utvMXUCjycQlG842S9PLS/aTypsu27GcGlOgrUsrvpIyk9NLAUvft2D7vDsyE8SHQOu3XUgDyVfBc9kBBnu1h4U7osCVE8N6lnvFxeeL1yIDs8b4JPPLZYW7t4rkY8M6sBO2xZEr0S6EA6uX2KPNU1zzs2cGK8VhI5PPiZoTuxjjY8JfutvYBGyr3fj0u90ikcPMAvAb2Iihu9",
                "Vnn9vE2WDb2pBn48l5AkvbkTIb1gefa9l6WNvKOlg7wLBxO9zmdLvb+QALz65kk822PnPOv9/7uZVru81DesvBBzpL2XCyQ9T+iHPMZwLbumj5+8xrYxvMI9tzyFrJW9+WNhPO5duz1zaPm7KXhEvZXlQr0SmLI8Wd5UvSai0zyYHb687AhAPE8VJj2/rAm9cYYKO4CC3jxkESU8yEykPAuRjrchDKa7v8lFvHXlZz1qjBs9+5/pO5Q+Cz2J+4e863zlOZUmEjxqxVE8MlimvGMf9LoWNoW9AZ9VveGc3Dw97AA9+FKXvBjSqTxFnKy8045nPLm1mTv9nwy9VJaFvO9e77uqC0a8zItRuxsL4zwTyG6+DZxvvFS0/TtvsLE98iFWPX+hJL5xbiy8gXe5u7s/qLuRO7o73+yvvAoD5bpMXMA6WciDvp0kfD5VQhm7+cZkvBJjArq5H2A+PT6RvgwH3Lv1eg68ZmdePeUTlbvxuNe73qEGPu5D/T2ujnO6GRIZPAdJCLqSyNO79N+fPeD2hTvMx+a6wDSAO4s5aDt4HZo9gut5PG6BkjsFc583t0g1O3ZrNDxGZwA8+g78OSA5a7vQ6C+7EVTBPRwu3bng19o5HEFsvUonOjmRrEY7D1Gvvdj72Loj/mK7jbl0O8+cdT2cNdI7FThSOsiyE7skoD87enVMuzg2HzkwTrc5ICRCOt5f1rvHwsM7qX4oPZLvlDs4Oay7+nuKPUIkhbtzBVY6o1ygurJ8Arzi4jY/jXm8vM3KNb1TwpI8MTc+PLKtVL12LZ49E6KwPN8UzzzOH269550kvWNf2L2xnJS9b/uQOxT2rr2tFWA8JsU0PUHZQLyOtwq8iZbvvGzF7rtLyZo8EKQLvGS1Pb3ISzk9prK3vEJl87uLGzK8A6ybO+Ig9rxErus8Hf4uvJu3HD08Lje8GvsDvV3m6LwzA9K8LqsmPfc5H73/u8E8vaMJPWKXLLx1x+A8orhzPK/+kj2udQk8ce4dPNW4TjwcQZ68",
                "ja4qvNlbiLzhLZm9q4niueRXijwEZWK8j+OVvJ+RoTxa4ZS7920Yu+ca/rmwTiQ6kF7yOZeqXbwf8lu9q84tuyYE4TsLIDG9+3GDuz58fzzsu788Nx9kvBL9E7u1b8K80WkLvH8RWrx/Og2+206qvMyUVbyLdtS8Ll7Wvdqk6jrSxHU8AF9CPaNyBL3ES/E8lWw3PZjmC7svnUg8FqBUvf8uF77HgQK8X1H+u06lBzwWP+C7rmdgvNoSg7w558W8h+FsvepdjbpH2Aa8r8uIvdrRZb2ThQ+8JrDZubR1Eby2nxe8YgsjPdfZHT0bGxQ6uekNvOnKZbuViR89/U23vN6f0rzOqKE8EOA3PF8XBToYjBQ8nGkdPO64rzuWMcG6/pOAPenWBDyYcXO62ueMPMqYYDt31mo8r9E3vMTshLsk8oo6dKLTumGfdTwLSzS7lxWoPGgOUrsgfaY7lB9LvMfXBbqNYym9/pCUOrD3aDxi6Ky7k2/4PSyCJzzeQSE8wlzKPGXd5TqA7Sa80xtvusEKsj2HgCq+ZUkaPbfMSr5/P8g7PzktPZkZmz14SgY9pKKKvJVuwTwebgQ9cqeoO5h/974Nrag9KExfvOvACz0VhYQ8eMWGvH8JNbzOZcy7lPShu5DunruimZ88RfGvOniBIr18cu48NfSVvKZCWLx9BgO9ZFl5vS9EIT05DS48+2IPuwz/gTxoMIa9OGqYuD8xFrzxRgo8ue1yOyTEhbvxcMq8HqVhPO2KoTxv0+W5kJM1PFd047yqcA48ypXFuq49rbwIFvQ7YkocPPZg9DyoP9S87JTtu+qB7zy4UCm7bmMsPLap5bziKJg6RagEPP1I/jzAiVC8AHwGPOuPfDxqHb884NJdvH6enzvkc6u8flOSOY29ErsyRsi7nmA4Ozk7mzv7PgG8JgvZuw5hizuYNci9tZFMPkF03T3jUkY8j4C1PJ4OPDz+uzI+0JmfPvpQnr22qpg986o/PKgNBrxC92S9MXuzvOaKHrxVwZY7",
                "MS1XPNi7/ToI7E29qabtPMnGU71fgUC9iJPTvGZWjT1t6wi8aqWAvOvSRLyzhOE8YZ5evHAFhTzoP+m9N78KvD+yuz2d4lM7l3PRvMrBAL0nwvu83Q+TvFY3UL1nqeQ8UgukO4Zugbwz4Ac9LIp9uU1HcD0OOT89QlUIvGv6dLzo4sM8qssgPDAVxLyI0xC9SgHwO6zjn7vdoUU7XR5DvF5Gjbw1gOG55T53u/YFpjs2TY+82qzNvEISszzT7Ai8kwC1Otm8JTxBHKy7m65kvCqXrLr7rU889YEwvAKneroufsi720UluvN6KLxl98299yOCvjFXAz6x7xa7VR8VvU8+uz0KaRw9tZCYvS7ftz2vuOk8bbsMvdGcSr7DeHU+RLOIPTlXBL4zlgU99VSWvM981bvNYp29636EPaTyAbuT7/c8SOaovJXqSL0lZ3K9/mZNvRsDH73RhMG9gjCevfHqOD3i7wA9VDHtvCT/lrtF3Li87vZcvGfiyDwL74y8oJlAu4P5QT04KB89J3uiurPwlLwukQ+95r7Eu/wVozx0waq9tC0FvZYJ1bvdZgM7uM2cvKQiXz0HwJ+8uwSoPHRb1rvlKVO8iZuIOlzO/LwRgo67s8T3Os9BMDxZFQo69ZQePMo0QTxKeae8wGw7OvQaQTxy+Q88el0ivbRyF72105o8xYcFvfSN1Lty1pA6btGvuuiKRr3Mpnu+cVnRPM5upb6Le/c8EwbivCTtBT0UxQA9xgz6ubFf/To8gJO83wMhPNy7gL0iCIO8qHyOvLitUj2dOjm8BjY2vbG0vbtYRcK8EKUUvVfxOjkHX5S7J3wSO7S0druVIwA93vaRutMsWrtJITo89USXPLeKD71OCVk8IXBBPD1YSbwlH5M89wLhvOiaF7nO1n+82TOrO5+8X7qEaqQ84FrCOxGpLLw86WO6pbdMvBIS/Dwk/Fe8POLFPKRPYz08n5y7nPlwvPvjfbw0zbI8aOz0u7Z7jbxs/sm74rT2u1cMuzxsF3E8",
                "Icmdu1F/mj1SVBu9VsqvO0yHnbwgdha8QUAXPOsw4TsCsIC8oIe9u16FXbxt7IO8BD6MO1UE2DvMc8a8vW8uO5z6aLyTASG+X4+xu5NFDD5YCrc9pwGWPYkMlzvKBYo95PiMu/qqLrxgfc+7BfFGPJjITr7WSze99CLiuUAo1D2BafG7dKPWvEB/jTvGkKA8z1EPPb3Ijjl3r3M8Exzeuyw40bsGSuC6sqFavZQzR70UQOk6xFsAvZqX0b2djVU9+SiZPXuqs7wkjEY9ZML+PLd7Ybvp9xS9JIxnvPqaojwLcRg8HyuKum+dorsjh3K8gQhaPEMm0Tx/ci68lxIwuz/SAzyxfOI7Bct7PEHvBT1OU6e8a7RDPTRxATzyBH27MmIYvIYwrTv7YOC8VtKqPIf2ybyU9AI8R1govHeGKr2Mxnw8Ja0fPJ2LK7zGFYw6Z/BMvOvaLjxg03k8Wz8RO0nFcTyTbIQ8u+01uqAlBbyHjse9IUXpu9Dy8j0ac6S9ZsK9uxLe2r3LZke9CoVyO8hmQDyod3Y9aKmSOuFWQb5+D5S8qhmQvaLzrT23aHQ8anO8vUHMWjtccaY9FERvvchJpbxhQRE8HbeiPOrYgjzqQ3G9aP3BPHzn4Dzpxho8ubrKvRObbD14HRa90PGEPTgfjzzDCQe9mqzPO3UMrbxRZiw9WXk3PMq4TDv5Pzk81PemO3lz3jxVjDy78ZQfPDh4dT1R7IG8IiFjPflq0zo6PEa7MfMIPR7XMjzPnBi9Z9K+OlUDlDx/0yE8NN2+O3VnIz3CS1c8qd4svDkklDy8piy8RL65Ox+zXDwv15y8Zj8uPIAWPLvOcFg7JVbHPFzb0byileu8RRGXPFRPwbmyRR88LQlGO8U1TjwCtPE9cIE/PG8UFTxBMVc++gOVPlWL7LwJplg6i5aWOpnyFbrAi745PPuAvLs1o7oBk7A7cTc6PaatkbsVNKO6kSuZu5c1HzxE6Qs+7myLvv8BFzs3uIO8VvAEPtNYRTs56XA7",
                "eyoPudMkhzo1rQY74RovOwNB3Tv/9gI8BMI9vHVkpLr4oFS7P+ePuxNjWDsFlLw6gmLquwvQlzuPqgy8euIMuw9WwTv5OLy721oIu2XVLDveKsE7+udCPJAZ8Lske0i6Z57pvJV+BDnVcoW7c3SSvWzpvrl6YdU7UKteu/3iiTucaE876p/Ku7MZVTvOzKg7YJJZO1WJF7tYHQq8OMOBuw3eY7ssFa85cfXMvAqcwrtSqci6CVW4O0f5Ibm2bai6QbnzuHTMDb27+Q4+xq+XvdRdVr0O0m68cIp2vP89gDxLVWA8M642PfDJsL32Bz49RQFzPOzGwzwGgpW+VxGVPLUwmL1J2Ea986VMPBnGwzuiGx+9Y7SnvAaqYr1keQq8wJnkPAtowztjl4293XrDvIub6rtCL6u81lmGvNZHDz0OBS29TCX0vBwNgT3hwYY8VpobPdd6TjxdpBQ97cATPcwhEz1hEeq6ZlPqPG39ebxcwxG9yuD1PGcgPjxp4lC9jocTvGHZmTq5w2w88J+SvO0UIj2iHKC8hmPavGWUPr1+w7G8nK8QPOItIrzGnqI7U/AOvb4KI71ziXa7F/c4O9q7lTtGtha8+XeLvL4CLDzRvas81PbQuizKmTuyGFM8UkobPXtQSDx8Ny071+JovKEbazzsgl6+4gOUPD/O7ruR0Zk9CBnhvY2oo71BKF27x+5OPAYjhLrMKjo8jMhzPeESm7zQJJo7yOqGvDMlg75B3tk7xp6YvJD/WTwZ5Es9EI2dPNdnFLzp+OI6TuSfPS5/V7wRrd08hMAovMYqd7xI7Tk83n0kvCZieTszfCK8EqthvUqqPjxkYda8ebQhOcUfUTzDMB+9vbziu1UtwjuVIte75Mq4Ox4aYjzJYq07LssIvAiSsjse4ge7Ks+aPbxfyTw5v6+8b/cLvQPiejuLVn482/bgPDGhtTy5O0U8th77O+WCBz3sBaA8hsUEvJMWAbtTa5C8Fe7CuYQcPzzPMOM6u6eguh+Jx7sA7SK8",
                "NNCmvAnULrsGJgm6/ai8PGamCjyY1Lc7NgpgOxJnGr376TG95aKSPda7hz2Rfte917yRvM/XGb3ZS4G9geFXviVVGb4kASY+xN2wO1JsybxSv0S9Y+e/vN1UnDxX6n09bpUKPaw8tz3XiAM9YsIRPJxU8jxs9pA9mv+rO70c7b2BOb884yNcPItjdLzmu2G9MZH4PCKGhjt22hY8XyLBO58pfbpR5s28xDoLPD62ZTxSCQ09ablAu2noU72l3oc8RduJvHZG6TtVBlW9lskYPO3IKj3R1Mg86XBCPEURDLwWw0E8nI4zPAYXNLyga9I852jlPDHIM7yNuya8oQTUPNf8czsyU8I7lWmgu8oxUztSx9e8kPO3u1XJ2DxSGT68slgSvIqiKzxQ+X87FWMaPB8rMztDg5I8ophCOhEyw7w5N6W86m1lvI8k7jvXvCK+l6SsvcJ5Sj2F4Is9l3d9PTZbqz3o9Co92BtLvUlkC7yB2CS6QbuFPTPyqj6spr++hY6IvKBkMT7nmIi9eiXiPKGwDrqIifE89a/+PMjZUzwg35y9TpvxO6GnNLzpn527oEsEvQfDeLyNREI9JkQvPXKC0rwKYbw7wkQcPX9CWD0PL8E9o1ALvIgVAz2VoGM7MWyvPMkOzDsgDYI7v1x1uh0PEr36D1y9/IYcPLm03zvwkBi9e+HrO0tKDz0CxS49i8HGPM8qob3S/ag8xgBIO2gEBDyk15O8zsieO25K47y2Aik8QiXZO/qKFL1XjqG8JrfzvM8BqbwWQlk9Q0C1OlV42DvF4Qu8bq6sPFlPWrxQ6rM5Q7bBvBSTmLumnYw76aUFu5dyAzz4Wqe9w1njO+Pi/DvPzTg+6lEUvrLWBD5ZYCU75lfbOlHUPTx9GOu4gx0RvUAX6bsl6yc7VTSiPmXPKb7sNqu7YYuHObF5/bpXjHa9/mCbPhPXyTsP6Gw73lYbvTL7mDt02H47TCMMvhx7Cb5gPrs7feJxul/mszuTtby7HbSTvD+VzzvvPnu5",
                "B1tZOtGLRTv7pBG9HNhzPFSSAbxtEme7/FYcO5uLlTqBgiA78++luyTm+zrjpkc7RrYuvWwAVrswFf85nsIZPHhPLbvIvdG7PlaGPZNl7Ttq5Qk77CJwuwRMIr00G4A7FVH9uvhzDDtMXA670V5lu5SECjr45Uc8un5Jun+GM7e00u+6nvspvQkytLv8mCY62Wh9vdn4xzrFaGU7vWgSO9CtAb1y4fI+FMhtvHqPpr2c2R8+x151Ph5fNz2T3zG+NJVSvaLZtDulKh09rqUePbgm0748dn29F29aPK7S/j2SNsw8Ud2XveN2tbzyaRk9JnwSPi1h+72qLCY9EPVpvDokWbxrM4M83fcnveMlzrzMIo+8rqH4vONWAjxKERs7LZWGPQwXhD2lcge+miFoPZQMxzoxIKQ8qyv6PEY92rtu6C67QD+vO7GR6D2+ElG8312NO+maIb2T0sU8/p+zPBkOML0D76A7u+czPfa3uzzLm4a9IAw7PU8+k7sOSj08icuaOz6q6jqaoF87NqQePCCI5jwQy2i8oSsJvP0FBT125wE912YlvONtULsuDYU8+K5xPDmbAj1ydc08hs/YvAwZjzpPU567FsLoueJFVLvbqYS/ilQyPclANL1FCeO93wybPfYyG71pRYW+F84zPgdPHD7oVOQ9+ZqVuuGtJ73ikw081oI/vHCbDj2XHAS9DBCOPYkBRr0G2GM8cQnbO5NiqDzfS5o8d16RvD6m/7vZtY49CAsyvLTDL7xEJsM859yXPBogW72RzhC8t25NvLCoXTwIwmk8wAoLveLnXz1d/g48G3QUPOFEkD1lK0w9PVUHPP6GDL159fW8qC3jOxybsDvmTqa8YYCjPAWmybxNJE275NtQvLIMh7xDlG07nnJMPOX+szwvy5I8kv1avOdXlztiwPu8Q/XlO0OpBrz29547HvVovF8s0LwtbUi7Xfkvu4ndn7zotSi9YFLQOyPTCT28uZO66DvWujmX6zrMOYs7Q/iku87Sp7uX5b69",
                "CV/+vcud0L1BIro961+cPbNT0D1ccrK7tWHAvIVB3jzrA968E4zzPE4Hkz1jEI0+WHvuu/6xuj2CNhy9kMMBvaCm3jxjJY28GPWgPZ0Ct7vrftK71ClrO1f3WbjMayq94XkKvRRxE70FkoC8I/+YuoiyzzyGZsq9T+pXPQbmdDykJUQ8UU8ruzsVUL0zizc78VYzPYStNrqY/SI8HXgvvFQxeLtxIhQ9h3FMO4VJED30kRM9lAFHPCEAiDqWxyA8+NyAPeyKt7yNG5S8v8mYPNTTnLwWCIe8xVl6vMPIcbwNLCA7VoRvvbLIwLzU3Gy7g7z4vIkLk7uZDw09D5itPElyYrrshYk8x4Wau/h/2Dwj+wu9GtukOs5lBjycnb0642yPu+CO/jx035K+f1gSPX9PzrxL064+LQiMvE0yJ7535qk8W1v+O6JG2bv96oK7yC3BPEl/Ir3HUnk7kBWDPphQo71v8kO84qS+uDINPjsgJ4k8Qg30vmNgSTw8pde8D/4FPiUHUjwRDQs8WrsbvODGnbr5+ks8/Sp2PAg17jzscES8xpWcvXLrFrw281q7MGnZuw/s9bqV3ay92AhLPLMJm7mjLWK8XmWZOlYjFLzeAUK8eLcsOSI6qbxEWQi7I9NHvedYwzuILIk7h5tmvG35njzIAVe8detNO2arADxgCA+7VTaIO0mHbzwFTTk7Zhf2us8wWzx8vW261nnyOlHS4rs2tlW9ak1EO4WVortFdOY5YhOsvNgVsDzM2+C7mGsBvZQrpjtlf+s6hIDrO8AYDr2fsig/rNVxvY8mFL4v3xI7hl+IvGt+kbxI8GA9uQMAPZ5stT1gdU69iRUjPWVyQD4Jd6s9p+hpPEiVzzxbzL47EtKYvLdnk72hETs8qzDMvNypzbunPnw660vUOygdMLzaoWE99tVSPKV80Dz5DzG8QRIuvR+/dr3Pr7U8BZbAvDMgm7ySY+g7yjEZve6/DL1yaDW6U4ilvAR0Njzbuek8iaMjPVsfEb2R0Rw8",
                "Gy2fPBLOezo41SM9OnVwvNgxdLx16sm7IkkiPGe6uTvvx6e8VXzNuVQEgbv+qy873tCVur/YWLzrTBK9WMKjvMWo4zivTyg7Ve2tuzJaZjzE3Z08/ZjRuy4igrxI5d68wrgjPINWBbtCg72803wCvHdbjTxqkpg7T+YGPWp2kLxXDhq+DSIKvQXw1byVRa89J+KnPVoTYb1IN2c9y0LWPNuE/TrO8nm8NYlKPbQlv73alGS+OoLAOijqKT4lWz08mfqgvNNeEbxEsya7eEq6Pd5LAL1+LTC9jeSEPKz95TyrJNq8XcadvC54cL3KWmi9HTZTPCADFD19OZ28SNAwPG2jhD2VRAy7BetGPYRXCD3aihA9O3LGvLCzDTwAPle7Itt8PPuBJD263Ye9ARgKO4XR97woQFw8iZmlvKp9Aby0Qq67Ray4urBnW7wvCnm6EOI+PNR/CrzUF8U72p6iuydUs7zh9SS8xs0YPNTuYjs+vWW8X1fXu6wy6TpjM9O8BUupvE4Hhjv6ED08ILKTPLXzK7z2VWY9u5m5O+zOD71avru8reXRugSQ5TvJmmq+pB9ivm/QGb7kvqW7quI/voKJurzutoc7+A4PPTVimTyE+Zi8hCHSPFixMr24eIW9YKZ6PIw8V72QZ8I8QPIBPc9tB7ykmZU6CfILvUe2uTuWu128COSpOzjwwbs+R2A84Z5yu+d/1LuW1KG8keGGPKGXuDwSetS9c7swPGy7az1QLFC8NXtqPG5PjjxoCWE8Af0LO5hgTrxLD4y7kR1SPFX9BzzC5D68osciu8Iz1DtJqAG8gEWWPEGblztcAJA8oACrPH202LzMJMC8o/AJPAXUnjq3I6W6/EA2u0a2DbuLXMa6MwNBvMckDzyPJ3u7Om25vK7uvTzwiVM8h6e0O/4zkjxULy+7bU1Au2pPU7un0AE9d9mxukwgyTpz3eA7evInu/u2UjhE0w4+JTMFvoGpqD3C/bq9hnfbPPH9PbyipLi8T6R4uyXKFjxhKYk8",
                "a0O2vDIcHr4pKTs+OegdPfXJlLwfaEk9aYqnvG1SiDw6fuE8aF59vFbjz7yT29o9X5JKPYNgwb3b+vi9HRjBvFKVQrywiOM8sGEOPYTLnT3H+Uc9d1VtOwUmKb2luI+9rNNGPE7LG73HF388ZCmRvBr+KLskkYE7KQkNu9jXbT0nS689NEa4u4XHHjqg/ZW8soeSvVmdnLzBAYK8bPv6uw/kXz3gZJS8qt1IvNngkbs32hI9G0xKOuaJB73Vgds6qYoCPDeoRDyB14Y8PIcGPcL+uDzKy9E7yLX2O9s4+TzEcIY8Nw7BPPW89DxOmoi7uUGLPNEPLjwACQO8hA12u0y0sDyRDPC+F36wO8aql7y/JJy9VOGYPVVaqr1juQk91genO4ZbQr2SUDC+xkXDvAm77zwBDFs8Wrx6PIHGYz0nAWY71u5JvatVWLzrqoa9IhazumKqYb17W3Q7CegSvVtbMzxvo169lh3kvHJYA70MxxM8/tV6vPGwvLwRTO+6qflbvcRBcTs6GNU88KDPPE0aUjwsFAK9rQ2qvBlzrjyaMZ290XLwu2EJqTzus6g7l30WPBbFU7xlu5i8pIwJPZzrKT2iQSi8LMAwvLX3oTqa8V28NOeOvLBe8LsVugq89MqWu+pFHbyJWKM8OnMevbbHBL3Jp4g8uDjLO3SVAD1a7hk9m1/sO8sA1LoiKfQ8ETckPGCkF7vE6wS7gSNQuzKk8zrnJgY9b3x1O6QGrzwPgHy88enGPVnvzzw4HO68JXbQPIVeEL3ZryW9BOzFvE52/TyDkYg8e4VPvP6pK71D6xK96Y1NvH1IMLx/L8y8bjIHPesURb6Z9Iy80Zc/vWjePTyqvFW88V8qvFnOuDwz6vU7byYRvZHi5DzwUKG9Pnzgu2phCLx9eJy8FZyfvMFhhrwIIoK84XWiPBbOGbySpJQ8NWN4PGT3TzyLDZ46zuQIPKB7kDxReq28IgrCPF9wHzs7gWs8CZKWvERvZrw//Ne4kqVCvFEK4zvTf007",
                "DrUnu9EVHr1NFzO8NShIOfk6XTxdaya8oriWu0KU3bolkIa6RC/IOwf+fzt3r3W8EQh/vK6iCTu/hUs8kHVnOqV6dDx+eZ88h4LGO6I7FryfT3G8lDyRPC1lXTv2ll29nhwtOmi13bucHAA+wR+qPgfOSD4O5Y+8Ww+YvHG2l7tNXRw8WNL5PRFLxDvae/g7aPCQvcb9yj5b7dY7KMzzuhnLY7sJD2w91UwRvEkgDrxAgeG7gwR6POh1LTwa/gI7Ro90vJgueLxIzwS6T1TjO1vFCrsEgqe8k+iEPad3DDyQ84q79Yziu8fBrTo6L4w6QTeLPcL3Erz3cSM7VOcxO5QxNrut7747zwWCutXQ2LrGZoI76T6lPMYPxTryLcU6t1jGO8vnwDtve667/mrUPMCtqTn/umo7xVGiujas+7wRZ564WwCgu65qWzjHgnq7fAGau+ejqDsWakY9AIGsOzRgzzuKeEu6Zy25Oi1jbTus8q+7t9QAvNYCDztc2sO4QOJwuuU3rjy5gVs+PPkVvi9dob2EO049vYhJvS0td7ycNda8HUxzvUVp+TxYoTK8M9sWPHidlT0KbTs+QV5ZuyXjfT30xsE88XArPKBdpjtw2ps7D31TPfhWiTxRoLM89QCCvEpGdL3LrIA7Al0KvfLfL70eexq9gdK5u2qfVbuUMHi950GqPL9QET3u2X87G+EHvLFGQ7vBTRS9KXWxus7Evj0d9Oy8GgReO9/KhjvNw9K8/ha+OyEzNb0J43q9uQ32u1D6Mbzoiag8cyOMPFqGljzuvbE7tJwvPSxpDD3sg9G86UQBPH7HWTy9HVA80umSvI6WJjvRpWC9a7kzvcagZTzd3DS9MDPRO1MtDz0/kYa80RcfvUoMK7v3nZK81Nbfu9cAAr3H5qu8OUW5u+Wl87xIJgO+g4LNvcCinz00Vy092j+lveCk6r0J2MY8XA2ZO5ttjD1CgTo9rs2xujMghb21Ljs9n+8LvGwQoj3YqsQ9ACxBvStOHzy2hGg8",
                "jM9APWO6WLx6fJQ8MCC3OlTDPDzwh348fHQPvRXgJ70b/JW7F+UCvBprXDw2QJq8uMUyPbdkPjuZhqK8TF0kvSYtRz3y1l+8vxBPPQAVMDtJWvE7ncMNPB6vPjwgVr08WOg+PF75UTw7QKS859s2vK2lNjr53sk7rpXdPU8w+DzrykS7kUMiPMY7bDhmTg09Bvd+OigSR7vPeeO7PDz4OgLkiTy6qSc8m8WrPIaxTDwYfr08QoIDO9/8fbxlWyq8L9GZOx+waTyYuEY8EGeIvCRhszwvqKg6hnsDOx+cRD2u7Sq+XD4cvYbK/rybaI08ihWcvc969LzbDaC8PjkJvh/yb7yG6Ze9sc0tvA1DEb0cQ5A9+NEBvXfaCj2qrk296xZ6PYfUcrw6HHI9Al7HPPYkQ7ys6aC8NdsrvPN3gLxY5Zu8v5NqvO1u3jxkhzI9f7TWPJdVTjx2jMA8+EkJPf2eMD0tycC6ZV3pPE8COD387iw8Mf7CPA7Zor0UXwA9qufEO0T+WLwmhcC8E15SOV0SGbz0Lyk7HoMiPOZB1byuDX48T3kxO3SY1zxQrR+8LgvruPtT4byNTQ49o/NVPNtFnTzqjc28PYvDPJj48zu0beI8GAkZOv6WhT3Qt+u8LduLvPqQ6rzW0Bu8LRgUPH6DWDyVrQs8inaOu4CTCT2+IIo7VsfVvM5O/jmshDi+EZ7iunB+PzwJjUi+BoUQvcwtLz5uRCg7CjTkO74eb7wZkKI8ZsxfPbla+bvRIBS8QKQkvlgP0T0EjBC8KtRYvKVyJrwBmxG+vWPDvYXdw7uKI4M6SGi9vdn4m7uqcIc60rYzPo5lJz49gK47q80aOC9WlLuGcBe7iroSvan0uTsg2GI8BIktvPiRO7wso/S8LLtaveJ9crsUZfQ71zmLOk9DmbvndwI7P0fvupxnkjtRWQ47soE0PSkjO7xL8Gm81wS3vYjq1juS04Q7nBzVveJdHjzbyu+6or1fuwLunzyxZAC78Ryeu5lByTp5T8G7",
                "O9aDOf87FLsN8So9+LCrOm9rATya3Ku7eRV4O4IcB7zhczC8NstYuimsG7tQXpC79xPsuh/0HL22CQc+oBqgOwTl+bx/hxY9b7cxvYCUAr5c0Us77q7iPIU50rtpOm+858kBvlIOyTzwb4+6nJTrPA7gvj2v/TS8iinDPDzbdrpINBQ9TGT2PagLS7zxRMC7rkmnOzbDzTxdBr68CnEwvT6zKL3RHEE8Ny9cuVf0xTsgY/28+syqvHfLTDxQQsi7G+xZPNBB4TcM/4c9IoQLPtVhYzqFF4i8RjDHO4JuXDtBxu27UB0Ou6JoljoGnQk8WmQqvAMbkTm/lZy6WPOePVQvALynnA+8lNhSPT0DQrxJy+Q6uoiUO3AiLj3C0DS7TEqwPLpqIDuYqBI8/VSru+6kmzxV9Cy8njy4uvEwLruX8Qo88AktvNBHxrmihBI7HdCzvOZsDDt5jHS85+Q2O/G+Bj0adZ+9s/1ePUIZuLxbWUK9K+W1vQ5EID1RW8y97xyTvWTbLLxkZlK9FTi4vfvg+z1wuL89MeBCPA86Fb7/BQK8UAMjPVpUarw/ZIa9693evMhBOj3t83U6vZYWPJZYNT3IWtK89pRxvNqw1zu2KY27urzDPB/8c7u7oe45uPLOvCmuZr2gpT890VLevPtlvjx9rYK7VCRsvB3Vyrt/FHA9+pWtPCcEiLxrPyE8N4G9u1xFQ70qcbC88RATPSZ47bzF45c8GXO1PCKVmzvR7kW9WyxePBmzybsIMYq8ZabWO7FLhzw0yx+8gxOTPDJHhDtXBsy7cuZOvHv6PD0UfOy77UU+PPTNzzvEeJC7RN9WvOBPTzyzD7I7SPGXOxhjtTtsUQO8iwDTu+9lkbxhEpG9FztsPM8mnb6iaLU9qj5fu2d2Xz3mfGw9wSGzO/WW1LwREpy9uZ3QPNJ6aT2noqI7RMZcvR1igT1Kg4C7jTJOPVcAwjuiQc87raVGvWfvrTwEtDG8ueakvBUdmby3UVA9xeopPYqBHT3049g7",
                "8UYdvTumojxCAmS822diOxLq4Dsq9hC8/JKfvVYLijxKElo9kRUmPDOTl7nwzHQ87lK8O6yhub3xyyI8dkbsuy81hDtW+Ti6GyrMPIk5/TvxQwO8P7fVvHfmJDxW2Sm9XMsfvbk4Bz2QBDs8Vq7ruqfvDDtSC1o8p0RbvOpluztTN1M7Af3bOxNnTj3M8sM8xeQCPGj+RrpK8EK9cnxevJPFabwBxOu68OZPPHP1yrtaufo8AsikuggCgzzsWTs+mwlaPLOxRz7Rwiw9QislvQCGpD22sN08MDRkOyUkwLpGZts6e8NmPc01Sb4dQ5S86eblvLidpz1LUhe89kFyPZglirwoijK7CzKVPUI8zTyIja28TXuFvFSGrjs2Rii9z7yfvLjeZ7wFyBK7Z7NnvcIWQr20ZgM95+M9PcZq3bu/Cok7wlKTPOj1Drxf/Mo7kI+GPcCNubqzj6C8T7YwPIuWBz1HY7I7DUx5OoyhFr0C14i7jwwaPUcJODyuWNc6ianTPOHeVrwu8Sc9PCcMPWLwpjx+4Y26EOfzuqdhNryUvjy9I/EFPVCTljxsnEy7G2buu0uRALxcixI9Sl6SvCOINjsf+QS90bEruVsfjTw/8mE8IhAJvH5tnDu7OAS9AfWEOsD3CD0WhxS+OaH1vbPmZL1zqDy+tM59PZV677wMxAO+KHRTPc5cnjxCdlW8MZrhvJrrSzv7fzc9+zXlO8slLDwV5Dq96ZLSvMFlHz5hmT89jX+suwrwmr1AizW9YTESOmGxdj39D7e8GngOPMRQOTtYMpo8quRLvCNE9Trroyk9igjQO/ilU72LQQ48Q4j/vMk0krwFbZO8Ceagu+Gp+LyORWs8+cw6PdnBuzy0xDM8L9vYPB+1W7sutUa7JNjAvFcMK7ziZBw81PSyPLBVNrxq4vW7g8sgu7mEXTyf6iQ7VbQCPONG/TwlxSY65C3VPBEx77soIW67rcdGvOhoQrwi3Bc8tupMvGZGPLyKfHG8ZGaIu108QTzfmqI8",
                "+eglPLW58rth0hC8qpB/vPl6IbxGfRO+SHo7O3y4hjt5+h08FGKbvXlB4DzuB5G8sLepPPzCSz1AfWc8Ksj8u4hrWL4El44+G4AFPSnU370exVI9HCgVvIJCeTu/97O8szkcPSYhIL2Yfu0925kGvUeLTL2ISom9OfsLvWMjKb0K1dW8UwmWvGiyoD3nSEs9mFBHvZDSGb0PpzC9BN7xO9xjwrzRc5k8cictuvAMCz2dub48S9iQu6d9Jrwe+l68eSALvFR8GzpITPW7tcr1OhKH1blTo9g7kdAQvcpsIj3Firi7l3Z7vKWVWrtzpZi8La2jO0sz+bxiZwo8KxP9O3urOD3NPOo8wIzlPI8sFTzBFRa9NJOKu7Jt0ryA8cG8TQ8hvC3J7DqEThM6OPbbPJ44gzyYeyK895sGuxajL7z3BoW+PWtSPhUX9T2O4+a7mvyAvBStvjzZPVq8sKOIvTsZDz0oM5g76dSHPI7FSzxQnbg+Y8aNPF6Ubb2HdyY8DXpru715iLv2Hx28IfJVvQUzdbywnDC7lyBauwQZJT1C2Ca9CP2MvN7B4rqRfzC9JKFMuvLdOz3BQRs9sk6ZvA4DM72ZFei8k083PNKqZ7yIHHI7VfNVvBJUVbzef4q8lvM3vCKnLTsbNRo8HyWZu42+mTw9Ohs8qKwGve7aCTvQkiA8XCCIu8PykbuQH3U8ifmNvMMmoryoYQs75Ov6Oy9U27vkYJI8t9YXPZxYtTuiKDs9x8OMObA2FTyhtYS8fx0DuguJVbvM6Io8FrBOu5r+dro2uoY74+yGPLZxF7slreg7z5lkO4DSdjpjPAS+Z1tTPI09rb1KQ4m9n+nUPSFI1znz96y+Mh+Hvb0tB75JB5K9lncgvPVarb0BlvS8kKGmvFB5Dj2cWog7ctydPOghDrwutCi9lrS2u0Ya+Dzg1PQ7V1a4vFmRTL2+VFW8nLGzPHxXKDwmw7O8WL4ePVWKO73QFAw99mWxu02OKLxf4oU97QmEPcNSrzt1rHO8",
                "BCtWuxKqF7zsFxO92HSDO9pH6zw8rwC85y2PO9jvubwLp6w66ksqO47+djzppJw8q/alO5pgmrtecbo8njotPA0L1jt1aJ+7GWisu1I8iLwn6YM8JpAjPPHJGL3uXh27o/bBu/mGBb1BmFw85Q8hvLljlDzI0Kk6XHOKu17g0rxMYsc6nSC3uuK/xLu4NZS7WKTvOvMepLvuq8K9NkWauzDDIb3qyRe+egS+PTwbar1Ji208LJxzPLmH6DidP4G9BZLIPGZVCTxnA8o83u8BvSxSVj2IgHc8WiPaPFScgb5Pds09hYGwvHEcNb35X0o9tvFnvKGCw7uA2OO861sZPQoAgz33ves8MRYUvV93kLwOSoS7zWMuvEQ7Jr1RXIA8YvxxvMycATx5ro27yQb5vG09TTyzqu289ULVvcPI6ryIf9Y8OZ5BvJTNwLxNh5u8/ZAdPeUdHLz3UIo83NDUPEB7nLyXCCU8/ViNO1TKJz0g+g28EO8GPE4RpDw7Sgc8AUSivOKsGLxs9lK8Lh9IvOk5Ury//7u7Qr13PA8nNDxlr+I7hGmsu3b41zkOiE27RixrOfQjZzsIngY8G7z0OwHjI7twdXG+PSjNO4/aNjw0pIg9VophvXrstbuMW9085zSSO1PZhLzt6Ry7asznPZ1u1bzWNYC963CIvHmmJT7nmSg8Clx+u409B7wDhDc8K7PHPWaMJD2kNMM8mtyJPZyZPjwo9MY8s+MPPQZGDj1F2z08d/OHutyohDpZVsy8hzxGPDJ3U7xWvTa8lUwrPB/8/Lt2fZu7OmYTPMy80Lye2pa7TafPO/wctztP4Ys8r7juO4nchzvSk+07InUNPYdtBjxjMUi6uBDOvA6AvLz+oD28+Oa9O0Jjc7zmxpk8foMhvL6Egr1ZrTG8p15ju1JNDTyRWKk8/y6eO6WOdbyBZ5Y9wc01O0UvATzNqCm8/yqnvNdmHTu/IP07XU1TPJ3gozqxj+G7BuVaO0Ix8TvXbVU+lazMPazTsr1SCi++",
                "gTvAu37EBr4Sl0E9UJNovIX0T71ToPm8P+ebvD2PGj3bi4a9IwzXvUx1lj0zhwm+GtuXPVqXOzwLGzQ87AZCve9X8LyUPK+6fJpgu9YupT39nPs6mOazvEyB57vCSK08wjd1PPLBm71vGbi8opyQO5QHGLwfguI7x2fbuguZIb39LC89VVmkPHb5hDxXkmU89+kLvDEYOLxUV8O8uiACPBggn7z4t1o9ahlAPYku/bxR58u85jJIPXbriLz0rVA8O7BpPXVRu7su9Bm8xreqPA9xNj0LtBO9NlMvvDpACr0yF528vHGIvC7HBb0gJIA8Jq8WPB8LC7xZlya5eHJAPStGPT2GvQ+7BgtNO29hDL1dFmE8v3Ypu5yHgD257Y6+7KosvTqbHz6kDYC9a2eDvppTCr7Od6i9EDmYPCY78rzCdr280wnfvWdd8T5rCqO7U/a2PefLlr5sDKS7OWrUPLgMHzoC+ri8DiHIvXppBT1Xz8i7wSzfOyl5hbxANNW8J6EoPJyXS7tiZXa89fWRPcY+AL5Kh209aLCEvUiyM70QNfk979CkO239B7znX/67PlCovFGGmbs/USU7QWeFvP3677yzzTM7QyZHux3qBr1EXo88WW4Pvcmh9jwQfza8Qc3dvEYAsTl6oxw90JFUPBHrxryWPj67K4WPu1nV9jsEYSW7ddX2O2lqk7ysfYE7w+s0O5eClLyBsPC8UVECOw+i2bqygVA8uiJHOQJYwDtA4I07iqYOuxbcDLzMoxw8TLpdusnb9LzbV5099ShfPIkP9L1vGjA8UnWkvfh+BD4SXOC8SeoRvYiwvDyrSDC9Ujk8PB0vOr0nVJY77sxNvW2xyLqAJjw8DJzIPIxFL7y5QIO9UsUEvUvwuzxgXQU8QKMgPR4+5juEBUg8Z/IHPagz8DxpRZc8KUFPvWk8iD3LN2u8vMfQPG/D4bwfWbG89YbUPCYeBrtLVFQ8O2QBO6xIbjx5dd87EQijvJA47DuSQQo7OJfpu+uzEz2tHJK8",
                "tdTSOmB6FDwNcQC8to7fPEwmYry/zNm81EMyvNLigbz5D+m7aHGvOx5zsDwWMrE83/4cOgnPED2W2gu9D1fZujADNj1dGfq58++IvGNcWbx3Cao8s2Dwuyh5izsIvWm5AB+IvY3tZ7wyTdK7+TvvuQ1i1jwLEnU9zlRDu6RJ5rp86x++D5Gwu8GK7TwcqEo7pZsSvOhsjLvxByM7BxjHvbThkbs+Foe3fElwvTNes7zNIM+78Rf6u4/Lwrvkwwy+eTGhvZQPJrvBSm+8FxEkPoaWDjxCSMa57ITavROJzL3xu8w70e4uu2UqMbsqBjg8MM9ovR4MoDzFpey7VgIJvDWPljtA06e9WCoOvXbBNzzHrAG8rSUAPC35Qjw/09k7rNoAOwrtozt2Hoc8l2MPvcLRmjvzMJK8klGSPOlCSDyYqXc7Stv+PJmH2rvcO3g7gyBHuvTPS7yL8BC85ccruz9GtroMyh08qEzNu4wZKTyvXWG6cpAYOy9gFbxlcU85J4PaPM8xVLsPVRe752xBvNbmuzuaz0K7TmtgOpMYDT2p94m+T8ljunzaHbxEGRo97AswvSv8Ej4L4Ok70ehIudvBgLyWFyQ82xYEPrEGbjv0Cl08ak3IPP4moz3Rv/U7PFbbPIAFNrnCgMk7rz10vWzp7TvkoRm7BGOWuYiJiDtax188ARI1vbZk57zY1bu79SWqu+yHRruFi1i8JKV3Pe5BgTvEnvk7L5YXvHQpJLzoKKg9C2CCPK1/vjvGHQg8nAcoPLiBVbwAK+K7o2/kO5ldvTsxupc7PBm4Pbj6LLzZGEU8GjyiPFcoVjz6g9G60GmqvS53Hzu1QBY7ctBFu+UWgj0WimQ8VuQUvJ/zvbqdvxA7gF5Iu+91sLrIaae84XjjO9Fh3bs/N4677lOEvYg3mTsMPWa8IVyfPR+bQjw9uci7XVAmOzGDnr1hPx69uefNvPyfoz0XcN08Kr9bvduoJr2Yxk671NSAO3zt37wySs29/fiUPMvvW72NNJC7",
                "ICmDPaOedz1Rpb28CBB0PUeNQjsQOeE8BM34vY5yYLwr7987xPn6uzm99juADn29PQlXPIeejDzEj0Y8lzXSvVi4ibwbJEG7se0GPIjZb7x+z7M8F1ohPTYbMTw+BbK6iAW+O7y6SDxEBAE+Jh7yuss0ErxtqbI72fbYupDR/rzE1OW6QRsaOwzBOLzhwU+5JrNZPNOkaDwuxJC9elRBvFTmlrwH1gQ74q/CuQxVITwBYVm9byYXPTOu9Do2BwA8PaSdu19gljxSley80nCPucgW1TrJ+ca8Eg7yuxcxljyayKA843uvuxK0ibpuOmK8sNWrOwozJ7wodrw8Cc8WvrlAnD3SIEC+4BTwPCDFUjwKE+a9pmdIPtWQVD7X0Kk92KYIvd0ob72wxWY976cjve9lkj02IPe8dzu1PH+IHjyIEU69LX1SPPkIyjwL5qq9EOVsPDxJoD1Ka9w9ab9ZPWJFTT0VO2c9rBAyPRqvhTxmYp47BoYJPQvdBT0tT3U7iL0BPTAOQ70x36u8wHfkPIxmTD3AZd07guUFu7AVHT1cBjE9uEKGO3TDILze6Jm8uAkRvInWirtrOpi80t9GPeUgMjyQnUg8zSxDuzl9r7lAgOu8zROoOmcCrbx+gtU8bIZXOysrgjw9qYM85SwxPcr00zy8T2S8jEsMO1xITLyzMh+8PbYuvOesDLzE2V87T6W1OzW1MDwLYzK8asDCuva7szvr566+UCxnvY+mfLwb7UW9TxSSvgBB9L3d6hs9CNCVPTOj6bwaudY8YveXvTIW5L2uFHW+eDsGPmtlRb4MYao6vgnGu4mb3jsEdPC8mfvevfavgTyJCYg8zxA1Pe73ArrvMSy8OAxOu2ICMLyX/Tc9sjWuvE4QUbxebLW9QYuSvRbqqT0zNEg8LSPcu4TmILx5XBG96AaxPDJx3LtKFMY7hw3Ku3o9Z7te0jS77M8HuvZ78Tzx0uY843WqvCSK/rvT8qc8yJy2vK+o2bxQmgm8mjC0PEYu97t4oNq7",
                "k08IPPbHjjp9XwO8UCMNu5Eo5buDw0C8gjTlu/2/gDu1rc+8Ns0BuYN4nzsHDZU8ur5DvLrwfLtRh9682ZdTvOlYu7uk0i27leE4O5ndk7yFkgk+Srv7vKgDDb2ptQO+JskXPgHid71tBhA+3nUsPp03frz6ZfM69rOJPI7JZj3mUsw9cx3ovb2TpD0bi7o9zd21PVfIRT2zmEA8g0wtPRq1eDxNBxE9AINGvY9/EL1aHgI8rgQ5PYxtjzsp/Rm96OG/u5et0rt30zu8p+DqPC1Vwjz2K4Y8kLInvd9ckbyc+5Y733nRvLD8kbvjwBU9epXpPGs6Hr3Tkok93C8dO+m6DL0kvqa8kI12O+Q1mbwaSoI8ElHLPG7wLryefeE8FC3ZvKteuDy9/tk7wlNmOqmK+DyOqY464VIaPcEDiDrv8+G7TirTO35+bLm+Tow7/SfhuZrS6zzYmdS8Wdm9PPqRd7z3Mu08o33XPGWGYTtFyMQ5wSjUu6UcED0Ka7U80nrhvAY1Ij2qgeK9DoE8Pengx7ymfPW8SspCPgkOQT76s2g8B8SDvGRRw7ynR8s7nUf6vIOtCj0i3oG9LhcFvCrlRz3Pa5K8pgwDPEM/LzxkNG69gWhrvLEigT3neWM9GE3CPMimKTvz+qk8BHUWPUxWrTwYMsG755FtvLJ2dDwRZwG9g4lqPCJVgjyucwq8DsDQuzSIoT0Ds6E80XECPbhzCzwT3Ii8lorCuzoIIjykI229wxgWu0CiuLr9VRc6NoATvLEedjzMFjA7Hv5euzueGryqS8M8FQ16OxaXf7odqDO9BMQvvf/JxzuFBag72pbFuoOLzzul5uk7LkLLum6AAb3v3oK7wkW9uTAZg7oVI6673yxCuB6ZkTyL7i+7AE1YOoc1VTwdnqS9x1T+PQ3ZgD1YV9i8JqBbvhcPLb3Mc2Y8Mz1yu3tV0jzmp8y8iCF3PDdKeD1fJTg+6Z+aPBB0ibxqyh69zb/hu0osNDxNcyo8Qx+EvfgtiblOPDG8",
                "aai8vDUpPbsbiF27fx4+OzwxjTxL4JC9oKuKPCPiQjt0r6A9KzQ8Pfv367wRm/s6CzaUvJ0oBb2WWdU8o/IKPXD0fz3MXx69ITLDPFDF5Dy9Rjy8nqwHPKP+yLy1AKu81HvZu6AvxTvUsUC8xfaQPLe5CD3bbdM8BnKuO9JxIrwOu2U8tZRrvLeVaTplmRY787dduxGUUTx32bO8+rJ/PPKYILy8b6q7In7ZuqkKnLvm/BK8GzeGuxgPjbvwDUC7oqJwvK0y6zvt4Xo7pyO2uKNFPLzkeJ89NqB8vLQxIDxr6CI9GFTROxPGZjmwuqA9a8C7vEWO7ry+Ph29/16yvJ851z5ZJkk8RXA9PZntxL1ve5i8HnPNPLWMizzFsIy8E5fLu8NxvD3dmiS9pw29PDrmJr2UC4o9yg0ovXjNXL2MO7W84ofCPG/klL2dvC091OQcvbEiPr2/yrw9JLx6vSopWTwmhsg83Yd7vJaYkrpEARK9nOt1vE3vbb1HjW+7UDfku72WgzobbPS7pmDaux8+ojwOriQ8088kvdw8dbySJGg99Sk/vEpR2DxBjpU7Qbu2u5vnn7wRKda7erS5OxLNpbxSpnk7MiADPFkh57wJuJe8DHVUPOW9PLtDCZq79lMUvNJ3Wrzqdgm94hyxPHtQzTk8Rdw8nc/1u5Qjjjx2FYK+x8VBu+O4yTt4SyC+Qx8Bv/kyGr4AOfS5kdYXuk0WwLvK3zc7zAC/vF+W5DuL2888yZgwPjvT6Two99o7habWuc/bk7u5A5E9c+Xsvlir0jsia/C7p00sPmYk67rCYHw7LXlZPUs0RT2s2Fw690lDu6zOqbunOTE88slevUAEtLu53Pg6BVsfvIK5LLuPYUC8RDcgPYiSjjp0Fd86sz0bO46+LjqppDq5geoFu+4E1DulfQi6uVypPEWCEDqJ9kM6+zn+vB2l/Ts+v6M7kdFyvSR+aDsGSE47kN+6N/CGyrwueCm7wgjTu7X1+zrcHSo7sWivOPnoGLrJbZI8",
                "4dHPOYE3YLpw60y7mhUAPcyz4rr+np27VeM4PbPc0TvB0sy5WpdLumcTOj35lUE/MwwAPPqcqDrUH4e/ER0xP9h5fL33EyI8lea3Op1j6bmS5Ei7ou7gOUbDf7ze4UK7sh3pvMjCwzwaXBy6sS4qvGlMaDvAEZ090DBSPm0fQLsYF4M7z0owvcZVWDt6J0i813NJPJsaSDwRIfI7Rot+uwDyOzvuxUa8ywdQPWOGITvhqZi6YTsUO4s/Rjv97US8CpGoO6/JkTqTS886i3E5Om/eSDtMlt05sgjNtvE/AztqR746UYpwPMv2qTrulnE712skOsmMYrtEEse76iC5u6wCkToeVRu7WLQqOpxlhzx2WRe7HaZJOwX6RTuQ0R44hQOru2zZZLn5+X28nFLkOhe5q7onLyg7mFHNuikklTvqbzi6006Gu+bSBjtLLrW5AFxyOhljIbwPjN89+PDLu5aAgT23rco8Jb/EvYfQgT33P/e7NMXLPPkQCTywG6I8PSQ8PNgq6r1DsyC9sQVhvTvLmj0xnvI7+ODvPNjlBDy5WsI78pAWPT7Gn7vcLOA792d4PFg4RT2jvyg9CW8xu2CK5DtrG8c8qLSLPFajUL11V928k9oePd07mjqq2bE8rYxKPaBvH7wP22k9HFWkO4Hv9rsYrdC8y7GHvLRYlD17SOc6vcjEuwuXxL08uVs9RngXPR7G0LybarG5dYAIPdPKgLzbhPc8YUqpvEHOHzxFnXg7Fg8nvWc1kbxWeHe9X2klvPkgGT0agK+7VhhBPDKKk7om3iE97aCLPCCZn7sPLzi8/T9mPJximTzPwoM8kLsRO6q/jLxvUQQ8dwl4vFIzJDyfVFi91gvWvKvw6D1FoqO9HLGuPLHBwb2j/tk5noJnPAdS3D3HFwY+mrJOvdT/9zxaxJK9Xx+IvZLsHj2o5CA95zzDveckHL1cfVC96c+avEdDrDvOFiC96SXrPLqEsrzLQJu88defPDb0ADwUADO7A2uAPeuVID3+aCW8",
                "YRp5vQ1gqTyzZxM9ryerPHf6+bpukjy8vHrmvLnYOj1qi/+8GqwxvUhOOD3zzr+8icaOvMJnNDwi5iG8OAMsPZUmbz2uGus8MVlpPfvdsTlI2BU8efpdPTrmcryvtQC9X+e8OxHX/zyt6EY9M8/OvBHWlT3aY8M8Qjj8PHd9szwDOIE8hxtFvK1SErwWlog7TWy/PNnrBb0wbDq6E8DyuU6tAT3njDa8V5VAvN0xAjzcyVO+bpYTPkHx8T0cMBq9pC9aPNbfJr1Y1Wu94r36veL7Ez1ulbi8oFAKPPbIl7wFCGc9FFXHPLlT/DuDRHG9BVB3vYkErTrlGvO8QkKqt3tQpDu3ESU87S+XPFJTPL1WaBc8UouyuzXDgTyMqQo9i4EqvPZf37yB1qk9OKsPPPjnQb0xtx48EphHvFKcsLszVAK8U5CdO1613ztq7wE8mX+Tu24TsjwwvQq91yk3u1wyAb3ncoq8JgYTvXbGgzw8JEa98FkaPbaS97uHUCE895MXvUvIyzz9mC2994M5O4YZoTzCzi47lr9CvJbXgDtWGaK8Yo+TvYAABD2OUA+93n6xO3U4wTtbWJC8nTp2PIj8/Ds5c7m8keJrPGS/crxXXaa7XXXRusEmujy4wPm9vEX3PN7g5jwtLSY+pbFZPQ5FOj6mUNm7kIj3OuI1ijtpETE8ppMEPtk5WruVJdA76LnZvbQayL3Wjye6AAo9POAPCLzyQZs9YSwqPdE9CrzWfIU85+jBPdGEyLtFJmo77x3avdGryL1fTTI7kZn7u4kbTbw3eF07C8ICvvstmLup0lw8gfOCu8rGGrzNu/w9JrnpO+67Kzp62wA8aPSUO7/OwrsC+Iy7u5HIOl7FNLv4en88liOSvdrGVTzs4Zm7uAlyveo6yLqC7VM8p+8OvqFXBboGSXu7hJoGPJL5mL0v2ii7RIZivFhCMDsqFXS7UWVLvK4SqLqG78c98hGeOkEs1rtOyXS54Yy+PYnKUDv5hN+7VJltPaKmiTuqXuK6",
                "jTXMurZDhz3W2JO/N9jCPLBT8DyHNZK83xAUveIvRz1hhrc831wqvCStRjwsC6e7dZ/xvP4E7TpoML48C5MrvAMPxDyrAtE8ZP00PLPRnTwiMTE8W8zKu7QZ/ztF5Re7OoCcvNUxaz2JGBC9JOlnPPs4MzslloO8JTgRvWxIYDyqYe+9Er8mPJZm+Dysrt47m6JYPbGpsD3SzfC86nMrvJkosTyllR+93RCmu9bMpjwUB5i8F4BePC809LylfFe8UclnPd7worzAWAM9povxOiFcfzyjpLk8bIBcvLbPSL2/vl4949AGvA3/vjxyiCM8x7CzvK3ROby7Cq09akjUvMv8srs2H4m6zjrkOycFNr2EJn07BXQavBROzjsseWU8+O8YvGj9JT3c4ME8n7AnNyinhzyd7oG9Y7guvUOX2zz7AaE+T5qePVjKOr6C44a8iR+wum/Un7qPtLU6CqzevAZrdD1uWHw7URV/PlyB2LxxshY84rIdvGYUhbpP9hY9AEz4vi2Oy7sg8RU8Ks5EPgBibbzmcgC52l9IPKf9GjqjuGG8KT8GvK4n27xSojU8njSMvJQMXTwKnGY7lAjQO5VQtbpeKVy9gYn9vKH7ibtRkGE7ZQEqOg3MHzzTJFg7nAKWu4D4WDzQHjy71+WcvJFi5LttM4e7Ey0xvNKZmrzuMm489+LGPJd54rtMlJM7laFuu3D7rbvPGDO7Y2eGO8piHbxDCpO7JN8guVzlPzxdiZq8O9Ewu0BNBzzD/KM7v5PrPNGPprwcqQs8bFHqOw6BWLuGohe8+PqLu1R5FrydlSo/PKj/PZr4hz1ofNm89kLKvVG/YzyZ0y49NI58PSSMXbwk7FI9/ie4PDrDKbyGFuq9XTEDPaUu5rsnWlK8gjvuvNb+U7sr1gG9aBoavTiyWbsJeYO81m0fvLs+dz1hjRo82t7vvGMlPL2G7ag9XjHgvMTZTTwZq2Y93a68uy0Fi70g3ty88SAWvdDb3rvqLj695EzkPHsmgb0ieZk8",
                "EN/OOkfu+Lqr8jU9BsWou8Hp/Tx5SFU8eSIHvPghyTy65sS7KIQuPS1nm7wTLKI7tx0ePQdyTLvLV4i6+mC5PN5HUrzHjn48KnKDPKvSmjmuc0c90jASPSFTBrxU3Ra9JT4ou0xFGLxNZpA89nYIvXXmxDuPeGi7xD3RuwJEJDxhamo8n5PBu3bfeLxy+dS86lSRPfaYXr3BZAu+IrivPS8UMzqB8wW+Lzh8PmR25rx6FQ++GwojPBFQobx4wDs82d0OvcOXjzzNtJo84YEnvU/U1zwhcZy8vzcoOyTHYrzI0WE9YunfvMgjFT2ox868cFLoO0wLLj228TO8afO+Oyyf2r1vgJK9jFaRuycH9ztdP409Y53lO51seLw/DZs8w3UyOmog0Dy7KYg8xHVFvEWqwTy+L4y8MNQePKYHh7zSjQ083jeJvAvWnzzjuJY7NvtLvO0qUzxFtGw8q8nCuJjepLugR407Hd2GPGYNJjwtbMA6PunjvDFNcryYfR68Am9xu7rKULgp6Fq7xnm7u+RqFLuhTMs8TE68u7UQN7wP9k28x88dvFebdbzGf4w81x1Vuwrc97u5jFu9SN2bu20f87uGKcW8+hd8vZDTvL3IYBG80MgvvNu+CDueWF27NeyWPd6G4btO2c87aB1uvH6r7z0l83y73rIbu/wifjtzjzk+dh4nvUN6hTxlW6y7pZTmPBZugDu8jD+7PjD+PPYagzzl+KG7UcCxunZtiDpSq9076acxPNjsaLrK/847+lsGvLr+/DttrjS9qQJ7vfdt1LtzuBc6fEQBvM+RuzsMzsK6Da+JOwzA9DsXR0E8o8yZvfA+BDk55V074ZlpPaKxJ7v5jLE7VZhrPdWcA7yJfra75LPQO/UDkrzQlg07WXglvJI0ZrwBlwS8lnr+uZjykrugrMs8UjuAOgueuTugVbQ7PDrAvIxiOLgqD287OzxuvXUxFzrRnL078hxXOBDTLL0bTMo8pPyoPXrW8zv15r88cfSjvT3D0rxO5Qm9",
                "wn8oPh4sFT0J+7g9TDXFOkCbCrwQcr888RwHvRlRizx7TdI80tGJvIEIET4ZtSs9zYa5OxKKxzvF+zG9DUWOPJLtAT3x8qS7YqhWPAJUEL2CdTC9NHjEvJbdALwDSjG6waiJPBqDDDwJyB69Xo/hPFmqEb1ubjg86EW2PD/DlzxE5GQ963N4vNh4NTwsdgs8fTBTvcGRIrzlieO8ZJ1OPLPgQL2eR3a8N4ZKunCpfLzto+m8vTyeOyci6Lv0nOq8OLvFPBQ8Q7whCSO6ZY9FPOvhmTsv7sK8GEw6vNUx7TyGXwC8YIGJPFPg0Dy5F427b3OAPOHW2TznXIy7BY8EuzVFSLzTew28V5Tau3EZsTotPni+dM+0u0l/eTs/dEo+QEDMu/idD7x5AQw8hhiJvOX3oDpE3ky7pYFgvRSymjz47tg68FePvPPlWjzI2ky85dCju0m447rdaMC93OybvJlD6Drrxsi76U+rvMGuO7xSS4W74rQ0PbT9PT0G6xS7DYADu1I78zs8wU86aysNvHxgDjxVRwM8rfOWu8blvDsXr3q9aV89PR6yozrzzPM6jpjDO7liHDv0KDI6cA3dO9Y6e7t87oU7Lwd5PX+2vLtfyf05S+TDPUvoCrvCfBk7ecjLOxu8Jjrr6tu7598Lufl4wzmL2o+7SUEQu0jBgruQ3VW8TFPyu8KvgDt42eC9yiDsuaXJqTtTAuM7Fj2APSQAjzvSJxC7KynEO+RWxDrNlSO8h9p9O5z6oL0ndcw99qMLPVnGhrzKuoY8VdDEvM99jTtwvXC9CjekPTXL8DsSC0i78p1WPbZxLr4m4TE+VEAOPeGgoj3naiW90LWaPEKW4Ltfx1M9X5NLPEibuLwnW1E2VG3KPP64gb3msjm94MuSPJqyLr0YMYK88A6TvFy5az2f6Yw9zjfpPAYIL7uXlzS9174DPfGmI71kue+7PPwEvQdBCD3U0oU8CHc2PBQfDT2SSII8Smbxu/oWhDxnN8a8nEBwPA7onry+k7a6",
                "ZjElPBRONj0AGgG84cauvPVzLbzIuSC9DKiAvPJckbwecEu7kzOIPLiQPLz96bW768rwPBmQ6TyQi+88wYW+O2NHpTzq8ZE8D9fgOzH2Vzom0hY7Sjw6vKH3TjzqTOi7tKe7PH+bmzzxo9y9iJkXuQFamzvohII9kxIru7AoOTxw4S88m1TVOh5aVzmq/lG87wMnPpnSOryGjs08J71SvSIOnz30nI08jzBpu6rfFLvnYEc+t6ZjuyuYQDs4Nwg746dWvXZTkDzPeHS692Q6vatHOb20aY46q6urO9LvlLsSjlK7yladPfwpqLzbt3I7e4gEu0JRcTt7emA9LF+qPGwffDxT5M66TZZZu/7zeTzrGzg7RcVoO/IvDbvryJi6AO/APbi1MrxjLKK8qi1Hvf04b7tapXw7k/azPGd0vLtk2QI89KyrO3a4Lz0WRQW77WXbu1kz7rt1Aqa7B+R/PP5poDsPW3K712RcuxsyC7s3L1o7PCPdPEyCWLuOQtS6PqHHPF1RYztDQ4Y6Xfnruybebz3wE8U9oqUdPqnYHr3O88M9uObvPXnIkrwanDe9KD5lPesiELveiJy8RVjRPOA+Aj4bZRS+fbGOO5lQmz2oCm28BPk0PMUHJjy29Fk860PWPNleDrzSTV48G3X/O2xUUTxFKpo8ZqJyvcjxZ72Omyg8+GYIvIwppj0BwEA9upZuPfnYPrx47jW9PW7AvGYFEj0UBgC9xVAVvcImu7zBSLq7QJqeurIOm7z1G6W6dLgJvMWIFbzEvQo9rHv6vHZXErwDL1G8MkH5PHH9w7xs4o07x4otPaY3FzvfO/o81MxNvLQFazz7nOo858XsPFNcIz2Jbxw8eenbPAVAwDxMoCK7GYb4Oyrb77zI8FS8hUJuvH1UCb0CyAw840AiPGaZjzwGIAm83TZOOwDHGrwZPgO+oEsIvFJRZD0ug/C9b117PS3zD7y9ECU+W5AoPbxxCD64jIi8p0TcO9uerbwM7ie9r9IKveU3ND2MWzS9",
                "LC8pPLW5nr3F10c6PQKfvG7INz0jGIC9SJO4u5boCD198qk7TCJ7PDOW7DxSR3a9PJmLPZGfRj2jndu8gi3yvHr73rzTike8BlfzvCz5Az3qcl67qVWGvNsVd7v3M8O7G8rdvBdKTboi2JC9SKsYvMGV/DtZLtc72anJvCVRGbwhVKm8LjbCvBUh77pJnhY9KLzqPD4htzzGyJS8AbLgvAYmLLtIM128FHKYu8QAbTw1EVe8mmCFvEeKXrwB2L88IN6QuzriMrwKa6E7VHN+Oo8zMTu+2e+7/+WGu890WjxXp5K8KAojvI14yLvsowi+FqdnvSKiy71aBm69gJHDvSLvt7sdc2M9jfQBPfRBwbzI+Xw8yFO5vBSDIL5Q3z++KCzyPIyVAL7SDbU7Yq1svNPCiLy+0QG9AP5zvWOrFzxMtm08H3j7vGRIcDz1qzY9iRaYPJyC/DsP3gI9FBa+vFJDvTog/6S9dGkpvblbUz2WRSS7vya+vCo3F7yKWDO7JaFnvBKqSz2T9CK8Pw8nvdMLU7xowv86Bi7mO/RZdjuPfSE9ttqWvOdvKDxKRZo7pnW7On/IpzyLW488fgrsOycGGT3M1JQ8lYUSvAKj3TsxDpc7p2lSvZRWrTzuGKe8ir6svApPArxIzpS87endPO9XkLxGO/O8q9+yuasdejsP+b+8D6rou6/eTjwmuX48FyzSPJwEhLwC5nK+Em85u5qEzzvKuDg/ewcHPYqbx70ouwu7x7weuiqsR7sipT+7wffMPFAowLtUW+052yEUPoCInr1ube26nWQ2O4ATSzvMDpG8G852vQxnqbuFo6S63ZW1PAHefLlkNyW7zgeAvenrgb3eD+06LvmjuyLBmzs92u86TUJEvW7pcTuNi8q7d4qLuzQkfronFwO9ilzBvIOGKzuMEBA682WDuoUlkrpff4S5ugVtuus+WbvCsZA6C4RWva22DDrbLqo6KWcvu2mTc7tWXtg6JACpvCkxV7oXpLw5G6ODOYsQJLw8USq7",
                "+ZWhu62iWrrS4uW5aXyau5Q1jTuMJBM6wRchueZH1TqF/We7d6QOvE+Y4zh5hKY6v8yDPMoOyjo2u367THdbu3SXvjw8yiI/gzuVPS0+aL2c7v04miTUvT6in7x64Lo7s2+Ouw/K2jx+zpI8mwSwvJF1nL2jxMA9nZwPPZ/tNbv/qa89fHQGvZ1AJ7tkDx28BNhMvWbHw7xBf409XZxJvNgJSb0Nuku9ORezPFHxUD1UUo883TRfO9SNgT0Xsi088iEivXnrtrzXSxq9NHgyvfiXrz2BhjW9qtxXPHjOML3iH328JIQgOVmGoL02GZG9V6QTu2fS6Ty7w+G8tZY9OwhVnbwppzG8qwLSvHi4F73Voky6lNMvvU2dHjw5hlo8gbN8u3PeTDwsXes70BwxPHgFSj37wx09juo2PT/Crzxc5ae8InaJO9d1njwlNAE8xlI/PPnLsbzjQ8O6wbLAPKiASDyM/wq7UVVNOxd/UTt/LiK+zw5jvTr0rDwzPQM87w89vcdhpjxV2TW7k/EjPAsHeb18uFa7UAMhPWfUh77oDoa9kuWSPCi0QjxTcau8a/H7vL30Zz1CFjW8wyBmPeA567pkST68tdEcO0ng8Dxcevw8pVkTvW30Sr2hovG7avYxvJ2qL71FSJY8rAjGPCUYAjygXia9Q0+Ru9rcDT06zre6CutQPZYnnzxDDIk9H8OIveBUS7xqX0m8Ni+zOi5APrxzLM07w09KO6HoFL1ewl68tv0bPdFXdTxvrEW9HO2iPK2nDb1OTr07tWpIu8uRgLyRLZ28C2VGu6rnJzs6tV09yKaRPGnQQrxHixW8Ykz9PHcJyrzy/XU6Tv2UvPDcM7yt4lY8YhSlu5Z2Gjxo/M87FQKGPHJbUzzZtIK+INE2u2DznbsiLew+qWImviraQT7SmNQ6pCzOOAnDMzsb6CU7wRW7vYFzUDvzFe+5Oi3QPKcVbD0oFUg7cm8DO8conLriG4+6RcTJPB0UtbrDe0i7kadlu4gNnDvJzoE5",
                "YgD6PAQJ9DyTiRM7dsjWOjTZ7rvg8tU7v76qOwD6DToaq4Y74S1Lul+lPTqGg+S8JUmvO5ekRboOTga7E3tIO/0NCzsxwGy78ZKjuYmU+DqWCkg6CYxIPP38MDrmcae5rj3fvCpY9LolLJC5nRTVPLPuobqIzMy60eoYOkhsuTtegcw31WUVOx3hBzvRv/c5nYAuuj/so7rgdke8mxUtO7Xm5bquMRA7ygMdPFDdlLsRCx07v9OEPEAQirpz/ne6M30yOiiBBTy1u8I+elr7O6+Z0LuOZSI+ibObPYwzEj7nR4c89VxRvP5vOjyGk3w7NtlCPcsguDpL0J08NE08vDlbEL3brAI7+//qOv6/jzvHA829tMArvBr5/rqyA/I7F46MvWnQn7sy9Ag8sULpPU3/9T1EBhG8SFf3OwzB0Txta4k8IIdEvRsrnTr6Eqi8TD25us9OXTwGa5i9RbuOPP+fGbyDXau7HZSTOguIELuFn7K7PdXxu1IeyTrPnmS8S+cEPTrsrjuzgUM8LM2LPYQ3PTtwP2e8V3qbvTJ/27tv+n87GXr2OmTNcjwZqHc7vO5TPH10QTtud9y73OVuO47rG7w/1o09XRW2OxOkmDuIG647ZdI6vZoNvTvY5oo8jCZbPG7KTrq8F5w7yAaUO6ID1LwsPBC+uQdSvgD63D0uOKO8EseDPNWlcjyPmDY+N3a/vljC3T1DpX89JynOPFJBk7ps3Do8CyIevTaH+jvWzZw7XsgCu+Ppu7tf4Ru9DaRyu85pE7yEq8U8RNrKvMAbz7wgRIm8BTCAPGCXojwF+WW8UQkRvAJjzz1PC6w99s7Qu3zoa72oyKO9E00QvRIgHj1frEe81YAPvAfYAT0XB9Y8Vv+GuhedTbwaEWW8NKRIu8QOeDwB+VK95TEtPMw02rxEium8oxqGvPVv9TyAiUy803fMujfOZzu3B466OgyVuwYEC7y7l7g8hF6kO5UqCztHGCk7RLgAPTdd4jwu16879F2YO1/ci7wAEF28",
                "EFgEvKpfSjw2Uik7wJ3Uu2ktD7tu+pk6Mx4ou5Btp7ubowu+A/fbPADLQD3TJ1896HqSPBJh47wQGom9qYuUO2cSB71Jxaq9Mjacu/W1qL18rKm8YBG7vI61DT0QMme73FXBvU5HPL0xzzO8eV0NPRV4n72Ov9Y8V3V+PLoxVzx2KJU8GDkEvNkK1LxJYkq8D0sSPaABtLyQnt+7dugOPHrUKz2IYVK9J3T2O5ssLr3npag7BJNhPGv7Gz3UlVu9wwqnPG1ajD0aCAm9mWzYuzmzcz1fXi+8JAjIuwZ8XTvFA5O873UwPErsLDyraWO827fkPHp4mTuBEqi5RbJdvBkdczyaGV069PCCOnJhGL1ASCM9O50gPOj0DbzE6L28UINNvASL1Lvm93s89vArvBsWKDz8/ps8mHfGO/4hOztwNWU7gjF8PEzCDjyMyCa+7bPePZm+Zr3hX1u+TGq7upKvlbsZUYw9eTezvdYjHr1vK906db71vdGOeD2DcYi9RMDdPL2rKD1Kvaq9JufMPFDlSrvG0MK8bAmlvQwC0DsNWBS9z+fZPIzsezz7+w69L3SCPW+6aj0XSlO9q1FUvXCt+jvucQA8hhTAuxPx3DtqxcU8icVgvHsWFj34+RK99miiuy/I1j2cE1I9Wf0WPAT427wySEG9/vcdvM9VZrt26Yi8rF+NvYBwRbuAoO68FU33PLxPljyQmsS7zER1vIWiKrtapxI9o14mvFWKLb1Awzq9jMSsvMTjZzxuIls8grtyPKxwIzzTx4q8q+8iPImf47xpI0q8wmHRvL0F/jxRbFK7n7NBvIg68jux3ma8wKwgu+rnKLwjn6y+5sT5Pce0Ij3dpQ49BPlsPHCiKLzLIEK9pD3MvdSUAz2b9Qw9k74BPcvRf72BAYa+r/AWPcYOmz1IFFA9Hq4EPYp2gDyROuI8AWCFO11VbDz9H8s8bzL0PAaCoD2x7QC9OQJsvLlr3ryclr68Y+BxvCAs+TyOblW9zjMZPRH6VT1i/i67",
                "oXgAPaMlfT1jvpo8BdEAPbDIYbyW9f+7HZ4gPIcXCTwrdae9ZjsquujTDT3BieI8rZDiusTThTy2Skw7Zx0TPOjmHrzQt5G8Z8AAO3wrvLzxDuU82uyUOtk2m7z8H4a5SU2/vLBJEDu0bNY865eXu/VtFTyuIVw8+o4pOz+297zlZLY8RYOCvGHPuDuw5pI8jVjwO38q1DtRzea4dP6Dt8t2Kjy220q+J590u3F7ITzB0Uu/m5WCvQpfML2PXUE5CCUwvOVu4LvFtME733mQve0FBrw8AZg7eZ7XPOdfIr5KGC67ZAUFO3ZovLov8KI8+g2nPhyla7s/grA70bIxuyCtp7kI31c7I2pRvs+3S74sDgO6CkQgOsQR5zr2ZaC5T4CGO1KLk7oKh2u7bM5Ru8fThLuoBbm8hvEBvDWNQ7uJSTE7naYoOxdKqbsil1o6wrXWOpIsHbllWZ46OgbWvNkH0jswgZu6HnnnOwACCDodiX07vBbIPU1JJbklyLU7ozwQOlOOBb3S5dO7xbDjuvPpdTskfri7BagjOt40iboA6aC8fdDhOrSVgzuC9oC6DMMavcgXCTtTGLQ7SS6FvB4nsLqYm5e7fQa0OrmMpLxhD8u7jRV6vXWk2Lx50ry9rWR+vaSpKjxRjBA9RrIgPSy5rD38SYu9pewRPI19qbxnUUK9Lmi9PN/kkjzapqk9chqqPTgknbpmZu+8rfhbve1irDtPfwQ63gyBPfoG6bpDMxo7byYbvEDhQbtr6LQ8b2iFugINWjw76+A8OYvMPM/ikLxFHgm8ARkTujH3kLyWKXe8/DOwPNqpqr232wU97mDHvIUIcrr/4108F0YyuyZbETsaPB28xbOOvG0GzruCLEo8rQv0PJNVLL17mjG9YgQnPasCtLifpo480J0mPPnWpTzS2ZE8hgODPIKyMjrPwoK8IIDmuzBGqztQ6QK9LiEtvKlFIjzA+qS8lDAAPUA2lbuU5/I7KrchvKDMj7xD7kA6PhwLvFQEKj1CmjW9",
                "IUcrOsKQtbtlTSs/TEdNvlzyIz69U+I5E6bBOiADWbtf1Q07uj9+PJf5Njwwm066iUKpvsUcrT1T5TK7CD0Ru8UGDTua6ky9BbiEPsYZgrv831I77qQ6vhnWELtutoo7MNDePRGY0T0/BoC4n59AOzHFEDufIdE6yY0mPe7AXDldRyW7sObnOttoWruyPN89OScWPDPwbLvKSzO7wSUJOndHpDpxSM07ZNqyujvUwzqr9h+7aocLPYltLbvM9fm6F2uWuiWCBLtf3y87LW2WugnRoTqAF+m6lEIuu3NoszzX9v87pFfFO4+60rnoD1o7rmgHOijG9rm61Z688OEuuosJgrrEDAG6eXvnumXxNbu4U7K65+Sgu+u4njrbFS47eq0TO4YrOr0RXB4+DvZ7Pcl86bvfUAK8SNxbvbGY0b0/BYC9p8CfOx/NgLwkE/g8jUvOvEFDBT4VTpY8kPMIPdDl3DtlwJm7Z+txvBzguDz4lc+82uJHvaFOnbvyqKs88zIVPVYaCLw01ZU84AaBvPifpDwPfyA8nSiuvORnqTwXuxG9R6ctOwa5RbwHFyu8xge7PYz5nLzeleS7xYUHu76HHD0/kXY8xpZYvM7JrDvuyN87/eHfOyqckrz0JiM9v/sRvY6ApDwgvSu978pZvCyzfDzWfYc99MBqPJGcmDsMxf67Vq/ePP1N3DvmPyi80C0cuybuxjzF9Fm8E/TWPAxgl7xMa5G8uc0YPDLBPzvkFNc8trelOwc1uDkRwEs8DRw1PNnSuLuSgrg8sJPDvOMJLby4E+28NwP6vHfpaLwHfsq7Ms/jvbV5CbulosE9aTAKPgH/7D1EQdy9TsiHvAF9zTzEUIM9U/ZKuAcvM70a9r486/v2PO/ec7wMqg48poXvvM45tbzoqKC8MLR8PCRQRj6RRFW9jeu4O40m+TuA2QI91GfOvLS2CzwjIVi9MmukPHq2M71Iif67CCgeOp4pcjsdFqq6XY+gOyBqNrxEMUk7F4s9vK/MOjzPDru8",
                "KV8YvF/tbzzq+mg8DqAjO0TTmzvAQbG8ZFS3O6cfezzu+Kw8aDmfvMN8r7zL7iM8ExbnOb1lA7yCxhg7fhnMux52PLptxwQ8iIKZO9Eie7xFyP67BNKJu/jUNr3ZPvg8eX+cvCWlaDuN3su8prw7vPg/kLs75tw7gFT/ux9LkLtGwcm997YqOyeFpDy7kzI+RCA3veERcT4r6uC7zXiKuMWGkzeWokC8au1qve3w67pqMC2762wAPR5pHr1Uv8G7nYNcup6qbjtYE2M9cBzevBbMNrrqKiq76dUqvNcOkjusFVw7n9EsPR2pFT0W9vi61MOPO9+5ijo2+EU79hYIvfR/brworRy8p2MounJgxDqk4t+7XLA0vE5RebtVOyI70In3uCqmZLpfKHs77G+Su1mc3Tri/Js66ZKevLnsurqZYko7ZOHQPBiVH7zuhyw8NPO6vYhmvrvdTmg7YgStumI9OL1ma1K7BBoeuwsu1brdhY47yFsyOk/cRLvqbFc9d/KDOlvuILxeKry6rvgSPQxPhrvnReG6oIKRPetra7oSrzi7GZbbu+hW6D12HZy9yY+ivfQGqb0xz8y8dwDyPChTYL21wiU8BIbyOSD7ob3QuBQ+JMbNPK1L5T3F59A9ApduPH/TAj3cAGy8QVIsvT3sxzx2k+M9YT6BvQlUjLtuv788BS3/PNbWhTxeaN67iPo8PO4wijs/RKo959gwvYRx1rtjMMw63eqAO1NhO7wi3oA8xb8nvebSIrzvYG49bIj4uuNljr3JWTY9f2U2O2jYRb2CIyM9P6uYOz5UCLy6xIq87kbtPJpLiLsbd4I8OtpOu20QyLvJleS69aA9PH1lkrrZ+5k8er1pPOwoDbwIa168tc9+PJNbB7xy5rC890tvO2a1Zrym+Yc8kNsNPEQ+nzzJzJO8FR0ZvDwKiLueR847XXMfPD9j2DuV8uQ7heblurpb8TvTMBO+DpQhvTKddT1mtie+oXlePWRshLwOpEu+muG/vJFcWz0Mxl88",
                "DhsMvab15LoHSso8A3ezvFjeXz1ivnc9RrYSvvJuCL2WJpE8+enuvHjJi7yA7oG6jWgWvSuBBj3S/Ia9MrjQPFQLYDxR4yM8QxTnvOcCIr1kzBk9Irp1vHHu9LyGYhc9TKHPPKsl6TsDqZ68pLDjvPxRJb2pSD48Y4bKu6GYnj1HWr+4+SuGOcNe9DyAc5A8xoEiO0On9zyUKN07AIz7vKPLSjvW6+u8ruYxvMB4KLy87E+78Hfru27h/TqGCoI7Bzr0O6zKozy/oUK74oY/vC6nPzzbIRs7WiFIvDNiMjzFzx09BTkMPUmOGr34eC29L91FPNNmbbvA/hs8lrjTOlrNfT0i3FS+kwo/vCF9p7viAqm+fLNTPiIXET4NWz28KOpau7ILkrtW2x68Cl17u1qKPLtkTTs4RkDQPDlEOb5oDR27BsfuuclqFDvvhvS9+nj8PpPfzrp4RCg7VAgYvjxEkToIn3Y7BCbAvaUlur0A+Qi8xHV3u4cun7tdBDY8CPXWPD9fULtUvKg7GcKMu4sFXLtxR/I7I4sXvH3TJboEjDQ7KZjUuYpowbv7c8e6vdmwOmVRjTm/p1e7kcUOvSMoNTvi+Ka69hpiPSf0S7oijrK6rRnRPYZAgLqqpl06zrLAunjGmLzhGqO78s6XOzonb7ka+CA6lfQ7OzZoy7ueMcu8F1XGOjedHzurWF26X905vV430rqrhJc7x+JbvZFN8ToEJ1E6M1C9OpEMvLwZNk0/Hunru0WMjrv4j8E7XQMlvnL0kb0MK1s8pRaMOrJ0Cjpzya867W5+vUxukrsGerA73vkLPInzdr3DMEe8z7kdPJ9rWjtp6iY+DqpzvfSZxzpDSZg7D1GMPXAP2jsMzbe7qUCfPd0fqD1qmo873ZqKuwwSnTsNMq27yXT3PH2mDbyLYzy7fW8Vu3U717utf/E8uUWzPJx0tTuTD8q56rSKOk648zvUOqy89Zaeu9Nv5LsGXTM70cYkPd+f1bsfHEk69teOvcG4crp7TGK7",
                "r1HuvUHz3bnHgda7V8NjO84qYz0jD3Q6VNAIvBH0uDqTzhi8sDNduhEOzjsN5+U9ZKPBuR9bJbu2SaK6r1EaPeh2ADtpiVw7ksqKPHb+KbuYd4S4/IKEO+iYtrzKRTK9ZJ21O4mN1LzzuE09tckxvNJ4s7ymnKU9qR+tvfhlWrwPD+o6EaVevVZB5bqhg/C8KOTfOuG+wzwpayK9B22GOh56Q7y/w0e7lcyEPXfPlTtGjJA8Dl8pvBxWWr0xVo29IHDBO0PSr7pB5Ee82FUvOqIQfT3zeIM9+klnPUuzwzpR/fe8Mi2tO2B1Pb1p3mg6DjKGPT5kEr3XbAM9DeXUue7yAz2e6t88U5SxO293Uby85++8YPVpPDUqjrv/vnU8oslIPeRwFT3p27O7mVBAvGjW0Lz0jfq8Zw94PM1bhrtEti68aHygPEJHiDxFM488YNOXPHvhajyWZYm8KCK8O9r/Jz17ZRg8y18mvTjpAD36Z/k7HKJdu6qNQzxDWLS8dcUOu2iarbseTAM7CPtau9DPvb3ueEe9xJOCvXtCQL3F8YK9r8/lu6jHFDpw8TO6iuK7vDgccD5I40Q8ralMPb2C67wUZCs8v0UavWVg3ruo5Sy8uBBOvTALzbxU7TA8ptMmvMTyrbyWh7w91YYyPIOUn7bo8VO80brJPQP11zxiv927nWu5uhbHiTyPkQ29QnM6vBPkgjtiLPy8FXf9u176s7wy+eG91ttqu50Q8DtJvjc5jVbWO7i3y7xvS6Q7D5EdPL4WWTzRmqI8wSBYvMA9Lr2r3Vg9hf2evES9Dz1Z/3c8xcQ1u3Tk87v4oNw8BdLSvMNmErwoYG84O8GGOmOeXTt36Su9BOa+Or/tM7rsWli7gV78vHYM5juyS3M6fPSXOwNIDTspKfI77RHbOiR8Ar357kq9NsxCPbk+Bj5yw7S84LtwvftJaz0ZpwK9PiMfvP3FQryqMsO6RHyIPNjAoT6r7uQ9i+cGPQC8Ib1+Z7o64atHvXe7ETw/I9W7",
                "bpyCvfF3Q7zrgyS8aCqePHUVgzwY0qo9++pzvLnip7x3GRS8W0PqPGQ1vb3EBWQ8WYonvW4vR7zK0qg8LXhnOtONXzzqc5q72TGKPORYiTwC5Co9ksCKPJKYCzu5TTu8v5ZAvMk4gjyFlBA7xEPCvHd6eruGNpi7Lr9APFVrQLz6YYC87EUvvJv847vQ0BM7LAG7u8NmtjuGoji9A2RGPNqzsLzCORE9urSruyT2vbyUnrW86XeHvCjZ9LvNWfE5PFs8PKK2STsaqqw7TIcQvE2Z3jr5aSS77h/fO5LbKDxUZz2+7kSAuyRWZjsH8XU/iVhAP26Bhb0AwRG69JUGO5yoyTq5SH47rKwfPUgdlLtBSr+6zkZtOxiqoT0X0aI7VFhHuly8WDoBv2U9fFwsvraeSTutPgU6RaOHPYq7LDvGYzW5t/r0PMa48zw50QA78hiZurk88bpKAuu7alMMPaXEkzoPdJ07ipscOm8suzsW/gW9AX+PvPTcBbsNCrU75BCYOr80m7vtktG6ydfGOsPBtzpkIKK7Fog+PdeVC7tnNSc7smqavHivcLoW3gW70U9svMg/y7leVUO6dt5TOm7iNjyGDxw1Se38OqH/dLr876e6dzTQOrEAE7s2eRW8Pda9uB2mljqhGDs7knDDu5FdmTqDo6I5SWrMO2EAirurddE6+y3CuV4Xbbxp+KA+"
            ]
        },
        {
            "shape": [
                140,
                141
            ],
            "weights": [
                "VSREPWmdx7yLRuA8u4ADvSdcgz01Vsa8eR47vINNKjvjRK284bw9vQ+HATyC0bw8wVCPPLHw7ryNXqG6kdacvMZqJz3/nJA8UjFuPImXFj0rqi68mzymvEILBr0w2Ba8rSQFvWUrJL3ZNu27HA9tPSYfF7w6bmG9p7R2u2SXnDyrSpG86NYLPWaIT7xB1yQ81Wn6vDFTLjm/I9c8+0yWOzV7t7vnJhU7H0CHPHwuZz12Okw8ekcKPM3quDuvMdA7qn/ZvBAEZjzCJp47hNFtPQz1brpw04O8uNV3PMt9AjzFS6Y8KNbgPF23kDxAFCg8U/EFOph+kLzhC628h0ShPSiribxdy0U8AFJTPc56Bb3HyRA9jkU4vCNL0DusVSA9SLyAPGArkbps2QK7HAIqu3fquTxbj0W9vtP3uyEIKL2hNfU7RHpuvHwf/7znWXy7ZCmRvbnrmL2oypo6tB0POx2F97rY0d68R2dDPKPa+rof9Pm7rytSvFw/eDyW7Vi9ldBhvd85WzyvQuG7uDMCOkSH4rsN65u6grYhvWlwpD0OGjC9NcusPKSUbTw31wu86uGGOtkeF7qFSa28LYFOPImEpzzxkjC5ShdXPC81DD1tCKm7EfCkO0zcRzzLnrM8hnAnu9wIiTzKWYO9drmlPKSpEz0KvNQ6wKNBPP1OSbxmRVe8hvuNvHmaLD34SQS9APiJvdJzOzsLoqA8I69SvDFy/7ywAp88hywrvEOoGzy9hb29hvJ6vKrIML1m7x09WRifPMLYi72Tz668OTQ2vSTyM7oHZfO827cvPLwSHr3OQ3i8dFTGvK6IpLpkP0c+gfu/vIVfvzuGfwg7uI7PPFB/H71swXs8GVx3vKH4FjzWT6s8bdIlPP2wbLxL9pa8Jk20vEc6ULwhISY9sVrTvHoTu7uG4j28TKcMvfCuLb1uqqy707hUPHK7dTxLP8c86FpLPDrADT2SE0y8iSOdO8QVAb3fn3s9Vi/uPJWobLxyXZ69ZsCXvLyRTL2oOzS8",
                "KHfcvIvT2bvSGQ89x19xPCYXAr2Exb27VX0ovOhzDb3lKoC8uGqJuwywd70nqlK8uSAlvO7awjxah108F4iIO7zOTjtMCxA8Gj6SO988ST3egqi7np9oPJ0jyrzYFlO9jzRFPOqAXD7MTfo7ixgkvOPJxTuo5dI83V1qO283Lr2B30g8bVWRPHvDtDvjnYu76niOvAIG77w8gfO6Z7a/PW8aLDy9K1A9kzdnO5lDcTwapvK717XaO0aC2jnRR6m8cYTjPbLhpj3o/YA62CuNvJDuLb215VM7OGzGPAGtN7o24iW93HnlvKldcT3/ojm8phDNvN3ZXb0Kjfy8uWicPJrJLrwL+IW8q3Yeu1SjRbtbSJ+78HgEvR9GGDtbZ4K8/iioPFXeRLwnHy28jorBPdxPJLyNjVI8cwYcuuZ3hbv4Taw9RmCcvAiCRD2XonM5EUAfvYY1VrwVsCi8nzBWvBGVvzxfRQW/zdO6DwZRu48dvrqPdrG6j/BMuw/qd7qPUTu6j4Rzug/TfLqPOrK6j9xoug+pbrqPO666jx3uug/3ProPErq6j790uo/x+LoPTvS6j84uug9+57oPAAC7D3gruw+787qP0Hu6j47Ruo/m+7oPxm26DyUjug+ap7qPOHS6j2rpuo+CGbuPLUi7D70vuo8vHbuPSHO6D+2Vug8GS7qPvzK7jwELu4+D+rqPThm7D+mAuo/EiboPGVa6j9wYu480brqPFlW6j4Gnuo+J/LqPH4W6j8Zaug8ltLqPmum6j81puo+bi7qPXB67D/Eyuw92p7qPWf66D3o+u48ZE7uPjZC6j4Vwuo/ySboP4ke7DxWsug9U9LoPqAG7j5M5uo+gJbsPQgi7j6fzuo/HJrqPpku7D9NBug/13boPG226j13Lug/BlLqPVb+6D/sguo/63rqPh9K6j+Uou48ew7qP7Hm6jzXHug/qwLqPdi27DwQFuw9TMroPmra6j2HHuo+IJbuPV4S6D0yCug/vl7oPQnq6DwPYug8DpLqP",
                "T/a6j9fhuo/VPrsPfUC7j3uoug8W/bqPO0K6j2RHuw9X+rqPEmu6j/Cnug+H4bqPyL66D2FXuo/RP7oPQz27j4lBug8hg7qPm2y6j7Mdu4+uLLuPK766j/0duw+tQLuP2k67j0pHu4/ZqLqPQS+6j8Jvug8yYrqP4Sq7D06Yuo+RgbqPAeq6j6/yuo+9kboPFfW6jyz2uo83vqW+W+JavToHwrwFSlO7BLdPPI45KL12ywS9MI6Iu2hIBTwmXlO79W2Xu99OA7wTUYe8RkB4vMagNby0nwS98PaAu3TTCTvISQq8bhsvvb4EnzrUrjS9QYFqO+PZF71RKlO9WGo5vQ5oPL2Fz9C5baLSvBn7Cb0UjaU8Jpd8POXM3bz88308RYXeOwwixLuUCwU9ZG8zvSoVb7oHx2w7qLsDvQ9vNLyDUOS6r0eqO8PnOTxefXK8eCRmvGpyrjzkX4094iAhvMdsEbrmqwa8vANPvGHBE7yxKHi8X2YyvLgYzTqN2DM99PzTvLvJNrzetqi83TfYuzG6v715O7Q8evEzvEC08rsrfsK8caSTPF3XQTzgYj671ddMvAuP37sVHTE8yFkivZOzv7y17xm9O8XoOwVEYD2vqMS6lpsPOhAwA72253681g4nvavNWbtxdSG70QSovD6Dir0WvDm9wjGAPD16K7zUI7a7cGWNPYVP1Du+J/07rUYevTCcTrwIV8M7rK7lvBQXn7zSzxo5pY0APNS0BT0SXwW8fdqoO0/XBL09lyO9x0rGulfYr7xQ+Aw8WwEEvcQBZzuFliW76DnhPCNnODx+AjA9EOZ7vLNx9byzKYi8N52VPPS0Y72NNmG8GVPrvBElLbzG01M75vLLu1U7br1TF148LvLTvcgr6TqJwHo88OQOvRvPHL2eQum8wh7FOzXL/bzYmR8+dxcCvE2s07tpl8w8J1qXvIbW7bq6QNg8vAz5vMfwD73B/fU7QJqJPMT/dr21x0e9B5vOPA/lezveHbO8cBCNOxRfujwJtdI7",
                "N8VWPJwMRr2IvQu96frOPOlysjwV81+8PeDSPI6Az7vNR2S9sVfyu5tFkTzFCtK8IgxjvUhIwrwlW+S88kdAvBKNCb1PdDm9kpZAPOgLAb3cTY+8OeNLvOQxk7uMf/M7kKzqOxVun7u2ot+7HPL/PO29yTznicM7nD3dPEXWjLqRyOI9YbqYPCXxdjy0bxe9C3EwPTqeab3oazM80+RXvVFB0zstZwC92PSnPGTmSrzcLjK9zebFOt1XAb07lku9stsHOowaQb0dhfI8UGoRvduPmTwadvo85ezVu5NHtbxCcFo8F9mPPPhxDDx2L9m72VKFPMt4FTwkI8O5OBMDO5daPj6iwBa96mDHu0YVXTxRnmE8s6ImvRA/e7zO3Zc8Wok5vaSU5bzJBFy8kgHNOBawLLwKuAs8JmeBvRA/Wj0elto8fHJivWu3w7uJS2+8eHLIvHBeVTxByhS70Wx2PFSyIj69wMm62/kUPE+1P73F5iG7+DWOvCNIDjt0Ncw8Ek1BvKKmwDzCjx+8ENpJvO6EIr1fcy29JkfQPOTnwLxeGGO5sQCOvb+lZ7t4SJi8YyrmOhtGez37FBG9b1Hru+nbtzwPOke91w4nvoYtWDsCXqg4fF3/OsJISr0eiPW8fh27OmV1WbxjWeE7LHsKPD/AIT3luBo9y8eBO6H1a71K8y49tfUOvQvsAjz1nBC9UHGEPEVZI7t+7GM8cHU9vOg72Lwk7Iy6v3lDPIqf2zy3tHM8sKSevO8AOTuUR728cX2+vP8DhD0QqI+8M6baO0eNJDtm7ty8Ub/cvPCQ0z0/DwS8oqk9Or/xNr34aEy8HNAEvGkpU70u2j69DCeeuz7yLLxPzr88YzL9PHpV8ztfjT48K650vBhpJzzELAw9Iuw6vcSHarobiRO9zDO0vFBZmzt/3/27EdHPu1XfhDw2yJw7UU8LvChyYzuJ4Xs8SDNYvAWwJD3JByO9xmKwvE+xsrtaaxC9CaqlvItAeTwmKhe6IVp0vJEfPT1FRY07",
                "qWe9uCMuorwz9n88my92vd9M2Lz/AQI5VdxrPf4lYLw8yT48DXCnPFrpUjtBpIe8JEZHvPHNpDvRE7Q87/tCvE9gAL2Bkyi9cNwPPNjyLT5h7rG8+ougOxmWljq42fu80CXkuxGX9Tu8oRk90DSPO3HVMj1md868aEq7POFP3Tq0+KG8pl7lPO0mAjwaZTu82rX/u35Ombv7qIS8gOJNvak7yLxrKRK9BIL3uMs1oDuBoJE88GyqvMPD7TqvR6u8eiHHPIRZ2ru6ZXC9GR8pvJ3LsrzDQ7K8CXIAvZwSf7ynsOq8gbkju9ZqqbkCCoU9tD6JPJsMM70AFTE8Y1ibPJgRJz0ycKk7spS3PA4jiTupKmY7JRRyu7MEz7tsXoa7atRTPcMrN73MTk+8nCNgvGFiHT1JFS++rsrGu72MfbxT4oW7dvfQvExnFTyyiDu9b4MWPdG6Rju5A6Q8D5WDvAMsCr3xssE83Az7u67fr7yE/sU8O+gzurlgazmLkdi8At7IvALaxjt0nZU8rAnEu2lUwDx8eFa85URAvJ/aRjwMFhQ8l/r0vFMcs7wueYY79wwcOpoWxjyuV5W7DtbhOTaeEL2yfgO6zG8/vOQ477sgBku9ki4iPOORhLyMaGq8unLpu8TbiD07sVw9UuiBPIjj+7t0zmS8eR8KvOGGqLyBrww7auVfPrI8O7zqIvg8BMRuvLeZtjzZoE8898zuvDb6wTwZlfq8BsiQO9Pu4LzMpPE8i2MrOwSUirtJGpk8GvUfvB+d0bykQiy9AF6QPCk0/zzGitY77dUaPL6C7bx3Wt47sqytvFNjJDtXBrG8SiAQvay4dDx7WB68bAb5u27i2zvbQvk8V1fGvDyKLbxY4p482ztZPEgN27sLyKy8SIGEPBUK0bwfVgs8zn1QuwYBk7mKCvS7aboFvMg4bbtS8gC7ULwFPJDhMjw/pZw8Abi7PMgb+LzRRd05DrQSu3a/hTwJoLC8O5Q4vJmyCj0rxpu7FagWvG6zkbtxVD08",
                "54s9vE1fmjzGNfG8+S//vFhrfDwT2XG8JlTiu9nW4rl635E864v6vOHQB71pB5+4voO3O72VbLtGBKE8AWXnvK699zxyA0c7RDC6vIscsjo2OQS8muM3vLCidDx/To88FP5oPEcYITtUprG9ycNIPTarcDwoBu26U7Z/vHFhZLwXwqA9HzQVvWa7Q7xwxwy9GygbPVz+mzvqrZc8MiveOH5CyjzbWRC8t2aJvOnDfrwZwTs899c+vIy197uf2uW8WIFXPDrrmjv1kMa5eOw2vc8cir0i+Zs82d0avRAiCb3axUc7Ql2cPNqT8jt4Qb27SAm1vDo6IL0ZUws97T3tPAZz5Lxr2VA8s8cpvDVCUDzvY6k7hIYnOw22LL3eAxu8G05APYEY67ygnVQ83TqSOm0Enjy2CWK8QfvdPSFiJr1zTci84DMkvDjM0DwmJCc890ePvB0a1TzSsKe99/w7PIFisbtjALE9BzMhvYTDkLx/9Jw8I8deOz/DgDzFprm8Obf1vFvCQr1xiaa8nWKFvDUAgbrCLOw8Lc0PvHevvDxj9i09L+ZIvP/NHryxGdo7uL0WPDqPCLwvXBq8TL4GvXMe8zwN5xi8u82rPMQgGzyHvPc8fkX8u2TRcTy0POi8MrmMvL7oSDyP9HM90CK7vDsTPDxwEaE8N7UOvMo8Lj1Aucm4sF4KPWErsbzRuFg7zDBFPZYDTLwjITu8jhDzvF4j8bwwriQ9tZxuu3lNGjyUPLq73pz1vN/ZSL1pUGi7sQzOvPYLtTzWeRy8f4FYPJCSyLxDnqE9HpdePOxF2LxqR9q8qNHBvCT3GTs2bmG8x3KLPCM2A7036Qc5qoPcvM3/gr0IN8U7yhAkvKw8ojzuDYe8uOkqvAjrurmZ5FK9gbnkPFkpVrzvJV+7SKNFvEMhG72JS1W8uZhsPJinJj3ZXLk8P6GqvNDzAz0wKZe5t1MOPUTOJbyOzs28HH6sO3jQvLxH3VC9VTZQPX+cQ7z8GAK9uJo3uzu5NjzqLwS7",
                "59mnvSeUG72/l1K9gncsPQ6WuTxT3oC8t+KjO4XyJr36rc68jmjZvEM9nLs8IgI733XavPuyDr0gBzw85jzku8odLjuLHRM8aObgO3J1UDzs0mg8boelvLehfrzdZ7k8kIxDPFdA1jx3kS48Y2O+PP+YEbyBlPq8QdV8vHipkTwS4hc8FAnGOevm07x0ZiW97Z5EOzLh8Twi8rQ8csc5vHkqyDwhoha9EXSxPL9t+DrEuAS87h4mvJS/uLwsqAw8ksH2upYtA7vitAg935aGvO89s7wslAQ9ZX7/OyV+YbyJUXu76m45vaQ8lLzrUQ27R3eQui6LNb0b4f+7sjxpPTqKhTvE/3y8VnkqPS6vm7y+cwq9l6IsvTzsmjypAdu7T1g4vPQXiTvX1nm8r7kqPFW3IL2A1LC87xG1uzUsVb3+xp+71wDEvDzxqrup/7Y76hcoPK9Npb27hi48IVLDPGwUf7wcC0I9ILmkvK859bsD4AQ9TYFjPAoudD2f4RU81koXPHYzoj30kQg9DmnbPB77EL3OGpY7mIulPezyLzyLtkq9C1RrPT8/ub3T4+C8RGzvvJyL8rze8TQ7+gVyvVgzfT2XRUe8ttv2PB45fb1tA2e7Y+jLPAxgsbtW4Fk8B8IKPY6XejwoqLa8KXdNvesOFzxZdGS8xIYDvWzcIj1+h8g7ZrUFPTi+vjxtaZm8WoYAvaerOr3kxZQ8Ju2uvIP5gj2/idM695GNvOzetLyMxSg9EIAevRQdoDyCyoc8HCS0vFm0b7tw4oU8tCkHuyrGBjxXgvm8KiyLvHGzbTt1gGE896D/u3aMuzzChB078KaWPM8jR72Oc0O88fhRPMj2bryqj8a857Y2vIqhAr1xBpm84CbAu8aVuDqF0129NG5zvOEc5TzMyNg82tkkvPmCLT37gta8SFpOPCPDRL0bH2C8xDyyvC+GLLwjYdY80OZdPHwO+zw7xp48TFegu21ptbwk0mE9GFmoPCfpCjwXoza9t/0APrCx9bxDOaa8",
                "ej/WvOPW0bzzK6O7NXzoPCKpEb1B8b88IoaNvOeYhLwq8uk9oeKgvNovKjpE59C8FwP3O2MBGL2XZuE7HO2ROzd/OzxGh466mEgjuiQfJL0lhL47YWF6PPOsB72/XGw7n4QQPS63/7xhoGc9iN63OxE557tQDj+8fglxPbomzrzZNHO8QsgjPNb6/7y9Cxq9xeOxPIphyTwClM27yCI6vNz6ibkPtZK8wXEDPCKcLL3UiZK7ciuWPM9p+LwryaW8z81BuyTkyTw2XRE88n0CPVOFb7s/zZK8E9iMO596sDwkvVs7oRh7vL6brDwDfQY9CLeBvAkj57wspac9hdlzPYgfMr2oWpK99Nj4vNeFQTyhzVS96zhFPQoTf7w+gUM8Q12nPEB5w7wUraI8EZxHO98XFjxBCHS88/cPvfYVEbkZg4s7G95bvLcUfjwErIW70/tfukujD71/SqY8YWIKPVrsqjxj5x+99GjxueYYOb3fXAa95MGuPEK1xzxpk466zAOrulMCOTw0FfS7dbSUPMaC0zspP3W8LXgoPKFEBz2Zp1K9322HPECNxLuqzzm9PWDXOk3OXzxj4Cs63oZ0PCwQcTqKH0s8HfeZPKyguzoWGT08xvT+u97p87x31dG8ngEAu6cgpTx2rnI9R2GWvLpDkjzie6485O6Cu76JWbw7gfe7gg/YO0Eh57vrcQw9afIPPeEoczvUNbs8+0ySvMBvmrwxq049tuHtuxRUw7yUFN26s+IjPQKqFb3s89Q8mK1IvGi11ztnm148GsH2vF+Jxzml+e28lzzIPIEFZzzjtxC8AvqvvFmn0bv+9pI8CyHtOnXLnzsje6281CRDPJ3FLryHKYM97eLtPGmj8TybMpO9aC0nOwwkqbx8YAW7BIEgPe9Jmru8tJ08obOSPJbn67zcBeu7pM7+PO7nOzw54wQ9jGjavK2sujwcq0y9jR+PvHWBN7yZd+e8f3J2PFfkhjxV7j29j/IHPePgIbzldKY8M5kDPYArlbv7HJW6",
                "yPM2vMzLH7tueGa8PWjKPKK5Hr2iKg09Myd8PUA13Lp4ku88DngMveQWBrwsbhC8yO00vI6Jnzw1dCC+p5JGvDNwzrw9Wv87Ko2UPA13JzzKFQE8UwsRuwjLHD2D8HY86EXfPOkUb7tgleI6Augbu2yVP72LE/w8mXsBvEU3IbwjrXy7G4AKvMrvRT2wWGI8x2kHvHCtkr0RUiu9SucAvHBgkb2PvvI8DriMvCF+TrtE8Aw9E3cUPX24iDxG61w9JseeO8eLA71XQzy8553GO+tJ2DsquU685zRbvdMKjbkXTVM8YjMhPVkOTbtt/DQ7BNcLPDjqSLylL0s+Dij5vHheqrz9Ifg8X6pYvJE46zsOUwa9Ch4+uxtWGT21rjU95uXyPDFzMryNSr67IRVQPT9mHj1JpnU9h3DUu7pUDD2P0jG8l4QjPZ/YgTtkP6+82ZA7PKMxwbxFHeo8BNVPPCdHK71qA6C8/WGHPMMELr3zJ027ww2pu6L09jlOuYY8zq0MPOY0Sj1naHA8TpQ2OwCKDbpEMIk8LUOBPN7HJzzdw7W8ON8tu8oZJT3Ikvi7bPw1PKN4lbz7co08rnlqvMf+Z7znLlY9BlDevD9oc70pcQ89LeNrvC99k7v1eaI7j0wSvbLRPz0b3Nm6TqCTu8+WYj2nqjk9/dhDuhxg8zypXIk9R7KwOyosfjtRGkG82CDUvYPlpDud5hs8v//LvUqJhLw3Nc+8gLCuPEIncLwqN6g8aMXgva7v8bcVING96ub/u8QTWL1ykDM60/68POEoKbx+qv28EHnpvLqII7xMMza7D2G8PNnOGz3K2Rk+9BiBvVYhuLyjGIE8EsHmupk2zLyZ2DK9gsTCui/PurxSxi+9BNLLPHm1sDr52YS80z3Ru4QnkDzt2q26QCjtOlv6NTv0DTu8qcAgvZ71m7nX4Au9Gi8NOxBPMjw8NpY7FIRrPdz7Zb0Oi/e8B4ekOs5Njj2asQs9agi1PM/qljzuVRk8deYQPY31mz0koX88",
                "p7INO+4vurtqJJe8vAcgvKoPBb03CdM8eJADvX+bOb1C8+88hmOkvNSshzqgSRs825YgPB95eLy05IO8lDopPCrFLTwui/k8hOTZvDov/Ty3uOY8OYLVu6xXAz22+P88XlAZO7SqOr2XGPU87YeHvESHFD1JeXe7cktyvVN7lTy5Bvc7kJgyvMk4XzwskNO8/CPqu4ZiYDtWu5M8pZZWvdmjLLyEj7c7pS1WvEUuCz1M7mo8Li9svZD0Bbwa4ow8ZAsHPAoedL0+4n08drl8uwAUTTyp/zs8mGcXPc49mLufOI88eq8MPciTnjyWXj49f2qQO25WP7ylJh29yb/xPBx6ET3rWI68tEoLPcw1kr0d/Fw84ZZ4vE5Vlrv9wZQ8GCqLvSQOfDxUIs68ueYYO4WnZDy/20a8JNpCvCBP3rmtLwC9EGRzPAuqHDwpwiq9Kuf8PPETubwDhBS9/eqbPDlKTL1mahW9PgujvDX7lLxT8OQ8BXyEPL/Ohr2+mFC9QSY6Pf6mRLxpL4c9NHVlu0z9E72dego9I50cPadu/ryBiBa+23Ggu3RZorzaclk6oBIbvAJ+fDvuAjm7XsoLvJHCKLvZIl27DfdPvU4o8TxYCd68hp2NvEuIWb3A3mK9/l9FPL0wgzzwWh68v+lNvPND5LzBcjK6K/NEO/xjGryhKD+6L2ieOu/zhLzFDCs9CprzvG+Lurssb7c8ailHvWiyET0UZ0A5DZUUvNeL2rzyAJ48huHeu/64MbzS+4U8vONqvP+orDzVygm9mVuZvAaHsTrreSY91WygPGlt9zy/gEG9n9cyPQhFHT3zPTs8zwlivWiFsTyKyT+9Fy03vaygEbxEydO8UBwxvICoVL0dXtG8qpPsO0V5Pb2N2pU8hTayPJDRRrxloSO94nHMvAxC+bvv8Bs92LB1PaLjkDyUchE7FkGlOzOlir1mvDg81LpJPNV6Rb3KUTC7C229PA0xGzo+eMe85DDjPE0DjLzQBLw8c30PO2TQfDvW05c9",
                "zMhCPfZct7wtOji9URpkvfMckDo/iP08EpM8vb9fxb3BsTM9GWg6u9q7Ub1L0V+8+04yvQuDtLxKulG8PHQLOx51kzwjmXu8lvQSvZbzN71/xwm9VNNNvPUH8Ty3D2s8nCAdPalH8rzO9qC6/wkzvUEur7z2/ok8rhb0PKeRhLwYQMI8qOfevN6byrxVWla8wLQzO4HXyjkLo4y9DZ05PcnoHT3D9Xm7C9eHPak1uTy+TwI9qQZHPENOGTo4G6i9xFahPVMyyDwDCk891zVBvYK4Lr2NsqY+C5yaPF/8+ryf6408PMthPHAWnDtFpzY9Z1vUPKwh/7wMxrK8eLEqvTU/GT1LoKW8iCqhu8dQqjvgtFU9TXa0vPpWLj1tSZQ7qQBLvWbutbwBnJ+6gVLlvH0fm71p/Rg9rgsHOqgHt7uDQ2m7UlfovGZuAzzrLR29APpEO+ZRBLxD/Cw9b8oIvOQHgjwcKA094nKLPJEVwDtY54E8pTTJvF6gH72Qip+71nkHu2QMlTxepjU9aHOLvZ7mG73I+8u7Ipr3u/MIgLwrCf09cX15vFx/yb3xdwc+jIWHvNi2yDzHlcc8qYfvvFxRaztGRV07kJoKvYUPmDtFi4Q904VbvGlVMzwdi/k8SvjMvO9tdLyr4xA9/Zc3PaB1jTx0y588AbyvvCD4lbx73RS9lgsXvEPu3Ly2N0S9Xz5TPCkQlz1le4c8gkcEvKQYAz3EvLK8d1gAPfGwNL2s6jy9BqQZPNIvbb3ZlwE9qmeyPLf9BjyHmDm90xojvOS1vTwxStU8+sgePb/TNbxs3k+8OruLPT/1Dz18TFC8socbPUGeEj3EWuk7zpUFPJf/BLym3iW5580OPF8AJbw8nYo8032mOkL1tT3xmYG7I7oWvcrGED2WlPs8XwEjuxHXPjyHPbi8P9hOPB3aQzy+awI8F97rPGFm3zt8xHW8WJqmu0xatjygEcA8KQ1KPcwZqjxVism8YwJuvBgIwb2nw5U91sXavMk7GT0yq4Q9",
                "wl1avZAu0bz1GLW+Qr6cPFMJPTygdhM9WoOKPJllbjzFs0Q8mpfuPNHECrxChP87JzwxO46L3jzIAgA9dupruvaEgT16X4a+KqMvPTraUjx7gvM6Gx53vKA1XLw5wMc7ZjSkPAeeC7y5pt88sxinPDf71zxmahm9BJEePKpdpzyeKxO8iUtnPACrAD0zSyM8/yEkO6iUyzujwMk8Pa1suyAUrLwVnzc80CGxPChHDbxXiZK7QvFPu2ftNjw6Zkw8JM7xOy/FpLywQU29GPbOPB4aWzwOrFI8tbuBPKWsizzL9wU9QgCLPAjcgrzeeEy8Zx6hPCiulrxnZ6E8WD5dPGdEwzyvxAE7IBmoPHc/5TyLZDc+tvjLOwEVuTzkzJM7y478OrU9yTwtOT68+nS0PAaLNz3V0jY8mC3oOzA9PTzxPpU8poxHO2AVcjuWr0I9tl9kPE6l5LwyDFC8p/vYPBRHFbsK7BE9rlSQPFw/U7zzkFW8Inu2O3Q/obtmJ9c8aGfWPEPqw7vQ2CE8euXNO4wcHTwUD8W76aYnvYzE/DyR2GO8fs7JPGbPTbuHGdQ9Rt/QPOp3Ij5MmPg8HFIWvFeIH7uSsYi6xIHJPC8GODqyWv08itsgPb5ycbtT/4I8Z3yZPQqDODx0fEy85AB0PFmcf7vfoA49ZaMUPXHgZDwUnJw8OR3mvbkEITvTBQ++AzQdPCS+njyItSC93hskPAuw3zwFCJ8773ZhPGkCiDkdCAq7g05LvF1zwzx0xwq+qguNvB8EGDsA+yK9oRAcvZbZjr284Su92g9/vBt8Vz3m6uG7UcHZvLaGXLxVtZC76rhsO5Y6xzubkwk9srSGPGZDEr291Ee9K8TIvH5mSzv/WLs8iaoNO0EYAL0IMrM8r45ovSC45joKT348AnLavFdG+LtYsY+8/zK5vJCxsLtToTW8zZpnvEQsVjx0jwS9Om4tPQfkHz33Eh09UItmvDGwGL0K1sO85WmXvUjKBb2awpI88FIbPD+roju0v6a8",
                "SXucu7QeTT0SETA9o6X5vJSQfjx+75A8EdbjvEKQE70IOiO8ZbOPvHnXVLyfToA8gNI/vPRpgrz8RVk5zoRHPAs6YbshAB69GU2/vBWygLwWzIC8gzwLvUxggDyPexk97aDcPKh/JTvgfs67Jvr1PLXR07o5Ze274raIOnyIKT3Eww49+gWiPJAKOzyntLG7Xpt0PeLrnrx0KBM9GCzCO3EIDj2k6QM9LIEDvSnyODxKpte7htwfvGuF3ztCCCE7tLGZvK2r1rwNiZY93pfFPCabJbwpj5a77vaeu8rVDTwloxa9fx18PPoDsTwHAX88F21lPcSswzr2lT29R4uIPcU4Zj2z0g49rLmAvCfuWLwboJi7k6bKvKr5a71U1CI7lCoQPMhiWDydDsK7HT0mO+vFbzyCkZ+8RmPVvH2mFzzs6qw8U5MePGb/pDz8h5S7L0sZu4UBET3B5oc8Hy3oO5KwgbnHvKW85o4Fvf7jMb1lDHy9MCsfPE5+fj1MR4g8MRehvF7tvTwc6uE8405Zu4JpRD2c9Pe8fOd2O/iM7ryfoSw6vLFmvK9WvDwe/AQ9m5pDO+D7xbthy/U7NI2zPHrLwLux33u9EfjbPH/Jtjy+kwi9ILw9ve3xdTsGLeq8xcWuPNE+3TtNYu66LScVPcaCGL1C+fC85pQUvPldDb3r6ha9eaFfPH8tw7zhTTk7eS6jPFjEgLyubPo6ErMUvCRwnryxpvm8KwfIOqaE27tKIem8AVwSPIG9HjsB0QO8tP/8vOD+HTxcdgC8cXy2PHkzsbfbNBS8P18DPQUrr7uoPIu80naOPGLjK72B26u8NRIcvc8IHr32Rte7OiTuvKfyZ7y3waU8Bs+DPTElybzSHgO815kgvWh0UD1CyKS87PV/PB9I7zgz0xM84fd0vHqUB7wxzdM5QBSsPK4CjD2aC8g8VaolOxYdLDyKMk+6xKe6vJl1Jjyzp9E8JPEOupUPbzwAaK6881GlPfvECD17m+w8GlCzPEjivzyL55e4",
                "c6S6PBaITzwqTFO7/mmCPTXvajzBZ587pcw+vB5bvDwZfJM7wmxMvWtRBz1agU+9ZmR5PD+DQTxQndq8QruAvMRmn7z7t9G8nTBIvagumj0uHly8rzc3PWZQsDyghWk7WJEuvL/fNL3sRFA5sT+FvDR5TT3sbBi8gM7CPB8g7Tp0/TC5WWgMvORM8jxfJi091ElNvLeicTs6D3o8WbRaPH78TL0fsUe+mllPPKAd57tqRUi8KxaXPKNNLTwWzuM8WnaMu6ELtLwmTPu8XvmWvTv0zjuX4na8nYZlPH34OrwPALe83zAYvfHzlrxdUz+7XP+zu+ldC71RxdK8ZWnYOwDbLz4DlHA6KSlTvB/t7Tte+X07fdR5PJqCsrurRi868eb1vIJdq7tbGQM8akaxPGfC47zt7oY8nulVPPXbijz2/eU8Eqtiuo5Qn7wf+p+823tUPNcyAr1O+lG7DqXsuxXUrbzSQuY89pk6PZoLCryUzWA9Mh0au3ea0zx4CqQ9hMCpvLF0kD17Wg28czZsPONUR7yBy3M8T+D/O8n1NDzf+Jk8dmMePFT6szrJR4C89bSTvDqmGj1gEiS8pY2xPCJx9TxIr+S8WwCpvNv3Xrwg3RQ7rQwFPYa5Zbq+tYm8pNQdvGkLeTwt6iK70OcHutl1Fr2NCf+802wxuLMfljuO2By9jZy/vMU1vTxwwCY6JdnAO8hbNTzAXnu79zkVvMTIQL0zqr47+U0KPTS8gb3LvyO9wXA0OcWvv7uLjYe8V/YRvehNwrlOb8k8/57pvHbJEjsj++g7cp6HPBQJLj22WsM8MKaBPFZyfr1P1ag7FiFIvYdoszyOuw69DlHMO6y6sbzbQpe9NSz7O+RrHT1VONO88gCxunR6yTtdh6S7PlKiPF6pAzx3GN87K40mvYNM/zqI4Bs8AehNvHLCyrzP9N270OYYveHOJbwNuvQ8XOhZvf0/Nb2FEam8QjkJvYkxVT0muBM74qj7PHbYqTyGUFS7VcfPPTJ2LTxXQ0g9",
                "echzvO3YqzxyWzi90OK7PH6bID1UFSU9ImwHPRYwxztgzB89KyaVuwnI8buwxhc9jbX4O+NrLzz47888f00pvNz4urw46r48uxEXu0DU67t1I0k9luCxPKKU7bwNiB88l6SgPDk0vLyiMXy8YSHxPH0lmzpYNVY7l+GpvDNBpbzbZci7jIuyOx1WY7zrGvg7UlsAvEpXwbzNaLw7vsNJPK6O6LyDqMY6mtWIO06jCb4qUxS96WibO5Z30jyBwPq8FwdlvToIhb3TwLs8UnaSPOsRDL0UUS28J9BSPcu3IbxL4Fq9ajRCPcmANzy3e7Y7a5NivXqb1byYRK07YCriPAig0jzNF6I8P94ZPaciAr3fo+w8oST8vMORJj3s5Z+8lTQIPJk2PzyReAs8DLrXvPwrXb0bBOa8/uKqvTP/AzwnBR895Rwou8alvLwnl7G8PAQsvbkJizzNXQa9G83qvEKNgTwj3+A8dmxpPOlBmDs/SDi7o8MPPdWcLb29qtq8wJVAvI7QhDxeZXo8gMo7vNNUJbyfxmc859M7PFaB/bz974+8kVSPPI+PijsfOK28M9WOO1U/Jb1yWNy8jWApPKoxNLy7epG9tzoWPXqz6LsTjwy9evObu3Ir2jwTtwi9r46POwbO1DwtLDa9uT4hu8///TyQgKm8yjcJO0tU3znB9548RmUtu5bMCT0xzWi9b0Gwu/MRYrtLk/U89vO4vJ9vWjsRiZS8uxUtPBuCpbvhO748ZwYfPGWtJj1nsz48383TOUWwkjz8xF+9JeIoPTGgFDyKAgc79ZWvPJVUqTxjw4E7UAVzOwk3Lz38W2M8NHYQPI+2T7sivAa8sYYhvBCLIrraXiS8332QvNPYxLuuCIO7fmXrPKP0OjxVWMo7FG8FPJaVFztQZ+W8fPTqPHaDJzyo1ko9BVNkPPLwErxE2Wc8y04DvFv2gDsTKB2+qRE5PeRfQD2uVYc8bNOcvIMRGD1odW49cOTjvMFALrzo5AM+iOikPO0tqjydl4e8",
                "tQNhPEIArLsDFc86iz/fOvMk3Du7/M68vfo7vJPm4Tvpcmo8cy2dPJlOHjx9sTS86BKaPGQw17vRJ0q7Gj2RPP0cqro9k6272AXiPJk1gzqpUiE89CdzPMarw7zPQcU87+nLvNQnQTzYxA69GpGNu3KutDzjDcU8U3UmvfIqFL1N9wg9S1scu25RED32qnI7MS/zu/npMjwkaIE8dRm/vRGNcrv2R/C7JU+JPF0OOrudsO08XR0aPRyu6zsCQo46miywu7YkybxvSWq8C+rwu8tVVDsSb1m9T6oSu1G8oTm3fAs9s/S4vEB+cjxirsU8/2KLvHjdBr2XCGG8rYQzO/4JJDwWjZA7ULiwPMTaGbxyen+7Tn+ePJOOcbuIRrs8QKquvPxdp7x7Jbq9hD+0vBy4TTztuX89Eu2lOqBwqbzvQiw+ev2gvEiqyjvfyXm8GrDru2DEXjyQPM28WBfpO/PzDL1FAso7uvISPB7nOrvACBI8P7U6vIprLbxHFmG8z/GEvPlbRLwBJYo65Ea+u8dUSz0oi5Q8FWlkvIIUtTznUzI8En3su/MR4jxZ7AK9h1tQO0IKUTt40568SA5DPA4y3jkwr6+8NegRu07LSDzhSgU7pz3Zu0gysLymIyS4EZXIvELllLrC4Cw9mNT6O0jyTr2Dyh08GGUKvS8qNDv2iy28OOgDPaaZoDmTDIo90w5avLNIKjmdU688WQEUPd30rb0ZZdo8oS2wvMfVm7pibbm7C75OvJcBqTzSeMA8fnCyvCYQuDz+EyE9FnIBvQVE2TySLbA7MR/CPNifAz00gXy7H5JVPOyZDDt7FIm8dqPXO0J6TzuArF68rcaMvK6nyL1abdQ8qVMGvdQhpT27IaY9It5Tu1eumLxv3e48ux6HvCr9VbusVRC8VNtvu/+6CL0igNS74+v2vEmdmDxdC/W7vsAcPc5n1ztHfRO8dynyO+gcDL2mv4w8fch0OblDvTxZXhQ89GfrvM0ZSDxQhjw890vWO4U8h7wGSba7",
                "1SKSvJArSrzfz6K5so/gPK3WurwOKaY8r36XvV01r7tjFi+8GAlZvbo9kTzxNmK8wlkJPGaLEbwFrZQ8BQp5PJVns7wjIo08BtDju6CWpLvHLGQ8sbgevPjkTzrK0ZK8gJMgPeFF6jrLUFS9RvzOu5uMjzwxLpE8diIDPW3WDL0zIU68J8JaPD1aLLxD2qk8E08hvdPbPDzEa1K9sk+XOplpiTwOQYk8cYdyvWzFAzx+VQ09GA0DPHyMnzorFW69Hw4HO97kJ7zuBcA8hINnu0yUI7pd8N+6ryVrPV6mJD0Evf88GzOOPBOPy7y4DIC8zdX1vPttEr2aEKG8mHTWPK0tijwW5Za9+AZEu4mYALro7dm8r3RlPQUmwbzkgkC7Ur6cvKzOGT0b8um77fyjultwS7xeotm6YEMYPEBYrztxShu7w6N+PYQWkbxe6Bu9gMg/u5Jn3rnNM2G8dnOzPHPFKTu4Zms73DtSO9AWODwSntg7xvJuvUVhkbr5WeY6BseePBZl07z+XIo7q2qsO3ipXby+iG68V6S6vFaNILymfKM8bkrAuzujSzt76kc8KKq1O/OlnzzBRQe8g2h4PFk4gzzFoAK9qgZlPIHRdL0zqgE9/jBKvWOyJbuoPDK8d2vyvLauQT3poH+9ZtGDPCjSSLyG59g8N0QGvcyVFz2Lty29VNQzPWkOijwzggU8WT6zPRHJ+7x5HD68hgP1OpOuIz2wrp24F30QvZ0LrzxzW+880GhfvS1qwDyKmRu9QPfFPEASrjwe4u073oVJvcWCa7s3W008qN5vPcGRIz0iI8G7yeoUvT0eLjvZMk86q1plvFoYFj2hU/e8K4a6vLkWiLyxKRQ8SC21PRP3Rj0Y1lI80VL5u5+asrwMYvi8NsC8PC/MYbwTZx++VqPevKey2bz494886BUTvUN73jwVYJ28hCdrO33XnrtLpzK8j153vMCgkjy72wI+L3cdO0BNLTwgaJY9VbepPZ6EDr31q3S8Y5o0PeIoD73Twp48",
                "32muvFbQAr1c/YK82GpMPFrg5bt2ePQ6XSf8u2TwcrytHeS83UiHvaVEr7xfvCQ72VYAvbavGL2RqCG9o3TrOUzqHr2nqi08AuiEvbxVEb2e98E80bs4vVrzRb3ZxUS8u9RQvP0T3DytkNw88LLwuy4DbT3Anfc3ZdATvVKqory3f5Y8yzWDPGFLSb3UoR694+wavVmebjsLupI8CAAMPPC+XrwaopQ6a7cdvGaMs7skM3i8Z/ESvJai/zwaCoO9lrG0Ohc5Fz3LXcS8LQQjPViPg7yOeCK8POg8vUw4JDzZAkA9cGqSPPgQPL2AsBO8RCD8O/r7X70zGTi8rUbCvLJOLD2IrfA8z/T9vCY/yjydVoa7rl+PvfTrfr0ShwK9gp4IvD7tiT0qgAi9NMzLPGGDMrxAEMa8/0mDPIk8UT2+SYU8Ts2AvDuVpLyEDGk8XnkLvXuOLD3gfKI6Gm4EvQB0Srv2uGe8L662vHq4xDskgkM7HUmVPCT/eTv2x7m8AvGRPBdFAzqRb3O6eyO2vb8aFT1u4Ru8U/6ZPMThq7vvnIM7zGeIOhU5o7ptgj88MRMju2nXs7zAokI873JFPBi60LxXSTm8Eme6PIMXYbxBJFi85irmvCAv9Dws7Ay+tmtrPGLzI7yUs/I5Vr0TPHm06DoJdxg8J1VhvZv4wbz8YkE7J4lhvIm4aDyUbDC8BBGsOzkdDrxFzCA9B7DkvD/amTy4P4U8GEyqvB7IXr3QU0G8Q0UXPBW+wLx5ex48WmrlPBJJATxDgxg70ewRvUWvgbobeE48ThWHu9HdSLl78iQ9pTJ4PEpJMD05Hn08LXBiPRYY5jrDGu48FJ3BvEkv8TpMXZy9bdNzvO3POryE8UQ7bTYbvULQ8ztHUkK99eZVvR3kHrwBpwy9icxCuqErLr0Ouoi9ZaO8vT3A5TxNdys8hoZpvbxCh7yyKsA8aC/+vPcnGTyC+oS9Su3VO1tm/rttYlW7ErRHPYyWi72Q+lo7B6X4vM+NtLoVcwY7",
                "D/qdvGfvnTyRu7U8Aab0O4upUDyrdrA8pKyxPRvqM73tqbY7DyVOvB6LD73Dkly9Th2xPDFDoDwz5VK8mJSNvJ1KWj5dji66i/39uRLXuDz5kfa87IOJPJjmob3Y9zY89fcRPLY9ajynpN07xLkmPBWUfju8tAm9lhS/OkV1orvHcQk91PudPO17Jz0piOs5EzwpvCVVDDw0FtW7zP4wu4PJE702AjG7wv0bvDkNQj20Ekm8FHM2u0RgDbxgYHC8Wu4IPHGJkDxaQA47AbkyvR+xp7kVCpC7LikcPA6vrLnynwy9XXTWPBr5kTzOsG68LvFqPCBV+bwkpdU8KVi5vGn+mjyb8Uc9VNLaPUC2WzxDvGu+aVrYPCGLirw90Qg7BnUTvZP3sDtiM+e8npSDvOX2grsMS708g/ogPTEfvLvEEPM7lLeXvOQbGTy/ZBA+EMdpvfZgQL1rxME8tlQ+vVxNGbw/Ihq8yP28O+Z/kLtR1LM6iIgaO6/oSTxW7ro6Zj1/PP/itbyLK/43IG1vPEWfs7wS8MU8VG3bvO0jfLy3e9e8JTMwOW8ILT0PS8M7cr8WvC3AcLyK8o26DvQgvMYouTtxREG8hl0CPdkRo7wwQbQ8Wh4WPF1oXjxBixY8tQqhu8/XPLwxwBq7chneO0qyObwx54E9h2x3vQ1EXD1+LrG7wyi4POaIDL299149s60RvVud/DxhKPq83IUkvFB+Zjzhggy8FPnMvBLv6rsMbKe7KdwnPUjjA70s5lS8pJ4mPHAR2T1SVxa9fXi4O5FJ/7vodXo8d/1CPM6lCD09fJ+85XyYOy3sCz0L7zS9B/U+PNk+orz3m8e7pG4kvfmgLL1+rUa82LgbPAGHrbjv8x28/V24vPzafjxO72q6cDGPvQHoYbzPbZc8VggAvHcyRzuCJLK8LTASPK4khr3a3lw72eesu/Q5IT1EjSc80kDHvYLDHDpPKl28z7rHPIIMDLyGMbW7y9nfPfFiBL3aylm8dW0zvf1+0zzw9LA8",
                "3n0TvLUwLTyoCIQ72IV7PUWLDLy3gmq83vuGvFoIOb0KBJW9btUDvOLAGrvMMOO7OViqPHUeCb3TFdQ8X06cutrfuT31jiq+PaKSvbMAJjxY1DO80+5jPLj/8ruW4Fs9tlBtPDGdEb14xKM8+xzoPC8aBz1Hgik85LvSOqIrBbsNpAi8UdVDPWZlLL3fDj69Ain2vPOPmjwOnR09KfYOPDdhzbsyn9C8OE/ZPZWFFL1KrCK87Qd/PDNB1b3h9C29TPaGPP/TxbqULOC7lvuIvJJ/gD0wMhi8shA4veCDkbpHObG8/QqjPHDPgTxUL6K8lK4kPaxh9TuaUj28t7sAPTCD17uX7iW82HEYvED/y7yk5uk75g8NvR6/UTy1nie832wVPaBQV7wTNqW55rUNu1trSzziyF89xhzsO7FpEb1b7ZM8yqjAvNDQ3LwdeZg8HtYgvHEIfLzrMw+8JSoVvWszCz3ukhY9ctGavCszGjxdbua85AE6umQSizyeF488sLSbvHVxDD3XRcg8BbOIPPnlpbxIa0m8Dd6IvFkSijtEdlY8apuBPFmE8bu8X2M6HbYAvAX7oDtukRw8O7X1Occ35bxABhO9PUWPPVkcyjvM8u28CQmPOxKdmjxHVWO6Ersku9wHRLzMIYw8hn3NvHWd1rrwq7e7m+z8vGycjDwyXk09KSwTvdOm97wWS8U84aXnPI9/9TzaHNa7zPhfvZPaL7zlyQG8Squou0M0L7t1bys8c/XJvMkyLLx4wvk8qHcTvRhfsL3m2Iu8EFJPvN1sxrxEajs8sedNPIeMo7zNSmc8MfUGPVFPkrxQrlw8COM+PMm3Gr1cWMU8B0u7D1s/u48rxbqPhyW6D+ilug/r6rqPm6i6jw7Uuo+fFbuPEFy6j+kuuo/iB7uPTE26jz6Bug9cK7qP4ja6Dwphuo+5WbqPhY66j4Qxug+eIrsPymC6D/iAuo9iDLsPgE+7j8szuo/AQbsPkOS6j4FRuo+hxrqPKUK7jyCAuo/LX7qP",
                "Yz26j8h7uo+LirqP2Ru7j5vEug/Xi7qPSbu6j70nuw84gboPYSK6j9Kjug+9P7oPP/a6j3Pcuo+2q7qPntW6j7Cyug/+7bqPcgG7j3TFuo8UU7qPdUe6j/uJug97PLuPDkG7j5wFuw+hdroPo9a6j3o5uw8z8rqPuU+6jwCfuo/wALuPmT+6j7esug8UR7uPHQu7D9lxuo/zObqPDkG6j9BAug+FR7uPwoO6jxcPu48FOLsPDLO6j4u1uo9F5bqPBmi6j7bJug8xtbqPAC67jyBSug+rrrqPFFq6j9Ppug/9NroPK0y7j/MUu49C3boPgZ66j6M7uo+r0bqPbq+6D9Yeu4+GA7uPdMG6jwWduo8VS7uPySm7D9D4uo87ILuPRFG6j+PWuo+kb7oPZRW7j5I8uo/tkrqP3iK7jzg0u49USLsP8Fe6j1FBu48dxLoPxh67D8Zqug8nQ7oPe2e6j4Asuo/sJbqPRqC6j3f8uo/mPruPVTO7D9nouo8DfLoPaSi6j1EOuw+iVbqPxaK6j0Iwu4//5roPGYm6DwEwuo+URbqP0Em7D/STuo+M+a6+C2WuPEBEWj33YqS7n/n0PGeiZT3l7Yw9o0iFPf2fgD2eEqE92y6UPXEhtryZ8Nw7+0EUPTxcL7xhSxe+RJShuo9SHDw+GY89W5vcPGdakLuOR4k9uSUIvUi0Qr2nZFY8abm2PciNFbzLox29yA1IPQ+OUz1pGE89VrCAPQvfRj3HBEO8DxFJvRQMkLsghIG83WDPPfsIITpOZsE7DdcHu1wLGT3ZuIW8KlmEPGCqnzsr+So8IKvCvPB/mb0V9g29D81svKyuBj3gZQ29AW2xPMDLuz2I8Ja8uHjBvLUjELwapvm8noglPBwQPjvPLLc9fu6kvKq4Cb7WdVC9DymQPDbfFL0zMX69oy1hPeAjX7zcIiK9Vq/OPPFcejww+6c9spLzvIWlYrwhQZk7MIgjPbdWKrwuLjA8zrPzvJaPmzx32g69fuHTPbIozbsEoRO9",
                "SumYPWnIzj1PRhG8ADg6PRovDL3auFu9qdl0PKgjFbutb9y7bZjEPbKbQL3VZGI9prpaPXeInLzqQRM99191Pa5m5j6xQKG8aNyJPVtDtbzFBN08UhSDvOvKQ71vMom8FKpRPeM2sTyZP5M9+5UMvSW0OTwobRs8rdPavIiXfT1ft6y848gVvpxhA712dyc8OQ7rvZG7LL0+jAc9FpU7PdLptD2G4Uc9SUYGPtRLBT2eLIq9HOMyvCLkpju7J5+7U0X+PGgXsz36BTe8GYRaPGElgLx7fFY7ojZevfLM8706dv29ddITPalC5TsuUY289a7guwM1hjwKYmQ8ldyOvCcpCzzU8Yg8hRTMO8XU1bxj2wE9jLYmPetyB7yJ8iY+yG3fPFffWDyhS6s751EYvOA4Hr3ofv+7cEKrPOmbAr02/wO8NI8WvEJyyDs6WX67QxAyPHcFiTlm2uE8mYIIuyUfIjwjnW89pI04vBIUtbx162+84RuHPB2kKbtaI1a6JmDdPGEhkb1ZFI29w5vTvL8VYDxvbWm848qavLI5kT2Ym888aoCsvJ24qTxpQXi55oQ5vBZXLLuHplS8f+Ozu0DA0TxcPRW85xTpO7yy+TsepJS82nfcPFpxDDyO5888Qi/eu439Jz0103U9oo8mvAyOyLzYRDA9JXdtuumEKb2Lqh88KMUnPKsqYrzCWay8DKWCPKz1ZTw1WLs7mXulPFma2jtMZTE9MCqGPMRNBbrEHXA7Kw1KO8eAILuegoS8oTzbuwlG1rxHFD+9louSu3XY3jo99Y089ZwXPI+9CT5ff3E7OhzKu6QZfL1O0K28bIzdPIAf5zx2XfK7Syk/u8jjFb2A+p+8msnwuwlsBD1oB6E7cKkjvPdkrrwMcZc71wGzO389kr2iD4O8mwcmOy94C72AaCE9c0aFPWpipbwifvI61/EkvSHSGz0ujys7c+3XvLTQpLyLy808rHLZPOce9DwBCBw9cw0FvP1hBz3kpxa9bk7puuKkHTw5TuQ9",
                "JqSKu889xzt37Hs7V9sAvfuQqr1be+m+sBqau/5GZTzWMru8lFSwvFAN9rwhT268Vv4RPfb4gDtmzzG96DcgvW4TnDrkEJI8RhsAu5nyyDxsuf44gWlOvRv/Zj1DfRW87X7zu2KI2Tz37E+984EnvEmbuzxDRDA8+kVTu0kpvDxJqaS8Rmr5vPkN0rs+8q88ts8Bu3atEb1lzUs8z3fOu9hqFT1Ke1S87Ty1usP0FTxiiW+7ir9EPBFtrb2hACq9DaanvN3Qh73IQZS8Qr8ZO1SG6jp2UFC9hNs7PPMZk7yLAoq8e6EHPvjXmrtqCfw6uEE5PHrbCD2eslE9mNQnPEpFxzwry508OKcuO5OCiz2+ROY8jVTzPDE3mLzQ2mk86uq3uvv1Gbu7u8a9umTmukV677sW3a88ohQuPEuAMLzDLKq9jDGPPPOAYj2FYS29F6uHOqcoNjzSiOQ8yHWZu+qkJTxsKFs8y9cPvS3CzrxQKJs8TxWovMZwPryyOlc8z17YPEpWObwLKwU8UMOkvOOCMj5/ChS+ZYtmvNazX71EUeg6zC2gvQW3PT2bmPO7l2gxvakZgD3T3528byanPDSvB70lCQU+qaGIPG19zLw/TWC8XHMIvQAE97vax9e82MygPHw9ljyx0009kN7vvE3p4Tw1kZo7gUaBvHzbkLzOhTy99/QSOyWIZzrq1aw9lD75u5HkjbxHJM68W4ymvMhMBL2x70w87coOPBA2iTu0bES9aAF/vGmYpjxkxM28ePCAPFTJpLw+YTk9laErvZe1nLv0Ngi7nBYnu6kuzrz/S4u8GzsCvIdkUTvd91y8ECbqPDw4+7tgCHu8FXL3Ol3JXDyphak8NV1jPQkSKjwfLPa77Nw/PQi/Wzz6Hwm9857cPL5rWz1n68K88TolvD8ulrwzBdw8Yk/yvCv/m73Fpz29qgWXO5KfEb0BbXU8tTd3Oz4oHboynKa7B9PCPPsJWb2Bvgm81VtDPQNQvTrsI+87UofNO5At6rwZsFE6",
                "k93fvDeWljw14s45/EoDPI9qB73yIvs8qN3Su1/MorxATnM8M0PMPO+4Ab0xtVQ9XzEFPD1Gnzu2Kzm9Y3GHPEXJkj2Duvo7gRhxvR1Y9jxiUrW7jV+dvNxFBryJNIC8/YTju200Kb176wQ83eSiu2ZEkjzhSWq8a5JaO7gSfLzBNXG9tckDPVK4tDxfs2k8y806PBwb4Dv/c6s80K+su7A3ND1lyCK9ld+tu7NTuLuOTs084bovvOPgiz3Pd4s6zIROvJQ1GrxFl/a74PgHvQvO87tISZU8e3GZvCdY7b2AwOa6JArnvDt62by1bgO9tR+0uqUDAj0pE9U8XzkYvMrEbD2/ooW8l4LGvHIlNzy1W5W8EdgmPWdcWzxJ+/g6mMxcvXbREbuFj3c8kXTqPXljP7vt1le7rdwbPB25DTwTR+o83yuRPdsCe7tAqu692NqNO9Ztt7x23wU8WdS+PGYDvjwuyhM9+dAoPJLs+7z4hhI7Tu+KOf3LNLxXirA7okffOzy4Fz3IxnS9SM+Ku//mJjzDco68qStSvbA+Fr1atw09JTZfvEXZUbx7SmA7cltYvC0sRL0nQW+7EMtkPXM4fzy0tGC98e21vJpTtD17O8S8k2EEvDF2oTy2oBk80AFoOqzeajvSfdu8XN6WPAqTMT0O4FC97poePaIq6Lt9x6S9InHSvBLSUb3yZbG84K0rvYWU/7u6IoC9k2HVPDlsvz03Or082f8yPLAhpDyjEZ881VptvAlkkrzuHL69KrmBPBZdlzwTDe8931A0PP013Dvdsyc9ZTc0PX5obr1XwHE9oTePvEGavDwjfA29d3CFvb3Mij1ZpZA+MU8kOwk+SbzhcYm7QLwPvYL2zDyWuai7o5hRPdWZAT1dEq28YsSsPcCIlTwaNhW92Fl3vHHSzLvjSiU8ZFsPvUBlBbz2fhu9G1UdPKfwVT2Cy0+9mCLjPKtj3LoftD66epfDPDbX5b1jvtu8n5Puu/jxgb1gmTm9Fi0FvQTcUD2O3xu9",
                "yg3+PIzn2rtuTwa+UxZJu/pkfDqpvzU9v0zhu6aMqzx3uBu9TTHyvNVmD73dXjk9EetxPEGHFj3TiVE8C3qhvOLoHj0T+tM88J/YOuiZWz24A4c8xg9Ou2J5Qjxkk3E96fCGO6W/9rynYBO9gvQlPBdHKrt+l0A9DHUjvPRD8byJdJS9zGwAvP8OAjxuV648TyFvvJliITopVDc9QftPvUh/lLxt5hG9qTNkvbzUED5+9zS/RBDQPJf3o7wyIUW8wPl6PFf0Kr2tXwk9eYvWPJW5bzzSnTy8sGfivZGGKzytBio82CQEvYhppTw+X1E9wEYPPMeu1rwadhW9XCWbOih/uzs2Bb865XvHuqYFArwumxO9qfVxPExnPzsBA6g7rKznO72qLzyLdDO9/fTmutyL2LvVL5W87oMrPO7iiryfnYW79MMUu9dFqTy10BI7YcbMPGvUf7xwq4g+n7kiPbUsTjvfdeu7sI7Du9qqIr0BLKS8wh/4PCOG+jx00W89GmGNu7uE7L35rVq8QtsXvKIMijzsKm68XPLIvNBGP7slJag892SUvZXAujxZApg8OlCfO6BfejzesCc9oy7vvLdhL71/iYG9dFqjPGq41LurbE08uJ4GvVhFAj0tl+E79H8fu3apsTsumpE8EcRAPW8sfTxdHkK8hVJsPBW8RLzciK88VJolO/sCCj2q4ba861pKvWuYP72ke6c7+Lxku/2KxTy1oXY7DGO/Oy/Okr1R5MQ8pBiJPEtHiT0JpA+96tWkPE/d+zu0n5q71dG5u6ZQh7xfSjo90RFMPEUOoLn9Ina8wR78vHqNo7wSHRY8HL4oPLe0AT1TYYq8Ls9HvXVguDzfvum8Ed9nvBGyDz16uHe7oETKvDVJVz1REb48zhKnPI7pAL2bWnm8VNLpu1lsaTv8xS08vkYSu6K9NLzE2YO8H6wMvJuGSTxLF1w9DI8LPAQy/jxisIo90U8NvVs3PLy8b0++W+tWvTdXGzz0hoG8iN5JPVJQULzN7HC8",
                "PhqePboRWbyI8vY8Gqr1uty9zTvWvKm8JbDYvATCbzzH8FM9Wj4QPS5EzDqDaw08fW1rPMc9gb0aX8M8/rVTO4otibsDUfa81kiCvCrNQr3v5zA9JqWpOyeQpbwhlsM8YPSdu/efUb1EG0S9LCXGOqxt3LuIlJM8o2nXvGN65bwrX6M8I5CsOxOspDzzeFW8ONW/PEVPpTsH+RI9bX9IPbj9lDwQh+C7ZiA5vDFphz1ogS+9XletvDOoBL0XHJ68zLJ8PaWcMjw76P25tR8MvZ1ygTyIlMY5VWRHvYg/h70mNdW7i+ypO997VTxt3xM7Ve3CvEtKWj1JIaA83cuvvBemuTxT8m27uedKvRY/Hz03YCO8C1O2PNscuzzcFLW7xeJtOyAdGT0WJSG9lsrwvE0m2byXOFG92SuhvLTSULzPgNC8n8WAPQF1wLwkLYI8i/jovMM0NLsvG0s9VQNgObQjQbumgBE9Y1OwusyUgDzC4+C8+ZqIPVsFND2N+Ts8JPgHPX6e5bsEC6g6BxZyuvy857ifvSc9jZCCvHFrSr3uOCm8qONlPXKSrbyvSp49CAJuPbu1t7oWPoW80X29vCYfC71edCG9tDSNPB9lhLxSUZi8W9OzPJrrIbxJOcq8o7ojvOohSD1Y9si8W9g+O/e1mr0WHyo9HGwaPD9CfT2JF0G9enbhvKedpzkRLBi8eJAuverA4LxVGcS9krSiPAzzqrqFDbu85OD1PECy0rsRbhw83UYNO5L5b7zosoe8cHfsvCjsUL1mWNw7oHKQu0z1WTqpT5a82myjPLNzhzzezHy8A0WevEJ57bzloE26EA52vahjEjxYWHI7igoDPLChGjzGmKA8KBMWvC6t7rqOgyG9npedPJUx/rvwRf+8zd+/u7B4QztGj7K8wtVRPOM/dDxJ+t+8U8jbOwCcObwDwN28e2Swu6f+g7yFIIu8JR3Yu8BS0Ty0AGi7axvQPHN9ETx1gHw+j/KLvMMvG73rJ6Y8htfbO6yKx7tPK6S8",
                "DTUdvBcbtztXLEe8RPdPvLdixTwQij+9YSKiOzssorxxGkE8r7c4PFRlzrtkjqC8GjQRvGvvxrwEVsi8XV/xvMkPejw+aNO7wZObO7MOvLtVoww8w7a/vICOcrpnDKU86zHLu8YarrsruyK8z+rpOg8p2bzqT6i8cjg2PA29dbu0Mrq8zCfCu/GbKzsc8fs7akceu6t0Hr3S6QS7X7IQPXriA71ZU0e9PCCSPDtDQjuUzYw7ZYADPIG/2jwAvuk7mg2JPHKVt7yAIe48YN4cPBMHz7sexbc8dm9cPBbpKj3ducC8c05HvYNAhrx9qDQ9ztZ+O3lCNrkaSWs8ni4nvHJWJDzzWwg9RA/CuyxlAD0cX0C8vhqxO7v8qTx/IBO8K+O/u2eIazq/FpY7Q1oaukbR6DyzlkS8txZfPP5IaDy+y8C8/ukSvCUvdLzbqzC9BOpJPZXGgr1lkHk8UyPAvOHpojy21xk8CfFyPFeNp72oSha6M8ORuscweztJ8gI8wlEDvXW1xjyLZh09LRBpvA0lcz157SO9yk+aO1C/0LvULC69tu2rO4A0Dr3r8Qm9Ca+Au8C1XD0p6q48QS29vDbLZr3UFSa8V9RHPIqHrj1LWCm6fVlDvCaA6ry0XYa8aTgKvVjrvbukyxU8W9f6PFHGH700qkG8OCqyPK/nZLwR3AM8ylmaO+QHvjk68OE7YRKdPLD+E7xPw9g8dG1TPSoVMTzxJte8dMQZvZVtfrtHkbw7ynSXu8VBaLxuwCa9YOfouqDkw7u9rA28PP1APYTDtDxc6wE9mwwfPcM9Eb2icGY8LA2jvH33prx6uXk7ZgyAPGYPbLx6GwS8xfvauzSjNbxSoVQ9nt55vIkb+zvx0KA8NJ/Ouxd3Q711BTI8/IVIvd6IILzdLDy8atZnvDb8SDzrure8UnEwvfj2BTzhAAY9ICPmPK6wNzyT/e09x5yRPNrVj7w+wGk8ITbqPN2n2TxCess8vGAEvJhNkbx/QUu8VDsrPdKuvTynV688",
                "7VcavWKL9bvWFTY9bHvpPNOLkbxfWAg8KhsrvRtf2juKlLK8GwyCuyKDDr0zmP+8NAKuPBkiHz2kawS98iGAvD32gTtKd6K8Z1qUvIeWpbzZyzW9nb/VvCVxd7y/dQA9xz9fPc1utzzY9ha7c7icO+uZkTwjMUQ87QtWO/hDZzzROWq+us4vvbn+MrvBSzs7cQGRPOYx0rwdHSU9l76XuewmFLyxvrq8AxODuc05Hb2tszs8kGGsu2pnsT2gEnq7GHj2vYKPfTs8bje9YLiyPFfkBLugVg68KJypPOwJ4DsYukG9gAgpvDJjlTxELKg9cHjcu6CZJrwWWsA8IL94vKaY3zr9tmK89iRIPZVz9roY6P+5WVuNu/eRRDzOH409A5puvAyHA71idSW8cQUPvUakCz1Fbj09e/MZO2gWEz2yK/+8g2QPug1JObtJa+i8F7jePNa/hjyedOQ8jWLcPCLz/zxZgm08u5USvIgdOz3koGM9c803vDxauDtRobO8yHslvYK/LjyXX4k9nz6PvLCESr3+Wi48HeplvRxgrLvSrLU8kfDSu7dY7T1yMTM9cCicO9lEUj3eJIM9CiWGPFdTajzEj5G8M9bfuNobkDwQpSu81KIyOVbhWbzx5NK7b+GlO1dOHTxHS9g625aMPGYKRbwnuKM8OzQXPfh7xzopa947amucvLuwkjwT1f28LnsBvUQsCjy5z3k7X1azO0LpQLxkhA89XDE6PWJEijwkNKA9rN5NvESILr1dOB67JoUjPWMfKDx59Ck7p3E4PWt3MLcpv4m8R/HsvBx6ITwFJF672X6hPbT24jz2Xiq8YGCMvIxx0jsp5Jm8kr4yvQwdRz1FzFg9WKmEvENgMLzxIK+8V6MKvdrzGrwJKxA9ooCQvaa2ObwxjrA8zN2yOhjcmb0QJp69LoGkO4qr3bxmG+68n62yPPl4K7zdUTq9LqcuPUgdKTyVwXq8NZV2vNiNNLsJoL08v9QIvfJCSzxqmz68KpYrO90AyztCqoa8",
                "pOCkPI8t1TsrJpQ84w+fPLqtybxSR9A898iyvImVEbyA58o7ieCcvbe+CL2y1Ru8w14GvPtJljxNDjO8lH0LO5x/c7yC4Ao8yZ1SvDesAr2mAcE8BLtRPIygMTuDnms86dpfu1p0gLwCFJ+8VUImPbqRvDoUGha7njJrvF+OK736+xE8nbJQvLhHab1FqkE8RVSaOxCQr7yG8848brvVO16EYrs6TfA7Lww3vTE8Ab1y+qi8KF2IvNdEwDyiN9G8BydTvAAz2bseXTi8eYZOvfliorzSQSs7ZrVQvAFkMj3dOgu9wBLyPGLQULzDPVS8A5l6uyKv/TxiNX68X8xHvN+y5ru7yXy85tIRPd5eg7zIMAA9+S1RPUfugzsd3YO8EZT8uF2gszym10Y9V5AUPTnWrTxSctG7ZBu9vGaH0TzLk0G87WMjPe5kMj2U5t08ylplvdkLHz3ZYJW7bvE3PaStGzpzO8Q7qwCOPTRw+zzwk4E3P1OVvJ3UlTwbgym8hVjNOwDYALvog4g7s47OvHwoVL3ZJeg7r9xEPQ6CLL3m1iK9pOHMPHo9Ib1Ehaq7PEpbvH71HLsE2hC9xrC5O9zkP70Rf/a8FlvYvbZgTD1FefQ86NOmPHz8Ob01gZM8S24KPFyVmzyrgc+9wn4pvLyenrwFKxy9MQaZPHgCXDsqCLS8wAufu/Riiry2dso8Fn0ePeAtM70EYvk8C6kBPMKBAb2fBNc8b4yxvHHdn7uNLcU8IDkPPMk4njyumvC71v32PPuQ5T1A+gO9hW7wvB8AEr0YbEM8rWh2PKqyhLyNwzK77YEPvLK0LT3tFNk73x9uPCxx7jxJGKW86QVJO+i2Cz3NaPm73S3VvLoGBTyS7Ku9okSQuw1ywTsWAb08FTCxO3cqfzzYz507ixe3PJL52Tp+gm48SUrsO+h6Pzzc2Q29ZT71urQuYTzk9cE8opyyvLlHiDzFcQi8HHo4vRCxNrxY+3i8mFeUPCeZiLwjX508o1kNPMvuLb2i6JE7",
                "kLrWvK9D1bvcFog8x0HPO0fdk7xU+sA6WGp5OTwoKz0p01i7B7YOPJOAfTxZiJC5DMMIvOBiBT0C6hU8zDSmPIK2EL186Qw80IUFPBd1TT0gnWm9SQJ4vBziZDwQrGK8luV9OwVxhz0CuYY7rvytPB09Cr3SbTG8iioTvTYYSbuwn8A8hFdHvF09s7zS6Vi7mpORPOxbqjyuMKm8RiE2vLUpzzzRMuA74IIcvFKP0zv5Ij09kdzKvZlnfruhdKy8pTXIPAPJ8LyyWkW9lmAau708gjxKQLc899kivByV1zlFTrI8yfLLvHgKvrweVio8TcOkvOTgJbsysk48yYQbPPe4qrzFNRY94gWaPNbC2jzGZpU8QNC3OQJg3LyYfQC+SusrPNdJc7zsYbM9aooQPBbO9bzZ/iy8DiN4POt75zwfKpy6Sd8SPfYyrLx5Jz29PMIKPQbufLxrqRW8b72UvHKqhztRVZY85QM1vPjc7LvLlLo8EX8AvTXkBT3KFyO93GLAPBT5SruqfsW7waXuO6k43Dt/byK908KZPMt/HDzx3aI81yITPYC1PrwmTJk8ZdklvAFBoz0xRHg9Oj6Bu46hWTv/tIw9PpqXO2kovzrc7TQ9ytovPdhqaT1jmBW95LYnvbZiubwUmCm9aeyHOyOfdj4B46M8Ak8eO2NEa7zhSk08ZAstPcdB4TvCnQW9xNctvUqFVjylQzg9EKbBPO3fDzwYMAu9OXuKPAdWXTqSDZQ82XDWvOCwYbxxj6k6p8KFvF7p/buLFzK7mJV2vGBiPbw8JD89vcdnvQnEPTxu+jQ9c0qoPF9jHjz5Y6S8/sGAvJld6btq3t064pdFPEpU0TuU39y8DH+tPEImvrxNiQw8ocULvPvtCL0iN3m8wLHbPKMlt7yFVbQ8imE1vb7nNDsHLGO8wAk+vGvcQj1NeN+83sx6vJ6flryC3eU7U+mOvOq+1LwD1yG8qHUlvOueNr3S6j+8nGK+vY1pM73nona8eTQNvQ/JH72zUn48",
                "9/GevPygurysTaQ8h8WHOz4gKrxMNmK8iEOjOUawKrys+vO8cg4bvQRX2Dx13Pk7qPALPDtPBD2Rz9K9GKvEvLA5i7yLB+G8OjD1vGPMizxMfPs9gYUqu92Klr21bmI8SjfIvC1Qp7tAKz+9okMEOyKVDLtcb0S8AGUrvC7mNLvfLBS94rczvB02FL3pRoK9xihfu7sNeLw6mQc8zIyYOzbCBzxbiZS6CiF0u3PmCLzQDqK8tUmEvJMCJb3Rs0m9UE/OvJ7qIb0kIpW7+uLyvPDsh7wg8v67807BvKsumrx6vBI8TUE+O+ObtDxXAaC9F28iPPusi7wvVG07g/GXvCtjKb1aDpE9TTz1O7U5zjrVi2G9PdgNvC4A5jwdtJw6bKLSvVPy5bv6+wQ9z/ywvPTLHTvGmnC7nnI8PLx4wbxTfSm9R+VUvPurwD1/6YG8t7rSvH+uorxHInu95zrnuwVddLyig8W6dCsCvJskYL11EPu7UGeBvJ3Uc72K8ay87G+4O+2tob1ZX+67NKZCvKYTnbwVOXe8HJkfPKu9rrjTP6Y6/6uIvZnvXTzzVV+9C82HvCQwhDzyFq27M0IcvYAaNbwvZx69+LbNu75klrvM33o8L41LvZrso7zbyhY7iOy2PDFsOD3fhN06JHCZvIUxuDvt9yS9MTHaO6GARLy9Fyq9cvMNvOrrIL27gIC8dZNOvD/hDb1oO5y7H6MFvS/Gibufk5y8X3/MvNcXwLwufSk6iMDdvWkVOr2nwY+9NlkevEqqCTyvmpC8JQwTviMdRrtXfIE8DEV8PD3uh7yx3Kk9/gk5vLy+KzzTkn89luwWvDM8c7t30oq9z8RvvIe0uz12o54+V+2KvFD91zwuM0u85MYEvM6IuzvGNtE8Gay5OtmGd7yuzvU88mbvPLWa0bweg5U7M6GAvQVyNb2prdq7PbsFvUGairyHXBc7DHcnPfTFP71SXAy8RT0UveuIHTyLSlM5iEEFvSchHL04ifs87xyyOjkqB7yCxag8",
                "HHECPfVhGTznZU29SNrmvE2Ns7shhY28IWxXOY7JCb1zoxi8ONnQvJYFKDz/4L+7CkdIPTTtarsu9qa8D7ZIvZNj5DyCX7A9ohmePKc4kr0LSyy9tY2XvYuK+L2e8nE8kR8ovZOE+7yhHhQ96JLjvBHdDr1PUV+8u9FdvcEie7tPoGK7DLbAO8DjDr0FIhg9I8tcPBj7TDwyNK68D8FRvAMPD72zD528Ts2JvFsbmb3ydxa8+hU8vEMxYb1cuWm8cUtaufMw1LynLd07ZaouvKnxtjtZE8o7RRO+vLjFN7w5E9K63W2YvF0vb7xCTAa9AFV+vJoaG71sjUe73px6u6j97rsOG468HJy9vCr3AL2kfZ68S7OTPHcqzTvCdoy8eTOFvGwzWjy7PkA8kNMYvboezzwtKUM89miAvDKn6T1nCAQ9zOUFvdbMeru4NEk87LJOvEF0qryQDiG9gQFyve1S9rwjxc68UVksPApQnLvY+BK96ZF1vEZ+yTwhSWm8ysKgPebmgTvfbKM8X3mxvFlOxbxUXYG8OvqFPG86qDz3NOM8z4xzPaezPr1HrVC9QcwnvIeegby+RZg8xq4JPIH1sbvpdbS9K/n1OyGTMztQxcC5I3LKvI11L728izs99Z78PAgbJT2w6vm7ZErWumVAAT2kmeA6OIqIuxoxAb2Z7uQ829ZjuuXSVL0ok1k7H0VNOr6iAb3J3IK8ON4suxTxpDzncQy8+5wlPEopwrz6SDU8vdLKu/T5Ybx2dB897YFuvMNMpjvuq4a8Vpqhutjsn7wFjZg8tVMWvdSex7xl4T89vuwdvfgGhTvBGIi8y2MBOncGg7s1ERO87roFvYZyuTys5+O8k5QMu+1vED3eEgU7W/JIvWjmTz0gVuU88RSXPIVNbbwBRQI8cOaMu/62KD1tf/i8c6gIvXj5rj3iv7C7wFcHvd8LZzyVHSg9S6FFvC15ojxKALU7EPoZPP405jwzs3a8xMblu6HCz7t3gZK8atbCPGinTD2AwnG8",
                "32PXvH7hHDxKD4U84R1Cu1/XnzxkZOG8MDamvCPCHz1FVB+9t2t4PEPfMbwfr5+8CLFRu695sLxtkRi9vVSBPFQXR7y3Bi29tX4xPSEWb7wHR+U6dnVSvAEfG71p0qc7U4oUPGdGnzznBHi6r6R/PC5pmzykIdS8h6+OO7GlujtrMOk78IcJvT5we7tAgx08qFedvBhbmDz4jbA7DSE9vOM1IbxpC1o7MKkVPFNQFb05USY9taQ7PDjO8bwIyWy6vmubPOiLKrz1/0q8okw6uijyy7yI05W7U4b6PKZhkLyYmZ88xCCsPVl6IrwR1Z697Y7wPBFxhLxDmMU8SPBKvB72O7yoiy095rOEvJp3DLuzR1w8wDKgvEHAU7vDFxG8DZaUvYEeyzoOtri1HOAOPEcJPL34KgC9D9QDvdD7Tj75fp48ArC/PDN2SjwisJ08TeUsvOjc6Tz11TM8MULiu2OK1jurNtW7ZdD0vBa7CT3f5Yi97DVjPCAioryXVSq8THYVPLqqXbt+u5q6seepOxqwAT3EQ3W8SwFVvMdTCT2X9fq7fYI7O+zttbyd5RC94JwsPM29q7xN2J27EG5oPYY3Jbw0/0a8xVkuPG7JjryOBt487uBvPQqLkD0vnSQ78eBNPX5ubz1bTAi9SrtuvELRYrsthne8IfOcPKgdaT1QjqE7nzbmvOukDTzRa0e8zemdvBN4oTwn0yo9oZ8svPml1jzFCoY9BtWEOhV+Gb0PdLe6KN4BOw/ihb38zNk7GXA7vYEkhDxpNiC9DR6ivOEOCryy9SY8ddP4u/+MTzrmKgq9BGYePWJqlD0xCcS80vSePIs07DrniX+8RDvrO3f01zzJ2Sc9SDZvPP7MGb2wXxg96NymvPb77Dx/wmc8tG2ivLqujTv1FDk7MhADOnUpqzpxijY85cm0PFChOztUgRc9tlEjPXxF8roYuTc87J/cOlOvRzyKJBy7e/iau46eHryEMh48oHAFPY5cHb2y+A48QCsbvZ9pMz2peQA8",
                "VaX5PG46kzu82ZM91A+8PFuUJ73yU7q7VN56vFvo9TwP/ni/OTetvAVfCj6Ma+88uYGRPcIsJTzu7AC9gtg0PRnJET2Vu009DyjKOx5bA72hcyS9yaOkvHUpATtcy+0997YePeU+Jr2AEAW9Q6OGPT9jmbz6uQQ9bPouvUthVD3cYZc8BW9JvePI4DyZPGY8gr+bPOITBr2HiOQ778FDPewCczzXbkK9HR5rPP9FBbyMOAE+jkktvdr6Gzwp/rm8xYDKPNVdtj2yc4A7kTUxPBWr1DwBywc9knD0PFSv1zl8hhk8xJK/u1P5AD3gfqq8I5gYPetzGL0QsII7N/9XPAwb+Dx74nw8S9sfvIj4I7ynFCM6vcLxvBXvRDydGjI7RaGyPC/W9TufB8C7fU2VvPp2vjzFjBk9suBVPZKQpzy+WS68i2I4vZ7FjzyuDhU9dbu+OdwCXLwWL508VJQkuYNZAT2v1qS8n3ZDvfubxDxEYAU9/t65vAJGeL2UbTI7xNmsPQNecrwHPgs9sOuUPHcpiz22ge88A011vfLcN7shkwS8vGVRvE4aSj3NQP46bPM3PcnMZz3eUn27GGx5PZTFvzy6GcE8gF9cvSrHeD23fNG8E2USvTHEA70m/Ze6rCplPckhMLwvXGo9LRaHPNsiaryyrFA89ZuJvc3QqLx0+5a8qTLVPBY5lD3aAZ481BXGPCK577zx/fu8C6Uiu4CwAT3U5xK9odFHvElaIDpQxq48UL5RPU/pvDwb5Tc9IR97PHCO4Dz02yE8qfeyOxuOXDzlQ96+e5aSu5xVujtDYNo8GhdEPD+WgDwDj7u8BSdvvB/JAj1BA7E6YZWHPCcCkjyfxbq7zpRAOjF+/rwUqIE8vWqWO1WULj12N7M8sgtCPF7VT7tjWoK7LTNEvXYT9jvPHRS8JH7DvEGP6TwRKOe8CYSVOp+h6Lo5cBg9lIo7vGmTSDoue/S8a4+rPFs74Tx+O0e9ODimvHAaO7xK2Ck8Ywv4PLuPK72FY9y4",
                "8v+UPNV2mzywPLG8IMYQPRcEw7zUbsO7qKr2vIuVBD0z4xC9rnUVve0npLyw1Tu94TeNvKKho7z890e8UVkBPOD2m7zt0tU8Twg1vbZhN7pU0Du8FsqNO7ojCz3WiRs709wdPLpd/DsUWgg8ogjqO7afbblODc48j42lvAGpkz3TGcw88vxMPIY7/bwbkLg8UTWKvFVEPr0j/oO8400gvBq4hDyCbwi8krE/uo5GTrzXNO86YmbhvKhITr2LI+u7O6UEvRjYj72W5g27w8PbvAkE9rzqjDg8pjzQu40PyLsvqza83zWxPcz9MTv/TvK7WbVsPDr49zyjnGm7KKvoO+R+lrsVEyi9LQ5zuh2Wbz3N1aa8gdOyPGUpC73w4Zw7DbwFvYhJubwnBEc8MIAuPRgSELxNhL+8kD2RPEW7TLzaUSE8U1sbvPTpP7xxdzW9KKAcvEwnOL3hgKe8rlS0PNQItTvNRgu8nzwPPOHlFb1LE/08mxIbPPPUo7tudQk9IG6KPDePTLxbtty91joKPMOLhrx8S7w8UT1xvNKNorza4PC7mk9DvZ3ppzwSTyW7dMrpu/4WvjpbeGK834QgPSKu2ryKask8xhhJu9apY7vx+CW9jgtNPYVDBz1swT28C56vOgiJhLpB4cG7ez01vSqDH7q3zNa7JV/sug3rd7w9CNu7gWvEPGPjXTyvuEI9w6gTve3m/7pQ/Ne7khhJvECW0jxyL/y8Yh5Cu2YWtryvwb48PeNtPCh3pLw5ICi9JlUivO2wR7y2+0y8w2g0vF91nrzI0xA9oBYaveSBuzxRnwk9vsOhvGKymDsLThS914D5PJmCVz0s5sC7MKX3PBPvnD2yBEs8wYY5PM+8Xr3KC5482HGpu6R17LyJY0s80SXKvNSU2bwvlnK6jLqyPBUNOLzyGBu8yZ2dvM55fbydtrc7V1LzvM4ZZLyGsLA7J08kvJ8SDTzOdGU9xDYavVDR+Lyx+6k8A1U9vfZBBz0Xvri8BYWKPaeqVrmPd6c7",
                "6Hg0veWn3DuMalS9Du67vNHwTDysvJg8La+5vJwcO7o1st28LUkAvRZDj7tK0ua72KfPOcABmTx+HU68I4iQvO2eBLtPDVg7CA0hu3VNgrsvwAg8ORu8vHm4crw8jcS8d4wlvNT4lrumG7k8wTXNvEyYvjsDjxy9z/oYuzQeurvQDg48zUfOPYBNCbrmq5y9H9vyvHCM9TyC4ZK9ym3HvFBtJ72v4g48zuUMvULfAD3w7uE8XW/YPLu7U72chwW+BnsmPXudnDzD9Qu9/rzNPMR/YT21rEe8wzaEvbAgyrztCfe8nmxvPILjJD12etM7xtCguDSiUDxw66e8rJhuPEPcmDypWY08MXpdu0zscDyprQq7U6fPOrnJmbuFymG95DP6OK9Yw7y3aw49ydEGPbcz8bsRql67qK9qPF8W4Ls3uhm77PzDu1YgLb3HzUI87gOXPDEmA7wRalE9sdgYuwVvHry70gy8USHKu3eXJr2qUXc8hkqbPMniArp3SUm87pePPKlpED18mAy8UZ+9Pej7Mb2Qh+S8VzCAvJzAcDy0RqS8kK7bvLKaIDvJ32K88gLGPMZ307wB8567PZKsvD2fAryAcHY95GHEvCDNsbz6wa08czLvOxwF3DsUbcE8kxXrvLtazrzr1oU7XFPIPN293T2u4AS9fsQFvLd+ETxZsNS8A87WPMVrCzt1nda7Tl1IPcdyjzxfvxc8OPcAPP/qBruHbOU8jhRUPFYSdLq5Wqg7K59AuxtgVb2iR+48zzfbvOKjBDxYwZ28URE9PRSxh7xCcCK7IqfSvOxcXjpLDD29QeQDvdLSRDxFgVm9X8wGPXXoprxf6RQ8TaiOuiVhED1T35Y7jaHpPKT1PjxwGvq6sQ9jPAgFGTx5cyk9uDeLPLyp/Tu74NM9tlccvIYVArtJpiA9bBTRPKKsRDwJl0i9VpzlPDsjFL20RQM9Kx0kPR0x5ryjumI88yLuvM1ohbxSkAw9w+LxOw1Wiry+rDS+N+uaPCe+abtAS+u8",
                "OhBHvclFhTu6GXI7i1BiPNniBz2QyCq9AcqLvMMz4TzeKDe7fO6auWon+bzdvaG7mFY8vI92v7xV7Dc8Fa+vu4CwhD1u10S6oRPCPCtnab3I34o775quvCJbOLzoNQO7DaM8PF2u3TzRoYO8S2r3uqNCrLsCo4O85++/PIMllLwR2X+8YsB/O+uX6rqOgxQ82+YHPSBIe7wNbYu9JpzNu0RIsTxX14k8jzJvvDQFWTz5Dnc8SbNpPaDiiTsPcwi9mnSaPMDoLb20Cxu9b58iPRuLYrtxdZS7F9gsvRmbFD0Do2E6hrOWvcIQ2Dy4JYO8YzavOoh1Qr2LKCI53d0EPLPRPrye1i09Zq5cvEVy/ry9zdw4Zx2+u+fnpbxA1Ik7ebdPvSJSm7t17uy6QTN/PPAV+bwPbxc9Jy3fvH5pjru9ihU93OCLvKnInTymjty7oMjuvMDKFbxJ/Uq92zzLO2txgbzQYrg7xJUSPCRaIb32YOa7Wt3bOywVlT2ghZQ8w08mvF4khzw00GI9jj9LvMaD9bwAiEE8a/53O0P9PTw/nJ68wjY4vPDKDjzBVcU85xokPDQrBL1pAOc8NgZiuv9roLz+9cq7SVDavEjlEjqTkDI9gzxPPAdfIzsCNuU8LtXdPKuUE72mFQK7G53Qukc7z7wZgc+7dz5EPb4hFL182pU8aEd5vMEpD7wHMcW8EAgsvAUF07sad4u8g0E+vQUqyrl00+48PC16PO1Aizuy+Wm9rKnFu93cC71Kt828f3ivPLt7bTx3zgQ9nBhQPUhVYruQkU284PU6vSjcbDrv6Zg9ePv2PAflZzwdTDO90M6GvO0R571oaB88Zd+hvF0tDzz90zW8/znnO9ZAIr10IIs8HuYNvZ3wd7upQ029B4ysO3Cd7zww09U98BzKvLOFHTs+D4u7d/WvvEadOz11HM08e7w9venCVL3hnRM+9YI/vf+2vTz3pKs5vnVXPN1DjDsHID+9QXNWu6+nwTxD8WI9qsyXPDn2rz19Zju9",
                "es0CPD+GkjxkoQM8SUd6vXZoST0/xqI7gU2RvZZUq7wKKwA8w3uoPMi+5T28+xi8Ju9Cvd1iUr2a4i09c8adPYfazDxKhZe83GkWuxM53bymy1W97bVQvHgzCT38scc8f0Y5vNBd2TsHYEM9lhccPP8ADz5nVmg9JsKUPKLp8zygSOO8LXQaPC8VpbcCGhO8wzSxvP7sXDxA/rs8CPVGvGtYQb0em4K797eiPNjBX7yaoNO94bsiPIGiFb0EEJO9M646u3OehTw69g+83vUUvZhilLwz08C86LQrPBQ6Kz1l7Ka8Q8M0vU3AIz3rAxa8OS0OvWlwv7xYeZq9kgc7u+B7ST3/t+W9TQDSPF7dLbw0HxA7Dij/vJS1Jzt719m8IbbqPJ90DL3uBjy8blXuvB3WGj2YZgg89hd7vEKpKr08wCw87dqDvBbvSj3EoYy9LVSYvGXDET3/hE++28opvUG+6zvm/4e7zfa7PO2+TTxctd27qTo1valzFLv1frW8w1qCPDYr2zrW+tU7FHievDndXb35kjY8Qeyvu023aLtyFLy8EOrmO0qhpzq5Sbg7JPrYt6z7pDzmFx49iq6eu6iw/jzqDOQ5uRTdPDdn5bv2QRI8bP3PvMy50Dx0EEI8i2r3PIn2Gz0qNku8+CoIPCn/1zu5YU88HHNUPDS2UrwRgv67JORAvI6QzzxrSPa8o6iYvBEYZ7wBsQO9nWmjPA0BoTuk1aO7wJgdvHRpPbw2eMo8QAzGvMzmqb5rWzk8+r0NvGcyjzyMZ0+8S8fYO9eKiTyEalW8te9Ru+uSTjv7cAo9NaY/PQRvKbxZEec8LH+nPEL8sbxqQx27EdqKO3s5xTxG8pW9DBiJvEyuaLtXjzi6tTfTPIo5krtC+7G8slPaOysY3TtDxDG8leOlPFaGZDywI368psa/uxdQ7DzLSv26xlXePCiXLL1zs5G8kVENvZqT5Lzo1Ee8Zyf8O2onQDzuhFS8rIs1vefw+DviUPI8k+RYvb9E0rw4w8w7",
                "bhJxu/kGC71H7E+9WMuOPA2SPbxMOGG7xyoAvUEhPDrIFVK8FIgIPVqIFr1xbKG8FKfrvAxz6ruwt5U8qlCzOqnNMDyYBwO9tJ4BvVSoMrzUenA7HouXuoI/HLybB+S8XjdpPSQciDx28H+8TqhVPDS+6btSc4w8oCM9PG4XDTyxo/k9iEcnPOHND7w8gfM8PUnDvKjUQbzmT9G87Cueuc9v3rxtui29YWKaPfWPmTuci5O7ehHbO3VMJryPzee6iAXxO6VpWzt18FK8GyxPuxfkKbyG3pW8+0GQPPDq1Dxp0T29RaIvPH9bt7t8zBC9csFFvHRldDw/37U8un0QPq2bsbwJDDY9ydFTvMkR+LuOh1y8fdMiPZj6gLryiwy9JI2gPOD8WTyuntA7tfXzuwQsEj2xwgM8/nI3vTe3iLwH2Gm8ITW3PC7iGL0VKjG8HEWpPG0XI7z+ETw8/T81vb4LtzvkQLS8FoY/PORUBD0m/0i8zhHNu1/eTbzZWQ09s6A3vLae2rzQ2ey8/8UQucYqwjtULuy8tFtcutGagjwDjeQ8MZuaPFwjErzeOAu7F83gvBK4irwWp0Y9Z5tavRwEPzwu8mE9t1JHvDMtKj28dfA6ePDbvGAGZLzDyYG7t04kPi07ZryD2yO9/byEPCg9Ubx3HBq8R1gAvXL/W7zTplw9xUuwvFVxFL2K1jm9aD8hvVMsvzxk0gu9qYctPNTNG7xtrj89+pvwPEMPAT2lb5o7aHBou7r+OT0zKnA7U6p2OyQEAj13FTy9ObBvPKkD8LuhY6q86BknvWkul7w2Y+E7qjg0vXT0+znje5u8JMoWvH1NETvMAAu9FD1Uu3rUcrrli0U8UP6VPJFFPL2KvSa7EYXbPHMpV7uwLek8YFahPDWYLz1g1DI7hRuQu2vKu7qlB8o83p/Xu+ujZbwhdeC98YHVO5lVYjpzLxO9yDZGO2ldHz32MsU6/LCCvbJfYLz5Y4e8JroQPQGqeLwhdKi5O0xXPFH36Lwfjm+8",
                "g+mOvKE2Ab0ULdG6B2CpulfQ8zw+hvg7rpQDPPuBdrzAdmy84omIu1DVFjzPBqO8qcEZvZTNGT0pgpO8SLCJuvRkM73gtxa9mljEPLa+hbw9vew7JSBhPFm9brzexOW8RMt1u85tRz3Tkpg8Ob4hveCQwTsAp8I7zgKiPDi9sDoKtqo8NOY3vM8PZDxtvco8OodGPCo6IzxjcPy7DIjGPWu7c7rub947/McmO9ZSjDxFF9y8oJ4kvQdGZDzsdM466Q1OPGmD9Lwh9JK7yBwWPMaDFr3rATy9vLjSvIk3OLwrGMy8Iz1evFe7D717plK86OIfvOCTP7x5hJw8noCbvLher7sqrAI9okOxvNLgD7zdZhY7iY7fu9+hSDuS3oE8uuhPubUXHL3uhxs9Mx9jPB8qdzxYJJY9NBj7O4Lnpj3Iork7XVBgu2xtFD3kabu8IqtqPJsnxLzufSs9BAjuuw+g7zsJUFK8XvgSvU+gprwlSga9pkCGu71ltDwiEI47jwYYPUZErjzun3G8VAtJvEMqHrzqATk8JOQCvA3QEzuGCec9T0bDPAaoQr2G6Ji7qiK4O0vHuDwN6+68N9X8PGg8fDxy/Je87i43vNtSkLvlS0a7UAJzPEjehTzeOqu7lEP+O5kr9rztzdu8/qvOu21RO7smYWi9Dcp+O6tXXzzeP3E7twAhPB7nETyXvYi7crKJPAoN7zyVLlm8u9BtO+AT1LxbNgW8rWxcPXFGL7sz/JU90TKTvKb5ojoY7Ts8WlS/vKGwpD072Ne8oD4QPYeNKr1MiNG87ibcvHhaDL3REAC82f4VPUc5GzzMzRE93arIu5iRErvHG1e9wTLEvBOV5jtjH5Y7IY+duw5sEr06HJa8rTIIPAeq7LwiQSK9ylaivNq2kbuS4aE8S1qiPTsGuLqwPRq9/IncOvZWCT1nt1q94lDFO7/yzTvSOPI82BYdvKbsijxaqwG9hflPPeA5srtGLZ+82CAIPtReq7zDaJG9CitGPMN1ar3Fz8G8",
