{
    "input_shape": [
        74
    ],
    "hidden_layers": [
        {
            "shape": [
                140,
                75
            ],
            "weights": [
                "r6ywPf2gAD6xJ0+92E+CvahJuzuRfay5omlkuhYFoDxH0607CNR3O33ibTxHRQG8OdsiPYxi/7yJYgW797qyvLp3Prwdrug8V6tOPRR4hzxsUoU8Uq0LPb6Wpr2gGmE9AlwOPEc7TTlsjYy7mI/XvOu3D705nVk8P7t4PVnBVbs4Ogw9EM6LvPsOHzuLSgC6+LWfPLL1njkKnKI8TvAeui+xr7sNqC28s4wKt8IcoLz21R28PZpYvGYOOTqvLv48Ms5gPei8X7ytR9i8O/y2vKiqAryTDv27JLZhPCDeHzzDZCQ9iviJPMbRUbvr81C7d24DPDhp4bylLx+9j+MAO4YMqTxyKyk8WE/fPLMqsbhsb2i8okK2PILXi7uwKSG7l1QwulnPEL00o929vmYVPRNTj723XQY9IU9fvQvPhrz35A+9WQ7bvIpGzDkz2KO9ipkUvJT8sT3HiJo9pM+COt7t6Lw+vjA91BeavCYCETwQ0CQ8uCcBPc8zUDyNbGm8iGGzvNqrgr10ICK9GZ9EvJ8YEDpj5528CEhTPLGSjjuwtS08Tzw1O2J8AL2Zcho8U+6ePHXwQr0r49y6h6Q0PAaRxjn2W5S7s8ikO3wrDTzsB308sztpu9+kRj1TWvS8ws6hO4VJgDsXmyg8PEzNvLjQJL2XozE7Tv/IPAO3WzuGkOM8JP5yPJAUSDqWmBm92jEaPFel+js0pH+7IOVWuooTc7yceFK9+QWgu5v7MDgB+TU9ADDVO90G0zzaD2c8WlraO6JcozvGw4G7Lu1QPNWCF7x1k8u9uZX9vLgmUr3xwwq+WIp4vNboP73EW3Y7R19bvnI6sjuL27Y8xtqUvPNumT1bUxK9z6OWO25rjDy9PDc8IMJWvT+d0rzYA268FMktvWCHtj3aYqc9UlsUPDoKsrxotKU8dBr7u592U7yk/me7OxbxPPI/fTthX0A8yc0lPOBPijtRPeq6oeeuu0ItCrw2Jgm8kMwEu7etQztJTAe9Im23PE0DRT2T+ZK7",
                "aebvOu6kY71zc1a8W/W0PBB5NLzVXac8LvCbPGBymrs91HY82PazPBjdSjvB0DO86r83O4wT5TyYOgS8T8oKvPhvWbxEfKm7qqkROzb5QDuiWmu8HNlivBM1Urz2JAI8hbSxPAVyOjudwpo7bFPEPN3RGjrUdwM7W7fqO5/nGb0biLq+f5cUvmxC1LzYCdG8qmbgvWVd9jujwA48iIFjvFGqXT1JRik7ADIPvM+DRz3AzUW+fbjwvJAJs70jj2a79UwsvGlMATwtEZO8Q5GSvKZnpLtdudc8beOBPFF3RTpCnIw73/1Nu1k5cTosoYU8Di9wu5UzN725rGW6/qkCvINnIj1C+EI9hSQBPKL0FT2H/fs566HuPNu0zTz9wHY5p+hxvH+ZzrtlY406txrfO7ZiWLuME+a6bseWO6ScGDyd0xU8v39HPQo257pGQDc8XpYLu280irwflhE8OYYGPKIkuLsd8FE8kKXRPKwzmDzjgti7x7s/PFfDzzvXLQg8TzvQOyMs7LswDTm8b6ZEuwnSSbwTe787WaaavCelPzyGlus7C3jtOrp4FzzlV6w9BDGRO4uGWLv4dwU+OqK6vYwKgj5XORw7V2AlOvT0trtuUgO7k0pyvTkAvTsIS3c6fukvPdPHi7wW+hI77Q6KOkXBtrngaT49LZiPvNM3TDtfO+86Npdiu3ya2DramLo7QYXWPJs5xDq8pTI7Zo8suwwY7LssoPu4h2z/vB7HhzveolC7LyeYutxSaLp8Fha8cDQnvdYr+TtJVnE7OEYbuzVWvzqzjIe5nxqGu+l2CTojxVc7bM4evRRtZbrt1oC7a+2JOishbbt/6Us6Fb4SvaJn9jk/Ioo603sCuq7b2LybMAu8bh/vufULbzsb1yM7Qc2Hu+o5kjvM0Y08hkleuiTFrLs88Co7Yow6vZmQRbqydkW4YBw7Pfw1VDsRW1+5AD20Ovopg733rQq+QASPPUuUwj3NsRU9ChdEPOwisTyZmBy7pTZ0PRVJQr18wu28",
                "OUcevK/2bT4hG7a9V5AVPZhhLz3VHJK7qiaGvHjlmbsNvDc9p5uFvPG1fbxfq3u6fYc6PCHXUj3eT8+8WulXunr98jqe3TW8QC4FvQEaWL3fUIs8n92APDaPw7vLuDw9ZLZfvfSpbTwxNiU8cSm1ukDhHrrz39A7CamouzWHz73Dn9W7ttmbOz6Z5TvQyww8mfg1vBetxrvzBlk6ZXoFPD/Vu7ulVvO712IwvJYpIrs++pG8OFr8O5g8m7za5dC8TUc0vASDrrrdWvI7VhsQu8M12LrDAJS8aif/OTPu2btR++K702yBOlWxObxhu9s8SflsvB3FqryfSx+8h49JuqfqSjyeCkK+gaiku7Z98bsIDQi9jLIYPo1iBT5csS88HDILO2rZj7uQtqm6LAK+O4/A/boQQ3e7RY6bPbsTFD6IcVW78KrNumkS4LqIwZO8S0oNPc77TLtRsOI7kBC8vaCaoTsg/Ji76/N6Pna9fDyPOGw6YI68OwNuZTtPoua7daiNPXOfbToeZMG7/52UOpaQ2runts08+vgEPRDNqDvLL3S63JEdOq4FEzkCA6G7e8gOumtPz7tgx6m7IZPvPMq/ADs0Or07HatFPcdU9jolW4G78ulwvCP2eDuwcVo7iwbLuknbzzxwpnw8YKE6vOKhj7oKsAs8NIRtOyCRk7u+MBS9iQ+bOg2GRDuNIaE6aOeKOyiakbn+tTa7Cr3AOwehEztUy5+7+cXNOr7DAz3kdaU+gyspvCBCv7ykUZ89DO+BvVaONj0jpaW7mHFePWZ0E7zJKCW8PPqqPaJtyD2Lr0S9w0VoPRrGQj5zVpW75ux9vGZPmjvhGv08RY0fPSxCUrxHRd+8TJlBPeQdSz2HzPO82K08vaG6kjunyS+8sFgPPc1wMbz6s4g7Mv7yPE7hcbs3V6S6tksCvXaJRLzMZzy8X2MOPdaS+jubIfy8G+V9u3GVa7xchXW7FPUhPGwUDzzRKCA8ZGnZPO+YpLspQis86IdePHaPEjru6ge9",
                "7XfyPGSIAbxO35e8w43xO1kOM718z+S7XCrkO3osvjx8Ewk87/MHPGtsB73FANQ8FjKTuunHi7rkDYU7Posxu0yWjLwf1AU8c38TvBiJyzryJuu7Nr7qOxfQlryRmu091AuTPI+MmL0vh/m5wctsvb4XijxWU7E8kMPGPOJKgjxfDd285O5YvJcEojtQ2EG42tezuf4VUrwuEm+8cwpIPN5bGbyTvEy8Xg44vLvyAr1/Q6A75rISPK6vp72ilBq9L6Z4vC9mZzvdpOs7WwqKvMUNb7yUTYI9oUK5PECJDb1d66Q8HKOiPC4YML21s647zDEevVDa0Luu8U47G2n9OB6l8ryb2UG9MSCFuyeINDwzrzE8anzcOwQU6TyQDnC8OGW2PDQwgj2AAZU8hUugO4UaPjzFYEw9zrA3PCDYATyL1t08QHCuu6v5d7xX2n09ZbAHvUH1Ur2F3DA77I5gOxJrobq7JUc9M1arPNnWLbsSKCy8VbuFPG2MMbyCEec7o71AO3fslDzbup68JcZVPjSAhj4Pvak8XYZmvXtLxzw8e3a7S8p4Pbqj9jvhQfA6GF8FvCuiOb6QfIg9ujD8O0LzOzzckW68oDsSOxbYALyn+3q89eM1vaKogrx+K3G8ZvbeuSeJYj1T1Qi9JOQlvIEcCzwniZA7UyClvPkQrD00It28pbFyPEMrFT2OWKm9FWiXvP0ci7uN83E8d0jLO579ibvCrzo9C4hqO/xVwbsWZss7vjAFOJBWyry+5IS8Nw88uzYTFryQMo07IFEFPC54KTwzmrc8cpEjvPLJiTqPOGq7og8eu3MmOjyW1Ee8PKnhvOu3y7zgTa28eOWIvF73wzwYTTI7OCz0urtmKLulTiC8HDb3u2lfwLvKSFg8TYB3u8G03zsWAo+7nhLROrqBqTqAm5U75M6oPZcBwT1VGkO9zNPUPE5PX70LM9u6X+CePCoZIz69tPQ9vFrHvDH/P700XFo8rt1yvQFpkzyQGre8oWafPWITKLpavhc9",
                "wVOdPOxgYbtsKfo7FFAVvC+6Q7sU7+k7og+RPDrMeDq7fty6P09VOckmzrxTdhY8bB3pPGUbojuTMBm8bUWAPOKsQrrbqWA9L13iPGXuULwOo7+8i2i7u4KygTzO4W44ykMROxipuDxeo2k85ahBPPKbGDze2BO9VGMrPEJQrTo3QxM8RyjbPLCkzbt8n4u8bSM9O9Ggpzv9ChW8B4Chuu3fkzx7qXY8lbQePFZdzLzSP5q8X5KkOkuiVrz9kbw5xtT/u4Dgp7uGms886HuIvFPqxrzr3HK8v0DuOomrsrtC6aW9oNYavGGOsbw1bvQ9iln4PdRJhDzbe4+9kI0CPdDjKDwsxg277xMPPfaxHD3LPL++zMNMPdZXuT3oN4w9eu+YPf41Mjpp9/I8VaBKPY4B7Tu1q7m9Ub4APBj3Vrpamtk8whV1vX6yGrwsT1A8rAHYO/g1Fz0Rn7A8RcgYPcfbcj2eDJY90UY3vfczhr1wgTW7J3iOvIPrYbv0RRg8W500O17Jbb3qUbE94Qsqu3VD0Lni7QC9ZQqju5QfAT0YNug8FHPsO8lnvjwpTxu99n+aOuJEmzvH1AA7dVCeu1icXrwp+Dm7DbUqvKcpezwqTas7nikhPCOO6bqJeiI9cvBMu/EOkLwHjVQ8BTAvPCtlJL2ujPA79ExqvHPRTLtcE4U3vmpgullJgTwmQwG/GJAvO/ZQ+jvd0gm++S5yPXJNIr6EBYu64qidul7x9btu/Zo7N+P9vaNE0Dll+Ew8OkoHPKY4Jz6YUbG7eZMnO/l+A7uXgZq9DOexvf1AKLtrYqo6NoirPJosqDuWzbu76k7IPM10TTskH5M64+4VunBPqTuHoVk8tIuqvXdPpbslECw7E8VfutYqZ7qB+5y8tI+ZPf10Ezxfgbg69RCKu9vQgTuini+8woeCO/qkI7tOae06MrhnvXoLATweHAM7oGzNPAtFnznvSAw8iElsPZlbGru/zpM6/lQzu4jeqTxntVM8e4zeu//msjoU/Zc7",
                "W4youXqoAjxLIBK9qZC1O6kuD7tq1lo7nvVqO6u4vrtrnrw50t13vBQPQbtYrtk6xr7ju8aqFj03q1E9cNbgvOoT5jt/Ihu9d9tjvWlkLb2iDjU9h0vQuzjggjzHW8+7CLRZvTbMpbok62i+GpNIPXAEAr5F3dk8LZ2yPLA9ETsKVXK8nM64OuMJnbow+Y68FYHPO6fCRTxGkGk9OF9AvCXggbtg+RW8nhIPvHbxhDwah+c8bHyDvdWAZTxaM8c8pXagPNvqDzxMopK67OpUvI8A3TttYga80SsBPLKXhjuJUhW8bXHOOiXgMDg20A89lTJKvFzK2LxCEay7+G0DveUeZDzCiLC7WGrsu81Z77v3g6M7XYmcvLRkxDy1Uxm7+UfSO3n2C7xZ0Fc767MpvSHoJjtip7684Qj5O7gW6DuzyR+8TiChu9QWSrvA2Bq6SldCPBw7ertPXtS6SgbIu/iMr7tHztO9yT+tPaJsbr01+QK+X+82PdbiIb1LJS++kxOeveyvfT2tryW+HabMu8w0ojurxH+9i4EGvRJfKz2IPAg91kKXO8K1Cj1JKTi8thCGPFKxBr3daSQ8kP3JO8Hw9zwa2II9zvuDPEz1oTyte469j3k5PVo+OrzTg5M8FKTFut3yuryyxp88lQr6uwRBG71B2s07wVEHPHwCMzuSLAY9aJYJPPuKFDyjPcU8+dMRPGcdJ72SqJc8iUIbO33kTjw2TE+7gDTtPF//ijzQlwc8nPn1OtOcxTzXvug8pVRhPNNmrDw+HU+7kHxSPDXVNruJbDG7x8nRPBo0ZDzi4GY7m3BsvOnYibvukv07A4OXu2fR0zuj5Nk65VTBO5iqijwHBG+8s1VhOtedBDhUDyu+gB8qvdWWjL0EUAO9B59/vac2j7wz9/a8RIbPPHKOUb02l627FXE1vK1IG71reio7lZncPGZpDLxS7dk8yp88POakRj6BIo87N0r8uyGtDL3HlV+9CUr/PInJLTy+8vO8j+pkPI1uxbxdnma9",
                "g/soPIK46zz0fQg7jZjiPCFmfDzc6ra8l2LWPGqZWTw2WKC7+esSPHHxn7zFiW68mbdCve4ltDzNJ5q7CRTgvMtL5rtW9047Ih02vNQQAb2Uk/M7+gJSPH+r2rtdusg7L0xSvD7KADyBzV08ACy0O78bEjr4qFm8VAvKOkQ6wLuRcbe7SX1kvPyOuzzUGie8XTBYPC+JSTuuDrQ7v5i8vDhFNDwHsia5DwmYO+jrgjpYZhY8wuMnvPfYP7vLuvG9cXWuveJW3z1JDE49pR15PUyfQbwDxB+9j+t0vTcrM7y0wtQ5uUpbPR9Qnz2SFNU8vQ2UPPgNIj1XsxU8kW8GvNbnbrwVi0y814OSPHWuoruxLIM7SnVavGi6q7xDYlO8sZEKveUsKLw6VKO9IewPPWXUezx27J692i8kvD+ZLr1HKIE8AgcAO81PzzszXri7IT8WPdeCu7vf1tq7wBgYvNd/vbvfeP47HwrUt8IJ0jwx8aq7RNnNPIeMHbsLbU47C2gmPdXy0ry/sqq81exTPDOtbLyy1N68P9SnuxCerDxsIUe9Vf5qPD4Agrxq57y7Hl0fvAnRM7xrSE48fy8GPIoyj7zEhIm8dlxBvPORDjxsDQo9NKJkO0jiMrx0sTo8Ue6IvMpZvrwDzXy+QDnvuPEcoLw3L2W8RvBmu08PKL0CSrw8jXSEu2uQV72WJYA9IM7OvFUc6D0CZIs+qa6dPJYxEr4vhxu9OZEZPBLQqzsQaOC8mVEMO7IjCr2+T+U8t3HUPFkSCL0l+Qo8tnwNvIqfmbzdmRM7RW0bvG7A1zvo7pO68mGJvSf4Ob1uIKy57lhnO2wDdbsoxEY8igaauiYT4bwGIUu5rhXgO0Ec8buLSws8antAvCWihDsTSpy8Rjwru7gm8jsd0ko7xVsPvbVnlrxVcoo8ApEbvTzCc7tKi1c8alchPCx4BDrGBxM8yUSHu6huX7xQE6g41ydyPENPpjsaQvy8SrRgupyrvzuKdUI8jXV2O2pJSDxkJGk7",
                "mpwJPUkVWLs/Igc8v9iqu1wLTjsGHje+Kiv8OuBSrbsEuFe8tU5VvW0dC77ZKvK6P+IKu9qAzTrWdO+7BgK4vGbJB7wu+je8GdO+vewVnj0ZVQI8rNyTO0tFhru9lQk+dMOJvWcImzp2Vgm87pfGPThPFrslQGu7HryBPXQSZzviRq872s0OOzxMxDqqxKG7QqGEPZ/6l7shXww7pixDO7A1qruYTQQ9VF6gvMIxH7u7fai78znWOl7PrTsiLC46y7UWO8a6ejus4Te7JR0dvdlCCjzPg7i6CQp+PUP7mTpSHcM6nKUFvB8i1Tv/Vo47PkDZOjvKUDyXmxI8R7c5u/6UPDv3SIU7y5e1O+FLkru1fUA9tuWrOsGyhztcaN47qsOrPfAgmzvgiaW6UAugvNuVETqijb+6hOKGO4jVQb3zzrU9XdKuPF1BDbyFkuM8TFjhPEgOvTxr1Rs+6BtrveLzIb3jBJU7zIBuO+o8RzsQr167WT/6O7HpKzw6odC8/NSuvA35prptyp+8FBc3Pd4knDrBSWG8F115vNHL6TtJKxe+ik2fvJ76+rrtmoE8zAwrPERcfL2u+IO9CTH/u0UDvjtHeFK8FEaWvKs28bxI9uS78DDKOxG7ZjzcSf67482xO98HAbyN0uQ35cHfOw50SLwvRmE9uKA9vIBjtrwJpE28MDNBPOezHbs+xQo89HVdu3G6PDyvuZA66LnTPDA/27u8I9y6te+iPDKdm7wLmyg8O0DHvDewdToX+DG71Iu+u/Fg1bw7QKQ8iZyKvEjCmTyVBIe5Nnu4OwvvNjqGx6i7uKtKuwOPJrvSXFM8dvRxvIuGOD191pm8rxIxO2rINb1URwU8zqiAPdNlzTy5jUO8UxJAPKl5Fj2bDwg8OVdXO5h2xDzSWow7jeCEvFn0Ij4c24E9GKwmvQ6vkDssbaO7X1fAu2wFOzr8+045H8joPAdErDydxEo9pCOkvMYnwDxwx1U8+LCJu7khnLzq9nE8e4W/u61HrjyWNqc8",
                "N141vLDeFD3q6088R6uUvI/MDDt/GqW85H6avNWvAzwmY1e6euZxPMn2qTwQG4o62bAzuy9Egzz7z4M7KZOQu9DwM7svaMK8SD2ePIXTQzySRos6UmSRvALx/ToJSlG8vesFPKUfrbvLFDQ8KEsWubueP7xmxIu7Bdi6O3inE7wxVgw8loTjO7e2wjv144s6hG4APUaWKjwksPS6vFRNvuwfzjwppUY98UWVvY3JA7wPaGO+xnbGPbfElL0VrEI9/PgIPPISPbyjiYE9OvLQvCPnljuGd7A7lNUrPGxJpztTbV682EiHuhoJMLw52Ak9j2NfvNJfYbub0cI8RwEfu169TrsVHDe98+6HvOC9oz1jimc9gwQEPESISr1oLkG992f6vB47Kr28Zbe7F4SvuuehKL3CB5w8OfYkvJiAq7wCuj49QU8guwrYhztXI0i9X2B5Ow7DILziRB68qPhPO7xazLwuKQM94YIpPC0/sTr0h/O6nK3Vu7MP+rpjjS65IujRvFQuYbsUpuI6LTOZvNCkzzvT2Nq8joG7O2hARLwEvIg7VdZyvL4ZkDwXX147T0NKvF6gIzvz5IW89Ppvu1dwkTuNIMe9eqIQPLxRizrXK6g9ymh2PfD/h70+2sq7RN0VuWlq4Lmam/M7CPL7vWDQG7unC9i63XHRvG3UOr0/Ivs7dhJ8u+7dWrl/AD87xvAfPjhotLmK6Qg8+mgbvfrVTDtZi1C7is0nPTCf0DpVjqo7nb+OO/i1xztawAW8RolmPS6//rsgsy45tmkuO5yxKjtJB5c7DBusvehzwztsQM+6WwUhOwOLZLtEFo87KwCfO6UNXLxov9K5KPvGPTfpoDobhgg8/ScfvAsZoTnbA4o5qEnCuX3eaTtEmo04fApcO6BQKj31AzA8MvVSOqRQzLkBJc86n1s5OhIK2jsa0LG8ucSPui/Q6Dsljtg6e6JAvcb93Ls9kDa7yXZiPJ1/f7u8rsU7+MaJN6/tLD18H425vDiovIIHEb16Bg89",
                "xm6CPFOgOjwyJR+9D7B1uyluhz2y1Ei8imhnPYsJRT7T36+++1TrvEf6Rj1cRAU9tTsdPbHHZTzfTgm8ZQmlPd6p5ryloEO9FNUjPOz/RD2XuY28JwBbvdN9CDukM9M8g86iPNdqR73PZsQ8SuJtO2fANLtxlno9ZpFSvYl7Tbzxlws8a17iPMrErTmYT7K83ZK7POFBO70ppQ09xtzbu+qc9TqC/em8A0UROzRxmzyjNK88owSBOgTDGbxh8OW8pMWguyIsOLxg2Zu8ZD7Fu3mtEb1XCoo8/uktvCDeoDwxu/q7LSy+PJ+tjLzI2JW6R8lhPOVE3js82IO8FhQ6uqi3Z7tdJgc9NY0vPKNRSrwAD3G8z+Q9Ozv6m7yHNIG+cB+4Pbst0bxbYp69GOh7PWK0Kr1d4IA+w5cMvqoCJrzDGt07Dd0BPQlAAryME589is0xvc01wzyOMoO7r+OFuvaD7ryhbWo9UKCNO3Tq2brvBkE8iOD4vDlOM7ttH2688iuAPWcWgDzTSYW51IiUPOYwnL1a9169yNiEPIUhAD20hnk9cTxpvA0BsbwnEKc8pdWtO7WIurxEqEA8tlUpPJEBqTsvZO27ckgKu3M1A7tFYry87EisPHPhnbxU5Gq7wcYjvPalLTx2ire8b6dZvIWULzwrZZu73MRtO2dq3DwSnZk7d9IIPJf18Dp/LqC6q7mKPKQU1bsnuJc8j1IQO1LDyjt10Eq79jxgPLirnTrP2cU7SGNSu2TeOrtnOiC8f3RTujjURjudLoi9wWikPQJUQr72QH09V4tlvd4Db7wZYUI+3z0CPnG5gjy638y9MRcvPD36Vb25UDu98vEVvZ2giTxP7La7NyKTO2vg1jt9Phs7meRqutCc5Dy0LN+7I6a3vH+2a7zMxYO7MkcNPFQUyzur7gk9Cl2DvDZWVDsipsO9QLjYO5gOjj1ywXi6wVebvACOKT25A2q7c0oIOpV9Gj1b6gU9LiK6u0ZHvbxX1Ty95bknPL3rIb0zcfk8",
                "dUltPAH0vzxM4oA50bbpuucFCD0lHOE70+zTO77zCjslWGe6+78+u0WPHDzfDsy80W4APFbcubteNRe86laDPHTeiTxAhby8y3ujOu2bbzrgc4e8qjBZvM6MPLy1YUu8zoOHvMkbKbzB2bo796BRugKrEDxF2qq95AbpPeQB9Tst1WS7rCHhOw4dL71Kjkw9fAkxvabWj73xuAs9AtoDvHaAGT0XhQS+23flvLemsLyzhIS9HYusvYnHiLon+I08BtZNvVZeCzwEG/g8MoOiO/GCBjxzs7G8gcGZvFh75but5RC9ZX4EvekPu7xMEBK8Lek0PFhSZbrh2s+8b5+bvEb87LsaH9Y7cqjqO6mYqLzO7/w7el2UOwudsbxo/PI8kROduhK+m7uDrCO9hRZuvGiYHjysu6s6UWGvunofxzkoYrw8x85ZOzodEDzn2fs7pVOkvLuXjzkET545ujdyO5RQcDwAyuq72tRXPAzG6jsI1QC8Q97uu1mLAz1g+oa8r2OsO3PaVze+gYs77bU/vN4TFbsqw9S8i3+6uZTTyjs4mp+9UaJnvQDCnzukr8Q6sKbjOxYrBz35qII9ue7hvCcLkzyHDpa72J2wOml2Nb2Jgac+C/bqPBGphz1D/Uk8tCwYPOqj+To/w108qMMKPaFvkLvDPiA9nLzOOyg/jTt+3Zk9K+AhvSQV/Ltiekm7oe6zu9u6YD0SMSE9HvFSPDL7Ir1DpTK9Kr8cPe2ZZD1SVCo8vj+ZOyTkmbzq10Y8cL8lOi3NyzwWVDe9A9qOu0rc6bv3kDS8nlY8u5C9x7qKO4O5SkGMPIrhf7yjOlo8oEoTPGa/Dbseh6M7koYEvW29G72gPia8zd8APKDgV7w8YqA7M+HUvBNUEjzf10C8/KKSOv0fATyyeb+7H8n4u39jND0Wmse79UzMu+jNsLqiAU88YjECOt695jtqo0O+d7JhPTGoub1OZsU8PaqIPRk9kD2ZHw495OUFPVwrIT0EAKa94owmvMI7Lb5OSzW+",
                "N+GKPfI04b1Lgww9KcGKPNxoFjzEjZ877etkvGlUtD02Qyq9nD5TPX7Tdr3ilhi80pJ/vQBgOLoArDa8dp5pvNPWQDsDojm9bXA+vQvcgj1bhme8DtKOPFKvJL3T//A7CdiUuZYuNzym7x+8kCpdvH77nTyhSZg9pNC/POyJwryACRK9D/X0ui3hJjy8N1M7Q+EQve6zizylo4E8LI8qvdkHCjwpFlM8EekdvGckpDuAPfm8/cXpu3tdgDxReo+8qDVbOlLjTbuFClI8Xp+kvGRIMjxumL08f/P+uxAX/bqFggO99nP1On6dZzwOMcE7mG6Iu5jC6ztRxB2/itYGPtuxLz71M0s+elQmPZMzEryH/RI6mGJAPANQdD2pDB89Um5iPWoLGT0MDJS8ehEyvc0kmjw6iYC7B+vSPDm6jTtq3a08tiNIPO2FYLyRo5m7763huwltoDyNsR+8WlCTPJRQTjsYrpg76MeouwGQJTw2qBu78wfdPOpc+jsKBcW7cqVFvcX7uDsv3Oo8KTdtvJgFELv70CQ9xrjVut32Tr0Rsu27t8NQO2LNlrwqh1C8TJtDPJz8jLkxBJI7hT1VuyWj7jsEm/Q8gZ4luQrVm7uFS2m7mEICOmaL5LoH3su7d2dJO1PyC7xqTmK80UFavJuO8TxHX4U8ddg7uisuwLxLzDm8WZhovMRjjrup+IY7m0OLPGjtibv6flS7LRZ1Otqt2bvX5r+8Sal0vVkNnz1g7Gq9z/gfvRlJnL251Kc9+2ugPWFhiDt89u08yimTOv1Ui70CUgK9Vp/mPH6v17zMBlS9DDLlPJEgWDmMZnM9p9jzPOpdk7zLuMo7EIUfvSTnnzsZX587aTMovaOGKTzQqdk8bSvwO2N/9TooqDE8zBR1vB6ctTzehGc83VGjO9idAry+vji9cO4yunTz8jw6pMI8DYZjPNPX+LzQuWS9SMRIOkUVorv41bk7VICIvPfOfLzAgjo8A69rO+k0Tz1kEwG79IzHO1hL1LuDZa68",
                "h/X2u2c7FDz5kEI9ZTujvCWlwDuQlw67eZXbPPbrOjxkrgm9ky+MvLmBBbtGZTG9tbO+PC0JHrzxkRm87za3O6Gcbzsg93I7L6ehPGiUHL0aZXm+zcqVPUwF4T2e/ZI8cTL4vBAfiL3Dq+Q7BK2pvclzQjkdR7i7xidUvDE3AD6SNWW9o3ZcvF2KBb3Opi88Je+DvDC247pxX728fkOZOzwvHbwNVL27SU0IvB4/hT0ml8e8+xY1vXS9mTtVlAe8yZawPZhKuT3Z0ia9yP13PPK8cjx4qBq9p/JBPHIcjLs+j7W8XHEyvBDnlzqGl6y9C8b8O5oX5TyqDou6vnHUOvwOOz0/uus8hRNougvDGrkEmqq7McXoO2muurynjke9Ra8MOzEoT7tTHwa8DSAHO/qtPLykgya9g3IIvYbqorxTNmu8tbpZvDJ3yjyN2Ic6q/Uiu45rrTz1Ko88jRH2uo9/hrvTwXs8J72JPBICyTyYOHs8EQaYO+hSvrsdxle9R70AviqGXbud7WA89KzwvPV2u7zzqGo9NzOPvSNvDr173PS75eINvJ78Xb3jnQ0+I5Q4O+fgt7xIVsW7E5ehvC9dzbx/neo88zwAvc4fuLuOcQe8rmifu3oca7tvkek7QMHKPNbCITy3DSQ9f7Wku1Ccwjp9P6g5NLAjPKGW47vqsjg6VSF1PdSkeD2Vqeg7MP06PM6lvjtX9mY7uqQaPFqciD2fvoa95qNNOrvkXTySW6c8aiiTvDBxlLsGn666dESyOwsZ1Dq0i4S8YI0hvcvf2jsKxZ05CqO7vP4ehzzDtQa7D1wkPb+wvjvIpEC78Xb+O3cJ/rsGNDM8WlG+u4IRCTy6XEi8Ob09O3yTNjwYtCK8kL7JugWA7bsvp+o8Mf+fO8PghrtHLlq9AOWqvu/0Uj1U8yk9xwYTvfgDYD07tMM8NzBmvPLKbb0AnI08SCTCuxtIlrq9rNS9cYBYvXHb4zzqvIO8V7YSOiNlgLu7+4e8C2zHux7PDDs+hB88",
                "ffUuvGfkMrxtQT49aVNSPCgxw7onpdA8dGCvPCjJKb24FAi9JlOBPJl92Ty2QbI8JPWuPA6GHD1bNAQ9jzaAuuqpPj241Fm8y0OPuxz9hTxGyf+8FwkmPF6hZrtKUXw9+lqVuwM0iLvqY627Juc0vPRl4TydWyO9slCsvKspfjvRN5e7Te/ovE7/Djxnf7M68+JOPC2wGD1tasa7+088PULdSbwwlYI6t31KOvVIsTwROSi8VV6qvA2I2jzBuC28aByQPOA6cTuG87o7Qo8lO6T6drtDMEc98O0QvnaXrzyeC7Q8qbxmvZyPoL1Y6Z69wKkPPak+NjzZEsK7Pb3fvOo+k7z0XhI+/3rBPGLDzLxm2/08N6vqPIEptDnKFGe879r5vJDz5jvEhSy8gTFovB4KRDsKBH49lSrnvHtKQLxcQa69GhdHvYZLs71eSFq9JFFdPFwovDzj17w8SNN2vNUBq7ynugm9Xji2vBV1j73wKJQ8mUN3u0SAP7wf8bs88QoIu+6+07vjS4C9ZZa7vKNBfjv83Qs8zzVNOzwA/7yij/k8OdtPPOLNbTp+mrG75QcYvP6FYDxPoKg6aAdlPQGedTygS6U73yMVPRQAY7wL9Yi8NAT7uqVidLyVLyM8JSk8vOXOczzGw267EttlPEp/HjtAbxm8YkAWOmT0a7p8jTC9AKeyPUgezj1JBJY8LEQuu00ODT6r+ui7X2u0PXsAuru9FJQ7c/NxPdMihr1r6/A8fp1QvQkgMD3jeFC7Ba1APDiL3rt3xCy9l4/uO7ESDb39TKu8iKQ8Pf4MLj1voAy9ZFwnPJlDQrzDj5+74HfAPFLWFL0DdnU8ddn5PMoHFLwg53Y8Xht3vQiugzvhulW8AgTvPMnxCTzAKaE70unMOOMTIL0Wn6O8k1QVvJbcubvP5sm7RyI1uyJGtDt48NY8b7nIvLwd+bsS5J682mJ0vK3oQ7stVZ68fjJmPFRBkrzI2j28z6SXvBZ0QL2MQQa9Y1czOpeVHTn1QxI9",
                "OuMOPPP3u7xRfG+8a5vHvAbKFbwfW7Q7elp9POfuwztv1r88HMBmOwwLJ7yFHde9+3zgvIQlND1rr0E9vkQiPTakmbw8Dbc9TJePPTTvw7ygS/Q8lzaOPZ3yYD37ixc9F+LbvOqbjD13SnG9WXgZPSZrlLzxnPI9C4KIuptuoDoABYM7EWIDvWpGhrt+9cm7IDMMvEIn9TqwE9G7nmn2O4HuPzwhaK477V1XPRCtkDwrCTM8Xy0BvetTOT1Zlyg8pjwnvH23ZLyBJk+8/7DEuYfYC703d2y97FMPPJ0lVTwTiR284+eIPeTSlryX2GM7X8CqvK/XXzshnG47MwlaPKvm+buStvy8lzItvHvdqjwXkAa8MkMqNwIER7zrBFO7qBSXuueKE7v5yu88my8gO53Mkrmg2KW81wG6u8kTzDvkTnw7IT25O7tm/bv2ej27FiTLO7KcvjvYRTQ9BKYSPs6IQz64Dgo97PCju829wz0lci081vaMvZPAwD2guog9WZWxvHTajD6dqu29C4VZPf+FDr5m+ia898kQPYBKbzpIeZW9eaelPSuqzLxDfLK8SmP3vHeHOT3/pwC98EVnvX+pWrvBFJW6LteyPZJmhL3TS+c8g3EJvaN/gLwXpCQ91CRwPJ6U7LhGBvO7/ShevMYNhztKfXe8o4Aju3cOJTwLrnI6giYzO+EtTz17dcs8eLpdvRnfp7qycu47IcmivA4LcLzjliK9EoT1O4eqSLt4dqq7NdiKO/Hk9rwBfkQ4ifYFPHOnszteNlA7TGuXO432UbxhRwu7Itb0Ooi3H7w8Gdm75arnvFBPGzzfAfe8iC2qvJvTpzuA6z47/Wm/uu6a/Dy7IRe+5yv2uyt97zsIHJ26i4pCvW8Yzbv9Af+9usGcvQqa/zvfpLa84ACOPPEP9zwL9OI8Bn3rPJvHLTzvjgQ97gXRuwCEOzyF/Zy7gbM1vHHvpLzlC507FHEAvGPj6D0D0qk9UW9jvOpS6bqlNyy9cVG8PO/iIbxtr9w9",
                "HCCSvAHloLy71w07ZOUyu0nl8jzuGJm85ayBu+F5kLxxNkm80uHru6uBWDubh247DkSEujfUaz0V7yy9Znu8u8VaEjsBgD67Tqp5PEyZvLuMkvW7ndYxvCE5mTtgM3W8W60ZvEa/x7ssc4s7M9DiOw1wfzyXTe68RZtiPHCIiDwPCWi8uwjJO0Rh0zsQPmW8U4GgvIdCP7yY3Ia8CMo5POJQuLu1INA7JI9Yu8O/2zrCLpC9GywMvO5/d7rrNoy/kMXZPoGQx7yWX7i7adomO7ITobunx5+5NjKMvOCHgbtJKJU7SL/MPVugKL6mf+A7HMwsu2x0iLtyKaK8Upe/PnxJjzv4xlE7MurPvIcd9rrqope6kUhuvurKl7wT/Ca7yLYwuydiuDuq+kI73gi8OokJgbtxBQm7qMk2O6O5HbuNdwq9Pb2HvAMTHzt8uiy6Y34fOqoU2boPLyM6vK6QOu62+boQSmY7txD5vJ1NMzqXrEu7gig4PO3Sm7progQ7dw2YPTpSmjrp2iM6IJEmOmo9x7yOKRC8LrSOuqb0R7ovHSO6X2O6Oo8LVzp8/h+803dEux5DgjmOfYq5fNvPvBc/BLv7Cr+6n2njvOKUjDqUcBI7HDFvOouAfztQtkY+AglLvFEHgr1Pypa9lxGIvam1ib3CiRO9mhmGvbiGcr1jFYS87UVsPVpnaLz0Vw09qQoYvf89nzyjp709hxivvXIDz7vVUxG9+AJevdjnGL1KexC9v8Ciu+vAir2dAtu8wTFpu6DiUbsHebY5tqMpuoxT2zsJUNC7+9kPPGu5HL2uwXk7nfA8PPIesbx03Mi8xR8EvVuZgjwiph89m2lFvJ0Imz1OOLw8c1S7Oy+d2LtE1vS7m847PcVz8LzU4ww85TsHu9Gl9zstmZI7sZpVPc6tu7tcXIK87BphvAjDIj2iTG+8jpF+vJNgVzpJyy+9T7byO9WZCD27vES8wwqHPHqR0jiVLK08HXDDPF9i8juOFuU8FtSdPPzGlzxNze06",
                "SO5fvCMuNL18nTS+qrYju0NVOrvAqQ4/cQvpvBsm6b22m3y6MfeEun8WsDtPvOg6vMHju1bFPDwTptW7zdVJPojIi703Bd06eaTUufnh3DqezQS8EgsNvc5pz7pyOT07lfgBPYxDPDupxDI75SbmvULzBbzIWtu6aPyFOtQJKLru0zk7oLWzu9lhVLrqmLe7+roAu4ONhrlruwW9B3W4vDqcaDq7PAU7a9lVuU0OZ7vv6RM4uFLUOKv+T7vrbFK6DQsRvWf3ajmSQ4y6hF8Yu/onhbqdWYY6OXIdvLU8VbuEdVs7HZRfOj3mYrwIx7O7HsqlOpOPoTqQE6y6uwWLOqe38zqFFTY7qypHu93vbDl6NPY6chINuwPy+DqmpJs53dv7Ou0Nsrp+K7m4TA3dOmady7zrrfQ+FP+3PbqE4buhFni9f6TTvcbCXjwX0xQ9p7m+vDJSCz7nm0i9MKFwvb25ZzyuroG9lEl0PCjyC73pFpM8lpMtvLTvebzNIaG9oD4MvNWqiLwg8tw9XySCPdKgDbz+daY9c9K6vFefv7t/B5q6jcWuuZ0IlLwBbpq8k3PXPPUsED1lTPU8Qq7mO2AY6Tx2f6m8bRXXO3+omTyon0W8hYOCPPrtx7yd1Ko8VycUvB0ibDyNkLK8NJcpuxJx6Tyk8Qo8wZQzPdyxJzy2Mx86vaaoPKQbzzsVcoM8p1LVu8LUWbxjIO06yWuavAyCMjuZyx68x4KHPJX6Qby4cEI8FSdwO15hajyM/+O7xh0IvLMoFDzlHAe8fbDpu0vQcTsMJM68adxMuzHtDDxE2C2+XZ54PBj6M70shUM8km1xvUQViD0EBUa997G3vHsBsDvNiM28qyD6PJFkd74SDUm+T3m+PHvHBDw2p/Q8qPXiu3Rflzokhzg79CJsu/2lcj0PAIW8J+UrvPE/q73Og0C9TcXGuwv7j7nm5cQ8FzgGvHveKjxwELa9DxFqvErdwzw6yBs7oZlzPBRPM73+Mb08BO9JPLbBNTzw0cA8",
                "FTQBPH1cgbvOKyw8ChT4uqsfWjxSnwA7AhyIOz6WdLveqWo7UNeFuwOSJD1foAU8XV8PvFLoyjukL3w7TWkWPNsTmLuv5aG8SXSlu9y5Ajw4Awa9RI3FPH/Osjwz8F082LWHuppsyjrWGb+8R1K5PDnrRTvTOjE702Y/PE4HCT0KxQS8RmShOt2cd7yegA2+Lb/lvJppnDyKU5A8Lt0yPoF1AT05WiQ8jTvMPArYkbyfChQ9JhRFPZ8UX77KGyK+4z70unAmGD7Kuv47vcVUPLdXYDzudaa8KSTKPS7cHz3Z/rO8kdqMvPcJdb1+my29CEZzvSXBKzp1wE88yyjNOkDs1rv7AeC8RqZZPfzEAT0OtU88WF8IPUzuZL39wDY5eViOPEXP9zxTHWE8dS6qO81N4TzcFC49biyWO3ZoC7sFJFE7yRPMu6TwQjzPrCM6ZchMPcLzBT0put26nNtjPS8n8zvunRA9UBJkPLWcE73OF3M6CXKwO0M0DLxOSbW7q0CJPBXQnzvUZ1G7XNZrOnGgcLq5plM8oI8lvHC2zbycjKG8MEphvHYrVjx4IAi87b+CO1WpGLyGj82+/wL7PcT/KT5S1I89aaIrvcobhbzf9+081KKAvmh0iD1j/nA9fjxcu8mvVj2Xk9G8udbhvFeNJzygGre7m8I0Oh+yCrvS23A7MzMGO53wIL3n/AG9uNDVvF/VmjzBIIO8oILAO2W6ETsMNuW7ATEuPcbkqL1VjQ49IaYVPOhYx7yJJH09SiGhPZXwYzq4Vl68vv42O6C8HDzCDWu9hA6hO34nWj3xo8+77vqCurFBSD3BTcw8M83VOydOQ7sGlMg8ugNfvKkvPbxHFPC8fBsyPLoslLlucte6CSWGuywOabuwKrE8pcI9PH9hCjv0Ovs72pFDPOvjvLwFQ++88afBu+8XaTzsYHQ8LKeeu+citLuzZdY8GuFmvCaSnDwtZyI8tX3MO+AHZjq+UIy9IH6VveSvmjwhcjA95sTwvIFFNb0v14U9",
                "nHxXvDBFGrxO94W7kJ4yPB5nabuMtMs8OW0HPVYEjD3m5Oa82nbmvLOYJDn3GgS8nlyavadrTTxp4bU8pJwXPL0XRjk0Rhc84WoYPJ8urLs+IQy9RiJGvBVdtLxsNMC7UX/rPCxTWbz/Sx28veIcvOqbBr0EJ/68XeRUves3gLx1Cnk8w/7Vur7sOryvuv07gmOgvLENG7vawiy9ZEAEvekgar2wuE+927+avDJfFjzunkm8C0PlOxtVDTxpGQQ8pBeMvGju4Lzpuci7vGqqPGoMIT2hmpK6i1revHmbW7tNo+K8B712OinTZDwS4RK8FPvQPBU837xDvZY7EIIBPGlGATstZxS9Axwzu3HlgDxQ39M8RdxsO9bnt7tuXsK+xlttviJa8b39vrs6fIaFu+b5VrupehO5ifP8vKBpwTrEhVI33LFovQLo9D0dbTU7tMFCu4onEzu2Zvc9EvKUvvtZiDvUZD27uYSYPVLHrTv1iAm7U1IOPhPlIjxDsIw7JGpOumtzf7vQS3I7qqqsPB0ouTnf0bE6K1lLu89mNjv7SZ88CNr0PNQbvzuq9fg6omauOZhQszu24je7Wi2jupthOLvtid46tXyQPVkitTr12C07vpiZvCqxFLlL38U6+JFVvRZrm7n1+AM7281+uhacozwm8sE79JbXuuwJLzlS1xg7SnJ7u3dp9rreYZ+87V0sO/xKPbsHD/s6lGIHPc7jCTvDRbs62wsuPcmuVbkH8YA5xSGEulacJbzjJQw/Frk9vLpX1zz7OHi87e6Jvf6sP70p+fY9OPe3PScjzbsVjN09fh3wOiQMGz01s5M8ORktu8+2Cj1QRi08kbyNu6qrE7tBSMA8XQ8vvVxnAT34q6G8llF7u5x6Gb7DLaS92KrmPEEcCbt67WI8M7kYvP1efDsl4m695JmavImspbyxsOg7dXcWPNmk1Lv0Sh68g6C9vFbhCLuj+gq7YLfNuUmFbTyPD5c80LxpOynJ9LyrI5I8FWepu/3UKr21fY48",
                "WIVCvB+KIb0Gd3a5Nt9kvJc83Tt+wiQ8887XO87daDxyf5i8gjmuOvRBYzutY/W5my2tunF4Jbw/eKI7ohGLN+pBtjpr1BM9zILNOi3aPTwwytg7rUmiO09pWTl/GSU7XQzDO9b6p7spmsW9GH/jOqEU1Lry0Pg+/PK3vXybtr02/Ci7neCkus+Bp7uVMGe6FQcmvOaLkrvLuA66fKWfvXyQQT5PDX66NB8UuswKw7rZfww+q42ivli/xbb61l27kU+YPRgx5zrj/aq6q0UTPiLsMTxsy2+6qQhvO00FhDoVsy27eiqhPPhDi7qFlZi7ch85O927vrpnSQs90fBlPJVK7DrWB7o6lNh/OkNbJjvN/c86pZE0O211Gbg6k2y7FkJdPZpCXLt7FCk7yv1dvVyogrr2Faq6seyjvaxJG7o+bAG6BIzauqHyAT1TOTk8PZ5Gu5HIAjv2Ueo5g40FOhrVoToxXcg8843EOieFzjr2elY6L3RpPMo2rDosPig7frAyPe3pLTl+vSS7eaQButU2MDt5T04/D/IlPaxt3L3QVGY8eubXvCUKsL0VO3M9iQIlPbuILrv7S/o83r8HvYDeBb6ITvG9ZxgnPHVF9LzCUOS8DB+6O/UQ3rry7vC7aaytvIMuhLxk7Hg8iWuYvIouIr05L+28D9W1vG3EBzvEcM09HcFZvYvxGrw/mJE91LaiPHRfv7zJB9M7yCBCvJKiIzxAfwq9+0jtvGmvoT29qIA96T80OnSz2LyqRbu8EwHPO/qSVb3aLck8Whs9vENoajybPnm5ap8hvNhiST25mj48TWCuPNPY6zt+wnQ8ke7FO4lMk7ysv0I9K34rvJis7bsMLMY8Adr6ux1nULzKZKu8+VE7u/qxhzs7p1m8uP6HvB2zqLyj5Y68p4WmPEAReLwttuk7119VuX1/aDvQ1RS9cMWGvPWUVzwzusa9VT3FvE6u2bzcbCK+8hcEvgB2nbrOJFG+Zz+QvMQ6Cz3Clcw8k28QvLUqED0oODQ5",
                "XPUCvHq/qbus0Ww90PEDuy5kurzKjKk6LU6evAf5hj0RExM9x8FZPXtWDLvOjc+8thwWPJSoSTs5lus8rA5yu+fmmDsUvYy7pTxBvNTN3zzdJKc87zVBvKVdfT2tfH89lq2lOwHPLLt/9wG90bpRurQ4cr3+48Y8cR4/vFr9tbwDmVc769qgPI4XUjseBN87sRniOwgR9brOcbY8aMNIPMf+v7zYv/08i5wRO39/ejv63nG8RbhdOmRYoLxxjCa7PUmFO7h1MrvnT0q8+YXlO1DpwrtQmRK8V9r+uVKTKDxQl627eTzBOkQ9CLuZiVe+jFnQOv8wFjus+ie+V5zcPZvcsb2u5627Azw3vJvVQjsTwy88X4rePR+v5Ttd6A484868vJ2a/D2tLTo5trl5uDbDV7zQdkM+D83TOpb6v7tp+fa6fZeHPFXIoru9GhC7zjTWPS/YOTzqrRm8r4aiOofZmLuCPTG7y9wFvLeDJbsCcI+7juaLu+XmuTv0Nae8ngOBvSvLF7ySpbC6/OcJu4OkBLzgqus6WejAOzQIo7r1dwA7wR6uPDizSDwVmJG6kx/JPOhdFbtqoQY8dSeiPI1wRbup3h87YRfEub71LL2TDTe8fsQtPE+T8DuSKXq6HedkO0ZT1jtjnTg9kK1ru0u9ODtoZnG7mYe8O1r0gDvidtG6U+eavCtRpDpfI047D9wgu5jOID3QSLm98tV5vPpiAb0wHo88LIT8uywNITxZKya9OVIcPkt1FT2sGY47yLrMOp/SF70QXHa7bs2mPCSoAj2ndko8d7UWPU1MqjrA6YI7dWXlPHNxAzzURmY8brxevNNn0L3EEq890NWqvEu9vrt1TYK6QmeivJ9GsD1HrNS8CJsHuzPziTyC/z281mc0PS/0fDvQ8b67YZ2+O4b89blqYIo8Wyesurmn2rsmAEG82cN7u6VtZr1hVDa9husOvDivjjjvZBk9rYaCu6J3/ToVJA482Cp1O9B5I7xhW8g8FSLGvNf2lrxzaFq8",
                "cll4u+XDBj2yJsc87xbiO8gXtrwJqVe8l4WNu5qOID09dn080+9GvPCZqrmE8Tk8TO84PA1u7bu0D+q7ZZ3nOrqQ4Lv/2Cg7ZTcVPawuBr6eliS7LQM3vciYnTy5+cg82uwEPRr+tLltvUG8jMxZugRXGL0F6MG86MLevDXTgry+a7S7VnxGPLAfITtJ/7S8SpYnPMTYpLu64PQ7T8exvAEwNrqUI9a7sUTVPGoh3LvqfBs8j81GPKAu5Ls9T9o8dmQkvKzMLb28Bjc8pu+qOzkdW7sVWfc88dSZu83gJr2tuTy9iyQrvOjtVDzvH9Q8sBeFu9zdc7uCReI7F7oMPDP5krwbEa08kk9tO/ZzO73SNQq9cmjkuw/j+jocGO26HT6pu3GAkbw+awe7hok1PIEb5LvLDW26LqYXvdzQrL2E3ec7PZn1Ou3M8Dq92Ra88616vMTuSTyu79I6stDGO9Ri8Tx2GBG8r3JbPC0ViLuyKkM90M3XO9GCrL1ntDS9UVWzOzJ40bzB+J8+9ZiEPhfO77uVanU9UK6TPDeLoj3OvXs97eW2vLz0ijyabKi8P+iQu9FzTbza6JY8Ew/9O4+UVjsw+ku8qRyavMu4Sb1315W8HuKEPHMsDbuhFLa8mFvaPK6h8TxY/Me9ejS6PC/d4DyC0668Gg+AvEOOgjzM6Zg8K9WEPJP0GjxBYFO8dlInPI8G9DvWslW6gGXPuyHTIjzuHxW7A8OlPK/nnTze82U780kpu/IS8TwqbLk6UhO0O9hVo7p5jKE8Csa6OmDqaDvxyQS93GwKPE1QsDtQtHC8/TaTPEew0Tw5M9Y7j0/7Ol5MMTtAV4M8itseOxZAQ7tjJoW7OSiQuzZdyztacNs6xw0rO5U7A7t5RP+9fGOkvcjAqLx2uJi94H6FvW8jFL0OGIU725ZvPDhM9b2pHLK8gaCDvdX6Gr34njU9CSFmPApwUjxbclA9za5aPTmm1Lx8BJq9C28NvANsGr09Amm9bJXHu+HXIjw0nXW9",
                "n1AbvfaclTvVvR47bXbjPCNLUD1ynMs7e6UHvE4tGz1Vywu9YiTIvEs3yTwkWVK80W6fPDppajo5Ktg8D6mzvOyHgzy9qBa6hC9FvEnckbxy1xu8HjtZPGCaVjwWj+a86KQSOmDaYLyx/bi8i6L3PH5IQLxLAyS8trgVPGNuRTwkNfU8zeIOPPJCDrw6cvS7RxpDurV70TuiJ9I8hsHJuzVnr7yEaH68mU23PC7X4rvTFVM8KCs0PF02qDyppWo8/2lLO64BuLwSFyu+4uWJPIrAQLwWq5+8bLT7PUujvLw1Uiy9MNxDvS7/z7kj46y8tfybvbVU071QDpG9sdIVPSnfUDzL6FK8obZRPNTZGLz6nMI83F+Mu4t6CTycK5y7XYgwO+ESj7xn/ra8EDlkPWxYPjwhxXW9ugnsPE+Xljy++Iy9bgCGOj7cDD16h4S7rYoSPZMlVb397a+6sP2/vOGtkTxDEW88er+LOphk4zzDPE09fiLeOjl+/TqTRAC8S3eUO+nZD73we447hEEePIUllbvyHrS6p7k3vRpL5DvFWto7sZOLPHIXNbsTphA8FquduzPm3rnkxbS77U9RvMIoMrz4kKQ7ASnZu69mODuyufg6+oVzO9fQBr3tBiu9BSWwO4WLjDsUF9M7L7AAPGqJUjyhsyC+PAeBvZIHQ72aTIY73SVSvQhPyDtGb688OVbHvDkcP70I84C8nB7aukOFDr7fRaw9P58yPAzp0LsTH3c7xuDkvJpoCL2ry/y7JhMOvIOoY7zTb5+8fIw4PK0bHDuxs9e7qTm0ONRRGDvx8fI8NCTFOozcBbx+X/G7fB12uypMaLnteOI8p5sIvIBVBzoUFlS7vncwu4YkCjxJ4iq9Ntt2vMqCQjxRi6M8fEi3OgmwCz1S8dQ8EYwkPGEQrDwyK6M8KLsYuYWxgTtrvwy9PvFQPEtetbsHJfC8GUIiPfmDyLwwj2w8bnEPPXqZUb1riQa9DP/7vAA2CT1uMk08OfyDPP5kXr19bpq8",
                "SDB8PC5MorwqRCQ8ZlcPO8goOTwCqEU8CP8fPKoOyTvqk5O9qCCAPgqwM73nk1e9L4htvsKLt73Uu2694V2UPMDJPr3KQO48DXjIvbbRSb0Yj/s+hSRrPSgmhL4svrm6ZNYfvByT2Luex4+7RQxXvT0Bqrqze8s8XB5nPMA9mbsizRw8qyvovDqLTLtTuh+9Lt27vOmp0D0ysp89Pt14vcrffb1dmJ69oWc+OxUklDy+CxU8mvEfvOavAT04xKS7zh71uFwu8zu2g7+81kIbuwGbjTquyoO81qCWvJbNcrx9Soq8vV0xvHpfebwiKLs8DhyJPIm2jzr7Tis7e7RTPD6t1LotX5Q7A731vNWKi7warvg7SbCDvBpRzjpqtC+8v6mqOv1/zbsuYas7M42gui9I7bt3J983fIe0uvFpNru+nsE6fFbRutURjDwuxxw+5uhKvSwr5D3ZsKE78LoavRfTDD33ktm8Y3TJvNLIVjvpxPC7/GETPRp3Gz7j9OI9hy/kvCHcGz1AYy89H+ZTvLIFoDtd87a73nozuaHn4Dwp/Lu7Bb6zPAPajzwxcSQ6PQTCvF1OiLzavCm840ugPDLWFbvJN828fnzkPAWhnTzwejK7IYYDvaneWj1gi188n1ycO/e5sbqiuzU7rkVeuHHdCr3Rfoe9RlrcOkavir2GHRI9k3Xbu+EOsrzUwCc8yIl1PIGKozySP0c74KiVuginxTs2vQM8AmKRPHMIETytZQS9Lk+ZPKkWRbyWDWY9voACvHKpcrzoPfY89mUVvLA1HjokYgc9LTCGPJu2qTvuhiw8vPx4vOBLFL2cXGQ8WvwCu4qAlbzRcC29e3isubjfoLsFRJ89jFcDvnJQjrwkShY8hMyJO/fL6jur0De8MYmJvZbsWzyI7gE9c+uNPNczgr7A+ra7zpE6vF3tBrpsKdO6jUBTPah6bLsp72Y7gw91PYQqizy2wBq8R04IPZnr3TtTKlC8RK9/O4vEfzvJDqw7oN5zvOVDUbwqaqG7",
                "ghemuvUHJ7zidrY8PgyBPZvHVbwVzei7+T0QOyH+gju1Khy8pyocOTN5nLugFn05agdZPapWXbyyUEY7WrOpvCREg7q9ouA5QcK6vL75iTsqrXi7ZWx5O+8NKj21zgA8nxycu2UfJjvA1fC521Ydu8G4k7sE8pM8fUWpu9D8DDvDvn076GqoPDu53rswVGs7v65WvE5etDnEazy6IXJAO4Cfgrt9MCg+zdp+PeQ92D2Jn8O8qe6Hvd+48jxiUYA76LtUO5Y1B7rMxVy88kATPVGu8Ly4eSG8wH8+vUR8Cz3eZ4Y8mg5WPIBFBDzC2r25R7wQvcSY3LvLvXi8qPgrvb7jML3n1S482sCKPM2WeTzLklg8BPUAPS/hIT3I+ae8HakVvdRtzbxLQoI8LIgAPEJuPLx0eD49g64EPTxlZDseBxG8a/yjOt/l17ym5LW7aYgsPLI0MboNG4a7gmw+PDaRjzyq8ui8aBsmPekZBD1eXyw9JdESvObfq7w1jTI8pYQrOglhEj1YfPW80UbYvCSajjwgE/U65CMPvCkgRD0hHi48iiX6O9fJXTyqEgo9qUfmOylyLTsvexE9Ls/CO4/s1Lwrmce8xDvBu0cE2Dxq/Yq7RebmO+m7k7wXjAM8OOFRvdseKT2Jqi08DW48vPhWnDt8bwO74XUGPVnQ27xlsGM+wnSIPBb/gzxAIB+8anawvOYeoDpGopQ7KMWSu5vJYLwroGM9it6HvHc+d7qH1989CacUvPhJTbzDm169JEEGvZxKVD1T2Vw9t4sSO06gp7vIsks6WPa8PHpQFjz0R5o752utPLzIwLwq2J88Ys3duzi5BTx6xVo6SlszPDhVITyNRpw8blGNO2kj/7twal28nHmkPHgAFL2+GlM95nUovLmxCjyYUJ86GFxpvFSKDDy3via60XQ8vDGwNr2EsY88Bp5vvTdIDTxuO7g6+gw/vEUHRbx+v8w7R4gvPNO17LyAj4m7le9FOxadoLjhmwk9sz4wO8BBG7w4mKa9",
                "iCoEPNmiK7yAHVo9k/RZvbMrRT0x5yg8B2tVO+6CtrqTfMc8S1sCvROXIz3kBdg83mP+POsKEb42ULA8/OFRvOiULzuo6fc7OREsPErUprxvwVs8s/eDvOMas7zIGJO8B/mLvciGGzsa3m07ynq5vG31a7u6qIM7IBhEvGAzIrxLTC87/GSAO6JopjvMML09BqJMPPzhZ7uI70Y8e+dfO47RJzu2dTY8lwiZugWlN7v+YuG7oD6MPN8saDwfMg+8w4wIvWHcDDstd188kQKXPdrGEjzxRh88MYzsO4qZ17sP2t+8BMymPH+JWTpVIBS7wS0nvKoZgbwRaay8FJ2rOyN6vzvdFLU8n3wnvX5BOTtXbUY8vR7RPA9P1Lx/JE08Teucu3vlfbwMCQQ9OCBSO8IEQLx02Cw/budfPxYtnr22wgy7iV5lvAiFarvbXBg7ybNPPYpq9Lot8wS63Dc4vTr3Rj414wW6Tetiu5c2ArtPKd89sX7Avrsp3TtlMFS7/YkePjhq8rriSQq7s+NoPWgLzDoKtY86KGrVuZdOkrvTIgO7JhsPPdlUODoN4OA5AJxBuoYg8LpzU728lsYrPC0sALsgMUo6oL6nuVB3jzrW11M643zSOqvR4jpXKxI7j6JnPexiB7lMr5S597sDvc7vgbhI1AI7ZCyfvDMTBDnk+gO7wfXFOgmorzwB2AY8B4hSuwv3hDlqY3g6IueFug/SETs+lQq9y9FROoPehrkDMpk6X6AjOyBnEbvlPBY5F5kmPcR0BTv9ji87aQIbu/Loszu8CRs/erZUOzpKbrtMoru8NJ2NvcD51D3DvJE7+gYBu8I2JLxHHxU6qgGoPReFhLuTiO472am9PSI6gb0J+qQ6YRbMu89MRLv+fX09KMSOvFPCGzlbCwI8t+8lvBz8KjxeOC46spokvrO5QLzSHlq6qr+lO7SvSrsiyiC8OHC+PNcQFTspjTI5Igq/uo5NNTskQcE9lOg1PXO9wbokt5M5Hcm0ukw80LqrHvs6",
                "TG5EO7oe8LrUjOQ7epooPV4oV7wMy6A7wFt6PZPJJbzVzbK7jAahOoUoo7q32c47IHwlO6/rfzwPirQ7kyXJu7CjpboQ9c27u0YzPJVs7rpszLm8GR9eOyNWbTudlAG4YNiQveR53bmBhxq8o5mCPXzbnDvv0Pw7YS70OhKGSz1ATP+9Ro00vfm9fLztdqu9KgPDPEIcNLsXJaC8XF3APKX8rD0h8bo9ZMPKvN7Zk72Q/rI8HZGpvEN3xTyaCWS7uJBxveF6Cbzy2Zw9Jmdjvef9xjyinBO89qtZu32P3Lza1sU8K8xQPdgvFDwpgI08FFSEPRp1PbwmXm48qXIfu1g7zLw8wa08WJ8PPZYYYjwQIbs87axbO4/xwbzwwwW9AvADO5Gs4j2kzTs8YdI9PEBJtLxPtnw4w/y1u6LdKLzShKI83DQGO3KQYLtHPS+7W9yNPBYNZrupMba5YRoOvNptfTysTwC8s4ghvHbYCbwR6I08if07ut6QAT3htSC8NU3SOMyjTjwv/YE8SFwku3CzmzsoUdg8w0QzPLnAJbw4vGk6ZzMCvI44fjuyX0O+6B1mPI4rWDvL4KA9tsmUvRKsJL1sth28qxbVPSPi2j047o09QgvhOx2xt71wfCk9BJVXvSISNb1pEem8coUGPq8qq7vho987714mvRNDhrzRu468L/oGvev5PT3dK928bA8zPIxCvzufLmu8mpyKPQL5ULxcMZU8gafBPKYtpTt5XW+8a2GFO9F01Lp6tCo8FnrROwtWjLvpoxu8NvCku0Vfsry+uIK8wk4lu94I7jtizUK6oSs1PFu4M7vW0ew7bXWquvwyXrvBy8c8cq4bvBvQT7zlnUy88NmlO98RKDy6Ocw6sz79Oza36rus6mC8VCEovIcJnTxja5q8+WVAOx56FL0/c6O8ZcWnOqYWtjxwQ6q8VT9ju1vk1jutyoC5AGR4ux12ZTzC7Ya9goUEvbm+bz2arD69/mi0vRy8sLzGddy99KE8PUWQej122oG9",
                "rqptu4MoeD0tBio9iUalvPNJNj3Jfx+8rRIoPVEwjz2EEFC9g5eGvU+vwbt96Py74NUHuzIomLxbEYq8JG+SO4g1Bbwqeo49vEa1PBFL5LzMltc86aOju2Oyh7vTp6u7kg/jvMFsELzLhpW7f4bhPJDMcD189m49WwpIuzpXorxoj5m8fcpFuxb4rztg5uu8xs/VPIOYvTzV1Uq8awtFPCczrrv/eIU8ZP0sPXPlojxsHaQ8SfWSuyMlpbszfuo8tfsyvBsSnzwwSbq8SJP6vOzVhDsGPKO7Gp6ru1QDnjr5Hm+8Vl2HPCk1Eb04qV+8zS8eO8NN67oejYG780SCO3U0yjvIFjW+rGehPSmuKL4ak8y9VpViOg/chrwK5Ju9HzCGvREluDuXziG9uJmpPIDyJL07IgG9yJ/9O602Iz3XU4Y8sQ/6uz1M/7qj8g28CkxjvYN1LbwPkok7KRCiOwH2jD3UljY9lxSPPdUYhTs7+Um9AoHMPMOTfrtNp3E8k9gPPMEskDrFzli7q5EHPfZojr3c5Mu8K5+muyd+UL1JgSa97E6Vum+mAj1v6o499onKu8oESD22nge9hMDJvGEyvrtt5rc68sDYO3puRTz8hgE8Bf8evU8JXTp1Lwo4WR4PO26gBT2N3d+80fZHPPOIjLo4kgg8NmqjO/MdpDxkSYC84xg4OwqP4Ttjzc+79TuwPBEA2Dxz5Qg9eECBPHvUMrxMJEg7fKofPIkkaroS5e69TCA0vmo/Iz01E1I8krQoPa+82TkWK1C+jlI5PdIGKL0tVH06QpnVO/YhJj1gbjG85PcxvUB0yTyCBSI8sbl/PPJkLLtqvYm85WRruk87aTzvNco66o7Su2Jc7bvjXEW9/YuuPaVp+rqdlTw8ReZ+PMAhdjwAR7o8iyWPPGwt1rrnjfi7zLeAvAabfroPL5u8zL5+PPziUr0Y9YM8pfvjO9sR7zlZqkm8+E4cu17kzbq0neA5J+OrPF9pxbyCOJy8s66iuanVkzw+OgQ7",
                "Pe42vLLuVLunZ7M7g6PyuvkAj7z+rMu7VFTRPFeGobwv1rw6+XzGvB4CsLt8TAW8WZnhO2GGJrzydEY7u5rku+MX+TuQR2q7zUa6vCqQKbvMDDe8tPezu0rM2Txocna9EEsRPnc6qLzKgxs8VnOQvcg7yLzfFxw7C8LVOueG+bw2xww85lm2POL7DT02GhO+cAFLPcYjOj3/WG68dsdMvOd1yruhKaU8Sf1dvWU0ajy0gCe9UvTtO/+CfTusim29yUx3vLcQ2bvP5Y89sO0rPb+IPT15oeU8JRX7O7TxDrywc9y8Q5K/vFfCjbzk0Cy89imbPJTr5T1pvF29cPgcO12kQrn562a8TnnBOoXBpTl/0ku72MnKvJ3GpjyrunE8ApUBPaC9LT0D7li9HenmO8nOATzUSge8iHgrPSkrrzzIF5Y808eLvbdKn7w+cak7QqgVPC+19rqvSMu8/FAAupDPG7jc9ky7CgXtO3IZYrzkP1e6MsYQO/IdlbYfjQE8qqSEOwkC3LusTNe913JSvQ3K5D2YWPe7Kpa8PC9Ed72qRdg8m7IyPfUeh7tPaQ891mpOvMJaOj2A/vs8Q38TPfR5eLsHid686oWePJ2ftDtqnPg7BdQIvZzktLwqQcw7sEPfvMHoZT2Humg8Eyr6OmVVfDzaB508IMHdu3y6LDuxXRk8P8vXvC1hpjtlQ9K71++CvD0N1DwGGHK9qk1ovMqQm7wTR8y82HrnOtQmq7utC5+8BBIaOkt4Vj3iamK8eurYvNrVHDzLA6+7LCAsu7CsLb1keKm8pdQaPDbt77vvN8m8wxylu5Q1ND2WdeQ8FkkfvPcksTtGyk29880CPPXOyjxyLjy9z4AOu6/yY7z2gie9akqmOMJACTvYCZw7P/xAPN2RFD38E3y8A9JcOkVHjjyCGm29WuEhPPH3n7zVprI8pxMXPP2gAbwCN4U7DZMWvZYUjjsjjJK9o/WEPQZEprwEBMi8Eg7BvDrdbz2EczG72Y+yvE6Dxj34TRE+",
                "u6VhPWoaM72lyOY8m+NmvYIP1Dzhfw887LGNPYWWorydiXs8mriAO8VbiTm+IPy8TyYNPQQ+XTwt0Qk7haliu8vL5bwpi4y8h8aHu/Udcjy4gRe86R4xvW4omDx4WYk8RA2rvJYWTrzir5G7hhAJPZlepDuxErM7WRYYvCeNe7vssbE7CMgKvBg0A7y3FhM8NIhGu1LyLrwevLG6yLCKvOxRwjp19tE6+CHzOpFIgrv70FG8z5o0PHklAzuaoyw7EIfcuuCiCrw+IIC8PWICvBkytzspBGa61E4uvF91gjmGWfA870ilvGZzA71YrnK9+0+0vb4T3r2Am647bqahvSIrubwjzzy8eCrSvLFr/z2NgmO9IX/yPK33W7zcqrc7zLRJvbnbBruAZrM8BmKhvKWR2zxtVsQ8RAY6upov9Lu0DMm7ua3hPGRDgDubYye7Oq2HPUD6zbx/ThM7N6R6vBaiJLyvVuc8xSN1PFBhQLuYrAi9BpLXvMmqd7sxwCm9jqMIPHdcLjwhxSE8dPY0O8bjtjyrvTo8Go+pvJiJBLt68G47yfEovfdYy7vHzQS9BTdiPC+N0TuJaxg8SFofvGK5wjwhBVC8fffNvDnkTTtlDjK8+256u1OtejzzFH297tO2ulENjbpA/Gi696bIuy6tJrwnJi88zsaru+ujprzzL168kqBZuap1pzxRa4C9RJSpvEXyCz4GJEm9tbaWvYqms7z4SVQ8PufWPLyygjw9Csc9A+qNOUT2hz1AhdA8iRZ3vOhXB71WTYE5Gkf3vK8vGLuCPFu9FG71vBqV8j0Lzca8ftUEPf2kiL2abo28h2KovMOOWTykuIc9Mzg8vTxJxbuikko9GoaTuzAsXr2qGS08Ai0uO3gKHbzoPsW8YG2+vCyFjLw3Z2y8h4VvvEnYk7wBQD+80gXruw1ZMD2SGti8t60bvFK9pLvQqNY6Dv8QPWv2LTt3mAA8SP7PPJKfSjsa9dI84GOMO3w5JLsAEKG8NPl+O6OSfbzMyjY9",
                "OZvFvPqz/byOjWE8HJfhO/39MjtSUbs81HGiPH5h8Lvc7J687//nOx0Utrx2ssQ75a9tugtpmzupN1G+DIHiPDW1ib12UQM+cB1GPimVMD0FVLs9qm54Pbg3Szxaxnk9VVYpPTDOrT4cw2M+PR1HPOilgz33yI295W4APfwO8bu8+Mi8ZFHCPZDx4r3kH/A8tlKlOzOL6zutlym82TKPvbRmBzuROli7Rm1ePGSD77rpc2e8FeriPKhM2b1ilp08S1g4vTN4qD28/Yq6JCLgO+B5sTze0LM6cGv2uU7zKL2xMMe9TlaDOiG0Q72fpew8KMWPvO+/JL1qvjY81LIgPO1uH70GRK+8XxaKOpYFxTv+p/g7eeY2uo1Vorxvx4O7uxXDusRoe7t3qsw8mLAFvAjBh7w9qTk96tEIu0AhNLuHdFS8bOzTO0giuDy++9g8EsfevD/ZubvNg4c6jeQrO2yBSjsP5ju/lUIYPQN7Ez3U3xw+hcxhPgi1dD22EtM7yxbzveTOc73DDTO9afeWPUoT0b4L3Tc+WRoqPevomz2MdzA85EipvdWEDjy0Fys77TmyPclKoD2zx6M9H8mIO5xUCDwFuui7Hr6xvVnqdLulXHk7D8GAu3Qukbwx24U8w2msPCF5wTwQdNW9/tC+PVoUL7rIO8472pZ2O2JwqrrC4IE7r3GMO9YZ6j2nuby7bP7kO/uDQz2UDw89tduxOgKFSjyzvyi91gUwu+QJgjx63Ak9wJguu6x0krtwjIq7MtGdursgXLyY+8y7fsBsOzzzqLzfT4O8j/mTu05sLTwFYzc9xU1sO0NobTyb44A8hnycO8a/2DxX1Ti919anvPG5UjsbD9g70P+HOhB6CTxwLU+/29GoOoYZbLxd6li9hFWHPUKwR7w+maq7dueyuwfDGLyr4oS5n6YZvnBYrjykV8S7MDhVPbHVt7zI9UG85mwEOyqDj7trcxM+yonovbLSMTv0th68V/lUvBQMyzvmFVk8IE2PPcTVujgUAwI7",
                "sJgHPNitizsqkEG8YsCGvYGf3zr2W2W86C+Du7vsZjujbVg8TOEXO67S0LtgfG+84LAgOzI1ALzP0NK7QrFxO2XdBbwm1IC7y+12veVjxTv3UK652uGRPR8dsLpp4TS74Z80vfSnOrtk/1i7J8Lku9bW4TtBhII7pwLnO2V7c7v5vHk7DtuEOYLJDrzf/wU95ixEu2p8kbtOFlc7SupJvNEBoTurSnu69vwovDznvDtZC2c7crUFOwec77wdbUe+s1gzPMhp2Dy1NIq90CL6uwzapr02O788W3HBvp9FFrydg8Q6wRATvB/RkL3vzAA9INwuvZMCyD3ZbPE8jDClvfGsuDuaTTi80YeJvNi22byNzYK85y8MvWw9wjt7wMq8517KPB0Nv7taTWM7GU+Pvctybr1l+XM88CmJPJZ+fLrRnlO8eO54PU2s5Tq2IaM8B7qUPCuM7Tv5ckC9K7wVOud6Cz3D8hO7Qt7ZOq34tLvDwH23XYb/POnPf7zOXd483gOvOOsZxDrXRua7KeURO4LYGDoZk4u70rMpPExxx7ytpCU8Fq2bPKdOpzyADao83Tp8PL8kIL06f4q7vfM1u403Brv21i48gi6bO82bBLyG3tE71IfVu/Jy6TvipeM7jE5OOzfT4jv6io6+SmPHvdTcaj6fiti8VS9Vvrdmn73DITc9GZqbPP89jDq4EQm9/a+fvW9kw76eOpq+26C7Pb3YXb5Vh1Y70mL0u8iZkrmcCwq8sAccvY4Dsjy/Zmq8bNwvPM6TZLynvii8s4LgvD3ozrv9qjg9HzHLvEPx7DuHjvy986xwvbaywD0EGHK8kGWEu8HYX7xqGiS8xCqnvCzwi7zF2HC8tYgMO7FMFjxXzYg89mMguSJUUrwqnZ87DECxvF1c3jyBrjW8ZXd7vBYOGj1K42s7aiXlOjGcK7kN1Ya82c0hvEhDMTy6F6y8M37NOwHIxzslT9e8KD9yPJw0iTwQaK26ToMBO36pCTqvbFG8QgALPAgtrztcfLQ7",
                "oCgMuszPYDsChZu7EKENuy0HTTxVKtk8OKkcO7jN3zvWz/a77QzAvSoAh7vWagG8ZgQzPLdKtzlBEe4799RBPYsRHTkZvcw7bLT9O/sd072v5z28UHHmOu3b1LlsGoC8qLDXPBLvALyUEHC6NZntuxQrBTp26HA7Iyb/vFr1M7vqa4Q6ThzJO5Xx3zvuOm67JLUiPfjH1TteNgK6vD31u8thM7y1UkO6VBWZvfZcR7uk3EO7RRhmO04cVDx1SG87pc4UOr8FjbvbVf677+GVPVT2qrtw3bG670e3vRKzgTiAEHq7C96HPZFmAjrIvPm6neFmO/nI1TyvaXg8c1a6u3nRVLuo4yK5PVuUugHaNrvynzs7lC4gu4fKFTk4ShI7e2OyvbawWbuKPkQ8eo7TvYH1vruSDZu7cNn/OZ82vD1431O8F5InPXDC9DzUHS6+xfMkPqinhDx6F7g9zAJXPsl05Dxzp+U896jwPHlo6zzEQI68UfeWvSETDj2sdzq7fvGVPLyZFLymopa8L8kquyZ6vTwuem08bbU/vMXIdrxgnBy802mhPWi1Njxogqq8r9Q+OzEZ9Dvr8w+90IrQO1FWEzwwxJq8lrOButSnt7vRgjG9R3InvDwztboy8go8qZk9vDURE73nozA8Ac1wOxeyl7yhsvC60shRvKftezo43gw8kvOdu9+raLwJPHG8ERDJvJUkQzxOWeS861/FO5oV9Todkg89whyCPGUwSTz0Vg+6GhBoPLezu7zqTqc79cS8Oi1bzrujXfq6WoOJvByrhzoEt8g7rGQpPNa7tLt7z/K6dPH9OpP5MDyuF0W+jpmiO1nKgzst9Tw+Y2kdPbyy9rxpVbC7VdQLPPLqnLsbFTc6u627PRkeljswk3g7WNfSPXGanLw3VZ27CZHpO6bRNLtbrns9zOLivdZrszqMIue7ZoZTPUbJMbvGbye7oi5AvCHuNzsDIhE7FZyNui9qhbuLVIE7Vbpfvb5JYrwEnao7fuyxu7xHBbq70xW+",
                "xtVcPQx8Qrv1ZMg7GVMiu7VNzbrcxv46oBy3utuwD7vW1lc7JxjkvNKiF7uE15u6SLVKvcA4Qjwtnuk57snwOvse2Dq6QhQ71oOnOhy087tUoDC7fdO3Ou53LzsjWD64LNWgu7Bxbbu2/Ru9YzofulBkEbsza4Y6UAKAvVPguDjueZi7wlDTOwYk0roBQok7J+cBusoasTxIzoU+wyY5PW6Z972577A8qOV7POvpEz3Ns1u8sAzKu22ZRjrxGaq9f5seOyEdfr1v8gW9UOyfvdOaILsHsro8GOW9Oq/YurozXus8eZMGvcf1Fzxfe6m6TKafvFT2tLzDZ5G8k+TNu0OxFTtW2+m8H9+jPNUGa7rKGxu7UxwIObZBVLyaYhQ8LWMLPZj6d73jjS49wM09vMQkprxdBJq8I27PujFB3DzPsRs9MbSpu2tERD0ef468CRwrvNz6CbxJ/e66LfaHvK3eMb0AGcO7OgivvEjwwTpa5Y88+9gLPOrWwjxm0+c8kBx/vOqrWTojT566rHmPuxeWMLzJokI9isD5ur3ht7tKwsk80VpZvM8Hg7wdH8a8PLGiO5zKozz2sue6PLIhu61K+Lt2HbI9Zh5GvFHDIj3q7xm+1V6QvKXc27wZBQ0+OBfwPWc3w7sENa44a3i6u4IoETxfpeO7pUnKu6gdszxYtPi9MK7EPMESsTs74Ea9Pf81vWG5k70xUSw97Kvqu6hIgTwsL/c87gSrvM8VPrxN/Ae9o8oWPHmAbDwOKRe9fVmHvP2R/DzUC3S7j2lKvIPs0DyXJqq8m6krvKk+7DxtEos8m2SeO7TV8ry3dEm9N90eOmqLhjvNNzY7fj0jPL6qCD2udQe85TELPZ1x77unrC074LqRO3DoCjz08pU8wSGXPJIPG7ymt7W8DvttPCNdYbt8Rk27IAe7PL1Snjylyc47luWNOxCBybvrjHW62IsYPXy1s7phv2q7BXUWPLedSrtIKyO5UWKDO4JT6rwNgo6+w/MMOgCtQbx1OzY+",
                "4VaVvoy5aL4Dcpa7P2G1Oq4gNLtuXwG8gbSIvPMqd7unGtG8+23ePenJSL5lfCE8UgEIvEP/7LttBT49i1fYvYe7qrphW1q7nQJGPPfsUDudBwm8N0wKvU1Gl7tSNDg7v5vqOaq9L7z+8ha8K0HcujM8LTxeQ5+68hgvO76o5bo8QCs9QVvvvLHrDzt/rgE7u85tOujSUjvOUb87bH5IOfJH2bsB67C5ItJovXlslzsLSIe71o6vvLdUQzxYgnU62VEzPfZYD7t2b2q7712RO49PyTyKFEY7KaBku+ct0rpyh487c23CO/czxrszYrO9gBIxO0XHI7oMz6a72PNBvFAYzrhiepI7nuX+PArzzLkIbC67sc2XukSSqz1LeRo/wqLMO2Dqojtsja+9aSktvvFS/L3sJn883NMeu4aZobxxcFM7732yvTg3xzv5rVe8/WK/vBf9QD1izc+7ybE/vMsrtLmotVm8srGMO/hlRTvFaHk7KDXyOexnAbzmsjC6Y6sMPoKbmDs4Z1g7A5nJOyvTIjux9g28Bw96OxYbhDuttTK8kAlpvH+O4zs8T409SUnbuygTDrsaO4E7ypeUO616hrwd58c7//tFOz2S1jvdDxC8+166PY70mzvIJDQ7cUCtvP2uSzjvW1a4zKppvYET2zvPn5o6W4uOuRJusroPq2I7tN1iO5jEuTvr1RA8F5xdu34EyDuyMc89JNWOuwj/yzuVonC6l+k5u23h5rs7E0G61ux5PJZ/TLrV0LW6qEaWu6ZjGj29HtS8igtZveAPWL2nn/+8Xq0ovRkYLLvOWCm7Ia0nvYkNKz3VPgQ9VBZhvKzyWr21ewI9CqjZPL0Cnbz1Ibu8jMhePQmjHrknf0Q8VQ63vYlEDDzCswU8vTOiu+bdQr1f3qE8qufZPJVYQbwQscY750J1vUXQ1jtP79s7HjUwvZZ3OLtVTeQ7iB30PCUsbTu4CL46YqKkPG98UrxtneQ9PmNmPGgeGTwYfX27v9qAu20tnzzo6R48",
                "AdCcu40uhzxW8x69C1FVOn5enjxbElc93bPvu4pujzvBQ+48T9jCvFVcuzzENCc9aYukPFAIHTzxMoU7xZBjvGogzjy0T/m8Fj6vOwuNujp78u664s1OPPzMrzs0DHu89h67txLi3zr5Lyq7288QvN1R4robwvE7Gf5iOyDBjz1ZKAM9wzJ7vZifxLy0aAS8rIYgvOXiszwAj4i7TnydvOPsc71GfRy9EnBHPKkt87wEL3Y8RYuGvHyJKr1N8LC7RRnBO7kpkLuvnoc8q+o1uxUyqLwqn3w8T9YCOuWp+jxSEJ+8F0RcvHdQzDxD2o+9TfW/OqKNPDyRWF28cFavPKUEXLwQlga7KGKFOsSSL73WhSw9H1ZMvab5dLspGmE8LUNWPGPFkTwm3Lc70FT6u1jHjzy98ci8jm4rvI0NzbsWnw49BGR+PMar+DwrS6M72XiHvJJnPTweXIg8UyiGO2FkMzwTSDo9vmGfO7cy0DxnEpW8AWq/vEVzjbr/20c87gtwOfG377uB8X685JsVvHZPpby7B1085FpePXA2njtGzmi955Oiuw2vBLrdtne+toE0PnsVjbxeX5K9WTixvcDiPDy5MNE8cIw6PIvXXDphuak7KL1kveawMD3v84+8Rpc+PMjEkTwWgo69S1zYvA56T7yLjv67zCrnu5A4oTyR9dc5RiEXPISaCLv3scM8I/KevGwmD7wNekE8wn+gvI9/QLs+gOI6ekeHu4Moazw6nVq8z7kKvakTDzuccIQ7q1W4u/RtILyNhhO8JFNSO+UfA7ul3do7g6HVu9sHzzqiZj47uiGCvf0hxDvtwKE7XDckvN7FYLzCGSe8r5IVvOp2XTzYwY28ZTNMO+M/KDxh0Yo8XDr8OmfCCrzV3XM9fO7Rus4wQDqpDmA7DP4BvFXvjbuAJms75hcTvKrfu7vByqK4bwlzu8Rz+zsiXgC+XZDfvczwIjwr6yQ8mLxEPV5A/7zKOc89275AvTv+mb0SyPk8hO2oPDCv/LwTAZk9",
                "WZxgvNcXlT15l5u8J0sDvUnPLDx0oCy9FMZOPYYKSTuEN2I77vsFOzQpFbs0NOQ9FyB8vK4z2bm1VAi8wF38u2CPJLwYfsi7f8DsPOXeDDwxwrA7aL78PLumVD3T1ou7eJhuOl7dJb3qzXw8Exrou4dcLz18kWO9pmg5vBcHf7uPxji9PmygO9XfxzwDP/g7870hPR9v1rzXWs48qzMKPZL5ObwYkbI7ZaRGvUNRdLydFjQ8ZwUzvWaSKLzNI9g61gA8uxaPQTufcw49fCgYOlvPjz3kufa8fLkfPHi/Gbt37I+6zxQdvAYrcbtJcv06149tu3oL87z85lu+ntHoPJAE/zxnI+w8RoWlvKukAj0CzG28BEqHPMw1H73XDru8t2hTPVTLBT40IGo8zo9lvMPLmj3ORnA7GsPFvGSXkbwIKC08p6eMu/AgR73lV587SzOVvCB/hT2CdrO8/hhGvHzeibvaaNA7AcX1PFk8ALszm3A7qPBdPRZ0JruWEA68YR29vLFCCztFIyY8fiA/O/q/4Ls2rS+9MVRsPD1MvLtZKkk8DzWhvBDsh7sieKS8yXknOzV8Gzv8QRo8jcIwPYNYWL0NGcK897mIO12Srrszho66LVsHPFtWUDyza2e7H3BNu+VunDwtu5s80Xt3PBWeSL1xKY48jsiMuiS74Ts8H+a79XdxPCOB7DswN928kSwhvMe9Fr0UhmW8jKcpvPnhlblPdYK9/7CKuxVAlztQjNQ9Ln60vevRxT3w5jI8cI4fPLSHPLyfJEs8dcf7PI+YfzwdeKS7CWJOvdj+Tr0Ux068Gxbou8B9pzvCPzG9PPLIvEywZbsHzUA7ZqOPPSvMBDuhc+27o7OtPWI82ztNpZc7fRm3u+StNjs15+s7ZiOEvYtfkrvF4x+8augOOyws+ToI4xG8rFANvO3eALxPabo7KkJ/uo3nEjxF2vy710CAOsK95rv1cXQ7p6m3PY6BI7zwcJq6UDWQvWepDbwfnVI78dR5vcddhTtdayE6",
                "0fviu8d8/7qqAFQ7+fVkvHrGYblmrdm7C0rvOddVILuULfg986fKuitMmzucn/W7Xau1vPqW4rZfjoC7WjgJPFHuoLvV8oM7a2YPO7CGlTyAcaY91HrOvYsErzxIkH+8r2vpvMxtAr0lyBG9IVqjPG/pQDvlP5k8GqVYu6lKJzxnNhA99VkUvDgCejze/N07A+UAPSM4pruB9Iy7aJFOu+iOCLwF6QS9QtQfPAxxQjxEJ3688FmnO8HMQbpjOl48mPefOmqUODxdIZw8/IY9PCbUyDy+dwA9nODKO49pPLrDiJY6CMLnvJTVqD27oLy8IU0ouxEHpTyGqgW9vMgHu9snWDwpfTg8Gxqnti+gCjy2pig8//JgvGPlWz3VJ7e9XbOTPCkdzrqw2AE8dfnuPNJwC70vKYE7k0RIPO+sGr14kTe7u7+FPVeUMbzWoha8RogfuzVu6LyJYJ27ekGwvAQbWzu3VAi8G848uwRiPTt33s481BsEu+Z4cjuSbpM8hbEJPNiRizsaHEs9HIQVPXmDtD3FuIO9xQsjvfIYDDwcL9q7xsiPPQTfkD5mDmQ+RvcKvBACLz4JgB+9pE2TPJvHcrufXMU8pWFAPU2uRztgG6I7uoW+OWR0NL0ei6+7mkBqvSe4YDvNiiO9DOAkPEJcNzyKdLe8coUsPYy8Tbx2E247NvXXO49ZQTxe5AY7BgySPPcBUjt4ps05NEPFOyUxHDupc867JcrCO9fVMLz2qgA8TK/vuqUxRrye39w55T6aPEZlObzrbsw7OmYjvP9xBjyiCE88KWg7u9rOCbybmdW81AkDPMmrFTvNpZc5QCclPGKbnDwyHb08MjQwO482jDpdk/c7ctRSOsjGJjztpMM7nTyeu+QLG7z77pA7wSUJPGMkq7wEywC9ZmHoPFHuvr0mS1k8COIgvOJwGDzXQlK8ofPNORD8DDwlNQe9tgvfPTVvUr1qJxy8Q9AvvVp4Aj6CK449zC3uvJPtG7tlFqk90QCTPPcaIT3yUh28",
                "eyuCvQCBIrwDymY7FhAOvTBVTbzfmCU9YrWwvFRQirxrrAw9rBSwPGqcIbz48YU8nfm/O63tcDw9yZW8DZaEPB/bODzrjVY8+gdKuzzJQTzljG88/WmXu+Xf4bzGPeI8eTzYPMMxhbtY2hw7lhVkPTQXCLtUKUe63KNOPC0gSDsuUp67hgp7u9Dz9DzV/JI8zJU5PIszPzvVUwA7aKSeuw8PQrzcqwA9GyUxO6ltkbtbShY8jnPUO3GasDxzpjA8vEmLvO5MK7o4ZIK7d4YTO7GyZTtAvIG9DLZwu9wNarxTkbu83fI9vQ/AJL2x+F085ikqvnQ3i73fRZC9vSe4vMfyP73595Q7KXraPDHytjzMJT+7P7puPEMCFbx35Jg8auY1vRn95bzzoKm8BcUOvLrDLD5sQZK9zpJcPL+RLDvlcpw7MhPPPER1eL0AZIQ8NlijvIfYFjwn8WG8a7ByvEzacjwaNBI86HgjO6EAbjyYp1c88Xj/u2PtDL1Nx7O7kBLnOgxSCz2LHEo8BY+5uyno0TxQ7KW8Pce1vDDmczzf4v48SCFeu7X8jrxj4nm84vOGumHAFbuzxms81p+4O8Fp1zmW/uO6TAjpO5bhQzyuxbS7grSRO+8i8bwOVxa9JuKLO2w8NjzZYLa8+i0lO1k3wLtoBCS5lubmuw9DMLzf03C9CGGTvAVOHzz9L7+8Qi18vCWKeL1bwgG9LyVoPC96cby6zUO94CZVPLnALbyzHUU8W+1UPOlYaj1MN3I8mA7OO9Nmdr6HX5o96y/NvNUV37xu+5+8SPebu8FA+7tXzaa8NH5DPftPBD0J6m88e1ykvNek9zsHmx08aP56uxNYwzraelC8/JKNPOyqjTw6NrQ6yNppvEsAFz0PLKQ8sZ5QPajZzLvMVXi7sO3uPFRS5LpWlNk7g/ogOy9ycDznYJ47I5cRvK47xTzbBmw8B4m1u/B+gjuRY7k8mfIHPGMbeTuhQwQ9Ums2vI7l5DllBQm7RWf6O1/A7Ts7Zpe6",
                "U0DNuuVQG7z5rde7Mm4uvKWQF7sTM6G81wMfO80OEDyPP1u7YcdSvCKEH7o6mZS9mHZevjyJ8TwYvrc8v0DevNtWzT1rKIK9idEGPXIF1L2uKj89mjSwvHddHL0amZM+A8eVPcpUHL4dJxC9rB8AveI3gLojc6G9oZ6nPZc337ucqv88nsG1vMSIQrqd3WA9uCF5vYCCrLsgbJy9m6I0vXJfbz1uBTY96WcIvUwtxbz7jhe9ZWfKu5m2Jrw2PDu8cSAlvF0dXLxgopQ7gcWXOw75M7yv7z08QTY0u2o+nbpUVYW9jcFJvZGWuLvCxg+7C05avLbJ67xKVQo9CycdPGUfATua+BO7g1QZvMniAL0C8eO7au4vvA2Zn7u1uhI7CcgMvNQbjzm6ILW62jOmOndIaDzOoOO7eY7uvA+JC7351pg7GAKyvIbKJbuqFiW81VLGuUKr8Dyf3C6+VpwKPS2XtL2C5wm902MkvW3PYbxJrc48sqV1vGiXSrutmiK+loIFvWXmkbwJKwu8+n+auxV5lzureVs9wfQGvWRV3LpC1cu7UX1TvZiIrb22jsw8NBnjurwTKb2VpDO8rNwkPTpkhjseFzS91grIPIDsK7tA/EK95Am0vEd3njwxSHS7mzuFPI2BdjrXbRg9viX0uw0dvrx9Qyy9cNIPPL7b6DxubTw95zS1u1Avpryb5bQ8XvGbvGsfLL3dB008kdPWPGyuBDwiLfk5utgoOvGZZztznIg8bTegu/LTPDyGDVi8iVCKO1+a4zpuISy98t66usG1DzyJmGy8Hwjzu7nSHjz60Uq7DE3pu0ZUgDuWbZO6APIDOwkhHDz456E7PChCO9hVWDt/yRu+RWopPFa7Xruwl9y9WP33OxCTp7yzvgo+sUdzvWCYQb6LVr4956olvJfj4DqmizQ9K2qWvNL4NT1dpHo93uhdPZU/zLxjkzg9POZDvD0n1LkLo4m7Ir2lvPERBzuLkbi9WUvFPTD8PTzXOvY8FlmAO+dz2TtMx3s7",
                "Ds4UPKaV37zaJRO9gavgvOEiuLwa4Yq8fVPvu91/Lb3EQHE8HeFePO5bx7z4RIU8OLanuyn1CroR+nq9awWcPOOGPryGaTq8n4IUPf4M/jvMZiS80gXqu/WZlrqFQB88TEuOuiAidDwmGvC6NB7MPD3PyDxUkbe7XUKYOywVBbx0RPW5xXVWOl870LynpIU8rMTJO03esDw4I+W6GSkiPGwxabrolTk84wrQuhvChzuHIwK+vCQVvF3RwDtWEuS9T/aBv5fkzb2d6rU6fj/SusCbVbryRTY614MVvVPHujsrmx+8Yc6QPlfEDL5Tvx06IIZZOWz2jDuu0iS93zHPvn8V8jpdCM67zE3nPUnUE7tG5r66a7c9PPuflTmnn3O7VMCOuXPC/rsDNQe77xyUvaKUzbrodlE7SwNmuoeyBbuSyra8WBROPMEHFrzf1UW62rnTOmcupLv1j6o769HouLbujTv430e7sEgBvfn8Uji+iUM73lp2PE8WJ7suMU07JwWOPBQUSjri1k2748J7uoYbk7wAi7O70fspO+L2ELr+ZG27eAeeOkPhFTns5yS8TrKMufLiKLowKIQ5sjNBu/RDnDo+YE46Q4yRvMZI6LoEhJ+64djPujDwNzqCOmA/6J1vvCloWDx7ldK9XZPzvCLxVL0bH6o8XgsAvbqlvT2iuTa9kkPpu0kgNr10Xxs9/TiePBF3b7tVspY86V8WPfggkz07PhM92MVbvRFUzTxUjl09nzljuy5vND2qvU+7xZbWPAJx4bwi4bi81sfjvH0CRrwUCZE7NGonvWuVLD3CeRA9AtRSPNZkfzw1DAc9QbjpvBkpljwPSUW90R36OsYXJDt/8Sm8SvD1uyBcSbv3Mp66ChhAvO8/hzxM2Fu8Omn2PPshkrx+xtK7IihWPMmQFTvffAM8XJuKO92r7TxG8oe7ZvvvvOzHLD3uDbI8Hu1Pu31NZbpC6qs84IsQPIfQSDxAMq46ENCxOyu9FLyAISY8+Eq/O5MqSrw2v4q7",
                "VM4+OYdZxLoJJnG+/QHyuwjD17yP/8C9lGWHPBDXRL1N1te8TIBoPmC7Oz7kgwk+ONlHu4yGhjs3OzS8KKOVvFUkjD01w1Y7rqrcvD8Vmjtl4kA9XKYuukNadzxIHtw8EqwPvS8jnr23mdk8q3uwPRqi6zu3/Bu8B48avWHZIjyVUae84uQCvFn5TbzyNAQ8CaUsPVN3XryRAw88/EWMO3scWDx097i9j8sivJqXYjw7GMO6ZVIBvCk7kD0zOTA9l1iGOxhIF7xQvGI7B7vbPClSVLsOJN47Kb9Hu8Eb/rvocYC8DHQKu37phTyrA0W8ps+rvOp/Vzyk99I7aBhZvPfYLDwe1p+6dj9puqRqnTxTEy881RFxPEOSLbxoHqU8YELLO/nVUrwphxS8pze4uvwbQLssrAC+scoYPh5Gqb67qFE90/VgvTAHOT3o80S9VigCva8UkTtRMsM7hL3oPEw/Bj7cWv09ng6Ou8GMTD3OZkm6OjVMO+hmwjnEzvK8GQglvY+k+7vkZBK7ZS2DO5GOZL2XPQ29ZfRku38rHLzHOnq7DB1LuzFvjTvJeBc91yR8PKBVNb0oqaa7TAOMPJSlIr3HFTS5aBhMPGdQDLzkc8679zUBvNBmjTzw2gY9ZrFlugCBAD3E9we93DXdubU+0Tz0jRy8bsnAOPgq07wrDJq78+KfvMseBzwjolY8l/O0Oxsyabw40Ow8umcMvJO9Y7xDUVw9agbyu5ryGrwxfLi6pVwHunoYE7jGZt072ZPZvKG9o7ze68+8ppdUPH4D7jrR1Fq7F3TjumU5vTvdnAC9EuiePe3KtLxYl5C9WULYPG2T2rxcuKC+3r1SPsLnpT2fy6S8TPm0PAoLgjwTLrW9g+Abve0hND0Bn2W7U9NlOqfsNbwGPX68jrx2vBRhELw5Pec7f3kJvGejj7tm+q09QqbQPJx/rTw8RQw91rIMvMYAtz1PPMs8ro0WvFE24DnIauO87ApNvM0mEL1I9Dc8ApBivAjXqLwj7m46",
                "VtU/PPStlrlAOKW8kXi6O5ltjTvTAwK9EdhHOzIvFrxpu3K7TXWbu5OAZLsV0IS76RdEO0Iox7v8tW+7FN4yvBuUS7wouAQ6vnzNuggnsrxjShO7hHjru+TdRzgykyA7q2YQvIkNoTvWt5869c+lO5BSuztt0mO74jyDO/nvjDvxNh66aJMgO96297oJxTC+uG4+vNz/57ubPKq8+g1NPfv9CTzv5L097R9Ovme2Qb2yOuq8yPofPAkYV72piA89NJPJusHbpTzYc3w8i8evPNe9Sj2Bg6W8jki/PAVZdztucqk8ClTeOzPg8DwiXui8RQz5PC2zq7zonX88g52ZOxwPg73k6jm7Bu+nPN8XojzDNDI96JqxvPxuirzJ51i7dC4Pu7kMtrwgpQg8a0hyvHYeh7oNAM+56XcEPCGerzwTp8E87I4OvG1kYrtUBWi8vhMHPKnpBrwVexG8VGqWvIWwF7wWaou8e34YPEboybuuDwY5xOeyO6ukkzw1de25KTqiO+Ozjby48AC85D8GPBgyybw7zr67B3vzu+JqRjxYaVG84GMyPCGrBLw6QIO8H8UGOoTjprtcHDw8NkQRPUXetL0ARwi9UKUpvtTjYb32iB09cQsBPVONhToa6CS9bYKNvJ7Gdj0Ji1E9FG7VPPGdWTwo38488isuvGU+mbvIBDo9TiyfO+THsbs+uQE7QZ6+uQFeNzxB3by4wJeiPIxS0jsv/Bq8rR8COsIDKLrANP47JZAQvFg7g7wqY8G7PPqnu4PWVDw9ugc955KPu2M1c72rUzK9ZTZsu/0KlDpd67Y7orD2OtVHAL0r/q48EYP2vEMJh71rLkc8dd5evAF5r72Cp8i81joUvC1bSbySqve87GAyvPz48zuCDk48OTgOvPfjdLpKs3y8h0/pvDJx5by+fxi8T4wUOcYZdjs4l6A7gMoqPG38t7q4mYi7VupSOkj+QjsfhVA7caOUu/AKZ7u41QC8OhcmPGgXk7v8e2U9L1bDPDyZQj765w26",
                "CD/xu+dIuDv+aS07AuguPb8Rv7tSaCo8cmkjvaYv9T06PrI7PqqWuu0MgTp0cK28tb9+vaawtDq3XUA6/bSIPc3GjzssTAo8JL2WvZH/OztoW047NwUguox0+rv50u47MnBJPSbhbLu4r4Y65MqXOzRLGzv49Lc9XDc7PUr3kboPxOw7uAQSO6tbz7vT2ek7/dEMvA9STzvUoSe8cUH/uzF4PLnnili7rHnkPHqlObsG9Ho6W6qDvAp0I7scj1i2wI9aOpSxojw7ek88zkETPFp+ETzUWNe7HJmtOyawyrtm3tk8O9mRuLzGOLo6M9q61+SuPVjwYLtStGQ7j/wHPc9+ZbvxAxE7bZFtOfjJTL1Iy627wJ9IPfggNbq+w7S9Nrs4u4ng4Lzrm/M8jWmmvBUgCb5jD2E9JfCpu3nXTTyZcMS9WHK5vJGihj3qlI68QtFMuABdTjxCcFM9kwcKvc0NSLnkPyC9WcQJvcQv+DvefcC53V7hPCuxh7tDLFy9Su4vvWeiODxlS5I7lWCMOyvZlbx0lZG8HZLRvEKaCL1oCzU9gjTFOsLOrb2H2SY9vWgnvA9JJr3wyI09ibXKulou/bsThqm8+h61PJqej7vIdoq7e1rDO/0Pery2bC88bQmlPHb97Tt7ZLO5uTEpvIlfDTygVIc76h0IPRGaQb1jkY48MuDIPLACX7u7UB26Fiyiu6cg6bzT14c8qbHpuiBjsDyu1E28UAnaO31Q1rq3+pi6Ww/BO1aq27n5nTq+Mc4jPZNcSj3XWcM70V6HPSmGdj2OKFW8RG8bPWvObLsQHke8E9I1PYHbx76+Qkw+Rcp2PKa81T3LsU07JnMXvTsTwbuxh5E8PewCPQ44QTwdPX08pWSaPPpOlzznOei6sRM2vQ2SzrraRB67QvxpvZalzDov9L87YCS/PNbBQTxq2Ny8tRyPPGcdgDv2CIG712adPA3LcjhBfcm71GfUun03rDzExx47VcFNOrNCDDwc0SI8kjjIOo078TrrvMu8",
                "IE5rPMSibzymyP48B2X8u7kQobkUQIW7/K5fuVIalrxS8Cg8I36OPD4g6rtw/+q7fSKLOwbZu7uFCxQ8dEDYu+86BbzzHRW8wmb8OyuVCTyOFJY6WKwDvKDu3juAXr87hpFMO/agjrz9tMu9/JIYvhVUjzzO0SI89TolPebTe73SIJ08fZ15ukgbIb5xn6k9DE4/vNr/AryR7NO6AhGwvdJWWT0r4Gm9D4lavUMHkjvNJCQ93KxSPWfPMztX4So8oruWvFCdDDzIbvU7+reuPD46yjtfxqW7vM7qO24TCj06nSk84kIpPZhCMLthsKK8Wv8cu8Op8btIYIY9R1tVPXDcc7synSS8XEDxOmGKMDsod/o6LR8Nu2ibLDvlLMO8JzMGPSCdojwpNm482axWPAl0gTwgIk68f6fJPMJsfbsC7qu7Wjeku5DFyzs63+o6MUiKu5936bxbmyQ8O2X5vK6eKzzcYni7jDr2ux8ZRTwDoZo7fXboOl8YQjzTmtQ6XROfvIUU0joqg+o8DgxNO9YPMbx6+4I7PUi1PUlV/j2VXcm9OlKKvIsxmLw7i6Q7gYW+PMi+tj12u6s9fFBFvS3QrD3zzgm9EdwSPEdYDbyAa8m7/+UYPfAo+7rZq1+9VkkjvZUCrjzURro7mT1aO5dn2byf1WI8OQalPMA4lLzdd+g8qiHWvTcBab3pC+Y8G/6uvJFyRLycbpw8NScIvp/toTy+SU28x4ngvLIK/7suFBi8qpGpvGQ/hL3P4Y47a7lJu5yGhzwuHTq8MxqnvIpjqzzK8mC9K3xVPG2uyDzgK4w8DOTzvEGwarxfbfU681ZeO/Q/ErzX5rk8GrikPBplgzwbjmo8/7V1uyIDubyVisy8oViBO0IywrvkfC28YdkyvPnbYzws8Ia8npQXOyWv0zqQEZ47izZRvADW6zrYIly+bQk4O3hsuDzXZQ29pgwzvN+OIb259g2+efblPO1YQz16cFq9QVDOu8Fm77tQIQq960AZPUNwAD1vDNi8",
                "yR70vBwCADysPyc8viytvPu0Nzsgphg9Gf2gvBm0uztQogs+Yhf9Oyl4n7t13Km85/OyvLhrmjzfJcc8w/wPvCFMIDxKcZM7fcqfOdRXKj3lxgY8Rh4MPEqD3jxgLpo6F8E9O89RqDxv4QS9KzPSOxTaSjynbl474xi9uwcPOD1AkOQ8lQ6nvPwMKjur08U6aNEwvG1NAzzSSWm8BKGfvAtw7zo89Ig84YfVvIlUrLtLJcw7HodRvFZhjTsor7I7h7rRu7IE5Tw++Rq9/27guw74DbyVEbG6lk3jO5dPFDtHC4E85G4UPBQ6RrznF4m9nJkAvPt9QLrx+8w+HNPMPc7YGL5Zwxk8kqRJvKPmqLu1jj27HebCu88GWLvXFZs7+ZKJPqCidr2tfcQ7GbnKu5NtLDstV6e7l8oOv9A3tDtD1ma7ixBCPv6mbrtfPwm6vU6MPBkUvjoPDyC78Xr2umPvmbvXba+6QyOJvdxFDztBDuQ7cEq8O9wMH7t/jom9EHvpvGIJH7snKta5RpB5Op87Pzua5ho7BbF+uiyNL7uHjRw7U4H/vGCeFLvlPuM6T1x+vMq+srpoYYM7zm9tvOm9lzpKMYC6EKzmOnfnfLzdAhu8Au5rOgR0MrqEkj26frehusRtAjmiMRs8zG24Oiep3Lqcdyo7o8wJPcTTLjs6ouU61SGOvEYp+LpZSkU69ApXt0p8zLtrI1s/BNELvGL/t7vbX38+ZB5wvno6fL3j/ZS7P4uQuzvynjsqNLu4EQPtO3VExLuGfUC7c9YNvnGXDj0oWTY87QofO627+DrH5Ko9gzBOPazHhzu7MdM784uvPKje47n8WxA8oxfuvZgffLvjFsg7wPdquz2egjm+hdk77vQPvSkmnrp2JKQ7vRvuO4Y6+Tuur0q9+/uDvTx2XDvGaFa7g0Upu4vwqruPRBc7BntCuvaR0DtC2c87jzIJPQ7Da7qFAM658FtmvZswHjorfW665/zMO9i9ZLfBfIc6Efk7O/0W+LtTYYi6",
                "0WaTOmQyoDq9TnE7Uxmauusbd7l+8s87tZpxO7irLLv4oiC7EFpAvDQdjju/fwk7ToDwu/H/ITqlbaI7l79Qu5RDw7zpsbO9lT1CPEMhZbo7ZdS9GzUbPRTnoz2Ei3C8vQFkPHuZobuIfts85sYCPtBXUryINiw8qeS4PSoG7DvOrwo79h3KPCrqkTvOPW49jfTBPC3cgLzcl/K7qXKaPdcnfTzdP0E8TuinvVjEEbzA9Ew8t/dkOxMam7wiGWU7tcBLPdv42DsjcZm8BzsZPIjBvztk3vw86SRFPf4AlrrCsHm6ER0YOzKIjTw6nxA821u2O7X38jpYsci6EVfoPKXPDrzdmuq7nELrvT9rqrvq9Li8cU89vCJtcrqxzSA8d7iBulgMc7ySmIy7nY0XPNPNDDxSn7W6A1QjPCE34DuXHUo9Wx6KujoY+rruVj67J9ImPPkwBjtkUQs8kqKoO1mwcTuHgpw7xZO6u7v6z71l4s2+3aUrO3PFxrveLk89Ynd4vQuGr72mgZ87F0kDu8WupzphUZ67r3rCvZ0DwbvY3Sq6xO2Kun8N4z3VW3y6LEMsO5pxKLt4XAI9hLohPhaqEztsFRG8agYCPD5Vwrs35BC8oJ+pvZiHuLuUtSE8R6RouyHMlrpzjU66C534vHGB3LtZG8E7cWaEOouTuDuYrsI8uJ8nPilM0DsxH8c7gTKDuzQivjt4Ru+6BRIzu0b5BDwYeJ27QckTPRgfK7uzXQY712uJPaarpruOoUe7pLczPRf7GbuZDEU7v/wIOwZEfTyxYHc7HJWYu6+1ezu4rZ86AVBzO+xoALu5lS47VMDuOxqmjLrGXgm6sKQ2vbPc6bu95k462vWCu7TrlLhUwgK5PxIUusHj2LwarNO9VB6dvSBWY71mNfK95/MBPfRNmLwxcYi9V8wBPt6YjjzgC7+98124PP8plru/dNG77n5rvPzjIz34GaS7siXIuzDQtTzHCuY81TvvPNAcsrwB0H68xxqgvE3AmzyL+lw8",
                "jfdwPfAH+DyXxho8DvGTOi1lpT1uR+U6v0NhPZbv3Tx09Cm9JkeDPHB3kTzQ/tc84SUAPNnIAz1yEge9GgW2OgJXLDyEXw68uqJJPC/kIrwKiIQ8SvXGPD/d27qVbv26hjxvOl2gjbsj6dA6IqomvKpopDval/86GuMbvHFJ9jx344c8ZfVJvSU/7DqWNDe8RZbOvOpSmjyn9wK7rSG3ulaMeLug6068q7j2PIMKm7zhJxS8GJOgPIIAszxhTfa4p1IsuzP91ryieE29t5cKvrurrbv32DS+eBvJOuBzPr2zPhw+SM24vZWHF74mSS09i9LfOUTAmbzs1pM8gwonvX5LCD1vUee8oLd2vMdbwTzmBD+9eu/rOrwT1TusAtm9e98cPQs74zzOgse9/jHMPN9iRryCCk89sGALPbB1k7wAQoi8serqvKxctzwfTJo8vq4rPUVhYzv+Xwy99Y4AvTPLPb1iCFg8fyE2u35Tzjy3+L689wSkOph48zsTjVq8hSHcvA1noTySh1U8ovLNPB6LdjrcjBa7u8n1O97GHzyjsrK7frCevGIinTpMtPa6LsnlvG6RBL3cZh68IJYMvVXfLzxkz6O8pMcaPOR2ETxYHZQ78wupu9z0tLyyZqQ89BFqOPUrADySsTM7/Ji4Oww5o7vUSZm+VO3Ou6A8rDsf/Hc68ukKPrPXIr2CXki72tfMO5sfTDsH15U7tB+Uu1af3Tupim88twlfvV0dAT7faI87PyYwu5isirtlZI69lnDkvRNX5DsfHRG7+imUve6/Hby3/X+7OvAaPhrh2zvo7Zg7t8etu8yUuDvIOZU7GiBEvS2jlrsTJYQ73kcSvCBueDqPy6q9QE5/vcTN8jsauRW7sqSPuUm0CLsAHvm7+yVkuweC1Dt477G623A0u7Y/E7qiNRW7Oy8KvSOopLl7/hS7I/XAvVs//zrbERu7ozwmO8gtYb1OxYC8fWvpO8W4+zrV5O66li9GuwZzyLr2Sc48xA0fOGREejuTC366",
                "RRArPDHELLu09e86xsSLul50ALsONma6CDAFO4q2w73ZQ689/L71Ou/AtbqWmjk/llyPPlx67D3iMiQ6M0+yO2pbvjrNqDm7Au2wPNy/1bsYxSu7Eg5SPEYqwrzOzbo6eP+Yum9FQruowVG90y9lPtMDQrqNCsm556GRvdBSUTqJs9W6sMg2vbkbPrsCJ5C6VWxruxajRrpNzZa6Nn62vFjQWjtkzT85wVG4Or3jwrp89WQ8bSXGvKNmALveuJO6XtvAutLwHjuLbRE7Y4h+OXhQeTswy3a6gNWIvGQQy7pmogW7+q9bvPW7CLv4z/u6MUuIPDcg1LgRisq6HFupOh0AwbutySS77jCKOyyl7rqHH6u50QvXOsoPJjlw4R09IZTmOms6Pbr3MY+7NBKXuwQtfrqlOK6610qEvD1EGDv2oyK6nkWGOv7Enbs2DPc9enOjvHfvNz0t4aW9QzKTvQJQgb2+1Ai8s3o8u/XwQbyTykU9hC0JvWzDD7xCBpW5A+OFvH4hGL2oM6i9Tf6NPOEtXDsBeK+7loiAva4egLpr5i+8eCJ/u/ZHMDxQGSw8yIcpve8yADxoyBu7E7rduz+ftLhVQJ48Lj7LvMqoCjws92O6jV8cO3BUZ7xtAq67PKyzvJeUs7z8vjm8fIdzO8tidrzI9vu8Iqc5u4kDYT0QVgq9HEp+PcbPjrpuxYe6qmofPV8SiTxcVpa7GFY8PWC5iDuqlYQ5kB+ou8WKej28qPE8bj7OOpjvB7svqt08IcGVvAbD5LyqKNE75MmlOxEBirmt09K8jS99PUoOe7wFlDi8BU5iPZ/aCLwdCvA7CNhxu5sb0L1eXlO+q0pQvDI6hzwC7da863wdvAK4RbzZmxC+EExOvijVwzuXjJW90RUqPPo/hL0EdhO9E4R7vCdm/bzl/mO9Z6UYPXD0GL1OJLY8Va4vPD/3MLbm+W288mqhuy00BT18N4A8HwNtPIcpbjy6g505CFSUPG0xm7xIS1c991FSPDCZN70Gcvo8",
                "pEMTvYycLz1T1yW8Ru4+vNsPWbtrDsY7s9Zbu8yPAb2FSZO8ckCNvLzzoTvSSzW8r5FCO407hjzzoCe7SuWIPM9+27zo4bO8MP/3O4wNpbv5R768JOVkuzOcpbsJ3kM8ODSouzWrvbu6wKU8c12tu+JBKrxQnlW8M6eRu3NC5bgJKJC88L7YOukXXbzIT2q8dr9juwH/zLuVYWs5KpCVOz3hQTsR1ea9oeNFvRNIBz13J1U9VUdvPMLU5z1+QEg9B7sXvb5FhLzhE9c8NjC6PT4+Kbv5iYm+SPyEPGcESD4RvVk7WHCHPME00zoN8A89qFXCPMAHOjzKs1I7Ely+PE6okLwOmJk8ckhsvaLN3LuD/QE9WVD7OlpgEj1PX5k8v2hpPVGcE7syCry7jnInPDbg0rrWjHy7FbQEPReLobwAPiE8cWoJvNsx3js5I8U54yhSu06H1zsiWbi8jHRTPIy1Iju6N/S5FhvQPAFzfDxVXI457bzJuvaVozuRP786gLtjuzWFpryiZ++6DpR9vMlpdzz+WLu7H0+BvAc3Pjxq4Dg9WKqUu1nGazyxOxK8R/4QOxDzWTzzdIi75S6fvJ6vCTxz3Le8pUwiO+SQu7xw7Be9cAj4PUQhEDvVC5S9w4iZvVTOi70HO1Q9smCiPNWXVT2RrW+7ESm9PP6OxjwTat+9SRrJvJXjsT30ye08KO+IPVtHvLxo0UO8RmudvBHWZDtfzmC83lgePXAG9juH7i68yEMpu5kOSrzYrpu8+fAJvT1Gir2B5VO90uzjPMFmOT1b5gI9CJB5OQ7abDyO1CI833UQPWgiGr2AThg9neF6PPYSELv6SnY8L0FaPGlP4LsrYdk8S4mQPToLELxwKTW8NTNXPZ3TEjyDB/W7yZ1EPSacLTtlAoq88LNquwU/iDzjRSU8y9nJO2sQrDtCyb06fLqCPB7rILz1ROY8Df72u62+jTnRKC+8oC+kPPLt5DzR/BE6bC9EPKWqiLwHr4e8WjILO4i7I70nx9y9",
                "Dz7xO80eBrmb1Pg+LxaHvpU33D2Gim879HKfuhD6sroAvLi79k/QvDBupzuo6l07sU5VPb/StbyM3Le6QQkEOg/DGjuCC1m9NSQWPY2eoTu7v9G6H3KBOrjDErwlhp86wsR+OzCxMjRbtMc6dZ/RuWk7ljlFNMW6nnSeO7wcvroTDh071aitumNgU7oBmSG8WmJRPfGV87kS+K07EDHvOaAIcDodNoq6yKKAuT6p4zrNqxq7uvmPO0V+STtcX1m31xlNPT4xrjoHgEg7wCyEPeMDHjs0uCG7+B8MuzrD+rtujfS6WNwFOs/FJbtac1Y6pY9Bu2UZHjuasHG9KAOSOf7nfLoZUdi6dFatvMJZG7t+Izc6SImnvMi+mLqU0/k6yylGu9PhEj2bHA0/5To7PcRPcb3HH768/RwfvKVXdDvVrNa9DO9RvHue7T3poZI8QVyxPPxWGL2+0De90UoJvQIAOT1r1yo9N/jpPGNHl73fuza8VARmu5LOpLzpx8M7R+gzPLbEhLsCi6W6HY0SO/S637yxWgA9AbFIPawowTz5JDU8cOonPUkuaTx/BxY8/GLmvDbeGL06CxA9KxxbPOzzvDtDf0G8zPT/u2ghH7zzsgw9i4qZvOF08LwDxZG7YOdCPTC/WLy3AdO7AbqfPCOavjysslK8a2HrO0QShTu/TTO8lQsOPf0bmbt7DzK9yKiXvJmgIzvlvnQ8NeOcvDXgzjt3uYa74YEtPfyTWzzO3sI8g+MDvJVPTrw9iWQ8eNUmO94W3rp0xyy8chi6u5Y7IbwSdzW+BtdbO3YflTx3qGG9lJMgPXD/qzznf5i53VLfOhc+CT12yAW9X/KQPPwPkTzj4Jc6wfehvfCywr3iBmM8+9tSvCexpzvT0SC+snBSva6gKTsm4Mk8dNidvOkg6rvSyBM8glZcPPt+sjsJVi28jGCbuSrVPTtkw4w8dLAIO1ZyQDqOAmY8//M6vGH7ITxh8q+8DLPNvGrnCT3meq+7gMwYuSJ74Tq2MYo7",
                "JRM3u8LmQDvTavE7DIoHPHZxbrxS6Qa78r1cPei4OboCjaA6/8byO+t8mLjk7zU8LI5bPFaseTwX51g8VI2OuwCgiTz8IYy8e9WqPIMn8zs0bG29LDGeuzhinbtRLcK7u7jGPP0dWrzRw4m8CgFSvfAwmDt38Za7faWyO5ezGb3MJZ08hU6iPVobE7sQBJS896JQPDsLcL03lii+3d6WPfKNGT0/jti8+72dvJ44BLwR4mu82DSTvNJeVbomA5Q9GVWYPYB4D7vWoiQ9e4oqvAQu3TyWESO9KZKlvP/DTrpp0TG9O0atu/VBE7y4KW28NJvpuzPNnzxloBW7glTGPB/Xzbz86b68PdO5vOjqLL3Ssum8e8xuvPuZZjy7vTu8bFktvIC/h73dgtU9LZZOugcRkzsBvng9X3Rwu86htrvnfEC7Fx/FPPS1mLsNCii8pkn1PLEW5LvAsxC6vsDHPFmFLj2t0+E7/137PCo43jsjngQ88UYfOx4gMjs/Rja8r8DiOgc4KLx/hJY7x+OkPMeBFDg5ia65SyFvPAbTDLzSiQa7P/APPGMFFr2/Yiu+vLKLO0FSCTq6wQE/i39aO1LuKD4FRdK76Yi7upIey7oQeVk71eSCPLBkfryaTmO2/b7Ivr8C5j00duu616gtO/2mvzm5g3G9GgBOPjL1n7vXDqM6osokvh+pHzyiwRg7DQ1BPoQvPDxcmoQ7BROXutvqWboinpU7/PC2PGG3IjszxTi7BKYQO3AuUjuF75A9LnmpvAeZ/7pwveO7Fg5TOZh3+TrBYHG7o+2MOu0kAbnifZw6UzN7PAo/e7rB81Q6NfkpvJco6zrD9JO4XCpwvby9CLpG2585eQyIun9UpjwZHwA83YsdugtGSDsWWxw7vagFOs/7lrrdrNo8RNQXORRD2DoC0Qc7bF+0PIhPnDpLe8s60BbZPHfRmLq0nFq60r1ZOu/1CbwywqQ+drkCPEPg8zqXnFO+SWSWPciVDD4/9A67ucE2OyInpbsPWYk7",
                "SNQRPuVuQLvdsvm6p7rHuxJ3Qr2PLiU8qMWvu+PjcLtouS693Vq3vSlGlrm8lI07J6BBvQ4yxjq1PaE7d78XvGVNnrqwh2u7W0Z/u0AdpbpfQxK8JdK7vE+ttzvqQkU8WcOcu9iO6Log+YO8GIgcvqg0IbwOJH+7gyiPOgs0BbuyFGw79ffBOmCQgru+Uxc6QHmRPJ/n+bt3l/06EyyIvXRdAjvhCqU6Mk8svE6EHbruGNg6HlmUuuZpPzzwyyi6Bm0HPMK+GzuO7u26n5Xbuyccmjq/yju9w3swO6gdkDtinmO7E4U1Pa9eQDvnBvk5d7MOPSMIBrujTC87T3iQusVwEj1yIma+Rt0SOR0zArxaL6U9yCCGvawFf71s5di71QYlurDT+rsupfa7mMrXPF4rwTsPpKY7eycNvkGypr2C+vU7mthAvD0vgTvnKo89wnoRvHmjxDvTEP47NU8Lvp4P1LpPCkA7t4+TveFC0ru4kyQ8ZoENvCNMrzubDrk6PNqUPMREqjvh69A75ucAPNM+UDtkUdQ8dUqKuqF3NTuVOjW7TN5Ku+EHdLtkjfy5OjmAO6fTlLsuHQ47Pdc4Pbk0EjznLu86lkjFPKRq1jqDjxe7nuPXuxW1CjvUNRm8OG3GOpCvUjyMgOo6s2RBvIdeuroJ9+M7S9MUPAw54Lvsqdi9lheiOg0Bmju7UY47RMufPVUP8LprcJU7RqqvPGH5LrwhwgW8eJequgKRITyvqJO9U8B2OwwzH7xJfha+LfKnvsY4ND0JtZW6fgKWO1AcrzuzvsA6KXu8vVmm5DtHUMa5PSkNPunH6r0hT6c5/blZNzEXpTqrh448lqIcPjoForvrhKE6E6qbvC3dITrls4o7LFbivdA14bvOFZG7A6HKuiwPQTlXJgK7JNg3vP2/sjvnG786McSnO91eZbtr0wO9lHrzPOOD2btzVTW6tWJrO32xmTvu6ii7TJ9Su5yb9LruaHg5JkR9vEmLmLu9XH473MEOPFUk07tNhXe7",
                "WtQFPQT1izstl2s6I6Wju/y9LbwLHlK76CzFOujeozpU2Ji5p2B6umd9a7urGCo9LZYBOw7+ejsonBo6C+Kuu1W85zpTVUW7vco0vRs84rloPtC6Yy/lujagObpD2/y9E6bAPe5/ab4Yqx09gg1fvBA5zj1hs3g95UIqPbIuHzyuLvK9hj63vOTgcL5Dtji+kYCgPUJdHr61eiY9UGR6vLGKl7q7Np69FHO1PZ4U3DyG0ya86U3HvIRYJ735w9O8YpmFvRFPprvHvpw9s8ouvcMJsTuCRJS91qctvRXRPD2qdhq8x3fhu2ViRDxc2/+7hqwivNGs+zuGWws81akPO2YJELz4vo68Jn+HO8x0Sb3VQPM8bDRZvYEpyjtL7wO7D76RvMRsHz1r8fM7HoLqOzl8MLsg7dw7WeRCO5aovbwOcMO8w+b2O0YlI7pitw46QYTdO5HB9juPcU278S7OucVBNbormGg8CKLnvKeYmjxX+8k8kGStvGDcLbzELzA7SYWsOvaY5jz/Th2+b70HvttCnLrvGWa9sk3IvKjr2zxg4Mo913Movc2QeL0RcpE88+O2vA1WlLlCBls9VdkXPHVLT70IU129fdsXvXbwAr0nN8a8h+jUPKj4I702cUk9cxXYOwFFKDwhHik88vc7O3tty7wUiyo9PMPqPOtNZT1dPw09BYfnvDZtZrzSFpC8r2zTuujkErt70H87PbsivbkBG71TaXq7IDmIPKCNCLxbEzA9p3Opu7GbHjxRaa68o+CuvCSWxrx31Ue8xXXavAswOL2ex3Q98qFTvaY3RDzIPbu7jMlNO4LA+LxsTMy8F77JvBOYXb1WBII8jhRCvfv7GboBfdq77V0QvG9Upbpolvi7WgmKOwrHPL1bsJM8LYD9PED2+LvsBD28hVzTOvz5sLuyvsO+czNdvf104j1yu5y9+4yJPFP0KLxNZCm+lFEFvu3mDTvjxLY9/spuOgiuhbzE+3m8xCwkvS6VhTxsrns81CAOvNuVxbvPigc9",
                "G16Eu+9Hcj0TIgK91SkDvOFTj7xqUG68UtWMPTAVYTuCZ3S7mBD/uuNQlbpvQuI9+qhAPcLhir38MWw8JiofOy2xlbuM//48Jn/jPG+tXD2pVB89vzrnO4dpc7pkYBA7rTE8OykHQTpqiCG8RLPoPEAumTygtZq7sILduxignDsdJ7E7y6nsvOtzDztV4Ao7TmPiOlX1Hzw7KKs89x+hvIuKU7sxgYE7IHOavM/SjrxObdo8cRxHuf74kjrcvwK7ChtRPLg1iDv05wI8XFXyO5Jxv7yxl8o7RViEu6pkrLxEOry9cvHtvdrgOL56/Om8vRA4vsuYIL17sNo7AtgpvfR9Iz1jJjM9EPyivQMkBz8LrS6+AcYmPRqOUL6XPYG7msW9PIBQi7otPqy6t2civT1cvLxFpNW8inHWO5SSqTwQY0C8oC7GvNF6kbtLxnG7ST5hPcgg7r32bYI9D9FCvdgnJL1Up7E9Rst7vL/mODuSovo7WP9LvKxlMTopRaE8xk/Iu2bMYLxtd++7SLk/uuvjoTwiJTE8trhfvPgyaruDOJ48fbsuvL0qCbxehyO9PJIZOt3PGbvY3jM8jHxIu4haqLtkl5s80/GBPFbfnDzSt5Q8FhyxO4IKmLyuK0S7pQj3uv+e2jsqleo7hHTjOwM9yTu6uQa8DH99ul25vruDosi7TwBsur/ARTzGA489"
            ]
        },
        {
            "shape": [
                140,
                141
            ],
            "weights": [
                "HxiPO8YCRD06LCC8T8rwO7CxALz9SdE8nuYfunaYajqOEGC8bzaRvGBCOb3sQgK9QNREvNF/jDxyKdE8t2UFvMtwAbz9m368PVXuupY20Tss4I29Ak+7u+LCAz23G2w8Gy0+u0LlozyPugk8uPaNPL3N5TxeGQi908mYPJCDZzyfjS49Sh8ovQOkODyA26e7WxORuyJiFb3QFKm9iIyIvG2ojrzKkL48ee7AuzOmLLuPnwC9/aQevJBHpjsmEp47Xb1SvV2GODwntCm8TSIAPYSlXjvcYVs833kRvBHiJLu9VJs73C1QvVvVVz29I1k6p0nUugkCE7wJiT27gdnUu3xNgzpx5d28niDJuzMDDL0UFAI90ZJsvFkOMDxYnsg7v1yNO8lTDTyranK8nnWsvI0fGz2Ckai8CDrHvPU1TTzgvcw8d+6GuargYzzc3AC9HQQqPTBvgD3o+h09BcDdPGZWaDuvFU+8Z85jPPKaBrtlnwY9r6ICvS1QnTvaARm8W7wrvQYEID0rGX28t/pwvbAMG73DCz28XO8QvQm5CL2eZDE8qCxBvCC82j0Tghg9LganONTDiT3gDUO9lOjvOzN3ubuooJm8+XUfu0wuLbwPoaw8H/REvFpBiLzfBRi8f/9SOxeWjjyq31k8CKQpvaYuaTy0RU68nwk/vN2Cujw4tdI8Dd/pukVY6jpl54i8DT7du+M2YrwYeA89/fVQPFxUHT2+8Qc9P8SVPNzg4Du8gSe9voBsPKpJQTwGox29PlmXO8X9KryhY6A962EsO8vZPDyYWnG8gnU8vKf0JbwMc+Y7qPN4vLNt3zxUggC828RKPAXqFbzAgKi7G7+AvHjVKr2MigS9yacCveFgBD3k8uo7IylWvVADqLxcjO88d68uvT/iJL1nboK82X+aO/RA7rywtAA7kLhbvNSnoDwvdIa84pbXPDjwVb1QcZ685lFmvDd4rzx0SDU8L4uOvO/pFrsp//q8mzQ2vQCk17tAarQ8Z+QavTWNnLwB1qS6",
                "P57KvHujgr3oC+A8qAIsuzXl5zo0zlI7wNxrvGa/6TvjDpy665WzO7Lvt7vWdqa8rMQYvAl7nTyLLRw8Ox9Pu8Wn3Dy4inY8gW0mvS6crrx5Os88nFcLO9d3ojyyd5+7LupbvBMjgrzZ0KC7mhFmPIK+gzwpXfa8SjefOvuW47sxP249Q2M5u/nyFrycJX49KmaEu++ftTuKtXG9/gINPTcK/LyPbr+84xcDO5Am6TvwcTY8ol/TPNpV2rwNIIG7622Qu8TKDT09ge26E2BavO8xszxaXV+9Ioo+PgvTgjwS+oG8xXBSvMM7zjuEeoG77B/tvPhjPDxhabI7m5P5O0f+MbwPgu26ax74u+g0T7o39Jk8SEx6PJUQBr1Fgm681gsBvFxDUjxxKdO8YAOZPLVNzbxTLQm9yjbpvPCEDLyeQhI9tJGguvi4wrxCgSa8zWLzOz/Wozz70pW8aSXHOrasBLlKH0+9QnwHuRdtJbw/Pzc9y84aPVlQdzoYJyy9ZAstPIdxNDr2qUG9hv7KuxxurrxDYvg83NAvO5SyLz1zxwy8rzGkvL4H+rscrpe8+tQNvIfniDzt/G88BDF2PB3ByTsywvw9HzPVvEp5kLweoXa8y8Q3Oz5w6rx9lCs8YpBgvHBAFL085Q+93Iv+vPJjHL2F75W8E3iPu6wS/ztEuro8+citu6VJwjvhCGC7ZdzYu5xIRbs0k4i9Y83lPP28Yzt5hjM9EeE1PKTb0bymBqG8Dcu5PIK7nLy07qk8y+6mPDfZgbxKlka8xHSLPIs4yDpALHO7HAvhPIa8Abz2tIa88fHRuznPyrtGkJa8vxuOPOo6cjzH4aA8Lobou3+CL7s7otc6Pg15PKvlVrzHW5W9Of83vUEKNjwiN0i85GxwvL6X7jszo1u8VeCvvGGmxju/3+u7E5IXPCMKVbwVLR48exRDuxYQszw2jPu670WaOlLou7xVFy88yICuvJkm0rzZMM88+48aPLWkh7xlhNo8IEmDPIGiXLx4J0q8",
                "sG8IvCdLirwcMVq7cKFyO97GCDyImsC7EUyHPNz8njzkiMc7sEbGOxy3eb2+AQI7qgK1vN/C0TzNEL08BgHGOsMgaLyr9Bg8sE27vPQEAjyjGEA8W20mPMbWdDynNo+8Ln0UPRi7qLt42PQ89d4lPHj5Vjxm9gC8hFeCu6VHjjyF6/m86IYMvF+JNb1BXkW8dS/7vHI/CTx3J4q9EVubO75dm7zPY6+8uwC1PG/FL7tbmC06CkWuvOGnsLrSqOK8oX6/POeNAz0UZsU6ZDZtPNejiDxao5u8Bx5rOh7St7w/cho8zE68vOQTzLo7EcM8ouK5OONRmTwHqBU8IE7Xu9/OhzyRXLa8ZsCKugliBjsbC0s89qgovVpSxDv9s707rq37OsgGJ7r10807HMKuvFUEeLzhxty7xE60PAiUG736+Qu9qfwYPEEPhjsbFeq6WHaDuqs7c7xBM9K8q0GEO/xx1DwtAJ872MZEPGLNSDxD6Hy8UMgBvAAvuTt8KeC8WIa0On3tcDzDDFA8+yKGvIZBET2Xnb87AGKLu7RqW7wWQR+9THV0PRkxFjsPbMi8i7kPvKKwFbyUl3W7nXvJvM5cA72Ezma7vMuHvMREPLyXrgE8EFYNvEslsbvU9Ms723JFPD+IDb2KjVW8CiAqvWYi8jylOK28VQ/WPaSgPLvw3pW8QPWeN80cm7zAHau8gGXyObxTe70mlzS8Xv2jPH/qoDySDCu8KBi6OWEEG7uAXbc8B+BoPMpIg70i65G8isacur2kgDx9HTk7mU3iOl6W5rwrZRq85A4IPIEivju+kr88WIw1u0UabLzCvaC9le2YvMpJzjzJ0uS7yOLAvJEx4rxgWSk8BEWfvRLDZrzmE1O7XLN6PPI74bz9ajA+NQhBPGpc6rwtT1a9Ptwlu26F6rza5BU7aPNvPakT0Lz95y68VRErO5WPqTx9HbU8DIsgu5OEBj36R/+8ZHlRvbSwx7vApx499bKQPLZLDjwKh1G8ooBTu/2BNb3sKoM7",
                "YdpRvORlQLzQ8Oe8jR3APEZXhrz0Egg8/4M+PPhGNb1+8xM82FQQPecZlLwx23o8Rpqbux0vJT1nejM6qCqru7ncEj0AsLA8VaiMPEuzqjvSGdq8m++tPFWSyzywu5a8NXJAu0UoSDxB5dw62rIvvHW6Ar2yIam8rI/fO9WLLLzRobS7Fh1FPW56KLqBUmA8NaWqvFw1pbvb/OI8bYYnvYryGzz8rEc9MkijPDFtEL2buFE9r+2lvKXQg7mT8oW8bJZbvAfrz7t1Kyg7Th/KPFNxPj2mpoY8LqoKPDyagrxMp6s8625svUG0ursvlwQ9Rxv+PCA0zDs2pgK9FXtvvAMazbxWfrY8xdchu/EiYjuITDI5cMkAvFEPRLwsZEc9uTdzu/6egLwDIRi9Xg3JPKQmz7uhrYO8Qt04vXLlWbxl5B49DUyJvCEF/jvfPTc82Xs6PMJHmTzgIa+90mHaPDNaGL05EZc88IRtPKDJQTwxzHw8UKefOoYxobuLj/K8i6wqPZZ1H7xgNXu8WuPTvNt287y47807by/9Ox0fu7wEkT66jkJSvdJwfLwAUpy8D9aOPQebgzs4GVG8xrIRPEcLlrwGlCm9tDJ4O1g82Lwk+Ms7Ys0rvAFQkjvOKho9q9IMvTaMqzwWYK+8qdKFPKRFLb25yhu9/YE0vXLIP7vxKty8pUEAPZGubb2suAy7Mu/nPFwP/ztR5mW86XL4O3gG1TyVHME8fM5cvFoXOL3WJAc8UwwfvecTuDyaeLK8eT3fvMOuILw+q+M8Sos4vGwtjjxS+AS9BhjbvM6QAT2TA5C6q4WLvLCJtLxv9Du8T9UBOx/YPjxQndO8v6bHvHuskDturxG9LkVAvJUbf7uHicw8KKRavRVDWDwjZyA8fqaMO8moP7suqVS9Or0wPfCDXrwluWO8RuWJvB2iDrydp7y9X6VDPb83b72pgL27BkMXu25rJjylyMM8otAQu748YbrwpOY8HdBLu0W6XTxx8Lk8afgQvZsZ87nnQzA8",
                "y05LvD0KDTwwDAq8BdR1vDNukLxVygi8AvcuvJ0xIj3HLJK81MyBvHQzhTzJ9P283jwovTY1gTyh0kQ8WEmkOybTOr2uKCI8ptEAPRoIYL1GR4S8aH6RPSqTu7xsf4M8zOcIvfPdHL0wBAS9f6gwPD5rm7oXIVe7YHEpvHRTuzwC59W7nsCwPC1UxbyrLD09bSBXvSwihbuqD6e8wMREvDgkNb33cx68kguXvOfEg7wzMpQ8XSR9uwT+a7wful67pVR8vEv5njwjbd68jDIrvTb0rTyrmtI9Qk+VvQvnPryWRSY8TtTqO3L/xbyQobU80SK1vUL8VDya6oG8US4avFzFtTyjWDY6CHqwvNxJ5rxim568oeXXvMXE9LynB5g9UEcZvRD3tTqYpUm8Sh07ubpT9zxIeg4+DLz6O7FMpjmfFak8II+vPI+kFLxdzUG9RQN6O9+OMjwwByC9gxnrPDOAOD3u/RA8mzf4OyyXGD1gQlW7JjdivMGRVjunFMy8sdQZPEoKgLxUqz086oKqPB5v3DywQse7m91xvN7DgTzCnuM6iqN7OaacITxo78U8hj9VvEfRlbyArPw7r14QPYiD9Tz0R6Y86ELqvNV9hbou4IY7SGqxOudp+rr4IhQ8hMdKOs7Vpr3pGDG9c19GO/2FPT02tJq7HiKyuznq07wMJiY9/+UvvHm/s7zVDxI8005wPbQPzLz4cXI8FbKQOiVBpLswALg8txjAvCVSLD36NbS7WlCUvSJQF72dKZ+8xiJwO1sYAb0e5JS76OwuPeuj2jxty4A8KJeMPLa1br0Dbpo78hjHPPlkSDz5QQa805CTPDMsyLtbwpa8DYN2PTk8drxpIZg8lvoyvCANJLtRWlm87ZKLPJSQJbrwjcI5B6nSvMfYDD2I1FU7PaiivCZ0sDvVrQK8ibYRvdcECL2sl9E8riyPPEgd57smYlQ7jCzqO1HvrLzJXas8r30dvUTEUTz9saO70Y6vPDuOHrpAZE288+02vErdND304TM9",
                "iQXYPLbbtbyyh+I8n5WhvLqBwLmxhyo8/7zUOlKUATxa6Fi7MRTwOg8eB7yXMFi9AhEVvf/GgDx+Zvw7etrmPKpRDjz8yhg6/w/FvFTqODt6Y5I87wFBu5345zy1x0g8D81quvdV3btLCpS9cZpnvNA7AzyWutG8Tf87veMdnbwVch69WZltva5sCr0TYSM8QQj6vLF2UjxBhrG8PnCfOrm39Lva/0i8MVoAvFtTj7zd/NO7u9w7PTL1+TtxFpA6OeHEPI8Uo7tgjJ68Fme9PMh/vDu1xNY8Rav5vJPhKLwTFgs9hICLO8SZ4bwEigu8tXKwvGKddb2YUoe8uonxvIoILzvcDsw8ghRgO5tuAb0tLjS8JP7WvHXkEL2f0ce7FUsgPO5F3LqnSzo9dYXeu0Rpoj0ZPEa9C20lO4Z2Qr26fAc9KvptOwH1ADw2v7W8HJ0/vWMd+zl+XKG9xkE0vGxUWTze4QG8uP/evN2bczyWoz88JZUIPKZsTry05Pe7xuL0ujoAPL2Ne7O7qJ9hOzPWEj15Bam7O2oIvKgi1rywpTK94nobvUtSSLyxbhK85lizvUB5Wr11Tdq7U99Lu/7ZOjsGCLu8pN78PQP65LvKZuw7+eP+O+LZMT1FqI08Et33u2UOaL3F4ZU8Xle2vE96ErzTwUS8hIQ3PEqrtzxUpIQ7mdDMvCj/ObwhBVy85Gg7vD8NDL2Beju88HYOvIeKF7yUE3u8gf7fO5THNL005A08gayPu5/bDLzkV3c99kGPPenZ/LpA4ug8iViGvCXEI73LM6y8Ac1evUvWF73ulk88TmMBvSj/Cb28zzy9c7hfvENXADz5OE078cY9vRoLSDxuo+q8UHWePYfebDxvnwY8B0n8vDt1qb0MpUE95dKWuyZhSrwkwy08+19NvPSRujqShtm81DoiPDqpO7xugug8bcxXvG1Si7x0D046WQl3vCqjTLxG4WA8/RgQvNctC7tCvMQ9v1JUO1xESjw3kKA8Jj0JPAxGCTywqVW9",
                "fCvdu2SCALzj50s8PARmvSOSjryuhiS84yOTPDr4obxwpG88SbgovXC4MLyrI5C8JkqOPHmc3bxCq4y84EwLOrW147z+tva7eUclPCek27z6HYm8GpAePC736rr1UsW7B/efPFVUtLvXjt+86tJQvPI+hLs/Pek8qsEtvM1HybzTw0o6tzDTvNsHPT08nC48ZzdgPDCDrbz6scc7vuSMvDuyy7okHbE7vcObPF+NmzuMdbC6rKOHO9KC7DuQfmI8nvQpPdAS4jytApC8ZRErvGp0VraJXqw8xG8EveEtlTuNn6083WUSvHcuAryuXlS76X8FPd5a+zwO2iu9PBpCvYxdKb2rxlS8HsZFPKGyhj2n1/O8M8kCve7T+TtOqNk7proFPLoTkDwL9gW68k45u5xno7zvLnK8+u6TPA6kojvdnJC7v8Jdu7s+Fz4gzJK74UkOvSsiiT1gWke8ztUPvJQ5dr2jylK8tXSCO+tSJTw+sCO8EFVmvBH24bvmajU57rEPuSxRizxiR3Y8lRCQPLFMAb1kr948hTKmvdASBb0OKoQ8sjiuvL4DWjx7HLI7LzcNvSQjXTwERB89a3CjvB2MhDzL90i71/zpPDIbLz03xi+9LKmVvIHhtjwXKCQ9BGreuzW/C70RYWe8NksCPS2a9DzQkFm8cP+3vMSmAL2RpqI8cjgQPUJnkroooL87VFEPvSnfZjzYMTY8eKScvHnYTz2ZdqG8XkVePBrkWTw/zz881tgIva4ZFzwQMqW8KteJPLtihDyOMAe6j/uCPdstMTwoYMC8BNvxO8NH2DvsZ7k80hYJvA2ddzzY2Sw9gPkiPcAjmzt0XZI8Z3MVuU7C9TocEZ08C9JXPNR4qjwgnEg9TzpxuzyPqj0jERw8YzosvSGFSj0tBEg9BWSEPCSmhbxJrsM7c9evPBDqcryfahE8b4qwvA/HJrz5ASe7Hly5PMM8mzycHTy8UFEuvEcUGr1Yusg87XKvvNclBr2cmKA8PNO/O2eeyzzHU3S8",
                "eAXePJUQrbomrck84CjSPGi94rwsuE68x+udO/EOET2XYIM7K8aWPHoq2LvbrEA7ojeEPKZHnjzu9ki8Lv9UPL95SLpNxiw8GBmHPG0UEr0zLEk8LWw6PGtiFzyqpYi70I/fvGYSUjuP63M7VwcvvayisT0EY7e8U+eSvMKql7xykKu8YfsQvB/oCDyMrOy8skUpvWxTvTxUYci8O6OuPPhCjrxvMZs9TSvMvAgD/jph2T48lg8Nvei6RDy1Pha7Wb2bPY0UWLq4r+26zBYfPK6nN7sHNZk+2Pe1vMaSCTwZ3T08nrOdPt0QA7z7KRO5u3UKvbr5bTsLwng5anKCvBG6DjxlYxe/yw+KvM+QeLwzilo82HCWvDSxNL2JwI89+6BPPc7eHj0kbYA6l/BovNfNRjyUL4E9NofBPIgOpLySGmu7dDCXOzPvnDzcQnq9+USLvTL1nLx1K6O8gyHHPG0wiTv2Whu8wAbpPOlmA7yt2gE8Bn4OPqIuCL0KnO88SXVevKiavjxY3Js8GDunOucoMj210928Gg6GPRNUE7tGAou8dKEMPYJ9Rrwp++88v2BMvPra9jxp3aE9d34TPGkA/TvjK2a859tmvKiwxr1cdUE97hjHPPP3Az1TpwC9gDIDuqZj4DwELcw8ZQzCu4vajLzrOIu95XXCPG+S7bwZMj28qak1PWBQJLz72o4+teUrvbthLD3rAFu6K+fPPBPpuzspr9O7mb2yPBoEmTzqr508dCfKuzOtBb2904M9ctDHPC1KS72Za2O6K7kfvZWe7DzbUC68GCqUPKYXXz2bPqw8u8eXvT+vVTwbOQ+9SOaFutrm+zy/XK48VZJiPQqyo7w88xS8HMgLPXoGtT15uhu80StwvBTAlbvbLES8qgj3PJD+c73wGIW8Su6tPGtD3rx6st272qnNOmwsYr3tizG7T78IPBARsDxQlpi8dKylvLx3xbvTJPm8quSHPIL67TzAui28pSPpvIM/iDz4S3o78A0uPuvrHLyydm28",
                "cNjoPJbO57lnS7Q7n9hWOrRrzjpSTdM8uFM2vRIhG72EfXQ86PwlPULkxLz/zcq80GSUO0N7XL3pXS2/nYMcvHWIorwpVxW8R1SVPSn0hrsu3DU9kt8GO7BvUbyzhoG84NbpvOCU4LyjRTc8MBuXuyC5DTwteKy84Bcsuy9mPruRuuY7WpohO58tAL0ALaS8+RZEvDStyLwUlzc64yEnPQQyfjwKn0W8UZUovNmJmLtqV+S743CTvG5BPTte/6O8tcG6PZDC/rzH8c+6yd5bu9ExrTtzONU8HRywO35kwTxJBi48nRz5O7IRU7yVyfi78qjoPDPEZLyQ20Q8BJrUvEkdrbwrj0G8OMjfOt5YCb2PiR48eg/dO3rLQDyXlcC8r2rIO/ZbC7v4Ze28whOHvIqSxLxxzig9edEMvZ7emDx5gSK9qkJwOpJJZjqUuC09by9bPIOwNjw0ihW9FLwgu+B5ZTznnTm718nwuovU1Lz5guk8kKtOvYgx7zwaiYK7cN8fPTiADD3UUIe8olk8PISDPD3t4hY7VxFhvDmliLwLGDA6bS2NuYo7pzyGWgc9VsVLPeT04TxlIne9oAdIvMeU3jvffZm7NDUPPIAz3LysCME8XgbFPJyhKDvqWk+8bIwGvGayyLy3yeM7PRsHvfKdBTz5JTI71UApPXTNTrzc9IE8S88rvSCmQzwDDi08WMYLu3ci2rohX0M8p4lQOxSkubyVeqo8cqJ9O4KBDDvPXhw8YD7xu3nvRbvDvlo8c6StvBBDYLx1wXm7gvjgPCC0jjvAJLg8vM3XPNBKjDvdS9O7jaokO1Trxjz5xru9PacRvROlUbyF0/y7ruODPNAyXjwC+m89uct/PPwkCjzFh5277mj2PBpH/Dyl22u79evDPJ3TkLzzMXY9hTpWPeyESDxmrGW8HytxOtVHI72a86K8IpoEPJmWUjwBQ4+8aINcvOcS4LxD1ss8/q46PKdVnbzvZQK9rbvauxi6Orvi1ea8v612PFp9TbuF/pe6",
                "Yce3OylklbwmgFm89U87PeCMZr1Fq/88QJD+u6vKzDtqpGg77XCqPOgJKz2EZ6I8iM8mPSqQurxQAiy8wBgivMxLXb1ORoO8PVtXuwkijbsVKgc8z4HJPNrTMrx25hI8m3awvLPP17xLlR+9wOfaO3gTHb2h2N285uZ5vJzf7rsCwag9AERHu9eTwzttWdk8VCOKPF+9T7qoRgy85r8rPOqa2ToiZ2I8NS+LPPH8Tr3wP8o9axWGPPAJw7s+Mvu8TksHPNkFlDsYYhO9XJe4PEyRvDwM9om5O2qvu+FG97ukJgs8LrUbvWEB2jwW8L+8+Ftuu6iGsDxdNxq9SoNlvAc+B7sL9rG8eFj0PFWVMz2c9HE8B/PYPAZrYzze9wg+l2COPUgpgTz+oRk7grAzujXLXTqYq5Y8fhdWPGtswbvyjzI8ZTjFPPXirrx8y9+7fSxqve6nI72JSBs9k/rkvLXpfzwYhZ28x0NNPLYdtLwAhA+9pV9oPahabjww8hc9Q8PoPGhGs7uWHze8KHDLvKHLNLymMg29npB4vWyOUzv1H1i+8xCZuwPpPzynAyK7mv1wvDYIZjzHbze83nGAPDhhlrxficW77z1Hu092lTwX33076MEbPJy8sLx6X2i8GhENPRYXCTwqgGq8Lke0vB+Se7wGSeO7Ig3VOzBh97lec568o7mwOwAMhjswZH67TlYtvJSTUT0lp7E841qUu+Oti7xnXQK9qKT+PLrMbLzzInM8QOgPvWYBobxZKS48cr1CPA2YMrx5xtC6NumMvCo/hLzSZEA8YzUiPXqfZjyAtZi8eiJsO3S/wrt2oNo8i07FPMQxLL0fTOm83SKGvEegRj5OxCo9+wIrO0/+3bzYuT88M7QuPUmpOTxKAOk78fTWO4JT57tMMsc7zostu6gnAj2jttO8LI2nO3oUM72oyHU8fi0BvVBnj7uDtBO8jncrvF73lb1Om0y7KoTmunv/ajzbO6a9jqOGPAW9O7yLzSc8VzPoOfVbhjnzGko8",
                "icJmu3GDCDlBX+O8Qor7upzxDDptx8w7/AbLvFZMBT3l4YM8d/B8vPQa+Lv2qhY8kbqMPPaSkLzwxby69ovHPCVq/Dw7L1c8FAdnuz3Ayzz6EiW9JEACvXaqLD32z648YDOquUsiprsuYyA6ZS8rO19mlzy8JNU88++3vMFrH71dI+g7FJ/gu3Ksprw9Z7o8J8YRu37mEbs3SSu6ZSULO/aUvTz+TR28KlymvOr+rjsDeji9aRaDvAziB72p19g4uAwsu8oFPbuIV9y61FavOyxPAjwAmq+9msDru3A0jDsH8YK9m0uFPEl5hD3Iz6+7cTC7PJwVzjx+Qjw88E61O1WCpDypntq7F/sPvJMWrrzxNAi9qrEUvUgZIbw/nYs8X2bGO8If0Tx7GGK9bOGTO18N1rqAesQ8wR2KPEhkpDuuj7A8INsZPHqCwLzXMN27ESKhvVBOEr2hyQW9mPSpPOWlO71/7tI7avB+vAy0vDxF0848cbmXuzF0Hby70+K8UEXPOnyvjD3ZcXO65vAYvEWfVrvo77c9dAcLPNlC0bpfvAq9M+CcvMVevLzqLCA9AGsWPeVX7DugWgE74j0KvUCpAz0SIvu7FMsHOyOIS71yc3E9gSRCPY76BT29cmq9oxxUvZZAgry4JRO8/a9jO+BmEL1eQd87PgjsvFHGkLyC/ru5PYxSvbNiprzFY+u80teVvBglVr2e2VE8CuK7O5+iZTyPxD+9wnEZvZatczx4MQE89Y8IPVq8tz3rXki9cJcWO1OlGT2gcha9eBMHPNm1lz2Z7t48B6tFPEpqgzxFEws97EZPvaINgjyrGrM872C9vG+xiLwXOoQ8bybEufST2DsYmQ67OTjLurn6Zjye6CQ+7VofvGL/Czy7gMQ85rh7vLhlIDx5Xx69pKrqPKq3/TwqJLI8topCPZuVIL2KeKw9hvIBPEm2U7z4pK07Yxu4uzW9cLun4HA8P/qMvChie7ymiYm9hOE2vRwXnzyUUcK8wD7cvGpEPDzVTfG8",
                "s3NIusBULDzsnq+9zkZwOzQKVz05agc9T9/lPEZciDtwcJ27ec4+PXIeXj14A7e4t2aTO4ZhDz0yrTY9N8dkPGi1pTyPT1Y8pLnnPFUuFbvG7iw9yRhHu1zsfLxs5TO8aY3iO8Muqj0Dyr883QwKPfZr2bzZhxE7OCVlPCy61DuiPFQ6IoRjPE3Q6rw5ttM7EyiMPFTq07ja+Uo99cmCPCfwiTzt1aG71NqrPcyPVDvzv4O9+ntKPYutrjxnHOk7PawTvGr4Q7zkp4G8bXqNPHZXlbyxq/c5XD2hPErcjjxo86G7ymy3vPfUJT3zdCk8tjyYPFqIBjyHH4s9kYmDPERU1Dwgfj68omjSPKqMSbx/Im08XuHovL/omzwci9A8g3tsPOYisjvchcU8GAsBuw+cvjz1XgU9Rjz9PH+L5Dv32Vs9yulkPVzQG725/Zw7fKnGPU1KOr06ufk6gMkXvOSb5juYY6g8j+aFvG/QAbxeLki8mCnSvEgN8btPNJM8XUppO+37EDqrZOO8kXySPSrTHz3vTB076jPYO2pztDxuffe7Nc17PFPZwTxTw6S8QoiSupv7rTxRlYM8Be65PCvWNLxHGRM9OP4sPClXpz2VI6I8DAC+PFusHjs8RyG8//m6vOYLsDojZwY9vRPuPNgGEDx7RAg8W9fEPHEavDw6G5I7skSGPX6SmTwaiQO9VH/kO0Bo8zx2x1s84m7ePEo7ZT3tZnW8vPbGvWvh9zwdJfK8BhoHPSMzrj1l8cW+NDe6j7cJu48Q3LoP97K6j1Ehuo/eDbuPBCm7j/l9uo9wOroPItS6D714uo+7LLuPro+6D/UJuw/HsbqPFwK7j5nuuo/Rr7oPhF66DyhKuw/nKbqPw1K6D9oOu48YULuPuuG6D0n6ug+FHLuPX8e6j/02uw/4VrqPs8+6j0qeug9SfLqPDdm6jzlOuw8ePbsPyki6jzO+uo8MxLoPz5a6D7rNug/zH7uPO3m6j3KJug+EC7uPUzS7D3V8ug9dFrsP",
                "DOe6D2HPuo89v7qPdui6jzhzuo+J0rqP8HS6j0PRug93zrqPBEm7j9omu4/NMbqPLPe6D2jLuo/XZ7oP0526j+tWug+yGLuPfDq6Dyh5ug9QVbqPnri6j/otu48EwLoPYUy7j6Wwug+uArsPNVa6D/KMug9uarqPAAG7j9s/uw9zmboPbAO7j+9pug9glLoPW1y6DzMEu48pF7uPt9O6j1ZDuw/qLroPDjG6D8Thug+QU7qP0Sa6D8tyug+nwrqPTjG6j6Qxu4/mDbuPgUS7jxjgug+5O7uPAkG6D6DXug+EMLsPXVK6j/UPu4/Xl7oPU1C6D+lzuo9r0rqPsO66j8I1ug9YcbqPoz66j6Vauo8og7qP/dW6j9tqug+ZNbuPgfi6D8Z4uo9j6LqPtFi6j5Onug8RM7qPXd66j9Uxuo9fSLqP5Dy7jx0wuw+aM7qPiJu6j9Ucuw8QeLqPVi66DwJ9ug9iKbuPyCW7j9bluo/FeLO+dpG6j1Hbuo9RH7uPig27jx9lug+tZbqPm/W6j61Muo9ZVLuP2r66j8xKu48+yLoPKHC6DxxLuw9onroPGkS7j8mfug/SmrqPydy6D6Boug/UrroP13S6j71Gu497SLsP1/q6D2fPug8b6bqPZ4e6DziKuo9uLroP1Uy6DzEpug+gFbuPO5K6j4Bsuo+3+7qPd6K6j6tyuo8327oP70O6Dz+Tug9qmrqPJu+6j7sVuw9a0rqPW+W6D002ug+bDbuPRre6D94iuo/V4roPkou6j208uo+UUbqPcqe6jxl3ug8AM7sPrKC6j0VCuo+AN7qPgl26DyfLuo/F8boPmYu6j9KCuo/Nt7qPKXy6D1B/uo+/TrqPUyu7j5QHuw94vLoPWkG7j6GGug/+xboPDLi6D3oPu4/NV7oPmlK7D0azuo/lDrsPHUW6D3DBug/1UbuPhbO6j0dKuw8Qg7oPLQ27D9mmug8ambqPTTS6D8Alu49BK7uPh0i7D++juo+syboP1m26D59Quw+D/7oP",
                "+X+6j7BFug91XroPvZW6D0pHug8oQ7uPluy6j0Z3uo960LoPhp+6D9++ug8kjLqPMOO6D+aauo98l7oPwZe6j6Miu4/dD7uPMUq7j9SWug+wLLqPuou6D1I4u48oULoPUTW6jyEwuw84WLoPxcy6j3h9ug95OLqPKcy6D7qZug8ZBrsPkim6j5U8uw8pO7uP5ES7D7QRu491y7qPmKe6j4z3uo/IwJS+vnKvPFgtaj2yMFk8nbagPPdOkTvm3mM8HG/TvJYyebz7nt45txEDOkTluDw4F9U87G/EPDIlFLwoeF28cLjBOZVIoDz5q7084Yn2PAIC1Lwq64m7b6cjPLPMeDwaay476xFgvNWY6TuV6R09ZIEwO1hU2jy6/rc6itl5PTXVxDwdpqA6Ul30PCHO2zwsqpe6tKcUPG6S4buNnLC8Mf4kvSN6kztlehg9taMavXRd7TsYugW96ipZPK1+hTwHLIO9rPkBvQ/hdj0d58A8YX9APSCfTDyUM5i8z46HPMpl7buIHpY8iDxLPGJV0rsUKlQ6tpUTPHm+3btMfIg7Tm1zvKf2Dj3Xjpo9AFC5upj4lDwhcTc9YwkJu55mOTxVFDy8NUHCPMR5vTz4rcw7dhrcPLb4mbx4mmA8Kh+/PJs1X7y/IQk8p4s5vEcYwby1ccS8SHUbvLijg7xLmLg8WgUuvRDVXzxlKxA9JSBNO6VR5bx4YjA89M+lO0BKQz2mRQY8AVilu+qcnDyx3qG88yojvIpqX7yN/wk9FItpvH69OL1F/Ti7vZwrPNqnXrhUwbW8yQWVu70OAD0oBdS4JwuQPEp0LjzfarA8sXoYPai1Sby05Em9/At4vA+SiLxGI6I8lSfGPDewgrxM1lO9f6nmOQ/bHj3qoSC8xogqvI34RTyb1aa8lG54u2MCsTyPnTk98+fjvWb1cLyEtPg9FNSZu97WVzpuZEM9+wOzO8MVRby3AoS8Vpa9O8H0VjuH7XW8CWWoPIAvazuMQik8T5AgPLb83Dx7yju8",
                "kGpwOwYjgT1s9um6lY2+vGOtMb2ZZqm7SbDRvNqLGzs+6Te8+NiEvZqTBz0Ew2a8gP40PNVKcrsEHbY8P44yvMJtwTyRY/W87hHrPKuSq7xrFXO8QZCFu9pWgL06Hj48JqL0u7kl27z/5uw85x8VvSwrEj1kWPU8fkDGO+qhELwfIVy7qSSbvON/yzxnyNY7JHtFO2XPvro08Mc8gYK7vBUwzDtKSTm9PQArPaHegDzNOrw8EEKDOufWjjt5RnK9PkDoO/GzAb3BWBO8C40oPPkPmr2ETzo9g2YIPZgtMr1u8r68yTqxPfQkgjz57uq82j2fOoGOrjx6MzC7DjuxvMiHzjzSocy7lxYKPbUhN7yX/Eu7koGKu6ekFT0gmRe8/4oGvId4bjx0hBG8gGquPAaGgzxr8xG838QBO4BnjD3amVG7RDsXPP3bTLwmLBk9KIqEPIJyFD1Eg489W+3Yu2jy0byrMIK8spFZvAyuRTthJj09IXhmPG08oT2SD5o8YMZGPP5sNj0aCee83QXcO6kR/7vI0H43w6iauwTdtTuvknM9Put5PRgZ1Lu+JUm9tX1WveFIVL2lAhc95YylPFC+f7tcDwC7na0uvdKFPrwPB128LwPhPOkW2TyvhjU8C2smPCqXW73sfoA8fKyxPZnfezzln4s8C6qWPfhMwzz52mQ9J5yXvCgFlrzutRC+FfgrPSJVGzyRtQC97IEsvbdoJTwYIWG8VIGru0B1Jr2nYg68J5WXOxk7cz2UXKa9glpHPGqAn7yr78S8PZiGvNUP8bxUxA29qe4GvaV7NTyK1Q29o4yzOwtHzTwtCKK9hW4EPAm6KTyKJdI8QN8zuxM5Ab3ifMm8AzCfPJbJ/buRSRM94c+OvNY7Tb1++ic9JDPOvN+G87xDPDw86dxDPS3gILzeN4g93ThlO9W1HDu21X86nJ8vO3XmMjwfTea8c3iRu/uk87yrky+97y8BPXo7YLwJ1Ym9/z1sOwj8nTpnRE67ro0TPRPm6DwV8n89",
                "1wSPPH9FVbw/W6Y8DGWVO125CDzRLws+HpAAvafbB73WnLk78LpmvM6PDz22rAC8vxhgvCKQtTt4Xes8wDzovCuX2zsWeJq9JkuCPli6/jsIBkA9sARoPXPa+jssb4i9SmfGPGOGzDxsxUw8ZUysPIV6TL0D0ec6nj09vBcqVDtqzoE6LlYbvYOHO7zDo/S7MoWkvZMEeDxtZcY8CSw8vG3oJD0duPO7pigYvKx40bsIu5Q7Bxa7vEaUfDz65M68Raw+PejVLL375rC8LMEIPYfrqz3mlJW8dxGTvCYlUbsjTd48aBFaPMfKq7sCFgM9So09vU4hVDynfJm73Y+hPZAU+zr4FaK79cR5vCvXCjzC3f48HwA8u3G7bT0phPO8QTuEvWQWo7wuI027V3BNPFHADD1wYZQ9az0iPfNZBr4EW0K/39Aqvb6vRzzjEEG9WY61PJln2rsLcKO88TdLvTE7dLzY3gM9WdGCPJ26zTvhGNO7UOcevPd9jLwHGb+8fs1iPF86lzxFsas6RsySPLYoD72Uyx07oR8DOt1p/jzR7MW6bVhzPA7WMbzCCmE9r1a1vBX3xLxIqnA8XZWavDlsyzzySw+8/XAcukLRPzxjKbe8Yvweu6PQCL3F0ZO8H/YgPPVi37wx1I094UACOzxQJLxqRck6UlwkvEKhGDxf5Eq9UM1bvB0DAT6cCcU7KF6mPLAkQL2U+Ji8oSyaPKm/dzzCKJq8e6rAvFrxzTymFdw7bfhPPfywW70625w7usIDO4fFHrz3YEK9QnnjPDCpgTrS2yA8IKfMPMc7dL2jH8G8ErBJOyfmvbzUkTo82lzyu6xOfLxuUea78m+RvDNcsrzstG+8brCHPMo8ibxKMAO9P6QTPchzPT2vd7+8ui+tPL0hjjygQE47C9OoO2EUELzDUNS8FcRAuxu3PT16He08nghjO27Y9jquqKS8q9cNO+TxLb06OGE8Te9DPNa8krzRYwy9Z7RCPAI3dDttSRC8y/VVO1eUhDyRufy7",
                "aY6durLoWjstxWM8wzikvE/gADwSp6s80ZeVPY/9obyGVfu7QkxnO4I34Lwh/yS9p+1uPDJKlrzFz1M82aMdvOoh1bup3Xs9Y5EUO9A/9rytwBC9lE1aPtqQH70zPoM8G1qKPDCeXr2vZja8buo/uZKYPztOXQO+pCoRPZpGS7xfBUa9NtSrvCBRPL1xNiw75YRZPWQVlbxlOxe8DTtCvA4q8LtUfTY9ZTE5vUXTHjx5u4w8J+GhvFwvtTzkkhc8V82ivBsFsDx5rNC5OnqbOnYUVrxf4L48c5DCPCYmWbzxtLi8ZDrCPIvE7DsdGL08yeqKPBx+U7yDdj49jhzxvFzelbwxcyC8yXwmPQ8S3LvXJAE9Lfi5vCxQ0bwJ2Vu9UMmKPMTMlTsUfTg8/swOvJn1sLwxWN67f54pvFvhOD0sCpK8fHznvEkZJz276vM7pLjCvHknobpVhTE8v+okvO5noziIIC67UyYFvKeR+LvpViS90BPJvGDVGryspwu8LYLbPMYUaLwt9Wi9C5vRvB6ThryL+/87X2BNvPDcKL0WbhO8UH1yu8MIzTzPmj091sNkPTQMq7xrSLu7yL7rOuOxIz3CkXE8xDHIPbDybT2HIi27isywPKsWEz0v0U+8/mTzvA/BS7zLli+9p0CCOUDdLr0obfa8/+FoPEvui7wXljI8cHAGvZIdTryf3wu9DJALvaazCbsTtG68fpjfOdwLnbzNB927XaRKvPnw5LzjDAe9B0zWO6R1hLqNmOe8fx2nvDrSxztQxsY8Zk6qvFrwcTx87sg8nnTHPH61SDyMi3C9Qh/pO288cDruXFq8gA17PACe/rxBKgC+fwlnvDwCILuC69O8ZHRqPbcOezwWb4S9z0vRvLH/UryRFJU6A5XxPN4WUruWJ289Ti0jPMxCOrp3oTG8AY3du5/iID39HDI8TTyUPJFcLb2SshO8AlyNvEPIVrzHMbg8OCzuPGxFzbwGvey8dKcDPTHBMLYXWrO8iEpfvDdIwjtfeFM7",
                "WdTAvA8ulDvUaf08nOczPTusAL3pREI93kSzPN6LWLz63zo8rCOmPHHSET1yqz69eVLgPBpYmrwEYEc9oN8gPbuftrsOzaq8tTkxvHdoDTy4CIk8dO7YvHHnlTwe3rY8Zgl/vNRis7viysQ8Bv6CPIsL+Lwkd6M8vBihvd0F3Lz2H/O72a4HvLUw1jwuYfS8on5ZOAZaD7yD9zq8A+UVvAx4c7yYI9Y84yOoO8UWP7zn6hM8UygDvPUuGr2cR8K8bJJsPQsCmbtu0qo7oG9JvaIF1zj5GWI9qNPjuJNuKzuCvJC79NMQPKi05jyuY2m9TXihvLbWZ7wDx7y8DZRRO1Ofobp7fcg7ulImPQLqULvOfry7djgdu4o0TTzH80c9SuRyPOcanTwcajW8MGmZPOcKMTogL+88YiZ/vTPJRLzMFx29+dNcPfLPzjx0jqO8FWKTvY/YazwrX0W8o/DgOTXlzbzZEdQ7gk6cPFt7OrtwmW69iyr8PGkRbT0d1vE8/U/fPCNefLwvey+9x9UoPTxLWD1pyME8ZFjwvIUEGzyeivA8Se/3OwSISDpKBsO8BLUYPIkgCTw+X/I8prcBvUjfWry30FI8+Wz2ucf9RzxWDVK8f0CHPCH9HLv9HMy9Il/ovNjsvzw78CW8Jf24u64Znzz+vjC825LWvONZUjzwOHO8HI2wPD4E0brgYUi8/2RBvVd1JTqYhQi8D44pvLflRTxvO9W7zKeVPKndlryixJG8WOOjvDbEhTyXZJG8HrInvPqk3Lw7qy49ML9cvHECAD3HsX08sZHUu0jnWr217FQ8ioojPYqyXr2UO/c8zFt1u7p9F7yD1zy8iOM2vftsPjprdAq91LkSOyjX+LsOn766I1HBvCpUarvxUni9r+4+vAL42j22f1G96pnPu8UfNDxFHjm8S8gwuzkh/DtJlGY7iDsmvEuphLsKZIu8XI4WPYoXjTuwLPU6riKsO9QWfjuTT/69vqmDPLlkwboWeJM8FpfWvFwyfztdXYo7",
                "OnLoO0+cLbzpVEa8gE+FvGU47zvONsu8pgS1vJBR8LxUNGM6Sd6SvJn8jblm1fK6DDx3PUdljDyf+4m8sAGdvBA4Dr2zThU7VD7AOa8CPzzCHgy8KlquvD0waz179oY84RTnvEQ8HL2fG7w7t7h+vN4+qrz1IS291lAYvOgiFb7H6ZI8cYiAvF/bOz0G24o8Gk1PubrTHLwkXPg8k4EYvB3Bebx14hW8wkiVPJ2JuDtpWRo+NMCQvEiG77zJDuo7FLThvOFGdDsXfOK7NTOhvQv16TuBLtc7pd2dvANi/7y2Rrw7fnoRu2SmdzqNUw27uxiLvddZrbw5aRy9+oHrOyDzT7w0gNO4juv5uyCvhLxc+Fk+GJ8ZPD1PLbsU1Z+7r0ICveCiXjzcs+M8NPK7u+SfET1uuaG8vBUqvQPOX7uFeNw7SxpTPSdRBj0V7Ay9jeafO2FYtjt1mGI8Fs0qPaas0rwviEm836m6OrozNrwTHFa85KROPGPhFDyc/q+8eYYjPct4hLoqI8a8x8n8vDz3GD1UOqW8NTMSvZqMKD2Eu+a8fQLNvEBE471j9Sw8x2WKuzLOgrvQcDM83e+VvMHCSDyb/WE7zhUUOzYQVbymYJM8OWmFvDKqc73+2Sg97U3aPMEFjjzaBju77IrNvNj0Vzw+ENm8BK63PEcSXbxlgOs701k1vQ2psb3K8Ti8L7PgvEAwM7z9O1+9RwCDvP5OTLxwy7I7EYrcPESBibwpGDa9cEwHvMUfMTwpcxK9RBfcPB9XR73l/JU7IH1YvFXkjjx7r5O8oG1nO2MMbjxZVYm8IVmQPfYnHb2Fb+278IzWPVaMEj0MGtS8j8a8O0xdrbotyYq8MdDCvCEqzrwXVu07asJoO5UlmLwOCfW81vkYvAE/yb3G5dM6I6C6vEdgcL2kHPS71eLPu8YW3bwDBIE7kvXzPMAhJ7z8WxC9BbCOPMHaJzy1r2Y7sdEEvWyRgbxTR5U9XguOO2vJFjyB4rS8WMiePHURpLxyPpS8",
                "DYP6vETjyTy2Owy6kn7FufPITrwfstc6Xceuu3JfZL3SWpS8U+CEPQOD+zwAzi+9vgTIvLj0wL3YeNS8nFuWOmNI2TjZFQY9TFkTPDbYC7rjvkq8H9zFPMxbkDwbUMo8bqoFPkyJLT1BCLe8nxQkPMfVabzBnA49ACAePWNnKjzVEda8ZGMxvYGy1Ly/EU48P3WSO8HgpDt+ej+94s8dPfetYD0hebQ8vmMHva8wDD17nCK9t/nVPDFIjzx1Fag8B/AVvIwhlTzyo4u8jtxfu9TpZztaIWw8LFYbvOtqlLw4KU487iHuPJ4gArwONu+8eE+BO7BGqDwAeXg8AGjEPN+C7zzncIq8ZzUnvBWtwTxwLxk8fI41vc9707v/NAW8aQmOu/g5Er3fBA89jPTKOrE5Gzw3WjM8feo4vchOHDtB+4g6ym50PMvlKzpxNf68piApuxZuE700eje6sPXGvJQ1j7sM8G88DkQQvSb5mbxbbRO84brEvOSrLDp2gYA9yQIUPRjt5Tu0zg69eONUPJb4W7wth5i9HFAUvDR1erwDhzO87+2zPBmPJ73GmiS9VKqguj1YNbzbkek7fOe2vEi60rwNV4q8YjSnPCBLuDv1fJO8dtGZvV8Js7wOafQ4eVfPvIQhsDtLEjY8+3W7vJUE2Twruo69E2I7vKnu1rz/Lrg7655OvG22yTy27qa8jya7vKnrWbxLLky8PeA1vbDfL70Jg/w8D86LvDcbNr3d5QY9CwP3O4VjQzx0l0G90S+0OrRq9DqRRje9jGOyu/6QfDx7CdW8Yf8/PUicUr1rBuQ8UrN7vKElKrxoQwe9aWY2vNgilTweVHy9b918PHJZWjweCZW6lsRaPKN3iTy1Usk8nmBKPOa5vzwNgbI8Aao2vP8aQjurE6S90uWTuxFR/bwcBCS99U3PvOhyzjxA86c9i3xRvFnZ1DzeLzo8gEhUPMouPjvFHyO9wwU3PFD3ebpXQqE89RDhPL06f71h+NS75+ERvW0DYrvIzTY6",
                "NTHRvMYjz7w44bC8EPNrPb6NxzsaIg69StJBPUe3jzx0k3s9RG2MPO8Inb3UJIS90mPIPJnvczr3cEm9td8uO1z5AL0XxIc7fVkwvRKes7w1XWQ8lgF2vNLZjz3nAPk867OOOyshBL2eEtw7qiqAPAGPnDzP9v+7WfWovERmObwaKLM9XycYvRbaYDvpJgg91/OWO1oOaroaM5e8kCO/vIxUKb2rTf88OBjKusDX5zzR4YI+BAN9vTg3vjyysiQ6fSsVvuntvzzbTiU8b8h1PMiqXLt+gh67iLiFPFTe8bnpElK8ZCUdvdKj6jvQg546TMb5vDazIbwmcSo7tHDiPSk8NT12KOm7Brb0u8BLrDyjApi8qjPGu1Qq1rw7iZg82vN3PL3YWbz5m8+8Z9nEvCicuDxqHPa8gVyIPDN9gb0rkda8rzsmu6giJ7xKgPm7vlXDOzrYnLyewmg8BWv8PAosJjziBi48XatDPTkTBLxxzXe9QVwTvReGCzzjtzU9ZH7wvD4dJT0HYeK8Wyb/vH1FLTrM3Z68JiwtPDoKZr3hPK08XzrQvHdI7jyjFxG/UGZQPIXagj0SBNE853i6PCCnljsPidg7ha+APCvnyrxnR4E693zPPEIPnbsF0R280IfWuz7ABz2xihs879qDPO9cjzwRpy09Yd0bO8H6ojsibHO8G1mVuxxkHDw4q9s8vytmuzOkiDvafsc8nEw9vfuzu7yz5OM8eh8APSHjEjz1KbM7ihtWPNOpezysr5o7p9Mrvd7Tt7wtCKE8nj6oO34TBL28rSK8gUFdPCD5ib0fH0a8xh4zPP7S6rxzZfi8dBYAPAkRVb2y/Qg8auxmuv+EkLzmJIA8KR3aPJbjgLxsxzC8rE3TvBUR6LujZMo84YzbPDi6lT1IiJA89bpkvdC1ZrzloL+836Cuuv4MkDrByvM6W9r6Ok5gVDum0RI8AEJkPYCGZT38Fte8C/+ZPIK1NzvuloY8zmo0O6474jqIsSK9n+lIPHJLUjyj4Zo7",
                "EGyOvZYBgjwzZwC9zclbPMmQ3DzlLBM9CYslPQ6gIju/6508i1favDDJDbzJzAM9UvL7uovndzutz3e8rkYnPHaGIzy6Ndg8iguLOvx3CLyMHRs5YIa6u/5BVzx6hHG88rdRu+mdtzqWnmE8e1bovIX2Lr3w6yQ8aGGvPGg29rubaJY9qvLJPMSWjLzLOna8ODadurFqDD2OaKk7hNcPOqvULr0iI5s8phhWPW2wKzyvCnk8KkDovLN76Lu7+1s8+lvsvDudujuHRpg8jpWgvFsd3zsVq8+83PS3vEdh1zxI6XO9HkHzvNNc0zszceY7GDnmO2bKD72uMms9A3EUPU0WvTyfkv68PvzTPJewBDw5new7pXZCPXVIMLyUzBq8TS5VPYC36TlrAhU8dGQ5vOIK2LzhCA08kcbdOqy3UTyiGei8C2D8vNNlijxY0hG9secCPT2LDD1FMIM8e9OQvGjfljzru5A9GhXNPIU2U7xRJ2E84DW6uzTqBrytRxG9jaH5O22IH7tTUfA6vUowuz8PKbzCE+Q8xl61OxticDy3YiM8fXVkO3p6QDwTGDk86ogIvTloab1BDhm9PfJevGL/LTyIo6m8OrP2u0c88TtgUKY72hE1vEusFL2jNlw7v3zGvEk8VT1Vt3M67b/qvPUwIb1P5oI79ErCO+YOyzujbFi8e47du6QWi7se1kK9ye2Wu+pdt7yEzw282utrvFLD1TwlMAG8sJXaum+fIjxL5A68c+6bPMxAlTwjEFw95LsROyi2uDuUpbi82GW9OwqMFL0pqpU6XDsVveg0vz1e2Hw7YMicPImmVbyVLBC9YEBZOuNwRjyPp8+8i2vMvHrr4rliBBa9YrpEvXFnRjySnQm88MtxvAfXxjkPWkE6utNBO7vjITtZFE28hQqjPZXWMzyFwwE7vpk0ve2UaLv/+1c9ZXoUvR8VIDysc/+6diV9vQAwrby1qQe8Z8hoOyv3KLwErRS8xYIlPGTYqrz8r5y63WK3PJO7Ir0/YZq8",
                "Q0gsPXQVhjqhZWo7gK5WPW2T5ztOMIK9QrQUPY/kL7qOtJ07p8kwPb0spLxJPsO7dU8tvCZpC73MICA8jTmQPYFIyTvv1dC8tBoAvR4un7y3bEg8EnDrPNu53ruRSl68gjUfPevel7zByl67DYSPvGEpfjze/su8s/eYuwYziryMqe+8OSiLu6o1m7yfqI08ciLUO77gzLzhZOs7uQYrPSEBprw8lhE8tKfcO1Fakb03wL87dTaMPXAle7wglAo9uZYAvcqUs7wdEXC65xiWvGMCpLyLUpI9tEZivH0DDT0h6we9uhGgvB3KCr0W0Aa9NFzWO5bunLxlYIu8sFZNu/j7DDzl6N88kKSUux/15DwWEQ48XrkQvBSumzx/Ex2+XhoQve414rwxxSO9HcBpvFoWzjo59768HmvlvAChqbzIv6e7YzToO0UCR73/zV69KQ20vD41qbxlmAe8Tl7OPA2EtTxpZ8u87rpUvRjYWzxW6u2712x1PcAzFT0LX/O6fWmoul5Y/7uAnzi8RJYNvJql7Luf3Bo7j2XPvDZ1fLz1mdq8MLEhPPgIrb2UdCe9PDaYOwYnST4i1ZK7kc/0uwkqTT3UMN68gP0RvTtRo7sqshq99S3+vLttF72XJ088rE5EvHdeyryaoPK9NGsdvRY+drzsXS+8VT0+uwE0v7wedQ29hJiLO7sHNTqAoiq8D38ovBHUGTwkp9w7XmxCvKU0Zbz+ICE7DA+Fu6ytAr2Z+1689eA1PRUmf73Qrhk88RC7vCDFcjyYNke+9x3pPKfmObt3zKM8RtsOvZhbEr08qCw8ufjaPIOggryk9ru8o5swvdFEyDy4RKu8xPB1PQ7xlLzCh5k9DRMwPX1u9Ts10Ua815i+OhIKhLwFzmQ9NVECvMiWsrwTw0W78C1nPZX6x7v5/z09Sy+FPMLuBrxeANS7CyWGu+ZoIbxX/2I9veG9vN9Gg7tFLt+8UjExPcGuEj37Bd+7/NCsPj5MDT2tk6+9iwBPPaWJA7yrJ4S8",
                "4sW6OkSV1ryBjys+e97IPH2zMbzu+Xi8aK79PKXCPD3szOu7VitnvGZPQT159Co9e0t3PLAaWjt8FQ+9L3qkPLh52LzRb9G834JmvKzVeru5RZO5G0yavPFCVz08spg8MikgPZWVLj3+ZkY9KMc9PG4KmzwCAEY9qI+fOx9mWj3fV2u8iZ2XvOi8Vz2HGkA9hBTGvKTHkjxFe/Q9E/GYuy3bKT3wYWs9uW6lvb2R57xA2Ic8amcbvMzzeT0theE89SAqvJAe6TrHFpW7IEcVvWeS4Lw7fe484pyIPf5pdjwBcUo9WkkpPeUTI75Wcjc9rKtfPc+jOL2+aTo90dMOPKnNeDvbnMm8VJw8PVjvzrwDSbo8C6VRPSqHHjx2wqa8nZoYu0rWUDw1Ytm8RiE4PYRCtj1xYT88tIcmvutW6Ty4gOY8jV8AvRenEz1HnDi9vnP2PPE/UbwGSn491vyyvXB+bz1E3/u7sEZivYsaqTw/Ar48Ye2GPbOUBL37IKC+SVMZOg/PcjxM2H68H0lTvIFKU72QNXG7jp7aOx8Y6rzkG/285wENveB3mTsyAue8Vdv/PAi8oDxBcLI4f8gIPTede7w3muI7KAxpvYfnY7xHYds7XmqqvN1Jtbw4foe72C4bPDLwprnNYoQ8OyFwvCpuHj3TnzQ9rQ+2vHKizDxC+p48ZGo1vDB2hrtV04C8avgovPI1+71xCgu9tsDLPE2Lars/+De9Le/kvB76GbslTaY8UKCZvEpKdTuS64+8MeYaPJIFjry3rQw8EmEJu3crMrwIEmo7qDsdPHDdlTsdyKe8+piVu+rOjTkPule7vFyivMbV5T1uX7C7h9CkvMO7GjuJo0E9Ohu6O+b+nTxz0JU80wKOu0J7kbz4Pcs88UGOvNc5erz7WUo85hndPHOz5rv8gCa9pS2bvdT6cD0weZE8ocAFvap90ryxFbU7TSLIPBqQq7sC2Kk8FUrpPQnOAj1Z/5a8cPQkPBaiGj0w+Ou8Bf68vExyiryDV8o5",
                "InjOvCJXC7xXxTW6y6S8PK4/7r0eXWg7EtIMukzGsD1Joy+5OBb3u+tjDbwiDrw70POJvHODxbwbL6M7/L2hvHNLpbwaHWs87R2CPKi9OjzETug7yP9DPbjyG70lnis8ewufOw85gLx7PjI9Gezzu9kNfLvez288EXpRu6HJnjzHZPk8bB8hvLrCJzofI6+6SBlTvWIvJz3zVze9qwc3PdA80r2rhpE883u/OsEMsrzEWQq+vGhxPASPqTqVKJo8w4wevPSOhbw4rwG9yy6IN/QEnTs+RQM5w/ByvMfqSDwsSCE8wlhFPViJH7xqYso8sEDjO+vDFLzh5MG7TvVFvNIEqTzeQ7q7Ko1gPXPE2Lttj+26Ef+HvFpUZT3Fc6C7189VO3rF+Lwqu0E7JHEBvAtVBTyBZpG8nzcKvSseoDx4TRK98JwNPdqKWr3WsRU9qtLZvHHtDrx2TTK6t94tOwnKBT0s5W66j7STPRS0Pzw6q8K8lITyu1IyjLvV4xE8J9aTu5yX0rvbqYc8WWT5vL4NlLzA0Q88UEhRvCz6LzwK5yE8hkZnvIvCNb0Tifc7FXIwPXt+zjzMICO+uQDZPQ/3SbwU8fK7Uy/buxOsorx49AC7mcW8PKhR3Tzk6l48/NkDvNxSMzyjKaq8Z2mEvDO45LuPODA838YiPFNbOj1rAxG8DLiZvJ4Cvjvupks8wRZ0PadxhjsQ7NM8gjeEPFDENr1RAuY8ZlA7PcZ+9LzqMi47VyOTPOhKij0pwkW863kAPOlPb73XoeM8eT2wvA5GZ7xv4XI85kL2u5bW97zYpRC7arSQvEfJUzyuaw69TifHu7gvgjuHda488YvDPIG1nrypSOQ9uMtavSkHdzzGIpM8aIASujmDnjv1i9w8tzSxvTbLq7v7ANk745ysPKo/MTySADa9C0TGu5BF8Tv5q0c8hxPXvBjJcbxDc+y8DGYRvVOcFr1gQcE5s7IePLvztTx+NCW7f1EnvJ96QrwOuQo8BfSHPHRQQD1WhIo7",
                "Wfz6OwjQt7ucrIo6QUdEu5ZS97pBbpe7nayZPHUVsbrCFQ49Ug1FvNQyizzw4ZK82Hb0Os0rmDn3hew7Us+fOwSoKroZoOS7wxoRPYy/ujdhuSI74s6MvPUsSbv9oXA9BllIvBws6Tyco4o9dXB1vF+LkzvpX4I89Y0oPAWLIzxoGCc8REfDPLDrF708rsw7VHB3vD4HpjvC1bk6kiwOOXLvDT3XKTM9Qd0xPGvUzrwOWDi5HFOauy5+uLw3cUS9Zd6DPDqurr1ilTq9PSCHPB59rzzQ3QE8cA8rvDKbpjx9c0Q9tnSKvNv8bru2XWI8loBuu0oaTTyZP+A82tP/vI9UxDzfELm5QDozvcldiDx/QlU8exvSPDysir29mQU9LPmSvOLoDrs1CCk+EpMPuxevBrxfTFy9odK5PEQcoTxCBxa9dw7aO9tJ7bz7rxk9R+FFvBRhsrsityw9gUQoPDYiMzzqOJk8LZGMOmb8qTy28e68fLRWOk9tUbxwqJG8Z3AyPWSKXrymQ/U7awd6vYX5p7vhuXO9mEZBPHk10bwNBnW7gqI5vdlz+jsvHSQ787QJvaHVPDwIh0o8CfQOvERCozoXpuA4un5PvPFe1zysTfI8k3qGvNcUqDyie3q8HeANPM5T6bt3FIG7rJAdPOAygzq9iSc8XQ0JvSaeRr3K6ak7YRzhvE0NErz+/s48ASB6u/yNZ7xS+B2+RqzjvFC3u7ur7wQ9CGRcPLHLiLz17TG9o5QyvGnslzs1raM8NLkqPPltNLyUyAK8HfigPN0K+jxGCAM9DRSivLF1VDsqOzk8Y12Huw6JFz16dVG8LiadPG8rhzunGME7qjduvOEZHL1seJy7ABPDPMsbGTw+ql285O5xPKbiObuTEdc89KLgvKes/Tx8z6C8l+I5PVDJMD2bY7o719PLu+zfQr0JNZS84sVBvZVc+rxHK5S76D+vvRcZY7o3JEY9fUE+PEbvtLyfBgs87ZxuPSjQhLzYVka8+EQCO1GDiruQCdy8",
                "1b5ovMBaCj3YD2+8+dkVPDVjIbzZ+Iw6jSiFPX7wkzvlWAY8ApYZvVlOsTwbo+i8XnKfvKPv770c3PE869FkO5166Lxrvew6RVxwPU6SH71GcBE7qrqMvE7KZLxPQhk9lexNO914s7v+nRk9oJERvYaMYDumOGQ8EsGOu8GL97v58+G8/BFYu4NoHj0Xg3A9zhSgvDtdU7xf0TI86FjWvO1qEb11ZBy47fq+PPH6G72mnq86cMqRvVafJzy7O1U7gWfAPBvCsjxT7Iw7gUaxuzzy+7tWTz88ji1mvNLctryGSso9ErHvvKtSqLq62Mi7ehW3PH8W2bwTjwo96W+8vMZQ4z394/W6uCeRvcxqsjyP4Am9j12QPMcUDr0HshG8ZAd0vOdpNztiqfy7V9iUO6bxFz3jX9U8K7XBO0/Z2TxHOn49p3lVvXB5MLxpNJC9rD33u+jXYrx3ldo8IEMiuyvn+rvN+ja9woHLPKSsKz1nDWc7sQ2iuq8NSjyv15Q6BVlBPb8uqTubihS7yhQOPU0hD7wM/BG9e1hyPWjgaDzqkNW8MgAXvd6veTzFbx29PjIuvIMDrzymZ288ABtqvGmA5T3zad+89JcwvWMUl7yyG0C9GNqBvKbQ7jskJQW9C/aoOzlFnrwXXWM8va+7PE+/3TvsOFG83EJlOUVTej2MoQw7Hg9FvVskHLzjtCg8iCSJvEnZjbwWDVO8t7UXvE+u4LxK87w8G5CfPP/TSzt12Bw8TmjYO9gXTj16vkW8Nru/vHVFJ7ynkM+8mcGnvERLxrvEVWQ9eEjrPAzyjDtBQ6g87y7xOQbCTz3+3WE8gBBavJyuwjwSdjW9c29IvLgvNj2HQXK9Fb87u1wHhb35cw+87iyWOyXWvrxa/gK7E29pu0bpRD1OIBM9ciQFPQ0UgDztrny8MRdguw/ba73Ow7u84l3QvOz+YzyVVLq8qe8kvOJsMb2P/QK9veHdvEX1Gb2yzQ88VTntvEaN6zzC3Mi64cH4vNj/bD3M6KS7",
                "wD/LPLz0ijvcr6Q8VumbvJ66cTyxIwq9eT6GvUso1LxDrwi8SSWSvGUEDT3CcA49YZ4YvZdTKL1noMm7uCpwvCH1QzxOZQk9UeLAPCENkTxlPwk8mOu/vDn/Ej14ZBQ8AYXeOz742zxYzGG8UhVVvEQSfT2lhCY8EC5Mugx11rwPTCS+pFCMvJlY9jtvuW496rgMPU6/ZL0kPre8CIWEPTJ5ljzttc27wPSVPDH+qbyH2Yc8O2R9OwhhvLor/r47Q7aRPO1fqzytpWa7pc7tuwjhRDwqd+080uXDOwv+gz2VlJq7piQ5POVyPT2gtja9V8yGvMyaG7w+79o8TRYCOy2OhbvJSFI607rkO/cA+Tw9QNC7ccqlO2+WtLpkUMw8RKpRveou3bwsPLE8jCpcPOnT5rw8sHe8oDCrPGWfS7wznG69771GvGULVb2/guU8q29jvH7ucr0aguw7ZafoPCSuzrw7tEu7Kz4QO70k8bxrkcU8waayujMJPTwl7HM8qtYWvOo/DL2muL87JHVTvUdQOrzsxnW9mSQqvb5UpTw7KCy5vBArvObmsDzkFrY7pCZpPWOxFTyIkRI8Ao9tPIMrALwen9C8/22BPEb/zjyqkYO87ZyGPQonojuYYmy8K2bUvFPIYDzDkLE7ydDIuvKEML2ekJk8+hLdu+Fw4jxxTiK8yBUPO/RiKb0Uoni8pLXhPMYHObx4enM6m47/uk3nEz3Ha/q7ZwYJvPV0pDyScO+8nwkRvAK/Hbx5u1i71KIGvX+Axjw1uru8Ip8WPdz6wbxBMke9ohPlPAZ6or15eyI79l9/O4xxTrxZuwy8rp2ZvPBIIbz8Jw69mklDPDx8TTyx7L+9nN6RO12CRb0CYoA8/luGvd7UzLyFXsO8fcdsPE6Yg7yrPQs8cKu5PIwVA7tNCec9NYp+u2egjjowFCG9JJxGPbzlrjxgHqu8+1zPvFkjhrzXgR89gANsPQK4YrwJ+OW8OqQyvYUdIjxesN+8Dw2nvASbxDw397G7",
                "tuSwOwjh9rxuhc68ULH2vHlCWTyhA4C8gUenvB+MDr2xD4C8ctDQvO9IVLxcmQA9Ndmru6FT3TzzzUO8efRAPfOGZzwcSak81gDlvFpjx71x7Wu86w8UPLyCubzQYqG8QAomveILVDr9Zlk5ioEevRHNsDwOhS0+vePRu4sbpjzDW9U7nSkMvagqQr2zqt+8w/ONPFPgqLxbW6S830JRvUrvfTyKyUw9BmiBPFhozDylkig80IZWPFmYhrwdQGC+SBSwPFMFGL0/pyW95+APvRH3ujxVuSC9BKnZPKaE5LwrSAy9SJIGPLpezLza43e9HJyivA6lVL1J9qa8kOL+PDVIkDp5wbK8HBMsvTUMSbw+0yO8xZUnPcg/LjzMUeA7ZnEqOzzzjby2kAO9/2U8PLH5QTxH9zm8V+8nvLrNbbvwB0y8CeDHvMdA1b1k5Ay9a2CCvMi98D5+kYG8yBvZvOzaVj0ghoa8gIcFuzGVhLzaZws9ziIuvR9R1bxBu2q88OnjvMDPmTqOI5a93AoTvYt0RLwggaO8ls8au5g42rxwN5e8Q3m8PHRX4bx2SZ68DmNZvKzPo7zUTHe9LuWhvG33nDxlc++8ZLkxvX29nbyYofe8tTaDPemy3b3xUu+89+uJvEsp9DwTnnQ9Dl4xPbhHC71cLW88kWvQvMMwFbxgIeE8OpDRvFOh1LzM/Ju7/6vYvEZkIrymIVM9mtkFPTOvrryXCU+8YJXZPOWHeLtTobY8+ITGPJc0TzyInzO7ZmQlvOl+Dj03JPa7vPEqvdjhWLxOGSa8iUHdvP1gMbt72yY7SSTxvMI1Qr1UWLQ7QHknvN1ehL38odc7rm5svGYLtjszfaU6XD5yu8/utbyUf1k9pTgFPV0jiDwQucq81nomvJBDGT1dF0Q9fXpPPVBipr2LlJG9TLOjvDB5ND1tDBA8hBc2PFE58rsuhR28V6A1uiT6ejz3td+7AI7gvBBMEDyNsMi8O+GXvN07oTynUJc9gfRLvMBMxTrrJz28",
                "QlHRvN1+XzwbOIu8eFlNPFNjRLx8Xcu8vRRQvQdlK7pTJXo9xiU+PYo9/LwXgvA66+4CvLItIbyniIk8H39fvaP4jzwitI28uPrlvPrTTLymECo8Urqtue8mGjyXEeu8gv/3vDFRCjq6XLo8Yz5UvSZ6/rzolAg9yyR1PL85xjwrIkM8asAJPONYNL3/WKA7HJdyvPSXFbwYrYY841MePM2hnLz4CR48Yu4ovQIxCL1KVwe8LuyiOjrXljz8Cx07F2A6PQulozwpVQu9OwnbvAJLejrjfMa8otilvahUjbzEgdi7fi5evbr3xLotgRk9yRLbvFRPhTqZ+pi8TqmxPMWtFjw5BAg9JJorO1wvkjzK/OO7qER/O8n+Sby7U3o6b4h2vGibZD2G47c9jqR5OkapQb1U+Ro9OudUvZX9FL0vHMQ8AP1+PDtRpz2zSNk8fWNCPXEbXrtfd7A9QYjXPC8WbDw7dCi9opJVPbhm4jwv82U8l347OzT7XT1YHAC80YtmOypVjLqRcB+7s1GCvJARorz+5fk8rcmcPECZgDv4d3c9Ue7OPNl0x7sT5ms9SyIFPBlkJz1ClHA8/kldPYrLIT2bxGe+WWB0vWmCwrzSjM88Z1lJvDEKfjzMNN89au1Ku1IAG72TbdS7jRINPZKkJTxdWBk95DVkvOMDeDsvd7a8wfxkPS0hD71q/T+9aa2DPA9cM7rpuxO8yaGZvN83Cr3wRTS9Zk0cO7og+Ly+zaE8o4ICuguZQ7xp2Se9li8pvNB8dT0XYSA9VQ5xPMUvf71vLvE837IkPFSVazwqDoO8DcKgvbH4Qr0YCxc9npx6u70yBT19QZA8PyeCPdBdDz1NV9M6aMf8ur6EBbwn3pU9leqsOzW+aL0kHJs8wFyoPCrqOD1YJB+8VQ/KPKmlNz3CRwY9KbRyPKCdDL27UZ68opnSPKD3Fj3Mgjs8Nx65Otd1iLppfBi8FM4VvDKDkrv0PK498qnJPWXwy7wiP/A9zv8hvTrEiD3a1sE8",
                "3u1fO1tpSzy4Z+Q7IaFpPK6E8Dz0yPC7EhXdPPHN+DmD6Na98/lAukypyTz3yic9Qf4kPQNeRrxJbpy9EKXsPGIpYj3fjJU9sEQAPS8YkL0e1YG+BmPdvEM/Az3Ux8A7UWtNvAdNQDyad5k8KwYuvZyeBj0GT7G8iVkjPOmLg7yGZL67eCivPKOUDLxnDq87r2WYOxHLHbwbBOQ8nXAzuyRdcDwBgvg8yWkaPEgYnryl5PM8PdoePfxinjzi9cs7Tv0CPb9y0LyvXuo8Fo8Ivapnt7uLeFw98+fdPPcISrotd5M76fr9PJWMQztoBLW8uQmaOz56XjuKfyi8Lzc9vd9So71AYTE7MQGMvNs+qbsOhkQ9DsIqPe2Sa7vojLQ7J8KqvNGC/jtDGFK8ZKEZvT1UZjzHuoE7U146O34fU7wQsdc8Alv7Pc7jWTzTOgk9WaAAPA8pHrwSY8a87Se/vK6zjDwRzqE7i/qWO053uLxIZ0s76VjaPBJy/byGOvi8KF3aur/hlLw5O/67TkQnvTZqADtM3NI5d8zYPBvbZDuMXjm7H180PINobL3br3083CvdPJQ3BD0HFQA8oThtO5iGxTtTvYo8OTicPLLEmTu0T9G8HHRaPWKN5Lxt75C8es2zOp24yrwt1GA9qAiiO/on6byCiCO8NYXdOwswDbyF4k87mrEAvRAsA7zycBO8ffOxu48RobxLeQK9rxEivLzN8bucLZI7Vrk9OuVQWbx+diW8qUsLPI15Or096xk95fQAvCdFwjuneRA8/hxeurMSkDym0YY9UPwtPEdfpbygWKS8C2LGOiJM/rklSiU9c0U+PUPEL7xL97w8NER7vfXI9TwUgvm9q3KRuyco9TuWSh69OnW/O6BQpLylhV08wMmlvEHwi7zwvro7xYQbPXfEFTqqA/a6Cp/sO3TK+Tz7ZJq8VMqGvIOO0jz84aA8yVFrva+h1zxlbWA7diZ9vKVhi7zYhl879mRUvAFi+TyeK/+8gAeNvLPrtTw2Afy8",
                "Bd+VuqhcOT24ela8pa3NPNZoqbxEaO26JzSAvE3MNb2+4Xg8+VLAPATJJL1gqLu5eqWTvHNRmDx7fLk7VP8qPqW5jbw5pyG9IE0hvALZZzsUQRy83i7MOZHtHzyqesm8KDOlu3cBAL114c28uDITPHwiAz3o8Jy77c8Pu0BeIzzt8Pw7jz7ePLzaizxV3gU79y8nPNtngru5Pbs88Drqu0qV2bt6Eoc82/JqO7y+ujsBZpE88wGRPaZgwjuPxq27Ztw0PFtx5jtZqiK9DwLXu9A4zTujdW28h1rivKGSXrw+toW84Smyun84drxAmus8mLqbvG84XTvG4AA8aLfWPOneSjv/uAg8+cXyu4aMkbzYlfa8C/Avu142Ojs/Hyw8hPEjPFv2mTwDmS+956ALvXuSDD0tkWS8fyn3PNnzKLswPxW7X/BfvIbcKTz+VEi6HaglvRjQQDxMGDg8avG7O1Y2AL0kfDc80h4dPDi+PL00Fiq8q8AGvaQnJL2wH6Y79+UWO1kG2TsWws+6tU6KvAymczv9nCU7w2QmPLVbLTzn3BC9w3GvPIHL4zrdqLw6nHyYvLDzWzzQBGu9CFSZvPj7Ojw3dFs6PHSROzacRbv0BTY95qNWvJc2HD2Shle81mJuPAhPirtE5CQ9V0bPPPurAD2POza7tHqhOjyRp7t8wOM8p1iPPEnbM7zgCCU97+pYvc3QWLyuBEE9PdoSvWPTIr35xGM8Dgs4PeCBBD3wPDg9/MUCPUVOBj0OgFk8DVzVPOArHz30yhw8L3lIPcVTNrw0BZu8Ib4GvRsmDDyANI87igp8Org8hD34qr88xhotvRGLJTy4+RI+NqVAvfQOkz7RATc9DKXrvAu+ET3EPKm8DqarPGR0GL0ubEm87akNPZHCazzF+KI91XgIPalCvzs+3gk7QEo3PcBUm7ujIJs+dpbyu5u+YryrXi89CIBLu11xjbwULb68c080Pbu9HzxAquA8/FjuPJHt8bun/DE9W90rPYxNljz62Ye8",
                "3g+5PWrgOrt6BI+8+YdOPOrsgjxgXTc7kbAiPaZjpTya/z49MgTdPKZT+bwfkKk8ykBHPTsKnbx7IBA9E8h0PbPe9jyEpUG9j4iGPMM7N7vRuKE8wLIBvbQ+OT7duYi8goXwvLPG3zujyOG8wK/3vNipST1/bxU9NZnrui2u5T2aw0C8nCuTOwJpdL2qDu89hU2BPMqVHDxSn/a8b3XXvMshXbzj2sQ6Bb+IOh6oWzsB1yC9Z+ZYPWNBvLvmQry7TdixPJPcrrswTE48KkJ7PbkR5bxpNxo8zRA0vWUSArtNumg8roU+vBYn8D3E7Z88UrjFvN/+yjwHovg6YLP7vANQtTk+MUw8zdNAu9bPkDy+6U48eySkPaI9Wr3dt/o8ZYp8PGo0fLkyZ1q6i4qru1DoBj2d7Ym8vum9PHiP8bqN+YQ7wPk/PLnmn7zbb4w9NI7BuE4eCryiCnq6YQGQvXeEab2fQVe9vhPYuz99Qj0nZs88mbUvvbEGzTup9VU9zg2gOos6nT3q1w88DsCrPPBbebsCaW+8NLz0vIByBr3/Jl+9w1BEvJ6avrx3hyq73h/nvG+zyDwT8Gu5KV2YOqKQvLy4FRO9DM/TPEYx7zw7CRS8cQ8GvCJN2rsvShG8kiRJPSHvNrthlQY9UeXDuxMVJzzGNyE9bun5PMdpTjz6qY87uLuvvNbwqTqRT6y8NLGWPE2QtTssEJY8vv0mPZ3BtzxDQd88NqeRvWZgbDunU2u95iM1PI098bw8Sto54erYu4NguDvUzsI8SfqXvGhAjLyhO/08vrSWvBwITTvTPGs8LJKrPCw/wLwKl668eUfvvB4CBL0awLI7CM2lPJSSbrxUlBg82vBiPJWvAz1Sk308capuvFtQ7LwoPZu8dVo8PMiT5bzgtjS818KHvLZBJz2TOCk8R8m/uiMFgbzmBeW88ombusRBYbxmON87Y2mOPfBZh7wWUL08ppavPNmVJbwXOxu8tFOBvCn2ML2KwoE8xJl+PF2ojTsjDiO7",
                "NwblvCHsCrzh1ge9kvMXPK7c/bwB9hS8VnXUvCp1N71t8+K9gpf8vMAQZjs593k8xMqMvNG3t7vTb1k8BPcpvYNdQ7x0gdQ8h/BavDZ6kLwS4FE7QW31Pb7Q5bvpWJI8vFY8vTCNbjyxCUO8ZnN+uy2JebxH6qU83OQuvSf6RDwVMno8JIEwvHpO4ryQGS49AhF7O+dj7Lyb0FQ78tmBvM0WIz2HcX08pgySPMMG6TwUbks8wLupvBU3Gz16HB29KwanPMcn1LzsH/I7JXDruoOi1jveRcA8xAxfvRhYgTwC+RE9Zv60vJlSnDwjb948B09iPWtbD7zKD+a8EKxsPNBwsDv9XdG7yWpwvEulMzzTYL07Tty5O7GfSr3BupI8k/QUPGKyFLsp4AQ9YiPtvEsmzjwbQfI8W+inO6cw7ryhN0q6j1A7OqP3izzEHOi8dgCHvAuCwLxwitE8IeTpvPTIjbzM6ys9pERDu/lkVL2U28e7DVJ4vUsqM7wLl9c8VqySvVcKbruiKOk78FqFO6yyE7yYjRA9dVxoPBborL3nT1m851YNPGUmqjzpOt85754kvYM7gj3h5EE98Fe8u+aZGz27AAe7eWouvIGnJ7xgln89EYwqvNTpCLzibFy9OcX8PI1TnzrQ4iQ8VEYxPaQx8LydNDS8XwXHPGij0jxRRto9Lj3Hu9Qpmrx1Uok8hvBrvRY3MzzrC8u85sWRvK2h6TzLBlU95SsKPSrElrwRH2W8VkKkPCcRHL2U4ee8Qau8vBphiT2inKU8B3BJvRTN6zugQeq9ixrcPNOC3LzZLpG8JUxCPJTXaD0N27m8V4wKvaWqVzxkF7A7oXpcvNezr7zzQx87SRanvKq2aDzXhbO77vSwvEqQoLy6jEo85nDEvXJSaDoFUU+7tMenPGeTurzR/UI8YWIlu0sUhjzyKEQ7EWsEPOmGNzy309m8vH6DvPIHNzyLvrC8c+5MvHSASDv9p4u8yn3HOyyZ/7ygCSq8K05Qu44iRjz8EuI9",
                "Efv8O3ZWYzwVm/A7PuS4PAPWMrzYABq99UbEvBCIJbxY/ks63PkQvUNbXryQ3aC7B9n2u8cnrzx8A/O6rav2vKhVxTwxrGk82ZaKO8p2RjxF4T07xb1RPJzMlDxNjHm96XMYPVHfKb2hyRy8hbHku+qfKTwQpns8DIDvPA/GoryWs6O8gFklvN1qjTyMkZo68INBOriywrxyiEi7e53vPOzzHDkIGEy7qtZnPGSWCrpZXYy8PItuPYgjs7y69jK8COuNOs9QnrukX/m7TVxpPOmczTsjzY68jyGrPMr0TryfpiQ77bbivBzn3rzRk1q9aMkhvMJekDxJnxO8TtICvd2UqbzuJCE6TjkEPESjrzwWg+O8iKRUvBDsID21lkC9LjD+vJQyHLzcT528/la4PGDJmDwwZnM9spafPE3PJDwukxG9YgFUvIYSyrtKH7s7rq10PErbIL2MJuw9OdGVOf7SCL1wJMk6kok7vZsaDD3rz8O8kV6iPfU6Or28lGu75BsdPE56hzyk9f28ZgwzvKHkBj12VrO8GK/aPER6NjyJPwC80jQYPG/n0bwkAd670V/iO+O4rz3l/pO8ZEbQvBR+TrxzcBa8JfiRvJgnerwEjDq9ieOMO4S1pbriTP28JIYdPTccuLwx/129whc8O6/zeTxNhqa8wy5LvevcVL18y1U8MrePuwvclzsrpza9/WOUu2QNCrw0MkK8+L8NvIcCgrxm+Dw8GmRgvMvPnT36+tY8lncbvHmtfr2RG0e7dH4DPQBCGzx9g989Go3IvN/wtDzQ6io8ZKIaPf6zubuKTd87gLliPJ1ijrzyIcm8Vyl4PMlXtbzEkXO8dty1vL5afrw3aIg8cQhJvCrtwbxLSwk8V1NkPV9WPDyZMsc8rqUNPSJrOr3BOpI6n4rUu6nqoTsJgM67+sLZuytWCb225hK85Mf8vC/1RzwdvOO8H6fOvLBRhzxkqsy8hJKQvfOGxTzYIre8qLUtvH3n0jphxry8uSlBPF7TYLs2PDQ9",
                "U9C6O4KUNzzBYNQ8yC0puxbDFj3KZq27Uvvmuj8atzuDz4k9ub/xvOp3Qz1LRag8thHPut4bhDyBhT29IF04PCaZlbxH3lu8ZJm4PEczlru5u5I9tXSJvBE1fL024QU8L/+mPF8rWb3UEp88tU6jPDCG1jzHgLg7qupxO5y+1D0S9cq8QZY0u/GZFj2VLMC8VKYTu5Igcj1ao5o8wX7TO1kN/ry6uIk9TY/ROpa7Z7ztP648CyI3vPkh77xxDzK+EDyAu4OycDzozM28gF26vM0YgL0GKCm6CogWvZcOqrxwK/i8FkQHvIORhrxZ5aq8+HLrONMv0LpAp4i7/HF5PITFkrwnzCW82oYKvWwmBz0Ck8I8/ag0uz/otryBL8e8T1aauyBLrbtnRAa9CZZHvAKQObwTnh08GwxEvDaOHj1dhOE8No17vKfrhjxpwoE7yPgKvL+5z7xhBaA8q3cFPRN0ZTxyqcM9t4ZRuq1iU7yRY7e725wXPBLSvTzK/P+85kxnOwuLOz16KFM9mWHuvPHCeTyNw0s8P5i/u4/FOjwd0hS8a33Pu/QYYryeVrW8tGFIPLs4Y7wqGAq8bKcWvAx/nL1l56o9eTm6vJNuDTx/b5A8AKJUO3dt6zySMJM8mv8wPCv4kDvWgY28Nr1Mu247FT09o5C8kaLlvMmmcrwsVDE7RE0nvUyIf72Pe6U8wVoTu5wZoDyIIsG7HtWLPVs3UL0cydE85SbBO5L7Hb3Zi/Y7EQJSPKPzjD0YUdO5hnbovFYaIL0Lm6M8hzxRPDHpFb2SJ5U80cGkvBR80jy1uBM9TDz8u/15V7paUta71jdYOtwZ6Dt5hzC9FGsVPA7ISrxKjzG87iAMPN1kvDx4rqE6iQB3PVDYzzxuBZW8NIaavH0wfbw1JdK88EgBvd/Y6Dy+V5K7RYXJO5zhbbpgrt44XbRZPMME9ztAMRC8rNRWvQoYgT3tCW48rY8Jvc07IL0e8pA8WmREu9Vm5Lz1IrG9w7W6j12Yug/kZ7oP",
                "aIi6j5Z0uo+rjboP5Tm6j9yWuo/Ze7oPDyq6j45Lu48k5boP37+6D4vPuo+M/boPyWa6D1xRuo80JruPx2C6jxhPu49AOLoPZD26D25Guo/WJbqPFzC7D30quo9TTbsPWAi7j6reuo8XTrsPBmy6j8JNuo9+WrqPGU+6j5eVuo9F/boPi0e7j+mYug9sbbqPl3G6DwRiug9/ZbqPdla6j0NYuo9vPruP8ta6j48Muw8qjboPCqO6D8Gfuo+pAbsPzTm7D2zcuo8cu7qPuJy6jzjYuo+iMbuPYqe6j/RWug+zp7qPY2W6j200ug+DpboP3gm7j1e/uo9+M7oPvsu6DwfKuo9iE7uPWKq6jxoRu49xSLqP7SO7j5Equ4/yh7oPQcm6D0kEu4+Pr7qPLY26j/gvu4/ALruP5j+6j5oVu486TLuPFRW7jxo1ug9627oPTFG7D+XEug8woLoP8LG6j3W2ug8QXrqPnCG6j3Ufu487mrqPHtu6DyEyuw+YVLqPLOu6j/wku48gabqPiSy6D8opuo/b/roPQZm6j9a1ug/TqrqP0T67jxI+uo8Y8LoPVva6j9xxuo8r1bqPCxO7DyU5uo8FAbsPo9q6j4zaug8yKboPIjW6j8exuo/6jLqPCeK6jwUjuo/MQbqP4Ey7j7kOu4+SyrqPdCO7jwV8ug8Y1LqPGO+6j0ZRuo8fZ7qP5Be7D9X9uo9JtbqPh7u6D7Nguo9uzZ++cWY7vKP/qbyFSpi86B25vFx95zwOjqe8fGJEvP5XJLycS5u216ixOk/jAj2a+iI8DOBPvEjDDLwTjfu7zbHlOvqV7LxkeAQ8j8aCvIfuIbxjhIM7dcBnPOaWIbyqFcA8e5ZLvMsEJD3rIfC8x9+avEtYcbwJXl48bg3NOvhtU7yKKqM8yFM7PKQgNLzOOhi8annXvH74B73UvvW8kVaqOfzF17xEZR683fMhPHAWprvvRzw9DK8DPBoD3jzCR268ew/GvEwibTwNe788rg+kPMajF72X01m8",
                "aL8mvbEp7byAQTo8ssaNPHxik7zkRSc7xop5PLVQ6Dxu/pw8o0WuuwJmKj20iFq8tkc7vEJUDLyMNa67cTY8vD5wZDynrzA8PryPPIv3QbsQirY6LHtwugn6zzxUxDe8pSDnPO8UGrxgWcO8o2d4vA5porxSFkg8kyL6vCYCwLnhPFe86oDpvBz9wzz2pJk8SOihu7Q03TySwZ88swwIvFxbTrwtKkw5Hzk3PHOOBjuTr0K8x61DvJDYE72praU8VTvBvJ0uPLyw7jU8KBcSva4UKj3/+j+6n2bgPA73LzyKxN08ZQ2ivHBFL71P8WQ97ynRPMSwQbzZa2c9b/RXvAQv37tspzE9I9nGPKHDE70FDW+7XlNKvQ29FT2LKZ88OsJEvcf+KTxHDjW6gFm7PE4CBbwu7cK6W72TvJwAZjy6jla8fhk0PO/JRT5/Hcq8XEUmPa4+yDueYzW9a3tHuinqi7xaat0737NQPOuOzrsbmBK8GEH0vHjXLjyhB+k7nAouPDnH2LoPYsG86rIAPZ3QVbz427o8XxdUPGojtTwZuSo8KlfMPOGc1T0P52S8n3+dvaDDVT3ZBCg7ipsHvK/Usb0hu2G8waY1vLjkgzuaV/67yQcOPAwHUTwt5gk8B/WxO5wCLDl2GwM8BQ87vMMhM7y1YYA9sgydPOPbRzynjeK7T1z+O90mZTylFV+8V6F5vQ/BODy4rui8NR+3Pd/prTvjvRW8Q9sePKl9sbyyIpw9Y1oJvHJvxjzFWKu8+t8bOUPCpzvqx0s8bQuNvKRjab3UbA49c6u2PA0A9DwH0JK7L4RXvBtKrzyD/8S7SChNPE/cBD2Eyo48ztcGuhJEKTwpeQ27AMMYvLHtuDx60Yq8L5abvFWHPT1MCv07YVHWOyhx2btYvuE8tmmVPKDPALzfUzG8IhwoPOxwDLy9HRq8hgUEvBHtvTto4X48xvSvO7J0uDxtwcs8bdF+OwATgTtrwk49xIwBOiAIc7rrwpm8rV/iu5BGIz1RIQa8",
                "BtWhuy3mDDxspAQ9N15wPFECTzzn95U85xPcu7ft0zkBMKw6GvCCPJ+ejz38Vc07YK07Pf3oyLwtVnS9wIgjvJaFJz0ri+G77POXvF+yJrzIzEo8spOzOy9VETxM/ey75r0GPGd6tLxDERK82PNDPBhoNLwwK9W83NmRPDxtmDyRx1G8n2n4vCYkATzviOm9stp5PCIQ9TxQOLm7vIVRvJQagLx6nem7CrcbPKkr9rz8ana8paJuPAx6BzxFLvi81+83vSjQ87wLlUs7J2eFu+alLL0fOqo7tKQTvI1c1DqutII8lq+PPYKdVrxrAfA6MLz+O0lIzD2AoLg8e74ivB5nGTzu+dK85iS+vON8xLvE+3i8SImjPLnqr7xk/RG7EW/2vFvp1DzoQDI8pzMJu1UFCb12CWa8Pmg6vRhqdz3/Bsa8U9WUPeTA+bqnKZ87bLExu246vjxvepG8fBaFvK7c37yicvQ7o3b7PB8kJr2DHMS6Rgcrvfw2xDzFUFM7uxEAPOyNNTx7msE8HTJRPUDncD21yFG8ev+PO1PVSry4FgM9S4VWvBJxBjwdKc68Fsi9vMWDuTuNiCS8EfcSvSar7DudS7O844puvIO/6btiHGm9WmqXPAQzkjp52tC7S0oMuzLkmblbsru8MsLdO3p1Cb23N7u5/GV3O1O2tTwUprY8ZRzUPBOKS7zePI48bLyavJ4AULsP21y8L9RaPFcXlTwaKu68vk68vCj6oDtbdQ487Tc2vVg16julrbu86T8DvX+LLzwZ06G8uP8AOnbgzrztJvM8FPJFvIcmFb0jWF+8fxTDvKSdYT1ZyJm8BCHGPI2MqjtDU4W8upHwO8SK3ro/RJi7wKiDvN5XrrqWrj09rG2XvNYfwj2kwYE8QrnRPQpwlz1TwhK9kOsxu9HamzwSfAk8kG8Uu2XEqjzY/Ba+LL76vNVgrTyN6BK9Mw6dPA51tzztm5u8YkmnPMJsRL1zHCc9aksivS2nPD1ANMU8J/fnvATNHLwhQhi7",
                "331MPN/wAz3IcsQ7F+YZvXFnS7zr8Fe8g3+CO3H8WzynyY26ZpW+O/ReyDtOC3E8Z1nMPLENgTuKn3K9OoniOoH7ST0eT408i6kAPWtvXb0vUMC9II0LPO7Lgj2V1ci6E2kWPZjPLbwr1jg9d8VYPLH9cTmPoJi8Py+nPI7MgbrqUDO9LR83Oelh8zu5a5q9un8RvdN31rsA1wi6rYKrvAdk+jveCr48oGWpPHLvIT1MERI9dKXYPOMxGzs8MAe9UILtvGQ38TpA1Gq6nU/TulEnOr0beH+9SiOguzF5NDzy1pw8TkIsPeBHtjzUvuw8ewUmPfb+5zwplHU8MGETvbd3EL3UYH285BcTPSvqMDziP+u6YkWcvPDOuDwQm1Y8P5c4vapjAzxgiNG6d6+/Oy4PJ7hla4e8ZfU7vIsABzuiTYu8d0bcvJCL2bw5RxG9OidkPDNambwRuVy8cYIZvKaDgD052Oc75KL4PBz8iTz0sp28YgEWvSmE1LzRzTu8qYMJvGnnDb0zYUG8QT9/vN+4ET0tN348F3AIvHe5PLxXCyM9LTVJPBE+NLxofbi89wZ+vB1wyjsU9kM8+hN2vFurzzyMqhs8HgLovEZREbwoYbw8+qlovOLW8Tyl3lm8n082vbWiKLyI6xM8es6zu4jD8TweXRq+MdVUPUR02LsVusY7XaVlPW9cbD2AtL28WDorPEnxNL1KxtU8HcUmPa8dEDxlAhk77SqPvfYuObxZuLI89keNPPtWQzy29OW82vwDPQrqTj0ZSHE7kGGivEKJ173/snS8wkyqu3oS3ryUmLM716knvbKGRTlzgiC7ssRJO6zGQbvlup88g/c5PTSKqzzyfWw9/6lHvW901DxP9f48bhXEPQjBBb0/0ag9Q1R4PPsMW70DmJo7d40UvZb+cbz9uOk95NN8Pbe90L3Oa4o7i33Ku58nHbx/EUw9lliSPDK5i7jWOgI9u655vV0snDy3JBc9n2EUPciv4bxkyJM8OyEBunZzpLybOYa9",
