{
    "input_shape": [
        80
    ],
    "hidden_layers": [
        {
            "shape": [
                140,
                81
            ],
            "weights": [
                "kPnfu7wUo7z3B7O9mM6TvawGWz55Cio9VjbWPaLc0z1R2ga9FqU6PRIThj30BgK+kkrePbm6az0mxrS80omPvZz/Kj22Bw68ULghvdIzhjzwFS49gboTvUSXFTzOKOA8PXiyPOodkTyoE2a96O/UPCQRQLwZAgg86CMLPYJ857vhexo8CIM+vZdSrLst/a67G3w7PQtW9jwdTNi725aYPRZElb0axY48CcyXvcAzhruvB7+67OhsPIHTJTzVNx+9UA7TPO5DkzzIXoe7tFtKPD5rMT3z4/E8Uq/ZPElbXz3uuG07CfBBPI0G4rmdzu679CYzPVp6Fz3MaSS7uclgPK48qDrMGNY7RwuHvKh+rDwnbp+8KwFtPCJXqzuAAgK88ZszPHpJvjuUQo+8K9VhPI7qyLyquWE8b0RwvK7/lbwZRju+CSWUvUzioD49d/m8clDuPMqp6zwlgGS9o8ecO3fApDvan869LHMoPHVT4LysLhE8U/YkPesFoLxo1ce8I1hEPWwheDxzvka8BrkRvqUqzTwilHw8j7uBPN7BZT255ge8WfnJu+O867vOqlo9L4yWvEhZa7tLAIs8bGrEvL4P6LlRKrw75+t6OwONmrxTfZ669qDBO1NVYzxY3JA8HA8DPem/CL1H8Xy9JtwcvpuHJj0MVQq917cUvY8lKjzSEAi8RatJvMSbZLxaj+y7JnyOvOIXpLuKkmy8U+bWu4ZgWzxENHC9xzaJvBCucjy9wTQ8zHzXPLFOKTw/dIC8jVqwu0wpljsWy/I7pBZvvN0JlbtDjVE7nlo1PMdkLL2M0w69gRAVPNpOozt3qw29TLLvuyRwTLzlDCc9TQz5PJx8nry3NlA9uY8QO2OsfzxV8ra/48rjOyBq7jz2L+c+NgYTvFAm9rtE6FI+aNXGvZe7zT2hN2688GbmO79EXbvKMBq8pQNQvZDqHrtmCTU9/JU9vJiRW7sSpvy7hu+FvMxRsb1pTlQ73qh1vRR5AjvkrBY8vzhGu7ZwRzsfwhu9",
                "E9MUvB3qBTrmOxq6DTkvPBRpAzz/nLe6GIrSOh8tOL3inJq7L1AjvULtAT2SbbO95RFePFnhzzsyc6s7TIgrvMCdnLp7yDc+gjbHPHyXRbvJwG27686ju1z8vb3l6O+7A6vmuyUVKD3D40m6yj+Yu0uU7TrvZWw7JMEfPKVC6DoWO+c6FxfrOtZX6jvJ0io54n0fvGxu+LqBShQ7VHCaPC+guLs3Wu27IQ1nu15M6TuKOlk8wiI9uqvuELuRD4O7jFRxOlYtITt+Mp8+Y5sfvdtQJb5Au9g9z4txvbwknb0EZmS8+fKfvYqJtL1WfsC8vj0qOzLSPjy/yZs8LqFMPQclg71U6+m8VRr3OtQ/RzwQ6E+8+GTgvdEtrz174fU8Qmu6vPzJKTu8z4s9gj2IvADeYLxhhRs83euQPN0LA71wYE26YQmuPKvBqLuEIwK82VZDvZI3gb2+UQE9wW0SPHp2eTyQas88x2t9u/MPKr3LnyI91dMjPPGhEb2lQdY96y6KPa2xFb0kRIY8QJkAPcIb2Ds4jBY9bxNfvRv+mDvL0Lu89W+Ou5Z11rxGXyu9FAYovbApqToRpE28SQAgPTITnLwoQzE8DGNMvByGFrzYgkm9cDVrvMKt3Lxbwww9q3ybvHgvfDvG3gm80YJjPNlnsztoir07jDAJPH6Rl7uG2Tu9s9VTPQEeRr2PbFW+4Vw5vcnd9z2tKgY9g92UPo60Mb1Vy+e9fPfsvSyYojwmbDY9S//eve3osjyW1ze95gElPe4XZz233CG9+IKHvdrVgD3MbKG9Ad2EPFHX772ooGc9H6mNvTulgT1M6Ru7jy3RvLpVGT0Zss28p33JPMTgkTxk3Ik8j3sKvaZz270mEGq98y9EvFljx7wTo2k8W5UbvZHIR71w9jG8El08O6GBbDza6Ss7UwJTPBtK9zzHLAg9a/W7vCJxVLzp80e8pyp0Oh21EjouAQm8mQtIPMmCEbtWbyc7J9IxvadjBr2XPwS5qPcHOyhgnbxyaMU8",
                "1ouyO5VoFjxRpDy7hx7tu/pbqzzEPoi87f89PYLJm7yQmHU8pHBiOzSVWD21R6U6SuqNu39E+TuVDAI9k4A8u45ikTyOSWU5KPEZvOINmTxB5me+NYUnPWlQMz3AM+q9X9IEvtgylz0agJu9S8UmvjOt57zDleU9WIaPPVXZxz3md5K9IQoBPkpBvDx36zY9qCGPPG8BzTwHbkO84CgVvilZRb4jD8K82CsYvQMRSr4uRV47QU5gvDCMMjwDNRY9zV96vO6/5zvt3hE9110ZvZE3Ub2QKii8XxYhvewCaLyGgya8I5xzO+LspT2UXoE9OlcqPc+UK7z4+YK9B3FSvQ3KV7zt0fO8ksagvZPRkjw6Hl28ohbePN9D4jwwy647NAJzvGEB07vMhWa8G+QdvWAE1ryjZsC8dRbourDKZLyC/Be8cmQmvLp1XjvQ4A67MklrvLsJwDv9fHm8N8GgOlM7MbpBBxq8CYFhPbeX1rx40ry89h/qO/0fPryxocK8IZKRO0xz3bw8LG28hEWmPKKLyDuJxYK+HUdOvTPKNz5mmJY9rRkfPEWPJr09u7e9kbG8PftbgT16nbs8zsoNPvrAyb04nwe9UllTPNedPDxwlG49hyJEPSZXuDwukjq9spqKPVFAfzy7JkC9Dh5LvVr98z2OPlO7+iItvZizyjvpKKY8GtG4vC2D7zxHPb097uSgvSoGSTvWZGo8EJk3O8PmvTw8yT28xGUJvOaOP72cNDC8hecHvRZmpjp7WAK+BMOXvRZkCD09o8w8/n6+PM2NBzyGNg89fdxwvOMVpDwgheo8hRk6vaEqsb0bQ6i8ScKyvC0FgL38OQc9jTgGvNB2ajzCC507TjPqPLiT7rvQeAQ74CgWPMarlzwdhH08USisPeY9drxHuiC7kOsJveyYtTyaCK883BHIvIoOCr3c7+468/KdPDffHbyiFK27dZy3vGF+Uzz0T2q9d5kLvSEvITsoDqw9tkCYPdCBmj0/T1S8d3ayvcXSM75+KJC9",
                "gOkqvsESpby3kZE8JCdCPDfcdL15lSo90eWlPMlpqbyvR188J6SIPAmppLw/da69FyoEvUGVnD1pse064+7APOJ/XTzSrRc9hsDxu/Vm0DuX8Bw9/a1TPfBEtLr+6DW8c/pKPMgJKz3vfbY8oLxcPeFWsz3gkMa7AFeWvDnAwLz9mbO9VNn2POeeYb0sd6e773R6vMTISbvzL6G7I0eTvd6qJTzVFZQ8BYmkPP2wAjwGEFe9k2qDvVaQCbzicjq9cLsivYvtDjwjOsG8zBcaPHa+nTvrLss8q2cpuUt6Cby4Bwq9OM3VPGaRU7037qA8v/qdPDS/tbw6RDe9f9hgvHvi2buY9SW9BoMXOmdUizzRpr2833UHPXjwtbxNjKu+PcoDv7YVZD4+saM8O7M/PZJ5+LzPH5O9M1sDvX8ElDxJGuE7QYkLvCrGK7uHOkc9kQ6yOyTAGT39xUG9/ungPL+mQbp7zEI9FNIUvp67Rr4nnC47uoQzvfUUaLwU96+7NcoMvOrJ1zxbQae8hk7nPEnxSDxz7pU78BI+vYJsNL01Skw8d+KcvNXPHrck3I28EdmrPBDOhDzowtW8LEyCuh+AN71j3gW9wR9UPYDoRT0I2Ow8aZU1vdISOzyuj4S8VLjVu5FagDuJone8XmZRvFLlKzl9gw47dEqFOz5lKzybOHk8QAEbvK/5BrwO7K67lpp5ut+jWbwc4XM8BPDDu10RHjvtbZm6K52duqT8jryud1S8Pt+FPDKI5byHrMs7+XeRO5j5kbsMDgO84GToOsu1jLyzduA7v2L0PH+CVjzKT9e9ybZhuuEo7LxGCvG8U3UHPcWgFL6Z6926+DPxvEomIb1XyAe9IijTu/qUNbwiVzg916fOvPyHv7zoZ7Q8lTUtPa4Ccby+ACy8AQFTPWZ6Fj2EJI27jDYYPe/vyDxuWzG80Yq3vb+0GrxwXbE8GHVePKxPETzUxo06z1TLvCs/Kb2zlxg9eGeHvavVljvs1AY68VwhvZ2BGbuzGX69",
                "We0KvKbXJb0WIEO9E4vBvOUEiDwx5kA9RCjsvbNYwDzUdFE8eWsCvXqNBj1MnnY947amPZOOK7yeMVu7h2S9PKRu2Lz9y4y8hbccvFZsqrwuFpm8Fj//OyncALzylhg8FgqKvC3kiT2EMZi7xLifPFykIjxofsM8/5gFPWBAhDwKNQ68mWryPMfLlzpd0gK84cwdPYLo6TzZzhu87Bj/vAd32DxK5Ku92H71PHudsz0z3Kg7i0WKvRJfqryVUwE9uVWBOVxwvbwmxwY+Nd9ePT9GJLwWt/69cXPwvXAwWD2uTie9yDizvQpIAD3zNeA8OOfQPlbRrL4M9i28cOY0O/yyeD2PM1S8A/1iun8QhDx0PqY5t4uBOlkmH7ztmLG7R8+4vPgChD1a0yW9R8S4PAN16Lqs23K9GK2KuzLP8b0Q/9e8GVwYvbAEsT0n4l69rulrO2tbUrzuv/I9OuMbPGAbqDwvNpq82l4YPc9sN7zenQm9BBkkvIYTmzw6kTg506cQu8myxbs/K747bVQMvGf+obtji4S8JgzDvN9CazxnRu86icOPO/QbirxjZAI73f0uvVqCizxQ94y7hlhHvZ8t4rxjlR89fAqVO87kxLqO6ce8yayRPPYqqTs7isM7gnGfOxkM+Tyulxa/VdJBPvtsrbwH6cE9GhPEvSmQSbyfzhK9pgOJPKng57wXfUC8GiiyvOl0bj07/BC84YsbvY+xmL048GQ+wl0pvTAVcj285wM7hrcMvWSpbb3KanU5lwa6PM8a1rsI9Cy813agPCS6xjua9Zw82+ZduyjaDjs3yxO9s/mXPYhqmz1Lo4w83SSIPMmfKDxgIfK7JYkqPNgigrz+kjQ7KZweu5VrPjyKMLE8EQSjuzDpY70ix7w8c6JwO4ZtkrxXU8E8gSWHvDtqobzPe8W8qqGeuxbqKb152xa78lCJPBX9LrwEXBS99nFLPeAoQD03PQ49iE9iPFCrPLwM2Iq8YU2LvGysELx4u8C8QI3kPJNyqTojbTG7",
                "lOcYvRbjSTs1gVS7Tu0BvUowGzyhpsU7g30XvSaeTrxXNx08poHkO7zX7bsT5Me8kMySPe9tz7ypWwM+Y5BXPjhnHT4fz9i9qL3UvBMavT38hmw800VnvftMrTxRGm88PPJoveatQT0UyZm8gxWlvOMlCT0FpgM9nz38vGSSgb3GEuC958d9PQeKIznBYgY9IOsSvWFCN7xG0iq8gDtFPJj56roglBE7wjnKO1GCSrzDCm68XM+1vE996Lyxzny7llR4uxODnbsaFRY9RBgDPYx1zrwy/5k8sFzTO3orqL2XmY24eILKPIFE5LwHDoo8N5qlPDfho7xZbRC9y2AJPFURajypvju8Oorpu2v9S73pH/k6ULAfPZJSdzx/pY28/Z1FvfFjODyEz8u8jDcePB7hUbwpKEy85JuAO3CJeroHFqG8gZYIPTvXgDvahhA8JnPPO9USgLxOvZc8RWbxO68zNby5kOi7L+WEO1PpvLq2VpC+3NsXviSf8b1a6xa9e2SZvpR75b0sBOe8DmosPc6lt72lZwa7ln8CPVkm0byUkhu9mzwHveR5mD18W6o8rQJWPTAKLLre4ZQ8xq4GvtcSZz6swFO9J9b3PPRFcTshwYK8j8pCvQJPMDs3l0k5a+oOughYwzv3yWc9gka7O6U1oTy2Wj+95V5yvfTfzzpvKD08jLf6O99DJz3Vbhk8AzFGPcV/nDzm4e68cTGbPKkyML2JgHy8GzvGug0cpzy+ZP28dlElvX0WPjy6gIA8WEEmPO9EJD1OOBe95VuOPBZaw7oE9Dw8Q+DsPEMpMTlGMhw7VXQ+vVQrWDyxrL28O/aIO+xw27skSzu8x2qIu416aLxdahY9fJcGPCwZK7wH4Iw8VfEQvNL+sDz9i4C8JiIsPBocRr3g5G+9PYqQO8UplLt1K9y9/NNQvf2m6z3p87M7H0+Hu+T7az2csBm6q8TAPcSLGzxxH5i9pbQAvbFIoDvN5qq8oN2NPLqdvruDTqE8DbkEvTjFh71w3g29",
                "CvjUPICNmD1wS/y8dR+bPa02szxbYBq7fBoevh4lBb1VVQu9blgAPY6L7DwbCVE9vSZjvZu8Kr1CWZC8vd3uO+NYIz27ZkQ9bvvavE5Vsz2WC4g9dP/qPD7SFb0M4lm9O82PPCVOWzxGuKC8gCzSPMQixzzNXoo7Gpi9vPIj5DyyJI488ml/PYA2hL2qcYm8zztJvBIpYLyHWuc7lb84vYyYkzzpYMw8bNYAPVsEhbx2jN48S5i+Ot7KQT1luLg8yhmavMurlTzc7M88t/dvPUjw/TqcmZs80Ytiu12zsjtiQRk9EgOKu3cOM71sAZ87zPcgvN6OP725c0G+WyWwPMADAjzqvvu9oS21PdoDHb6fT+69Ux2hOrTMBD6Jkfo8TUOXPYev/TxEMq67x9L8vSX4Gb15DXy72iemPMFb8buu7yY71KKAPknKkb3v1TI9YC4YPWf+F74mza+88a3fPFpzAL3k7E68rGSlPOTMh7zJ2N08PLa8PTy6lb00znY8D52OPP+dcrw7jEI8l8MKvDaKET0v+Aq8TmWSPMUtBL2abEC8dX+pPdHsO71JISk9PXnOPLr9e7zFuje9RFLsPGj2cLsJr0M7r1c5PLZGnzyesmk8oBAXO3L0vryZMCK8a84KvEyjkjxSbpy8pjPXvGV8I7ylJzs75q6Vu/GC+7xb7AC9jaQBOudzzbyPjA+8owcIPW7qPz3Bs1I9Im/Pu7O8ALzf/Xe8G+c3PMl4hryMxXq9GSCyvIUetjy536m+JVvcPISUED5zo7y9VQKMvWI5hr0XOTk95jUXPlJmLT3ExF29cqugPRVRXjxEzWE8s5NrvZGMPj2GfJg9lfXVPAY/4b0UY+o8ZusXPdMFxTuRn4E9Hdr3PSgvbjw/zw87cYQaPQ62bT2swIm8v221Oy0VojzomiU9EBA2PLGWkLxbKpI8yOC6uwDCHjwzetC81WwgPTNhDTxaeOS84mioPOsoRbyoQwA8vVydOrE4ZDsq01c8xGjBPK6Nlzwwrxm8",
                "t3DEOzHZ5TvXrAU83503Pdl5bLwtZF49i7UfPV6eKjxH6Gy8GLSWPIf3K71KxS29H2ycvBBD+jyMZym8fZMrvb1ExTxQJl07rtnFvEd0sbuxjMM7NzjLPCyhKT0FV/s8j5mWPIjxcbz2uyS7q+DSu/X/Mb3oXp09y919PH3bBLygVW++anQTvImXprtZTBy+plXIPI/n8jmitmq8L+qJPORupTyLJGw93nkrPVaf8LzYK4u8ieuPvJ3NRrv1jWE8AomdvH8XgTw0e4A89bbXu2BxZTsbmBk8koT/uyAmaL1QlUU7Lm+JPoWj8zs9ERc90nH2vEoGEbzoxpC9OlhPughdxrsr6bg7dIAjPKEftzvnnL865VhNu0DSrDwJIFg9FD1zPZ/jiL3E8cw9hWiVO7xLYLxxfBu8tVQCvGNuITzG5SK901ytPbjuqjuungm8l1enO7lX+jxEsho7cuUlPMuFyj09kB48kawLO82HCrwvNDa8t4ZGvAjwE7x990I8zWlwPGvea7vM+Zy8Cebqu+opqTwOFIo8SdnOvdUUL7ynkoc8BH4nPJtDy7oLS1C9/fq7O6B5KLyP8cu7KCiUu4KjnDxbK6e+m5zlvFKZkjkc7n87Q8MqO6Cj9r0ePOe8YrJXPR+mID1mSEq7e3ZlvQRzo7yerVe9zPNGPbVsYzxkPv895Nm5vOE21ry84tA7eXVWvqA3zL3Yp7S7tGievfMGXz1GSFs80H+bve4SuLy3kjM9PqHpufGF5jsZr6I8Md1kvnvbPL1zVvI8EqPtvOAhlDxi/m48eVLzPIl3F73oY2y8//WsvK3N/roWSlE9J5nSve3HDD2AREq8EqlDvYf7fzz9aB+6NPcVPFTUKjxa5+c7fZ9rO1n5ED2qfbi64qIAvZ7wOj1i7Wi7SJAAvc1VVLu6lL68tZa6u1KSETyBgEy7E+M5vLr0tj1z4Vc8kR69PG2ntzy/hYi8Y4qUPP2yBr3KozW90GK/Oyoax7kjN3m8MRIEPIUYHrzoAeQ8",
                "QIdVPOPbmLysvY09JXYZvLhxN71W6Pu7qq0IvoGbRj1fa3Q8PPw8u2ec8T3KlXe9TZdlvA7V8LzwUWg9SohVuk5/qb35N3U8QdqBOxePlD2WD+K8gC4KvY/KIzw04FQ+d1GAvCjIgz26XIo9RpjfPReXhb0kdSO9sG6HPG2Nkbvk6zy95NYAvJrWID1JoRg9cLAmPFo8Mb1+ubq8kNZRvJ+cDj20H0m9PeuLPLGnYLxJfb48WWMvPWbDbzvK5fk8DGwdvDe8iryvv3c6ZqnwvNe7/ztvRje8fSuVPDM37jxEsx09rSX2ue8kND0P1UY79lg+PaFcmjxUjvG8NbGRPOUBQ71hbYk8fziJPJwI37ttOHS8peLZu4f//zpT5hG8NInQPJjKDTyIyoI8UB/eupnY67znyyO8hKyiPHxUSj3z2zw93mmJvLZ3PrxByfa9KlaqPY/U3z0IruA8roeLvjy3v722ETq9ZUu6PM1f9jrqC2a9vfcKPi22Az3sweq5tI2tusWQAD48Hke8sR6TvYaPijr071I7ZlrBPHL2vrwjc8E8tFPuuu7kWT0nXZW75RA2PX9RAj1qhco8yoppulASL7pIRt28tSzTvE4aYz0MttY8VcqVPLAIrLsZTYa7p3BdPASh1zzO/sO8q91cvHEH77yN8QG91l5BPN/4AL61wcs8Ix5lPEvTCrz1HF+94Pg1vfH80roePv27T+KVPBgeiLpNogq9TSUOO+oiXboLrak8MVaaPNuhnjrxhqG7Svi0PJultLzK9Uy8iox5PNAxTjumiVK99OWCPLhY1LvxsjM9hSTLvA3+KTwTL1u7eX8DOgQAEry0YnW4nHyfO2SJDL1eL6u8M6B8PBivRTxfijO77nLPOn+jQr0SNOQ9up+kvXtMOLxg7Qu7xrZ2PWmWDr7O85Y9hKkavq9rAT10iH+9HjnovXJvBr2BNBs9M6SFvPQ2DDojNTq9okVmPGiBi70p/KE9lDHmPO2Yjb0838c7e0pavTrJtj1vQE49",
                "yZcZPFUWEb3/iCe89pyQPPAAGD2O0GI8aHCwPH+Hzjw3avC7iLKGOy3Jyz0N3pI9epMiPZ8Xi728AKa6emD8vCWJsjx+s0s9DAhbOz0UvTvcqzQ9XjOvPXd1IDw1qrS8Bud4OwDngDwWkF29rzSqPILzYbz+nUm9WoNhvYfIXjujcAI8HC9HvBZ18zhVdxC8NYmeuwztrjwYtFS8MGMhvLGChzw7Tqm7Nm+5Pb37Bzzrvq08714DPN1rV7wbfTk9Vf+euwssgrxMzIu89qDUO6TGrTz0p7a+bn4ePc1W5bxp5RU+w2JZPbK2BL3hjWs83tKIvMDW5TyyoEy8IWS5vYukgL0UK1+9E+UZPXNGCD2/eya8o7z2vcU6bzzEOzI5P7o0vgBVxLw0Rkw8k/b7PHTrOz6WVOS7iAnWPUPvsDw1e/C7PZg2O2jpwLxCC0u9BJTAOj4K6zzmLgc97RTgPDMd8TskgZ48Z6B+PNhXm717pNs8q2iVvK7BkT3QGHS8A3gQPMaeCjwpIiS9q4xrvZAvAT11KGi65ZCpvUMwoTw/+AG8pCIXur2LkrybsQk9mcnivFnp/jsKHFa8lIXsPNX4c7wnp0W8NbtpPRsQtzxkZw68bGWWPC45nLud9ky91WiYunaK5bzvNUk78uC5va7407yE25e8SAZJO6icn7u6qBw9CFClOzguED0DAKU7d5nmvIghPDzT71a+B1bTvO35yT1j/xg+p6bsvMCxvD3bDau9KAEwvrAl+LwfI5Q87yxgvctNXL3TsWY92bM/veRzn7u+Yj49wb7HPLiyCrtr0ES9+K8qPLV9g7s4Osi9u0/KvZGWDD2ntEO9axF7PKDLlrwhc1k9XjN6PNmvsjvSv4K8PWCqvAfPobtKHO46Ou8CPXL1GjyVcqC7p+ttu8YaQTxTjDy9VEaaPI4m77i4YPC8gTElPLWP3TwhoVe9CqyRvHXwdjyQpZq8kkQkPbUbS7vx1gC9v2ZAPOfgGz0387U820AVvZcdrTw1P2+6",
                "DS1nPFStyTvD5VG8MJFvu4ZAdDp2tyC6QxUUPJCVYj2FUhg9CYqKvPTliDw6OTw7WTkfPAtjETyj3hI8qeFwOzVtMTzczVa9BL8LvI+ELT24C0y9AH+5PKrnS7wrwg2+kamfvIOgH77ZiBy+g7sbPg3YAr6OvoA9LYpRvbm4vb2PXz48xlnfvZbZqTzw2EE7HrplvTjVh70gu/C7968CvTOs+z2wZTW9PbRJvZS0KbwDRYm9gp9fPbWMx7sM+f68t8cGPDZ3aj3V/Qu9//URvR+1jrx8Gl29NtvyvPngi7yjuVw9S/MZO6JDx7w9GQk9LaqqPNfZcbyF0iu9gdkiPSjkPL24oug7R/T3vFSj/rwVzga9NEY+PStlRDyykh+8QmASPDqiOTzK7ME82lOVPNznmboUo+W8MAjbvBHKBjwbDlw8A6uIPMr3nzz6vRW8sVeAvMVpEDxnanA8lZBmPA5k0LvYcGa9sk1XPDQPN7xg5Dg8LU34PPdIPzxyMCG8nJ7MO7OJ7buvuxE83YDcO4UKC71TNoq83azuu5lMSDvPoVu+skKWvcKsVTveXwU8LWPyPaeJJj146Zg7vpKSvY6YRjvVIYq9VVAlPaSdnzvT5Wa8sdGmvP5aPj0BP3I8wfNuOSYBjT2npUK6cH4IPQvkGTo1JX48WN7yvTL9MzyMcgU979srPSin/zudZ5G8tZhwvbbxwrysj7i8VooAvRfFAj1zi7W9XfEUPK4ij70WbcK6hC/KPBaWXrz3s748aVZQPHP8Fz0vbw49sBF3vQv6Q73uL3E7AWN8vQQiAzyMaA68PovPvBhUQrwSFJc7qvtOPHcW6Lz/J2O8rTEpPdumoblnlJI9sum6vRK+1Tw9pTy9vyAyvX1Zgj19zuY8+m2YvGxABD0+g6o7FqXaum+wc7z5KnA8dXSsPDGD1rwKo+48O94cu3aMWzxcmRs9ez/XPEV4gTz1ZFu8IOdOvMzvnzzIKwm+xSNCPT1RRL0J9TO8XuPmvNoHhz0jC/K8",
                "rkC9vWIAH72E+Ya9pr1IPtxEezz2W+g7xb2PvOBT/ztKM1q9tVY/PasC57w8EJk8z7M9O00Jdb0X79K6f9i6vTOo2rwan4W8j4zjPF01oDxPhQk9L40EPc/Yab3tebM92yIbvMK5Rb0JTHG9+A2CPZyceT1yI6g8HL6evMroZbk3Q8M7f9DcO5FDJTwbfyQ85acVPTgq/rs92Fa95oRivbPjfbzrxp88qYWiPfORP7yCTAm9seVHugrfiTwQdVW8OdSkOoSFtTx/nBa9ZWMiveYizTuBPcE8hIuCO2TjLDzB+I88O8JPvJr4U72lEMW7Io5vvQlFl7tZSdO8XpMxPS6AHbxif/A7NZJTPM+z0Ty88Fk6J2+NPA1Eqjw7oja9oe+0vMM6ojw3ET6+KFcRPCKePb7nfMY7YLe8u76DhT7Ao7A9GuqQPONdfDwg7JE9q9vfPNEPjLzRdCc9jDkNvS5R4DnAuxY9iiSbvKLhibwbP4O9TjRjvmSauzt75j89HeYrvCqaOT26Uem8LjPBPevVHLvah6C9ADgoPIkS4zsT3rC8piWpPCAiJruu13Q8YTaLOW7UOD1NkbS8+AeJvA17ajzTeKA7XZ3OvLjlrLyfgpQ7jUZFvcl1EjwotDO9lCSIvWmnrLtg1rE7X738u5qn6zv6PRU9vlxxva70X7wEY1Q8VRtMPBtVL72jFr28igGVOiHQlbwPTKc80eXfPEHXr7sRsIA60bOTPNksu7uPylG8ABFRPO1Tgr3DB1487oDGuwsQJb0N0S28sjSnvC9vkzzs8y26aSz7O0SyDbyo2Wg9bsiQO+zYzzu+0LO+ImS0vIRPI7zFAh0+rZCpvQnd6L3ywCM9cfvSOY7UCj6YrE495IiqvWjRoT0e8yk9CZIEPgX65z2TVKK8xr+CPYuZzzsRbZO80t1BvqdySz487tI9i5fuvBu3H74zbns8V/DHPOz9Cb119KC8kJHOuw6mHr1pnmO9mwiIPR4KFr6Yixi9jZSbufPP2Tw90lA8",
                "bs+iPBasajzoJjY8p4PtvDHR2jsAtYY9nzSfPDVDir2HWL+9oKnuvHVIDrzz+xY8NgF5PXj4GbyRBfs8rs6gvEnD4rwzaN87PYVmPBE3Lbyn/Wa7LkijvLsBhrvpoko8MvC/OwLWyTxw9cq6Fk+EPJIIC7zTsKk8mMvevKNu97sbI0C8V6CpPd5j4bxPLni948dyPAzPEL1HkmE96+VDvO5xAbbHbdC6jt9+PDUjCL2e1JK+5odlPdS1kz2Erim+DHSVPKdfKr08JE49fPXyPGsuoL2UPnY9O1blOt7IFD1x7We8ZLgwvEQxdb022eY6f2GLPTZ7ibzXAkI8YZgiPUclMr2lLpK9A2AMPW48Izyk6787KG8Svpwx47yhcSe9NfMAvTwJDruiUPO8NuIiPO1/oryj1kk9vkf4uZhJlTzOl4e7ZZxGOzXUGD4irhq8ibApO1v8qDvVxz092sS4vGgEEj1hzKq8TarWO0S2HTwXwJK8qkAEvs9GMTyw30a8WvXcO9oSCbzf90a8RJnaOzaa9zuxkbe7cYkOvIISlDvQVci7H+Q0PGWoB71Ywjy9gGndPIConLpk7Ik8AHJ9PT4t/LscTS28rJjvPAVRrrwQWLS3CACmu5CrfTwXYTs9Oll9PEYJvztp4uA8pQ1XPJAoNj1NKJ++iK+gPVvmpjyDWLo9AObTvMdbkr2TOny9hygIPscJpr0mFje9rqOmutQC2rz/gAS9Naq7u6GgrTwEwjG8zJoRPE32Bj6kgQu8lHo4uzgEQbwsxS68dsRAPlRv0Dt8I4w6xoaQPWjgAD0MfES96yoNPcsW0TyGOsk6s80FvbNDITzZ8gA9aXbOPIFrTb2I9/s8tXeGvTXO07v3j5w8MOLduytiEr0jMak7C/YXvdHTEz1ykAa95u08vN3PYrwYj5073OiDPYeHobwm8tS7VJE1vVPowTtTCjy9UpQkPHFmVT1qZ1e8ZCMeO2De7TvcoAe9kmz8PJipQDtJN76779OzPCnwIbw48gg9",
                "9ciRvCbF5bs3RVa6uUMzPWqYq7xISoq8z99evDCTMzxuhkg76DSePARkZ73Ae4w8L+dmvUOrDL3n5ji+iL2MPgznUT6EfTe9NrWFPX5Maj16li4+sf7BvN8tGD0Kpis9NBOJvJ/7Ez0234097W2gPUZIqLx4U9i6AykUvWWcFjuSsEG97IgRvv6Adz5H51w9fouuu/yPKrtfNJk6BXQcPOPxrjz5PS48SkcWvMTrbzxfb/O8ExUwPev8Gb5+ZIK7gg1KvL9Ijry4QxU96jmSuruykTylPlE6VK5Ju12mQryIm5M9rTLFvBDzVz2975S9l/8Ku0BVETnyOFY8Sy6WPK2hBLxrdLC6n0ffu6yuAb0Svag8UywsOwk6abxQBWO8soxGvVB+jLsda9a7bh4CvLMHKDztZKQ7MuM9u4b6mDpfEvg8dZm2PIC3vbuMVBu6HB+aPPc7Bjz4buC88uETO8kag7zXTYE8kqQ4O4vutzkpnmC89DwXu36JFb3l1RK+kjT+PBjCAbzrwxm9gIHnvEvqqL1fzW280ZhMvEK/5r0XACQ9YPQ0Ptf7srzVL9e69mg3vdh07T1mwZo8Eo2wPPL4xLvgep29J8M3Oz1jUz0UKGK831DpPJmz3LyY1m68OmEoPHnw+bsPsiW9eUYLPOdAED2ZhB49adPBvHt80D3xJCY8Yqj4vL7j3jtr1Qi87j2UO932nzsQiw89INfKPDQojr0B/qe9JbAlPWxlETu9iFg8TKtFu4DOsLwmkQS9rdi0PCo/7TuboRE9piQ9vOhJhj32kTy8cJOWvDGWKzt41Qs8fqUdPRBZ/TswE5g7k3cjvaldtrz3pCu80W2cPHh7RDqRiqI8XWbFOhQ3lLweDo89mdQRPf2opLx8/Yk7NgmUPExePDx+27687eBEuwzLxjxguSc75hr2PFppTjxKMr+8HNaHO7EkJj0eVJq9tfgpPRbjmL39xrg7YHELvQye3D28V7m9dCqluzUqxLw0kDG79PIQPTITPT3cPBe8",
                "lcM8PLFPVTue/I69Ddw3Pej4kb2fvaW9WOaDvU6zwTxzWwI+Cv+JPJRuVb1fmSM8pIVBu1dQjz1kJBi905IzPCwQprx/SC+9F0YtPAQtCby8QAs81H4yvDAQ4Tvs/Tg94sGCvPBZLD3h7O66aKDBvNBpGL2EBke9r12zPMVJILwNm968cZ8tPA2eSzv8Oh29H+sYPCErj7xavKc8u0yrvIBeBD35cj68k4vEPDPxNjor3Gq8/e40PCgjOT2eiak8Y/FQvCV5Dr1Wgxk9a1uzPHlgKT39hbq8GTPQO998Fr3cQXe88LcZPJoDJLzRWIO8klRrPB/9gzxwXpM9QLolPSOT7jog8ei9pNYKPFG82zz+ql89tDgJvWgWBD0vTeC6n0cxvb8qBL3yfge90aqKu8RkhL3C8/o7/eWCPDx5m7vENMS8lgjkPAdOWrz6lSY76Y8ovgjQ5D2hAaC9nxbcu+5pYT1IHRi9NC9bvbdJujyJWRi8go+ovKLb1TzB1oA6AHcsvvSTIz5LzOC89y6BPIcn6zrE0re8/FVavMyDRTyWBL08EAaMPIpQcDxuAcY8bBdVvc3BBD10b4+9vq2+vEUzszqfDg49Xoaxu5UxIjzkZTu9ucqxPWll1TjuKnu91HYPvMgNFbsZizw9NLFhPGYBKrxJzqC8qPqPvOFi6zzks9O7B9huO8Tp2LqOA4w8k1TaPOWHHD3UHH28HPMnPPBRvjpd/oc76V9IO6lrpLvuu7G7ngU4PH4N7bt2Lme8ahhoO/pPxrtoNSE986tGvruOyr1jN5s8TUfrPPkLOj4CCmQ9i/SvPU3wBj5LWJm80VeQvbApmLxlVRq9Kq2PPdIPBr4vkRG9p+BkPGzCIDy2G+g67TAvvXhRTT7Jelq95VyXvPm4vDxpLyi9atJkPJhlMj0I0SM9t6CLO7sLiTwc1W47oSQsva8TarwxsY28v/83PBHGYbwh/J89k+RyvLmELj3ynEc9HaQUPLoLmDzsS6c7K9hyvPCJmjxWgDS8",
                "N68APA4x7zzOFy48UVcuu9jgiLvggbM8axX8vHN2PLwdWhO617CVO+fPCzyT8YE6WgR9un8XBLxwr9i8trgdPdXNCDylqXM8+dy1O2wbNruaa1+93PlEPBZhG7t0qLE6jwNSO0phYrz8aRk7DOAbO2UpIDzlLaK8Myz7PArPVjsE9qI4VSf9usb+GL0rhhW+nyQLvjjJnb00P949NLhNPp2xKz188YY9I3mPvbvwLj7EES895mcmPeshFDy0ofC8QQGQvZXIlz0X/gE9AgvYPL4Ggzx9cKW8lZMRvSrcJD7RENo8i+i5u43nGrqd4lA91KCFPdU0f700KqW8lCcKvDvZJb0mgTC9vZ2UvMh4SL0MKvq8dO2AvQA0hbuSdqq8uqi8OV95vrydsya94cgOPQyFQz3MP4C8a7/DPEN6KTyXNQu8UuRXPILWUrxMxuo8jSI6vWKXorzAJqS8FXdbPJYdKb2iZ9k6Z8jCuzcaAjxfTim8TsuKvamnVLtswrG8VbPDvNqY/LqZhH67cA82vHdrjzsJpkC9xroXO23Febw+s5k9g1+hPHZ0Y7mnMwQ9dp8mOv9EqrxSNYw86c+lu3bVIj0tQrc8ZYZ6uar1xzzl2le+e/TxPLJsGr2j47A95I/RPKt3ED65Wpe8+h0yPZ+SfD0Avqi9EOONPLO2Jj2w74k7/RaXPe8kQjyK/PE8Y4nlvKWdULuQsZs9qdZ3vmUJ2TyjhK49eAaJPZZLiD0I7J+8HQNDPUeEaDvoa+68WMMcPVSGNL04xx69TagsPr/Fvr2WSNM8tpQ6vZZYyzruzMo7YoMbvO/D6bxASLW8P03UPFuigbtsa8e8zob/PfjBhL0uTOq7qtJvu0Bwyzuw4iY8I4t1vPELHDsm+Em7opkdPK3mxr36HZE8jIisPNUcMb3K6ei89ii2vJVcxTu9goQ4lO07vQEh6rspF7y5lACIvKMgHD3WViU9k1qFPLlnJzyGowU8rStXPCf6D7wTmgC78yt9PPkt9btxQ209",
                "8ZXdu7IWQjzpP+C8kTs7PTTouLxuHyU9B/1VPU904bzsUJO8C4lGvl9qSL0/CVI9/zWcvb0v+zyRlG69bbyevP7hDL1eMK697Q2vvXw06j3UowG7xc4evFOpAb21SS89vATwuNhxLryaiJI9+nJGuhjKnDu3C7w76UaVPGjWP737b+28BNM/O+FcpDysHQU8qJRmPNjHm71gcKO98aOTvdjxSjzCLVa8QzmhvIm+l7uBHeY8mS0PPYFElj1KwKE80NjLvIWKGj65YMQ8k6ysPN97irtJG0U9p80FPVo7JLyveLW85b21vETIaL2V3x49weKZvPdzCLzf/Fi8Wd0QvI0eW7ynm0O8bC94vbQNlz2C2r289S2CPKMGmrwh6xo8dXu7vD94HLxqYsU8TgpCu1k6l7zDasi51TP7uyC2k7xztkE9mkshvEBdcj3xYxI9N2YHusdYQr2tG0S9GeboO5ePKrxR2qs/nVMgvOaUVLu/VAw9iCj7OiLbj7taMcU+YC45PIoI6D2Sq3Q7i3/Pup5A7zwW6xE8Qfcxvpol4DtAVZc9VIxIvOm9FzxIwJM7NWglOzarUr7KwxQ6OKQrPF0a37uumzu7ifxUOnwShbrRYV+8yaMDPItuLLxLlhc7HaMeu8vxfbsaopy7rCrsO9moFb4ffqe9/xCIvY3p5T0jRI28PcFzu5/PmTy7AlQ6daSKOrtmxTsfGI48IryYPXb5SrvtQU68qnSfusD39LzoT5E7Zf/4upYYk7yAlOi6p/eeu9HDurq91vA7wUr+Og0DiLsqlo+7ZhAaupTFVjv7eAA8afTPvDyEGzwFrhu6b3ZRvSU5P7siiCS7jRmEuqUm1zslfag8w7y9uj6CADtNhf47cHEFPNsPezt5ef2+IsClu5MQV73FKjq8gov9uWYNhzz6M+c88p7yvISSFj1RRfu9SobIPZnXwr1drMk7VlyLvA1t2jtbzkK9ng2cPNiCEr2SGIk78EmmvSbTwbtmXZM9c5R5PU19HT0cQ+E8",
                "7o+SPahzqjwfQ9+7n3oZPQhL9Ls7sm47Sx8oPkuPm72AH7e80MaEPdivP7zm+SM87zmlPM1QMb2X2ZM7GVSou7Cse7xZF6+98oqnPVhJy7z64/S8L0M1vdGEPTxyoUU8DxVMPMKvjjzG0+O7X1uLPUlZFryRuhQ9x9+aPGFnnrx79vq8XqOGuwBCarzUtYC8FEutPIoy3DvXGSW8ndFEujtKwTsto7M8NQ+tO+CdUT0chhq73pMgvXtyXr1VWhu9Em4Tu8kz17sWbIe8V2uJOy2ZzLquSGW8t+1sPfzEobz1IQY+J4CSPN3cIrwzy5O+M5ZCvPJVcj0/yps+sUm6PCRwtz3ixwk+pH+7vSSPmz3ItqO6dHwqPRROCz0Ro3M9rd71PEmitru60sm9bT+ZvZ/dsT10dMS7f4tMvKd3NL6dzou8Xk8nPUokJDxcECG52YiROnlm17tg0469ntDrOwadO7z3Iuc7UVX/vGiyyLug4i267LkWPPqt6j2SbCk9JrwVPeHonr3vcc09RP2NPDd3KLy6U2G9luBTvLNpgbteLz+9knuSvOfvvzv660q7xGTzumqbdTx5H1+8yJfEOT+hhL0CFUM8juyoO7d4KTxg5CS7LsaSu+1S0zv5Sp681cA8vLgSZzsyLfO7am/KPAgfvTuqLue6VAHauvekC7vFIgG9SG4su+cXsbyz8cE8dEUePMHjGzvNBw+8SoOePG2wUbzcmk2+1S78vM5vpbyNiK4+ALEWPbxVbD0cBLm9PiqfPY7YIrwvqy89o8wjvv+5OD60Qy69Lw8HvfFuz7umpBi867Wmu9CIjrw7fgw9SYfwPOfIB72H35Y7KqnRvFPtFL7mKWi5ZfUTvGHwmbwORwY8tTO5u2YdBbyb9F29nA6AvOacTb3A8Ba8gLp9vAClbLrXUB48XPPqO73b+TtgC9i7VJ5Mux9q6ryaj7w8x5lWO/pcOjwQb4U89k5VvDzDRbzcFXI7Ar3+vEVESzy1Gam6yRMWPcDPhLyCiRk8",
                "JqxbvHMtcDp5CTe89aCOvHIBIzyqKju75jltvHtUsLwsj7+75CihuwHq3ruEIoe88Ki2OyV+YbpELaU7xfA0PUrRLTxLJIA8wf/DOUSEOjwwX9M8ReQuO+JTIL2MUgm8DoiSO73D+jyhxGe+j7FKPbmINb6wVxW+ZWmvvWyDCr6oURM9mCEfvDHO/7xKiJM8Og0BPYMMkDxXQO07Dq0MvISCiDstEdO89+8/u+FJvrwVap+9gCvDveM1Hbzcb0y9Yo4kvv3rBj21WAM97HgEvuzfHb35XoQ8f9gCvdL5GT3idY886jeCPIhRvDvRrYY8LcgWveDenjxxbwI7dbYBveeQFryZQQa9zEy0PB2hWT3rR5q85LwkPEEb4jyX1YS82eknPQEQbruYs406FmkmvWVvMjtcIJU7gbxrvSpGZ7uP7dI8Zhf3O4W89LuecWo9CLxpPGHHaLrPh6Y7/4JEOvMl0TwlK6m8mVjYvMYmN70gtTW9e+UuPK8TV72ZeH48pidhPF5WJrq51Wo8Niklu2snhTtXSI28mkmuvEevgTyKz7a8E8cZvFzpwTzuaG++bpYnvBKRQ7xMzVq9JsFqPvuTYj1M2ma7BLWJvTVmGD6gEUW9kROBPUvUVjyHohc9BB+YOu3LiLwBJpO8xDD3PBWxc7xP4pE7toofPPHl97tR+pU85QwWPPCN57wnCte8eI5NvdT3gb3rmS+9icXMPJB0cj1+Hn08/DJNPN64yrxSm1s9v0zwPLEKjTzbvlc9l6WzvN1XMz0xfxy8pOYgvVeI6r1Rh9m8bDfPPHNxnL1mtZs9smZ2PCSVS7xTir88kCXpvDyxYjoe+4A9XX25O/lvWryEVGI964c2PBJhI7x74c88caGDPctjXbxYy1S7nTaJPadmZr2vKUe7Y7rBO+gdyzrF1628pFbOOxgUobmjV6A8XMlnPDlO7Txj76y7DCmnO7+tJbwyq868564dumrIDT2C2Ew9smaku0wwS7xqKj6+lgkovJVfDr73diy+",
                "x8jJvZWpgL4EhQC+a0bOvW/xAb6HHC89MgBavHqJMT2cRXq949m6PS1GKTz2hme98R6hvJqsKjqN8JS8EsSXvjq5gTh5lBi93QVovSNiGzyk7Z28eIPiu9uB+Ty1EqE8G36JvLeJuTwAdDw70TEPvmBAdz0aXxi8dvARvbwHozv+DLq8RdMdO20G37v28am7ut+zu2rUAz2TXCA9WTMjPQnlRryVSB69FOUwvV/mabz9AzY8iJyePHpkWLxLS+y72sJ4O0QFGD3QUaq8DEkHvZCKqDjZ90s8GF0kPJAMOTzBly48WMMlO6b9wzyIR0c8HAm0PGdK5Tys7uk8FGHQPEx5cTzaCN078c2FPMGxRb3sZrK8X6OdvE44QzzawBe7CrNfvMO1mzuTeY07zqkJPYF6h7yvOdu+h14DvLpwh7tt1Dk/BnKSuoVdDrwGqx4/zc4Cu+GkTjvI7dE87FGRvQqqNj0A+wQ7Q56TupVuJbtOE1U6EtN3u9x7Fbtsj1M9tE2+Owo9u7lMbRg7i7h8uhn7ob2Gs9q6eLNPvK7RwDrfjtm5tlofO4X5UjtV08C7HL4KO6MVLru3niU7XOJqu79kKbqecK46yvMJuzMQ8bt+eNs7ae+dOsGrC7zJH/66rjhMu+hF9Lq1cAI7b8h2OumrabvrI6e90oHiPPf6kDk9ZAO8KdkAu52MCLxuVYA6KLjBOpFB1r0L5oS7JekXOh1fdjsycTO6JKVnO1bkU7sjln46mQ6tOklI8brpkyE7z99MOmmq1btbSJW7Fpr+Oc2pEjtKL9E6MZJbu7ublLqyeUY9QgQgOukYiTvVjMy7MZHBu5OWgLrSgfk9SUibPHFN/7vc7KI91Me6vHd2Bb07LNa975NyO1SUZztJDBK+pJF7PVyLKL1DR4K8jFoWu5L3CDznh4K7DK8bPfhzQ7zXFI+87Uo+vB0vaTzEk/q7QDr9OyKAjT39MKu7pxaVPmXOFTseKCA8nh21uu4wHTspKe68VPMsPMFYVjtj+1g7",
                "S50Yu+Q/ALtn2YQ761TCOriZXD3PIms8qC2pPOcA3rxGUsU9wn8NPCw7kLsZvBS88enAu5MJ4Tu9hIW+5bLVvGHs6DodOhS7FGjqOs1+Qz2JsO06xkqNOy38/L0Y9dW4FvUXu1k8IbsOwH26atqNuRaaxzsuL6I6dAsDu+GY4TpnJgC7qQ5jPLUv+DkoP1a7TGxFO4NbB7x8GDc78JWcOaLuqbrbFwm8kPyAupAf9boUyMq6XkcGPD6NuTsy57Y/08TkPPzm8TwgtxI+BTw2Pnoadz0Vn7u9arVPvVgZYT4bNws+CuiuPaP7T73vgJe93NLivdnFSTwFAUM7dN9+PQl2GLwrxc69BfxAPTHXu71KF5c7sL5QPF5McDt2NwE901ZfPbuUqjtQtB+625VBu8g1LztFOj89LH/uOk2+WjxVv008LfwcPPknTTuofby8ahTnOwuo0z1j51Q9fOywPFmOe72gkCO9eC0svCqpijtAGW09e2++vMtqZry/+lW8MOeOPSk8ATupxkm9SCKYPOgil7tx1gI9ZTH8O1fD1Dy16MY7wX5UO+oxCzt9A2W6EdQpvdpeBjy9UgS56kKOO76ml7vmgBy8H3eYPNR7hjvAst27yuqKPXgNBb2Uifc8zlg2PLmX+TxuOdG7PEzIuoTkpjxVS388eLasut+JEzzbc7K+xBGRPsP9ST5iLI09WeUwPAnCF7yj6Uy+zKIHPYc0QL1jkmE9gq+9vPXfjTwHi7U86wfiPBnws7xiWYw8dlcnPONnUbx63rm8xseovcf1jT78D4C9kAJIudV4lbzfBNc7qlE+vRNf/rz4c0W8vyCEPLeMhLsSCR89PYy4vP2XFT4wtB482QuMvFCJfLslUcI8E7jZO02fFz1zBBY9t8s5PZ/uDb1hImm90KkVPfsN7jvrcKa9oFnXPOJVkTv1JKW8NCaEvKxqKLrE74c7bOeau+iovDw+jqy6zXIEOysmkLzIO4g83I2TPHfkWry2dbE8wN8/vE4CGbw89jy8",
                "d6QkPK7sTrzyZNk7LozmPCYR87suiIe7DgGvPBSMiDzNxwe9unLNu2b1ITxxUVi8yrl6vKsf8DyQqEM7OoSBu7My7bwLMES+/1n5vPAtBr30qAo+EtmlvREBsb1j+D+7vLJ3PKAA2Ly3noW8+8IZPcFOjbxv9kK9/WSjvccu+bxXYh29LlS3uuCk1DulTrg9ko8IPsbBd76FhV69JdTVPOcjjz1rEHY7ApJJPa1tDD1G3ZQ8dAugPJXpVD0zk568jMGWvcpbWj56KnG8dXaLPCPsQjyl7MK8HWVHOzAhKr3chTu7dbOWu3p+xTyEFeS8lZ5EvCP8Fj4WjGY9UiHQu6JLvDt3+ra8mE6iu2uTOTsTLX89UPxwvOFVu7yHRHy9qiswu7URGr30CCU8hYSouxGvG7xRNls6Su+MvA85vTvMu0Q8Ytt5ujWRtzv9C6q9zbM2vLqFcrzbxIY9ku2yPMrF5rzEXps9Sh6Qu4sRtzub75o8zDSjuh8HWjz8Boo8BlUXPJfXWD1y4g0+BTVSPvQZyr08HBk8KFHEvWSFFj6OYUo6nqlIPtK807xd9Lg77skTvagzir2sEQ09clMvPUNQFb0sGja9Mn5mO3aiEbyMhC48ikFmvpDnT74JmFy9LQgKPYgsiT2pZhi8cdO2PJnoQ70Wv7E83U+xO/bZlryvwii934ZJPeGeLjwsjrc83VpnPG6ANLxfWBM9pJIwOodtiryqDqi9bNEcvT1MvbyZfP48tdg0vY3kVr3q7pA8zAjUvQKx1Tt+iJ07c2wiPGsB77oicYE8F41JO5xgtzo428+8bLI4PKvVejtEsc68BDA+PIQiYjzpW1e8aJB3u5khS71iKOu7N3FJPIDXyLysw6+75X6UvAU1Jbr+7gA8QahnvMIqcrvogYK8jci8vBHp0Tqie4O7u8DiO6JkGb03oho6SPSDPGLwKzxLzfy9TxicPBrphr2+ANu8ehq7vMQw/T1/1bA9jVAMPPPA5zzu/n29AawvPRl34b0l6zg7",
                "Yy8hvVEJ+bw+RpG9aeWJOA2nojvwnV289JG0vfECCL1F35m70vURvKeCBD7iT0u8l9ACPdwYSLs5v7C76WWBPGKTt7xKHiK+5YAJvjQiObtfP5+8CAiaPU8xVbzMk0k8lL2Ou4u0nr2zNTI90qNcvUwDVrynjGw9PEy5PM8stLy72uk7+A02vGj2Br0w57w9pvxHvb+iDDwDiTo8IebZPBTBf72nr4M8RCgEu1mnj7yYrXA9rQCRu0niWbyHc608YBy7Pc+SMz1vooC7JDZlPH2/Gb0/FZO7gNJVvFh5Ebz1Skw8r7OavH1xOry7Ubm7ktAlOxfCi7sTYKE9kqXFvFsSYjzb25m82fXTOpYajjwLOZ88ZpsCP9nnUL5aPLS9ep1Wvcd8FD1kAzo9IYP5vDoklTtA/n09SON/vEeBnzzWCVS9KcmXvAfbJr0ImJc993vWvLYjwrsvU4c8S3C1PdU2+z0UstM4W5qiPHsh/ryOc7G7mf2ju1ea37wh4Oc8kcbEvExNUTrfsI68KO1HvKDkFjsv/iS9JhF7uwlz4juorWC8oFuZPMjOaTweHhc8Grq6PGl9TrsqtVQ8NtOjvbxkXL02bpI8pl4sPPzsgDsqSZU8HFB1vGVqtzvB3A89Ov4WPY2MATwOQNK5QbbyOj/QYLwLFJa5D3bOPPM+8brMAT0892w/uzbQhbyYKPE6Y0Ntuy/agjrDZBm8pUCFPB2YxTzFOaE8LI67PMlTl7x41vw77uDYO00jSjuUpSY9B5WKutUAwrynP6e6hjJZvPhJDbzuPZ++wJREvSXH7L2eZoC9D3uaPcXN5L0XYcy9MXBovLm/SD2m1KS7HZCCvBPzLz2D1ow9AGDwu+RCOz2A1RS92rWPvNNCgLtgjUI9iOkrPK1g4j1kqwC9mQCEPVKjGD3RghK8cprqPMOK1TxSv4Y9AtA1PTc0QD1Q3WQ9xl8ovDmBfD1/piu8krpvvcndtjziAGo8YJIJuxk9Nj3XFwy8iUbyu/rmfr2dRlc9",
                "+GW6PQIRpjumZ2K9ywoPPce4irxVFo+80mUouz0ZN7x+uCk9IJ3sOpU/Mj16A/28MSu7u0ikdT1b2u08anW2PI0PiTy2XgG9VLQwvEMFqrxzQEw8hjkdu03G5Dy71/s84VIqul7fC7x+V9a8UW1JPFSudz0+8mm9G0VbvFPThrwbIsG52XX9PEIKgTy97qG8582fu/LLBb0W+ga+azgivRecD73ufyC+WeC5vAXCmL6XsbU9yHgVvrLquL1b2ji7oLLevC2gnDxvWGc9MbfHvU5mgLx5KTE91CydvMR7cr3AHta8swTRvbHATD3VfBE9rCG3PBix2ry4o6E8rxk/PXH0jLzU5PI8KHzkOzBz1bxN7xG8feRWPfJueLxWSBQ8rciqu0h/BT1VUhw9K9aivA3yEz3IiMI6Tt7CPboiR73iPxO9ibbnvDFrETypJdE8hmBCPGn6szuUswC9zqVWPBLmMby7fsW7535XPd3jnjyhOMY8xxSWuwL0Aj1YPrE8qIO2Oxe6l7oHQQw7yxKEvEBGe7yMyWa8tWdxvM19ALzLVIO7/96Tu7JczLu6hk28FTfiOuiSAzwAv288LGPBPESeKbwVsrG8YpmDvGS+pDyCYWO8DMFdvFo/JbvsYie+b4aMPZlrlL2cCb2+v3YFPK4KTj2E7ac+jSiSvdpdjr02fok9M7R8O68rvT1XpzM80fc1vBOGFL2aCsm9vYNAPSjnSzttTAq9JBUDPnokPL2pkX660zLJO6cZGL7zC5c8YI3fPTmfCrrFXJC8+Ca3O9oRWLvCJRy9JeOZvVaADTz9BX681uwvPTQX8LsPrZK8Yo8lPNER6D2y3Dc97i0JPRt7dL3e59I92u57vNX4mDop2yw9mOe+PAJ3RzxCXqG9g21POwspsLudWiY7cxcrvEuMET2mq4Y8s4pJOg/iTj3F47Q7IzNFOdUJU7uW/fS66wTcOmq6GDwWX6M82c4Bum9cwryXSF28gXDqPMm4/bx4PG67pBIrPYpllbtJP548",
                "hOQRvCOBpzxYA0K9rAMpvDs8LjtnTVk8SGjNvK2cJjwUF5699UZ6u/tvGDvjb/o9enSAPdh+L73UcLQ9j2gpPWMdFbyc+Zw9ZqKYPO/Drj1p29W9b+HGvL6uBL5BKjo+Wk+JPOB9Jjy0dLO8xuiLvpblCb8QYrq8xqUMPfx3IL7E/6s7gAaPPF0gZD31Niy9/LsrPU90wTzjP/q8/GPBPcv5ET6oI8I9PX05vSR+YbuZJ+i8aTJNPPfoRDsJdRu8gdwUu6sUDzwwE9M5P45cPdXSUz18MNM9fUAOvh6L/Dsfkj68ocx3PcNzhrv7DSa8P0TAuygPLbzPxGC7RIuDuiC7/rzxQ/67t3olPSw0ELtfugC8hfSivNoKcLy4Yso7HxQauwpfyzyx6pG7xtPou8qIoLwq4/e8ajLRPJhvdr3H1v08ykMHvZ7KyTsHm7U8Hl1SucW5iDoZxJg7xLUbPZpx/zzFhhC+l2NFPSPiBbxN4mO9DWYAvqKKtz0WVCw90ApNPtvRvL3PdZq9gR73vfc2brwTtjC8jXqLu5hjKTwWC0A8d80WPfRGeTzBAZo8az07uqF0ALw3aJM7LIs7PbihXz3Zwzo8HHyhvRFeszrFBoy8zfDIPe1fhj0iygc9MTiAvU+GQ71LXci85SC+OxWY+ruXIPm8nKZJPaQhDDwXzB89xPuVPJPwBrwcDYK8MUU2vW3aSb16bkS8JBHEPfs6kbskL4a8PVkivZNH5jsrOt+8aZyKu9uL5ryMYTm9Qji0PTY3hLsaDgO8gKn9PNadmTsN/Dk8upfZO9s7OT3LZ089KWq5vF8RErj4SMe8klghPNuWFDww/Ze8toomPfo+ILuP5308IF2hPA3aMrzQ5ic8p09qu7F7D72i/F88IHtxPERPcDwg/Gy+fCENvSsXYb4qpkc8LW8wvdPndz7RKes8dAApvYAkyz2fFBS763FqPbLZhjrxV2G8VMWrvXAt4TsJGM48s+74vMbuID5rn2C9ax3fvBYRpbwzO+M8",
                "iz4zvaJLfT2KZQ299jbWPMDjbb31f6K7qilbPFzb8DtPxwk6rqzDPV//2bhPqZg8DW6AvLAEsjwJ6gM95G8gPX+eSzvXVm87V2zQPEYJqDtdqRu9qEEqPDo3Rb3YeZ28ijYQPcLjnLy9TNy84F8EvcwhF7ye9a273V9IPERzoDyfcLQ7FiPGPE893jwstTE9TTy0OoicrTuVZIA9VYqwvKT8Hzw1niK7P4CMPNALCz0YEJS8bg28PBsfNjzEFS26fG4pPM9+wzxZo867ldLQu5OEMDxAKvO8QDsIvTcpyTzWM8+88jxEvB5N3zytj2u+MbiNO80tA7tY7rI+7/hmvC7nNTxj7Lg+qAgRPNFI2DvIoYE+hhibO7WDpz0Dwgi8UlGhvAI/TzzWFgs8m01wvfQ+Z7p4Gra8/bA5vBhr+7ysdw27ExoAvCcTfL0S9ta7GxDhPU+4Yrx/zLE6NE6GOwSK3Dk2Kow8sdMru0bqlbs6VYC776KiOu6V3Lls4oI7nnFmvJfz373ynai9fkWJvakA/T3nPcG8IlqRuayOCbxOvn88uto9ufNa8ztelqI8dOMFPZK5BjxNp647Hns4PJQ/BTxM4dc7GAp5Os5cHj52EHm7hKtwuutgLjsVChM8ZWy/u6ZribtXRhI5guiquwMyqDtr3QG8QdP/u1UFBzwFat07FMaEvPSDULt3K7m6wHvvO4aXzbun4r29YzkuOopXd7wnTz076+tZuZjXmjo6Bvi+3M1uOmDmWrqeUDw9hpM8POuOBjsCQIG/zJLBuXjuerwOf9m9qHHjPW9Ukr0LDB85K68xOy5/kDwAwo26fKjtOzt4NDsQ6hm8D8JpvDbXDjuhBI27RviRu1q7rz29IIQ7JcTBvMCVWDtCN1K7zyazuQMJkLsNFRe9mTi4u3DZ3TmXVAC8ZDLLupT0JTskiyW7xDNIu6szC7v17+O6NCX9OqPi/DuRG2S6T0XwudQnsrscX3k7Q3bQNpGQNbtc26Q9QXUbvCx7QLo2VWc5",
                "LcO2u8f7kr3UjaA68Ibnupsr/jryzuA6FoS4O9SGwrotl7E5NLMYuyKrlzuvsha72SmkunzWu7twVVA7vqWzvL5pErthvCs58C0fvDXl3rqlGPc7Df1vuqsLSzpLG8k8y69EO3YEHbxtHJm7wofyuss8bjt4dj0/FAAKPh+DMD6tepo9t4qQPYiv2T2K07i9Axi5vGo8pT2pbvq8kn3YvNwT3Lwo2dI8YSZjPLP3Zz0u+pA8lnPoPFP7OTtZAzm9v0T5PXJc6b2EVxI+kcRevMi8ID2+lSG8Fi8rvkix5rzAXOK82acgPFWgsb1NWY89VRrAvG0iqT2tnqU8xFXmPIhEmrvLulY8+1i7uxQBFD040KW83DV9vKj6VLybxzG9W586O2scFLthM+c7tLaCPIL6NjxXA4o8JgOAvbYulrvXf7y8KjnyPFQIhbsSAtc8+mpdPDb8ibz/p1m8uYVGvMNJ7LtBuhE8zTACO8OEirllsR66M0s2PHgrJLwZulE9zTz6PL99GD3DuzC9tLhRvO4CHDyQla+81wIuvL/9Fjywo867SbN1O+JsAT2FcOk81ZbkuxYmaLsNEPC9DdwQPQGFmr1vvo494yX4PFD6fD7qXPc8sIWwO+090DwAHx09SsENvqR567vP6O08RlVKPPH2gr0xl/U78cEKPlkogjytn0a8ZTePO419TL1UBKE8NDntPKDurb3JkO+7wzHDPC1IGL2hU0i9fjuPuhgXzjtj+Tk8OQXhvKcv/zycCuU8TScuvU0CMLyOKAe9AuDavAvIQLy/Wji93eRPPJTSzDzb74o9Uz+fvVDqqzzZFZC89QMLvM3zTrxC0Xw8FsTaPJB1kLp2kOI7lOPKO0HelrxVPPW7gJvRupUGazwLVwC9B6WYPBWDlLzmAwS8cg9KvfePi7zNngA7F0jFPJGyPDzY78u71lDTvJKy7TsjXrY7k49IPUM0V7rIzAQ8ZLCbPPqi5rktYpm8DJ+uO5ye6Lup3Gg8AT0qvBiEYzw1WFm9",
                "LKQUPio12D3y6CE9wOLMvaYdmLuEeh+96Pw6vCkhED3jbWS9AtfbvCPCVb2Lhje876cWugvuij3wJYu8ylwGPbfS7rxA3ZM9PEonvZQDNz48jrQ8h9B9vF1TWT2na528PUi0vK4VBzy3ZPC7WvRrvHDrAr16MEi86Eltuyv09D0Qx/G8Hj8ivTklYjylkOC8zQyUuwDM6ryNZ1G9jEWyvPsHST2SbYU9wN4sPVsbmzwaKNM87QSxu1mxirz3Izw6FmDwvIsln7wSMwM70cr0vAUutrqTHZK8P0kLvHSa0zyHqwW8A4IiO+7M5DtSfyU8kg6lvFhLjDxi8A29aFN3PAMJ+buIXM88fT6NvBJ117rFJZI8i4NZvDiuuLwXl049mCElPIMdy7zgdL68ExgsvJ/Y3jsRCmU81mWqPE8sHT0NLrY8BgYvvbVdTT7sYmE9fpW6vIG7Lb4MrNk88IZAvrDsHb7D4zQ9ZkAlvuOnqLxW8kQ8kVb7vBq8Hj22sWA95KqqPbQBDrwhzCq7WJH9PV36zjtxoTC9M06+vGrYQTtm5gE8MakhPMJRGzzw8i68ZyzPvPgCKrycrHG8PjbIvIqIS7ynwh88dnu7O1r6KztweA28PnBZvPtrZ7ziuxS7NmVavSRv7zxxugI9kGnUPZWzbb2DSeI7vEMFPfWGCzu8qdU8xJGbPbfSUTwLTBK7lWf+vGtHF70ZWAK9I0wcvVTSFbyszQk984ANPJJkDTwuqHw81r8KPSYAvjtf9aA8hI4GPNRU1zxDl687nkt1uhmwBb1k66k8OFZVPbGXiDz2s9k8+S8ku2NpHjxUdla7iwDpu23VlzxOlhS9MNHivNu+1DzAwKm+zO8vPZPEJz3q9Z+9urqAvXF7PLzZQYe8IRI2PLPVyzsXApu93DlYPZ9i773TcnE8wdomPY+UozyMpEE72KQwPYDUorytojE8dXKQPVynsL3Kxni9+726O3tfvD1OLZq87GDGPf7vEj2tfUu8Sq6WO3+9xzz+Dvo8",
                "phIMvc2KBD4Gmjm5ctrtvNSatLsY6Ro6Rwn2O4DQE71ZsoC8Sdy6uhoqe7wqNLm9FdBjvdLupz2aAZ08DK5lO7iBibxE9i+9YSSpvX2larwhqkU8zEsXOu11Db2Hf668ijS5u/RX/ryVZ9o7DrkJPavssTshzo67r24PvUiU+DuyJgW8BnnGO+H0gbqgq/s8bS3Dusi0yDyfM5a9hLGjvcK3lDx5fpG9q8ztu1wYPbpjD7I7r2N8u4JTET2iSTI9zd+DOzmMkb31utO9vnJsO4Kqjzozm5e9wG4jveRiMT0VQDc9sNG+PJQoh7y7cW28B9lTveDxgLwcvJ89MEX7vMLk5jrpzdc8ZmkEvdjIqDyOBvY80zohPkMaOj5/7xm7bt22PTgvXz2vS4266sFSvV7JhzwyIj29EQqIPSxFeDygiaq8bARLPtWKBD6GCrs8PcTDOsmIvLsHOd88JUEyvbg+Hb1Cp9C8A1tnvOUjFD26hcs8M0PZPUYFZz1+2Wm8D4WEPWiglzxT1jU9O+VTvRmYhzzIz9u8eZ4lvasUM7vUpga8lv2HPaKVb7ztEIa6kWoAPbEUjLs9ntS5bPCAvIExU7v0fNK7RoATu0aPFbysLp67XcU7vEOW8rsW8b68d9gnvRS4Lz3ZVaI8D8KQvL6Etzx1ziM9sjuNPEKh5Ty/VnO8/lysu2zf7jstpZc90b5+PQVASb0tzrY9QocBPlzomb05HdW9m7KFPPTTLr0suzq8vxDPPUAa/bx+XYq9D8RIPSj307zpBKK9DsmVvZ7wYDziFog8OkkxvujKjLxHcFi85Q8CPdNfFj7BOme82wxHPE0VaDwz6oC9V5mlPDecebyYk0c9aspEPkTK7ztmGHG90pS2PAuLBrwzaig8/dAtPZ0js72rzRs9jQ5vPGeAGD3paqa9JWYiPY+hirstskS7kCEwvYzLyjwfsYm9ydWXvId5bzzCG8c75aMNPdXUaT0inP87Ay4/Pewqajm9wjG8IGXNPCZTWbwKwFi7",
                "ML/iPBpwTT3Y3t68/wQku/3FyTwfXNU8mF0nvdbG3TyuVGs8/Q2hO0Wql703h+S6V1a+u5hXjLx+6Ea9m+oLO31jhrzH3Y07jKC7PKOTgzneYhk+oDtCPd3kF72rKAi9sv7lvLbS2b2BzIM9xfIFvZ5vr70Muvi8wNRdPdfgf72cBDk9T3cnvV4uTD30FXu95vx3PNbfSL0aPcy8UJvGPH9Xjr1kgpK9xhWbPMSUuj0Uu6m9BfOjPfvlpTyxQ568smIbumEFDD26uZW9H+zJOwrsl73VaPO8q7GjveTPaT2yHsM7wyPjvBYWL72go5e95EagPQr46jwuIiI9cyWdvZUjDb2pPNw7LPoFvKwlmLwKwyw93jxRvalciLzqopo8yU6FPX4KvrsUBiy8a82BvIvjuTxY7zk7n5wWukYjLDyzGNU8v7A7vSTo57z/8uw86DDQO8HyPL1H1ag8+7NKPFH5ozxgoCO71IOUupUjID3yBKU9jPYcvFFZlTySjUO8Xj25u+IHDz0XJ5E7h0UZvfV1Bz1Tp7q9W99/PdEcLr0fVEW+3LxCPqDFnLxlRSI+EabNvOpNPDw+YAO9xQ0kPXe9hz1VPMQ8Oa7MPdN85r1FOqE91cyeO8FoaL2qlVI9Y8j/vf5m0716MwO962suPbsecL1pJhI8Wx9+Pfp3bbziq7+88CWTvAW7Dj2XYTo9jK/TPGsrObsUDi498LhFPDo3gjz8WYM7JbGTPKY3YzyV9XU8GYmTO0e+qb0BjB+9GtpnvECXjD2Rou47RIYMvcGyb7yLeey8G8eiO1C04roNZ607/UhsvN5fnDwVc0G6POo8vGLmET23h9q7hchROyx1AbqwNos58pUmvIWU87xMWa48pZHGvO4YdjyGHO873lIMOixhBD1ZhJu760g8PT3VDbzA6lE71Va9u4jXWLxyNzW9QJUnPNhRujxvdFM71sJAPYPYkbmGibe60z0dvS46Bjt6YDC+wcQsPQ5D1DscMHs9idM6vDV7MD0UjYa9",
                "ZiMcPpq7pjtG91Q8abjNO0jY+byky946OuqxPHO0gLoPTPo82+uAvYXlxryzbSw9PfxgPRJdtbyQjVC8kEowvS7KursOvom9gE6iPZGDZ7xeOpa8HB+ePTTA2zuYDiQ8rvZ+PYHlrzyg+068enaJvDFBTj2LGuG8MOsfvZTdLzweOkg9uxZCvRTHXLzZGyU8CiSsu6DFnDw8Zw693LxyvUdpp7uiySM9TjDfPH/hYDz1T4K8u0giux1f37xPD269+icBPMkcrLwxwuU5O1TlPMKvCr1zIBU8gRZ6PDfj9zwC0BS6FylJPQi1wjwpUJE8w1HCvNf4gTxu1oq6YD1hvCw1nzyLMPc8GYx9vE8OFzy+cL+8wpxQvNGH7TvzSyW9s2OuvLKQML26Osw+uLOPvk0uCr0XsK++yKIJva5Tmz3lLfs9zGRmPYuGiD1xV1g8APRhuz6l6L0Lpze8efZ7vElq8LwXG2E9ms8CPDnnJjzbUPg8BcNAvAagib15eeY7NsTKvTx8A7xk0Gq7sq7COxqqlTz1b3Q9wBznO8I6RryTFFE9TtLVPPxgqzuOQjq8IU7LPGtnFb2JZW29NNkHvVGq7DoloQy8p+W7OxXjkz0mJlu8IuePPL0sDrwT1Ti8qWsRPedHpDnL0qe7wSFvuggrQT2CSgc941iTujTF1ztafwO7o8E4OgpnqzzORDW7Niu9PAbk1rz+YDQ7D68guxqCb7xiEqi8VqYzuxCmx7ou9rs6sXchO1PKQDzGMde84Ja5u0zL0zrTjIK8r+bQu740Sz3scN88qcWWO2W7FrutPgU93CEEvY3J1r2H/jc9SuswPZIZojwDtOW8tuIEOWvF573Jk1Q9ZEolPaVX0b2rRWY8ky8BPfkskb2yDXQ6vnBePR6VnrzAihK9LezuvG3glLw+c2w9gcZpPBUQ+j1QxGm7z9sxvBkTr7z4G9+8PpDjPGn1yTtUHKc9gBuhPKw4gL3kJRO9pXQFvTPeKztyxbw7FPKbO38Eljmi+Aq8",
                "cNeQOzpzFr2OpTm+ymEdPf+2lb1WC0W9c6jVvCDy0DxSF7I8Jl0MPAfeqLw/IZ29/puFO+gWqLzX+yo96qj7PBleTb2kLxS8ThLuO9XTnbu4Xw08bwGJujMforuj+aq8tpJTu+cjCLtUZSW9/eOjPTSoiLt41Ya83+k1u/IwdzvguCq9xIOxu/NkIj2u1Vw8aqUgu7eCDDyXZHw8rI/TvHAagLxMTca9t1smPKZEd720qla8suu6u8huBb5fJOA8RpGVPSGHujx4Y6K9vRz+PO6GxrzS4AA8yzgkPdxuXr25tQS+rIusvM71Cr34hSc8IvODPHMRvDxirIs9lo89Pa7Nfj2kaXG84r1qvfE0nby57UO8RTmCvSnSvjy0Ycq8W5u+PUBlAL1a/n29GyrIPeUlmDymOC68hsb0uwRKmDwjYuY9b4ZuvTb96LyuZKe7UNAJvpqnET3d3Cw7CefYvDSYlzyFNQa8jn4RvfKsFbzWbAm8y3OsPNfNArwPkH08JqnfPHMtC7w/rsm8O6kbuiEfLLt3Wgs7gWyWPZ0sED1vHwU89CAruyElizwZ2P+7UPqsuqcMXzy7i5m6RQ0kvUg/FD0Vb3Q7/EhSvBke1btU2Ey9UEGyuii/Fb3hIII9oQOUvcbiqDw3zGi9iiWZPUgvir4T55i8BQVyO0GuqbwtBZ28ylaSPEfyCTw+qJ88ap1mukrmF713EEs8tKVjPRQg9rxr3p66VPANPQ7bhjxt5Z46+AKGPuOs9jzHmFg7o9MEvMKZmbzU4b27DKVeOxXExzyRCEs8yTsNPYMVTztUeIK8T+/ju+3bDj2/5JU8xwycPQIjLbzJI3o84ncNvcL65TpDGP08P6/svPNZ/Lyb/1K73VgmvJ3hIj0c2ze7QuKIPZsyjzwjXbc7E0SNPBxNgzvvKK05abgMPa2nG7wzG5681cYAvFofNrsdVbe8BqDxu+zhSrsd1XW8xLZvPa8M/bsTxGe8NRvSu2AgSr3hlQO8JGeCvO1xzzzLvOS8",
                "Orq4PKW42jyqnZe9QiApPOdT4zuXmUY7g6pPvIpRrzulhJw8lb2kPIUXNL3iPs+9j7wIvma5Xz3FP4s8WrycvZ7gAz1gmn08WCS2PSKclbzT8t+8S8IVPJiAZLubHwK94NJAPA/jCL1v6oY9oDKjvMgepbvhCY29F3qOuxmBELuwOGO9MWNCPt07oz2xHie8ZGkMPcVZFb11gv0675B1PXDf7zx68ti76TAJveVSGb1isyi9yLAlPYYIxTug9nU7996YPDHmOb12s648tcsLvZsVOj35hJs8gFSNPetpID1hAgA938COvexEtbxgSOA8ujMRvcyVk7ty7tG74sMcvJb1Uz2xkD886q8evUIRXzxgNZe9baOXPcqwEbz+JqM8WNcTvPEAUDvhY069v0YwvNIgUT0Jq5m8F3WePHAYhTx32di7bTEPO4gyKr3We2E7dzlFujG9/rsGVdW8FwtSvDNgjrw6SJe8qccoPJaQfjso5by9Pc3gvqeVBr9W8T87EvTWuxaDeTueKxk7zD5WvK2WFzz1CoK7EJANu5TRkL2v8aI81JOuPd22Cz7hhX49KsjvPIj7jrjde1e8TsThPZzJFr4lwz880YUlvLSdHT2j74w7qyMCvOQU2joT5T67jMmRu4NdRzzAGLy5pJ6ZO3Gv27tIEnI7gKPmuhJ587tSaJK7ArpOushTjTw5xqk7k8zTOwqe+ru65Yc8RbM1vO/0Dz3S5iq8YpJFu+AhkLvlHJ071vhdvKUIBbusAIC9P3ffPNoa/rtTW5K7bUNNOjYZazrhdPk7DU75uoxy3TqUjEM8QGQHO7rLBrzm1ya7nxi9OwIKnrnibHQ89KnTO1bnKDwJoMG8XKIAPHHsFjubPRI7CGEnurvUFzx5QCw8IKW8u8Kdw7jHVFa7W9kovC6IdzzXVJo9zQ3LvfdzXD1cWMI9C78mPaCIbr4N3Zw99oTnvfrACr6ulXw9DRvePFYhtTwgBCC9d/0iPhIM0b0ZV6a9vM/OvOj5Pr35tly9",
                "YmykPYp2iz2v/Qm9lHIFPTht3TyyU0e7thVOPTqBy7xcxCs9uCBlvJtX+zy8TWS9BIW8vUpaebzPkIY8i1AwPUTenzySL8481onEuvi6CbzK09g8HUTcvLN+ILxOc7a8jxTtPGRF6zyLKB291Pa8PLUzbDtmalk8asYTvL/5ubvH2ww9VxStvE7cV709GM28MdmqvHLoijuFF0A9wkkAPNf3rTxuAZG8R5JWPbWF1jznpC48ym0fPM9Bnzz77LM7Su8sPE+2RD3LeKY8LaRDPTspUbzryQC9M2FiPIagtTv10247FtHjO2NR/zzv46i8uYwXOxdTxjqr9Jq+7xHHvU1tt73Q9/e9LuvhOxNT7j1Bo7E9xlIXPRUEubyEdNS66X6OPfkmxryKzQm94E9yPPW9dz0gB2O8nsl8PZYZDT0TkKg834uKvmtXWT4pdjK6OefMuiyISrzQ7hg8ZiAhPDP0LL3MCiW9JKk/u2EXG71fUpG7Ua0APMZd5bysxo29OOafva4b07y1vMC8Cm71PJPxqLoASAk7Tz8uO18vmD1I+xa83Xe8PAC4qb2JJaO9ZYakvNdQFr2MMcK8FhpDOmx/trzwXfk8UnDdO3xryjvOrI68wNSavExVlTx4vjQ8/QjmPK5XBTsNyA88W7JHu5nLxjz2RCi6fvoJvIxkujlAEl48Tp+HO9ySAb0MVLg82VeRPNFroTsaoPc7yN2Vua3IAL0mnXS5wpHKOx8rU7zC8Ay9TzLOvM8rNjrHUFC+WN5/PeDiojzXgcW7OzW6PRf9nD0YbEq9wBTtPOjoEL5jQ9K8ycq0PT5sfruY8z29t0CAvdQShr21Xy08DeaqvXZKZry/Cz89h+wUPiZbgL7+g6u9FEObPHngAj0hgTe8oEM1Pe8Og7xATMG8mQVYPMooVj078K28tlPnvCOnqz1AxCg80xV0vTm1ojyUJyu91nGOvIVI2rxFji28p4XbPPC5wjrD6yG91TFivFqZlT0TMgQ9Q2zMO2rkW7ynlYi8",
                "OMi7vNZRzDv18hU9bTGHvG7wGjz22Dq8iaMTuxjI4bwA2qU7f2COPEOT1jzpUU48gdkMvS5zgDyVfd67Z2ksvEH4AbyzJiM9j0dLPNehwbx5E6E763ofvecwkDyXGDE9UT0MPPwT77soVv86boYsvAHxET0r0nY8mgkBvH6tLzymwLw93sqHvbr03D2UTf48k/A0PVfokb2+Bw4904CAu7PBb7wiMIy8F619vWysML3Pdwe9O4adPR2eIz30C0+8jQZLPfZXGryR6YU86WY7vuWE9rovozU8wQhtuxofjz25nAa97ryEPH404bwRShS7kqFcPDeNBrykEwy9k1xLPealrDtjMlO8G6QEPZh/B70L14U8zo2jPEj3tDwA2Mu5q0FrPUTBUb19mK09byX8PaR7hr0+sTC9oRdzvblrv7sVneE8fgNnvGtIojuBtT88g/dkPSbD8Ly8YCm8e7ndOrTk9LxuOeY8/hFtPDPcUryLwWM8p0A6PRUjDjvvZMW8UAIMvJpzvzwKF9c8ht5XvGMHhT23U1q84swOPdEAgb1245S9N1hUvK4PgjwHBVg9iMnNutIxsLySf0Y8bUtMPb//srxa/WQ95+rYvdll9LxToWA9g0kxPkzUgj5/dDW9cER9vKs8hL125UM7pOmivCw43jvbQFK9VUe9vCqjRT2UyI08GVj1PGCnU767MsU7aj+nPEdmILuXEUm9jV0WOgC1uzzOxJG8/yjvvFUIortXPEM9rT8FPT5RVDyZRMK8J1GHPS8vHz2yWZK7EH8zvfVdBzy42mS8D3XQvBAQJbtHGKO8rj3QPPypozthKAI9RAZsPJbzqD0/h3E8hTSDOwfI8zw9Egs83vR2vJY4bLwEx5w8Q9jUu/EdgbzARju81UMdPJpxVDxhLD68VDsSO9/gFT27yr29gJFmPBzk+Tq54b68KU/APDN7hjsmFqu8Q+nrOwGz3LxDQ448ZV3vO/L/Xzye4Oq7LJ5wuxg9hbrna4Y8GphoPUFDNDsmCZE7",
                "jJWWvOunuzre6AI905wyuzNdhz1wrgS+dWQ9PAs+V7656OU9zCgFPSmpUz3B8tA8rUOAPWhOV7u09/g7W2gkPU+WMT1T9aw9mn+JPRJwYD2NBSo6qSikPMeuqjrP1LY98o3TPTnWozzBbQ+71vaWvJEjnDx5/tG8SwxFvJZm6zsw5y69TI6XPKV3qbwc+Kw7lmTAvUoSKL0CI/e5qnyBPIIZtbweCoK9ZtYsPecXPDyKhUW8KuCSvS34Dzs/5NW8tZlwPDoEMjzHpEo8NYuoPLAlLzxo8dA8jA4tvI/oi7oHu6E7GugFPX6mqrwa2hc9pFGyu5FSGbv/0fw66FyQvRzvDr0+Wpi7ngGqO66shbt0Z9o8avaxu6nLJbuFPo26e7atPFbI5zwTMAO7v2PdvEJSVLx/0RQ97oQMOoIjDb1+2GU9c8O9O2VAprwkqqm9pfulPLJKqLwkCAQ+oEiHvDcH6TwmGVU8EUgoPX716byYwQg9VdQQvZe3/j1HscM8i6QOvYFzbD0BYZW9UzEBPTe3C7vg6p+92eFPvETf3bupYxC9OJgrvXxPhr0LpGa8ZxjjPK5/Gj1mhCS7zliFPDH+l7yUUle9HM4TPfG2VrqAfoM8qhkWvQxcBbygaS09YfCAvJRLaz1SGAA9P1v4vHvb4Lzb1/Q74VEkvSMZvDzIT+M8M+GoPVEY8zwriY07EiALPJDh0rtvfCE8EbeWPI635TwP8188/2W6PJjxq7tlzSS8EarSvE7liTtWhK08R63KO6WNI70Kli89L9MXvS/KPL2KCTo9JFCFPd4lyryvDXO9GMGTPRN8fz2rZKU8FzEeuze22brpH968BAPru3B/TDwOzx487/OCvY8MMr3/TqC+zeKGvHDbP7v0NDE87pkvPpWT4r0A9HQ9Vz6TPQ4JXr2bdL29VwbbO2oawL0b8m28YH49O189KL0im309W9hhuztMB72051m9q8EfPd10mz19KqW8fO+DPBihhD02qZE7i+ujvK90MjtPzcc8",
                "2BURvYNHrrwKOFa9GreqPXZ6BD63kcI9g+u9vI3FIzw6XGC8FibmuwZ2z7zQCB29aTP7uvgBg7zJZlq8jOEKvVQBFb3+qse7i8RSPffVDTwRRg8++2wPPezULTt52JO9tQFdvXSRrb1CKl+90bjAPGJkRr097c28FcS2PAjTWrywRpI836yTvEUgvL36RJA8OiV6PGWOczyU8Ey8IwwgvXbCiTsx0wu9l8uLPO+3QjyOWGS8mxehupCDQ7zdAIU9ZQsLvGYPuL27y6a8WbYEvFvr4rpD/vM9C6sdvRmLYT2+B128GqCGvLaMPz0qqdi8oUe+PQ4xCryvXBY+HMS3O8kffTyBhgU+ulO8vHQZh7xt5PU6u6jRvRpPX7ycGLc6xUNWPpg8gj4SRCK9hkCXPTkeHjyP1Ze8qeJ4PJNE5bunfhU8mRizu06l/rsx2fY876ZfPMEhZjyZvLA8GSzPPDZDVjuYTlk8lIjrvBQSFb7bJJy92l9ivfzbkz3GZWY8mOo9PPvvPb22FSe9W7xCPQabErwhmFg7w4SgPVMRj7ydyAw9UHYzPUiU7Dw7jPi7+KEHPYjQJrq6OAI8QLu6u9gQpDsQ5pG6YhGzvHDxtLxj3K06+eXsO3cMkDwSpKy89QK0vWo7YTzKalW8TUdcvfcSNz0tPbm8Zjeuu112Ljx/5AC8jMXfuyDi7jy5iY67MNFxvRWcBL14b0q/WQ7MPCDB17s4iZW8DagbPorXDj1YmOa7L9T+PB7ROL17W5m9ADD1PEr5cb0kzJA8hIqvvSxIsT10RoM9+4cUPdIR7zzA8Fo7WbAXPeaJ2TqpWDC9MR9HPQsVOT3by6u7fE+3vOUlfT2A8bI9PKRUvNpSXbxhFCo9vO3dvXh8xj3v0Vi9ExKrvdrUMTypjvg6ydiVu3lgFzwnLao7JarePUYQ6zt0C/q6qYMyPGWv1713BAg9fs5qPOeXiTywjzC9mLZpvA0I0Lpq/068cMHEvEvJtDyYERi9jWK+vPSJID0OqHc8",
                "o0kHPNR23bznwgc96ZCDvXOprzykWUE8IfCWO28w+bzS95o800F7O4Rd6ryGC2W7v1DUvB6PUD3gr6g8zzWFO9pTnTzLcEW9fuSEvBhQhr3wJjS9R3kovWHeDr17pke8elq9O73Nhrw2v9Q+6C71u8w5OznlCSY+wnQ9vKTfVjr8ZYS+xTLEvY045b32mQG7M1PjOsMKCryXD6e8xzfEPbxkOjsyzgC9uF/LPBr0Tjz9rZS7SYzWu00xFz7/9845/CAuvjc2OTpd4uM697kSuyLT0ruzvuo7WlITvMdeFbxnhJW7EABUPO3jDrvpgQW7+DBMO2obyj0a0oY9Im1FPfJYqr1jx+y8D4FDPLwUfLpdT5S7sU+luroeMTvdIGo+BUJsvSGNjTpuA6E78hLIuo4zl7xRrE87g8CAu3wQBT7YXyA83Gavu6iWSbvCS6u7oVGhOi9qBjuQBzA7fBFrOlfi/DnQhK471aqFPGBOaDsUX6O7YrMaPJ3JjTrmk5a7tI1Juy1OQzoHaJy8iBYMOzbiyDvVLMa6FTqJOads27pLDY8/jCURPWFXZru+hRc9cpsTPV2ONb2DwOE9S0oDvjqznTzK+549s9g/vfabGD4ZkUU93ziivAuET72axu48CZ0OvdOGVjxWBRM901eyvIJIebxbXzC8UHVLvbpXLr26MNc7DPYhub5TUT2E30a8VquWPN3/EjwwdQs9hm/DvWNWU71Mbhw8NX/dPFwh2bsfpTq9pjYCPfRfgbwlPDS931dlvVcvkz0Zs9q88i1lPZNGVD3TqX68ijWrvMv/Lrzoauc85OkDPS7SnTtVcZg8d1N7PE0JMj1xL0m9Ba4fPCv/IrtGoBK7eo4TveV1ATxsWaM7AASNutz0y7xwK1k7ufZivFEcZDyH1NO8CAWAPEHZAD2hAWA9Oibwus6bPL0I2kM8Q4cAPISHYztYd548gQ/Vu3xyDrxAEu06egK6PFU30jxZGdO+mqeFOkU6v7tkGp6+aY4bvZwuDzvwMAY+",
                "FHhSPFGpxju32zy9/5VRvPAUQT4DXQS8SgAyPPNZkDwsep+8RYWsvVaQkrrLZsI9MUT0uq8aujxdHag8lQOvPFt/v71WwNa72ajavZXHqbsmteS8g/OAup6EmTuooqY9sgs0PK50jTti9sI7qf0Fvd26CTxCNPy7wURDvDe7rLwoVeq7mRBDvLIROTx/B2C9ZcOBPJOfVbwU3WK8tge7OgiqrLomcTS8Ji+jO41+DLvFupM7x3KiOyvyAD6aHmA7y0b5u3ccrz1Yrtw7j+MLu/+HTbuMdMQ4DoXNOr/5EDyzLxu7oKIavDSZMzzlkae7au8TPHgbH7tM0ys71FrFucWuEjyU/UM8HEwAO2flYLuO/Mm9cIExun3iBrys3AC7K7qUu3yZrTsQXaE95iE+vMOa1T2Kg3A9VR9WvkWQf72fzbW8bGIavfkAEz1RI4m9DNQ7vJVFR72KIIe8dzENvY/k7Dy963O73ubeu0KxUD5KJU696Y2yvUiSKL1PRZg9oN5TvAuyhT3akB07rs80vCEhPLx83g86bcc+PbfvmLvGCDu8o4T8u9jAFz0bONc8OJLevEnrwjySVyM8AemNvCqS0byupXK8OvxrPNg/27x+4C67/xywPf+1dj0anFs89BbJvL6vtLsFz1Y8enwHvNEEkDzffoO7Y1QYPdYbyry0jj48NE0MPZHPszrVMgQ8iYS2vMSoXLzalo09SCOnvGy9O7xlgog8YLkXvEME9jyd+/U6Q7ZDvAyhM7yHtEy8dvMwOdYR+Two0/87NPobvLTbWbt6Xjs7y4O7u5Kk3TwzfJA8tagCvZJnKbyH6gO+fivhvOHk9Do/Fly+6+QmvEimLD0pc4q9ifp6PVKGA72QJ7I9XttUPZCg7j3NH/k8HLhHPWUOGD7yHPA5LCZyPAXruzxoJAE9m/4DvqRHlT4js0S9URQpPPBzRb7TVom7G5UbPXUvTDyE0G48Zm2WPAxEIT1AgN08yX6CvAwUAD54Aq+8OVAcvYXIdLwhZ7I8",
                "ZpFou1cdlrtMy8G76smWu43EDzySuVy8sinCvKO5jD0L5Ia9XW8APY3nOTy43i285hWtPYcAXTvvNnG7O6QEvNdPHT1ZiQA70NVNu3ovaD3S+iE8wWx3PF5rAjwPy3M66qkmPHRe8TvG/QM8swlfu+IFSjw+igo9KaFOPFOXULpBahy7FS4MPQfgGLylpwu94SFjvJ512zxrx+28Xjk+Okcn1Dw4x4c8YrVUPGJnEr3XHn6+T2eavBmg9LsGm+A7pPAavaDRFb1r03K92rr5PCHZVbztVwg+gQNwPfTUXT1S1ny9KX/RPaWiMD2tF309KKqTvQunQLwmDus8jxuovj1KJj36XPQ7cH0evKaQOTs2yIE7FBspvTjovbvvvDk9p+dBO6G3s7wLjT87HUKJO4xq3jwrHXK8W7dqPdwNkLyQ6gQ9CtxGPf8zgb3ISZc77H9cvcnM0DxqnIs7rGGzPGZej7z5krm9rPogvtOkwLmRDDo9YUK6PByQwbya8528ejkNPCxxprxWMic8roe7PMdtiTw7uwI7RpIovD3GV7vlGqm6ztt9PPs5bjvo2VI8cUCFPOQKRjzZKAA9KSgbvd2atzuwl6S8B1MmvFH+uLxMm2G9EZnHuyYvfDyL+ni8Y1CUug5KaLyBQYu7FFDSPDLSAr1B6+K+yTsQPXiPQr1OrYK7EwMmvPuIATykhsK8SY4CPRLE3bfAsW297P+3vdwHsbjELuo8aKhVPM0IJrzAoe27pMEFvQACCz1s8SQ9xM1PuwsMvj2DJiS9bIdKPOCRQz4QM7E5L6KqvUvN47sf1GE8zdDNvOf+UT2xHAg8CPHlPHAODT4+yEM7uvOru+zhHjosLKG6z3sVPGmZM709LR+9jqrGvMfJLT0tTTE+m8sovUmmZTtRMdW8APifO3Z8vbv7H7073Pe4OxuNj7safeW8Swg5vN9SWTzZkXG8bO1quJbhpzwhw0u8xNZ6PPnB57sEGRc9SOs7PDcf1jrOuYK6E1SoNz+DXrz/2Q09",
                "r/pfPRZ69TvgLYC8Q1fnOvbHSL2mn2y97OUcPIdg5jp+ZAE9K02AvAGeLjzOCoM8nx3OPGBuJL0TPT8+qLOVvb4kwr0j73c9TT+TPXq4Pb6JI1S9JBF7vS2fhT3OBeo8D/NFvSCxajyEtBs9RRJTvfEpzjzYEqy8rrxcvYcRKb6A6IK9BBsRPI0tybzwBwA9QUm1vLamaTxuGb281d26vF3PBr2k2YC8zxEBvNCwwLyU+5O8pt2XvU9LGr28cRg87rmFPXiQQ7wZIkE8PL7IvLwtpbxHtRE90bFkuxiqBDxycEM9heA1vSddZb35Yn+8M4M2vP4acbzpcJ08RRXYu92DE72X6vk8dOQpvdQ56Lw9qQO8H0oPvSUFwTsGVea8Od7JvFk3Jj1Qcq+9tMKJO5nBaToe4CK8Z9gHPR5Vrrz18VK7wSAEPJAI3LyDU3i8D9XtPOmxCT3emA+8speUOwFFiLvOHsg89a/aPBO7LbxMfDm8bINevYYkLLzOAXO+02mvvuZRKj62KUm9cLsGvpRz2D1DtNg9zltsPYRGRLz8PXq9fDQQuw2zUjrhSQq9lLu/O3v+Mzx1iJi9ngJQvZUIETrAwLm9t3HdvV48Gr4XWN67HjZ8PYvIfj0yYBA8yvvUvKzS8juyiyG8OHdHvMEwo7pQRCC9skLqPeYfwD3ShJc80RnqO/082TsXogm7AWHsO63AyTv3wrw8FnHDPEXbvbyl4EQ9zR4OvZE44LxQ3/M6G/2qvFeBlzqZUjE8VeIoPP/lgjtYoVu8DqqLvPF/trx2EW+81vPTPB6VGLsQPEe8NAeGPFUsWTyolIy7HBoyu0NhjzvfI8Q7r17DOjl0n7sEDKG7AKQPPc02TLuLIyq7CNKlOkXqRbtQzYU7wqoJvH3qATtU6ck8k/WWuc33KDw+rJe6Ch57PJVJYjzN4VI9/nOzvYNSxTtcl6e9RsaCvSUPrz3emai8cxC1vYbJm7wG7ni88TfOveab5rsV7h89WebjPHPYMrxy4xM9",
                "vZjmO6qxpztWa5q8q/XtPewM3z0Vbfo7Q4uLvC5paz3xG906Qo5KPBP9pj0vhV69kPn5PJzOI7zkmf+8n9QAPndXuz0M1/q8c5XJPCEn8TzJ0QY94bUsvNP5+rsljFY9gCUCvQ+UEb3O+yc8DhMtPWutM72lHqw6UfwvPEBWV7qqUyq9OQwwvfcJwjx0XOg89ZEnvANo4jw9h7O85CetPCL9ljyCq/a8Qcg4u5+I/bzO9QU71PO5OqglDL0qeeO8MidUvDYfZL1OH+U8llQsPYxw+Lz7QHa7eYPBPPFdez1+NYy7fhFXPANdpTvl8BQ83CNCvJKNXDwEoga91d1hvTjupTsb1nG+dlQCPpD8ND3gjuA8/JH0vR8b5r0CuyA9lLUTvS2KyT1Ctqi8rk17va0qXrxi1m+7h+0jO767L71BTA08tT5MvZq9prxZpSc9X/PdPdGDqL5C8o49/hz/PKW7QD05gv27r2CrvJOBvzzUrmQ8BacevBQV2bxxC8U7zXhMvMsY2b3O+IQ85dZJvXFDATwpzw29btvGvPDjRb1Oqw+9sdwRPLQvED0h9Ya8auCXvEPSy722FoI976NOO02aCzwxXIq74lCnvIh7Bzxr6jQ8evJkvDq/uTze24K6j0dfPA0XyjstMc07RmVLPC3eqry6f5k8qQEBvelcRzzPL+g7tjfROvdxGDxqMvM8s6P+OWXitbkQ4YC8citsvfz44rrjimw9HFWzOyB7E7xFT2S8GBeAvEpSNL0OGra88ovhuuN0tDuDY7I8lBuaPW20yT0T2Dk+Cgm7PBnY9T3UJ5G9xH16PecJ4DzOuAu82xSJPSEMWz3DdBQ9xp+rvLm4pj0t0B89G0qROpTEW7x6cae79RSBPSDfrbzqwhi64ughPe9rvby6ttc84o8AvvPDjTxCX7q8uT1luwsmjDwWajE9It0OvZT4X7yO0Jm5IoypvCoeEj3Lx4C857N3vN6VMjzagow8fVsYPYWvBb38bPQ6zzNxvMnEL7ocQYa9",
                "5BpqOmJAlLw25jY9n/c/PYZTn7xOsma85AumPIsQEjxkYba8pRUgO2sHe70Ur087h+3nPC0kKDx54tU6KJsevYXsQT33+a27Wh6XvMa0f7z4SSY9bnukPE90uDwiG0O8WVrWu1MLWTyClZA7mkvBvGeKirze+3Y9c4gzukFU3bun9WY7s4oPvYvIRzytVFG+OUomvdTcnz3Qcxq+lqwUve3Bcr0NUxY+5EsyvNeiob3RHry8Y6pnPZ+HzD35AEM8/3K9vVdpMT2fvzI9YXlRPaeY4zzou0M93qjePLR6IbwO6ru8DTmJOyWmG72Ar1U82PijPNYkQz23ses8hDhXvAmT5TwrqqU9hy71u7+f6jkoiLi8KbBuO7SKr7y32bS8OcFFvQNkxrucink5e44PPauBYb1uzh89Mukju4tyxryJ6628Ugz0vIi/yTsfjfK71VS1vZQ6yjxSnwS80TB+PC7b27tgJWW8syEJvcDbGbwVu2Y8PEOdumDkKjyrvV68Cj+pOxlyMrt56Be7NfQPPOle8TzlE0g8yBK9PHa3Cz1gs6286zxZPSwDyLxG4B+7oWAIvGI5u7ublUO9xRqkOyHU57tqyl68BiW9PMJoNrs2EUi+cUcqvJSLjbr13aq+UXpovJu/FbzI7UC+PZ0IvCL3DDzUGKe+Fq0bPasUeb7VrlC7TyMtPOv1R7w8KBY8974HPmHCHTwYXvi8TCSsu1zPCrsNYkq8MqTGu2n5aj6J3/67Zul7PPmOUbsxn6m7tmsdOrN/xbnPlpc9Kwe6u14nMbwa4D07xuTlupTqpTq+ho05jOEMPM4clT1U9Yg9HjVxPWxprr1gWfg7y8jHO09T87sn1jc7GvQSuyfXEjsisDm99biOvW8eszvI++M7juvCu4HppT17buA7kvKsO8bzbj30VSQ8RNlVPNaeSbqNVL67yiujOxOXODtIi727D8/cO0LzLrrN7ZS7DA8WuXBkk7uIHmg7BJQQPNsG8bvSt+S6+nmwOnfCjrtESIe9",
                "FHbIOqiunLuT/mE7CHEXPD+dybkroOM+9/OAvIwenb79JkA83SCPPUmMqT2WZr29MAttPRvn9zulvQi92NxBvT69mLo28QQ7O7xwvWYnrDz67eA7IWOfvI+Qhrx/9Ja84IVOPgR/L72hGQM9SzAAPQ95Hj1NjKm7P6SIvXnh7bpjUtg8PO6vvPdn2bubLFA8pEQGPklqcL3Wzho87h44vFvd6ztE9YW7eD0QPGawFboLQxc7RijcO3CbqLx/CY07fcmXvYlqLbqOGGA98CWEPR2IozzUA3C8Ud8KvCEzJD1yBmw8eFgTveWEsjv7GEm72beUPA2LRLwmcrG8W8ZavNSNLr3jgyg6OHa2vAsGjzy80FY7qzewvCVXKbt2fBy8grESOwLpYbunSIk8F6mVPLKLnLsXxyY93Ur8OrGlCbv8Y9m6Zr1rOablLbw8XIe86+h/PO918TwfH/c6sYzLvd580L0oPmg97igTPbpLRb3Rk5G88eIVvX55XT1H/io8kIPGvB9wCb3nCHe8byaTu2/aGD5BA7U8CMjPO7CNnzxznsc8pcOYvsWkvD6pTh89WQ4+PGDm9zyZwKU7tj/NvNEwID2wIu08AsKhO0pewDzp1My7etNXOmS777wDZo+9yUvNvINfDruhQGi7Vz0lPKjeEL2y1Hy5qblUu9dxKz1eUte8dlyIPD+tTD0d2QC+RndSvEV60Ts7wvk8pScKPVyQiTunzAg8mukyPCdH8Ds0ncg8BLN1O7cN5rsVhoq7qY7nuW0q2Lvq5gw7PTYEuq1BJTwTPIs7OWatuxZKrbzmME4872xJvPp247uH82o8r1i6vLs8szwO2d282WOwO60atzyUh4y8QWIzvG+3gTsOv4Y71jr1u3szi7xzIsW99xcUP0/xhb4ZVno7Bqn2PBdhJ70AQp+8MT+JO90xWbvycKG97A5XO/h3n71btGC9QBeOPPS8dr3oxfw9GVqFPE8jdjtvvKG8v1oBPnoXKj53KGi6SXTDu0Lzqj1FHq47",
                "muJRPGzL6jpvjUO88hnNO2uQMjsBt4W7sfukO43sHjtT4Cs8uY6Vu0W+K7y3ICM8cfgsvIkteTxs6oM8YUemPKgU5bzAuoO7ePcvPUux0zzTHuq6xsyIPB29ZjoJuny88jVrvFAMDrtIohI93wggPW4uCLycPfa5deACvMLXUTwrKc47u9q9uyw/TDy1frY65DGaO8eXBLqv1wY8IaoPPBWwAjxL/Ag78S2eOyqAFjy7iNI76WpLPA8ImTz4YWu4AfDTukdazTvHuf67C2Qnuu585jvAhua7Rp4DvZFR4rugXD4+IL7dOotVAz7Qwda8cxQjPU3xU76iCgm8Y2H7u+TQJT3YmIi99EEPvbz5oL3rsyK9m8UPvR05mjoec7a9TVv0Paipsz15+dE9DZ0hvPJWDz0Sj1Y8GHmdvF9JeDu023+73BCWvRJT8Du0AW88TsoHPSyIZTx0VqK89SYAPi30iDztO2Y7FjKvu+HFGr0R6yG8i7sJPOZolT3B5KI81wRMPfQv/Dx5XUo9MT+EPWkFojv+KlW9+5cHPauqzbyo3r+83w6EvOLatDxasgi99bUlvADjhLvsQQQ65dVVu0ecmTuphmW9iM/YPKI60zzsr9E8H89vvGQkTDwmObS8sAHDvG89hLuMMsa8uFPPuyaJhLxhdbO7mttnPSGXQjzxQVU70FYHu82wFLyXsMw8caWHuhQRhzwTYge8NnVqut9uhbxa+MO9VrN9PZNXKjztxrM9yn+IvSMFVD2ifpu9HV8KvFi3abx9Dw2926n8Pay0Uj0ZGw08NwPdPPbeGb0VTIg8jZZnvGlJXT3KuIu8O5luvGLdBL1fASm+5gdLPcq5Cz0ym/s8fbisPZizNj1QCR27w97PPJeAOj03Zqq8Mw3aPFowqb3FYJA9s17+PBuv8bzbEqM8OKgVvWPYgbsIT5K802gnva3BIjygbpI94cDJu0WeibwzduU7eR5+O1IYNTx5CbG8LUyTvXHJZThbagG9UWM7vHZ8ZTvbr4e8",
                "OPMNPHlCXT0hY++7UMEAPWEy0ju40+a7CctLPNEkIb30q588x/K4vJo5kryxNd08WhZmu27Otry8J/K8y4KoPaeTlryjAeS87IgSu7+kMjwI/4u8wgj2u+IeXLza4Su9d3aEPDxzOzwCPja9qOwvPckmtb00QKU8mhpyPUV79D0KY1E9v6fUvYsUeL1IQvK7Kj5XvVYWarzy6a28YUtHPWgixDwR+qM7wIwgvUlJlztRWxo9+V+ovlnDD72rREe9YdD4vAhvPLw43tI7/4ZKvS8YEzw7m7m7FWdcvQpZAD0BC5U8JhbpvWX6Kz1tngw8N9E6Pd2cHrvPPKI8RbZpPJulML23hgS9S/gnvdleazzhRM676uwbvh5JXz3iv4K83FlXvWtZfLyC/907uRLjvO+dO7wvh4I8jHdKO1xrxTx+C6C8IQDnvE31Jjzs9WM8NnAaPGUGmTxArHM8LqPuPE7jr7tGB/c7+8NMPEF98rznzjy886qivFMT/Dtbel48XVdcva2WAr0919m82FkXu/hnNDwuBw682iIZuyrpvbxqBsM8ScmYPGxnFbz5TAI+nTO7PQutMz8TaBK86Ds3vOTcBb1sAyG83gIIPOzRRjuDpW68DsanOrAVnb3Q/Xy6rdHXvSmH0r0Tkr+9oO6Zu2wujby6RgC9lEBBvjLNET0vBJw73lk8vIvFZD2UNgY75LmfvKPn8zvxlE88hcHTu/lZp7tlDpU7j+ccutMoVzxRQ9m79ZY6uwoAHDxigj46L40Sutl1mTxnu+k80i+uPNEbX7wlJhw8jHUkOqDqlbu8M7w8FeeZPK9HgLvihCK7j9WMvBW2CbxTbu08gOJMvbwqz7sO4hA76FCIO4S72bu8dpy6V2MeOkDKuDktW5y6oDokPBvefLp02iQ8Nc96OoJb1rvX+Gm8x8e2OyPawLxepJ08m6VxPK5CeDxBdYc88yTzupUzKDyk8xE8suqOO+E29bteF3S7mArVOwr1RrzVQ609/3C3vBekyDs1yLI9",
                "RcT9vOpHdzy5YDy91OKHvf7qID0RyhS+lRfVPZY7Eb0DdGo9+1OdvDY1CD128V67RiXAPE7IUzwwtQQ+AG/sPShObz4kPLQ88je/vVaG/T10WRM8MNNDPVqUlrympzY8LgtQvUScC72C5LC8evchvm5iQL7Vxso8Ew3bO2tYszw5eJw8cN7FvKIuIr1xe/i7aZMQvAt0nbqMILu9hAHsvSGcxb1dYPq8wR6ZPfbfh7zuyq+7ejEGvWOmDDyK/xC9msMqvYxzgr24LKQ8eEi8vOHhgr356o47556hu+0N5rsYIxk7ZmlvOsiD77wG7a86BL0BOkVQ4btdBRA8Zm7GvLHgN7wCEwS9bXLeuwRdjD0iuQe90KZlO1nsGTtxBSY9SdIWPFrTFb0Nfdq7dakTvXmh7LzCwQQ/RyN6PQVUILtY3uC9GkKhPRJmzT2d4Ti+bblOvWoMRD3uwbE9xCcqPUkZcj11smO9HGyHvd5U5b2jEx4+vc6JPM1nGr3nIKw8HH35vewPzL7DtL08hUmEvfOBVL2jFCi7iB1fvFoOWr0gsSs8L2dRvVE9Hb3+vEM95b/DvRc6br4XBrM9SJ3nu0DGNzuAfjm8/tgBPVujJLw1b0U8iQ0YO4NQiDuKhNE7A3MBvSBDqL2v+bs9vI+gvYt2CTyzSdE8/KL/O/5hn7nc8dS8dW9aPJ6eCT1Jf7485Nuzu2S4az0dIvY8MYU5vdNbeLylz5I8+6ILPDWzFLwUkee7PwVWOo9rZz3e4y+9LGuruyhhIby2wPa7ngIdPTI/Yr3jhhQ9vlPdPPyem7uHpyC9uCiCvHDroLwRnVA7nE8UPbR6HD0KBIq+w+sJPca1+LqkJyU/0vvrPMA6FD1L+0q+CfSJO9WsPbxp+a48CEkcPZx2Xb23I5c8Sg+sO3SmND0g2UE8AKh7vKoJFbxGS6i8/jRzPPqUTbxs84Y7/i9BPK0moT0hiVE6gjvcPA5G9jsA5o67UUbDOyfwLrtkGDE93kUyOo1++btSwHM7",
                "FSy3vHv+KjzviaE7JGZ0O/O2/r12mp69FQmUvSp90j0hgbs88yaPPFXKaDoH5cS7E8ICPW0RqzlnwAS+i5sfPMpw2zsKzGo8kEgevPkzuD3z//S6lKoOvEdEt7vK4FM7hXnXOvl0GjpwLx67ISkhvGd/ozsvT9Q722uLuig45LwjrUa6e0jSvFtTFrzUT6i7WXnGvK5WQTwHeHO7hF+qu6822zs7Svm8B3Zsu/I4I7vn37a8im5BtqgktbtiHZ0+jPMHPv7nhzwmxIq9F6KgvaXhK7vsVg49rEhqPeyjjTtTbom96NKjvfjxvjzC0cq9QDGhvEBslj3JyZK8w1xiPJzoJr1akee7Yg6UPOk08730wiU9u7N+PM+dNbyh9z+9dBshPdwkVrwXx3a7s4QDvUo5VLxVow69XNNJvKmA8bwJvg89U8OJu0ABEr2Kcgm8YXkvPS9oGD0S3FA9AcZJPBqeCLxIFGI8Vx/9O0JpFb0CGo692bSpOyJa1Lz59ZK8GQpDvCXeOjxY/rC92TpLvaWgTjzmnaI8MvT7vBlxYTyRM0U8wEIMuZFzujyHhp+8jH+1PJZsfjwiFBG9dcGSutzlO7yNLXs9jHx6PMFgBb0cHQu9U7Z5PG88Cb2SejM9NVbuvJw2i7vXaRO96EwRPduHZbzW0JA87rEJPS/dBD09N0K+ObwgvXGlnT7G05C9xl25vH7xA733wII9dP/euxBiury6RuC84zr2vLA3Or3rn4g8Y6S4vPfGlj0o4Cc+RLhVPWOmSbwCEYm8rm5mPtQEiTtJZyW9TJFAvYztwDxi8T48Xsu1PbQHn7sEdaI7gnTUvDo+uTzoRdq8dHidPZ08u7wNDsM6iyBTPBgEnroUUg+7aEWYvD0plj0iHgo9wirsO8NdD71JuEG8Yx0qvPzy1DxiXiG8fApLvK+Ferzk7Ye8LfbyvEeueLuP5RO6hy1uPVt357t+kyU8RWEOPCPuMbv12A69LcfdOypFrTpF1cG72JAZvXA/BryXzPm7",
                "iDQ/u6PZkD13V0E9DynLO/DEkD1bGHe8Z6KEO+n1w7zjRP28GVa9ugx4lrtyXQO8LjgEu2Kf4bpddey734JeO1FZhrx9nkW+pcKtO64ynD1Ngjw90JuXveyEyD1jaac9Bp0qPl+Zi71RAkm9HYBHvbNIgbz9kU49iCTpPPrlkDxw7Lw9zeOBu+jUubztC+K7ZR48PQc2Gr3BDei8PUfkvRtbQj3IqSe9dr+gPZ4/wLwGQyA7Id6qvAq+ADz3/PO8vsSOvG/Y7rwyIXM97U2rux71sDyrhBI933mCvH7cHD2YNJq9m/sZvWf5ojzuCi+9aZiyPEEiCj3OBmu9tj/pPKz6LzxM/KE82DdpvSipkzzp9Jo9/Zl5u9XeTDyP3n07XyhKvBAmIz1s8c66x99gu/MWDLz5Nm88coAtvYLnN73WmLM8XiCfu6HJFT3b1G88EbI/PfGUijv7gNU82U40O6xH9zxF0Pu8/y+3PHpdwrtDMqW5YVBbO0bwx7yUJcM6XL4jO06uyruBNjK+GLdpPTJTFTzQK3e9WC/bvQNeAj6JqEo9QgsCvlzPSzxkEo+9HEeRvfnQVDy7ZeG8nMDau9HroTzSQYG7P9g0vUUisDwR/x29KL7cPItbE7wYOAI9b0obvu0+aD3NxxG9UILgvMPGi72CfJs93aLKO3uZL7w3she8mf0CPcKVOT2QK528gFqiPG4xebxldVi96Lg5PU7QozsogAU8aPuRPEi0krzx2P+8J/SQPXF/nDzhMQq8qaR5vEu7QD2Hpn+70JfxvLukGzxLlws8+KXWur4XLztsFwi7heUcvZYxKr1A5Wy7E0ZVPZv9gju0j3+6XM4RPF3z+bte2LC88gRkvIIAnbzUw+A8KMzVvIK5sTsXaIi8uz4sPQw8G7sBp2Q8BUorO9Tfn7uzP6s8pjPVPKz+Lz3Nx0a93sKFPHANBTqQG0C+Cd6RPlZ85r0tC9u8RlYbPoaBEb4X7Km8WvjHvaod8juEyCW95q+CPL40wbwaopO8",
                "A6FtPKpk5z1VWjS+vXhGPeonlDuP9hM73ZnnvfvCMr7vzzy8JvoJvRtH9TwG/j+8RxWXu/xpoTzT0268ojiDO4UYcTypjdo8rhsSPS+P/zxVDce69MeIvFbjH7wioey8g2P/PDNrcj0D3ig7Z+UoPPpUJ72wBZ68mWd/PCFzhTxWShu8vclcPYgYyjvtG9S7RCqsvEX8JLuGk/K8QbEQveUMOryPYa67ux4MPEd+yTtw53Y7hCOnO/EP7bpHGmM7SEm7PJ95eD2/Sr678qaIPEa1r70ML+Y8th9PPIONHr2F/FG9ipVpPDzjCz31gBK8BmxSuj34HjsWNZW6MAI5O6YMpDx5KVK8RluKPE+NH7w+fey9byEevk1wiz1YVAm8GfSDPZJib70agwW9kwRmvV5dvbwIWzs9GH0bPWTL2jvLiCQ+G8XmvFOeeD1bB329ouZivYKS5blPY+w8joapPjpeBT+GWdA8zMDpvA1UpTx3MIK8oM+BO3AAmrp3Xsy7zJlrvM5vBrwv64u63T57OoKgQ7xklPi7kiljvNXwdTxkK/08bZCMvaJZeb3IXvS8Kv0KvChDTDqVrwm918jFvKaMyrzv0I+99KEPPoqRjbo3d4S8giafOz8H9Tu+NJi8ybClvJXXA7wYIDE8LkWfvNX4n7zuOWm8EUoYPN5ylbvk6RY8CgNMvLrJzrzOnDQ7L8GZO9kM37tLfJI8vCVLu1nvcjxZWxQ7ivb9vDWZrz24j5G8l/NqO83E3rn++v27o5GLu0f4prthk626OibevDsO07xTaho9usyvvTVsjLy2Yiu+Kf8FvIZ1gb0hakg9EOuXPVpuTzz+SG+89s1svSKAdj3qD4W9Gue7PLLDYb1MXqW6BRcIvUx/IrwKax88+JhfPaahsD0FsIM9HSjXvRGhHLyFgH072jMQvZ6Ylr22IpI8lhkLvQF3Pb1oIwk8Nmo8OaoEVz1KxT285E2FO4vQerzd6Xm8xewSOxrZCrzrFIS7FlUMPU1RfTzK6zk8",
                "JcGpvMcZQ7ooITA9DhVvvfaCuTu1SrS7shTRvGo5MLyaOro8MAcwPNQ7krxA/TE9gQgRvBuVV7zaCPK8ChO+PSGBTTtiJyk8Jz6TPFGnEzypX4G8yiWXPKjZiTwODAe9txXrPCkS/jwlM4o9Ye6HPON4Fr1cCY886lj0PO3RN70BZbs8ie/WuzYbYbwTHuU8t10IPNVIczwZNhu+UncWvD82V7xCcdo8OSqBvuq2Uz6pdDE9WKdIPnA5NryLE+k9x+OTPUcKHTy/LfU9fmK4OyDHmjxKMwi8ZFRmvZZAkLyIzxC+iXwCPaY3kD3Xew69B2ymPXpi7Lvmnvo7UwdLPKThSj0h8V07kmSOO2ApZzxFxU068jdYPRVFlj1A+2m9crEcOmfLuTz85K87DccKvB0CGD0Ljzw968StO06fCb14lGC8FGBRPO9eubtrZ2C9R23qPJUSnrwuXqg8Euf6u7I4x7we4N27DvfdvBRAv7trCZe8LXjEO5rgjzxoJ6M6lOe+O4t9HzxeMBW8WFFWuy/iiTuINt674p97u8uL8rzfvGU8GLeaPPUqCr09izC8bPz6PBf2DT0Ggc280upCOxyyibtwxra82A3+u0kAmLx0Eny7XU9vvIVi4LoRZw++KaFivAXwZztdS2W+FmoqO86asDtZYzM/OI+6O0S05Dr/bg6+jLirvSkG+b1/g4y6tOjKu8VUSrwq6Ly7xX+0u9XHmDu63Ji8zh7EPPRBY7w+Szy65Nphu/gHCz5kVr27sf4TPHEYpLvagfy5P99pu9eUMjrlWeE8oNEvuxrm8rv0Sq65Pi2aOl2jMbqPzhw7/fy8uhb537wPQyS8Z8tnvD8aHDynkga85SgMu6GgOLwCueQ7RbL8Om+7pbq4tRS95EWxu6Honjj7sni7GT4ovGF7aD1xPCE7fygsu0TOxLuC9ow5dmgiu8iynLroVD06AtVEOxSoiTqGhR07li04O2h5dTrkOZW7PRLavGBKZ7l8yb+6E8uDOyrSGrl9qiI7",
                "BWuluc+KgrrITJa8Sgymuv8BrLum8Ac7UAmKu1BvwToM1lU/SwWIvAshnTwHTbc/Y/0/PXkP4rx8Xwq/yVsOPLItNLz54kk+/RrHPVMEHT69oCe85sB8PERtmbtDnaw72SgQvT0U0zozgsA82tdcvFwqBzyskNc65lcpvFl2K74/AkS6hsgHO2oVCjwtRWM8U528u0XNX7vOxSs8SJwGvHPPijyZbaa7M0USO1oOJbt2S5O70CvAuqzJCj2Qumk83SB0OxfgJbtvsWQ9CJAAvITfl7zCNTS77nM8vMSX8Dqp8EK9uaL6PHiitTph5gg8qhQquyODGTw9jwu7o3NHO5L6Eb3E2YY5dx6mOlJGCbulAJA7/6o6Ozicwjt9cuq5HXKPucb4hDynD5i7uBmqPNkb3boe3XA7kLlbPcWvRbxMEN87xnKTO51OCbuAtos8j8aSurqvLryDMGI7m6+Aumd+czmQQ6C83eEkPNO/qDwFI7U9iy6/PRraCT3z+N284vhdPMaB9bw35Qa9vy2LvfyAm70920O9cMIUvTD11r0fRbi8ZjnnvHQcIjxWjSk79xH0PaqSeL543eM98SOuvLuL+T3qc6M8di3rvPN9db3hqai8b+6Tuy12o73vhku9cROJPRQ9gL4ac2c8ttyUPH/vCLwVX4y9tAsvO/Rki7ztPfG8VOTOvJ6V/DvwY7Y9/V5+PIOqB76e8cY8Z3bHt01CyDeDiDY9klpevaPOgrg4bVQ9wZbOu+5eTDsbTmg9CXsJvOqskDwT6KC8SrICuxQyiDzJSDK8waQevEqPlDzReRq7Amfnu+NptTsPihO9ZJkLPaU9PLzmODA9S7y6vM8DC71s8go9SpdmPNVOWLx6VZE8KBA+uzHdwLzTrLu8qE6uPHGvsDx6i/o9GcNmPeChJb0g1Cq9pvRQPfOkwL2iKSg9WV/OPXXYs7s7u7S8TZWWvWg3DL3xEvI8rQ0OPXTqVDw1u0C9p3/rO/WMSLyi+Na8sQLHvDWasrxW4A89",
                "9q40PrlhQT16+9s867zwPeDZYj3mULa9wdpcPHMQMb3iSTS9lomRvWRM5LzmJym9Iv+mPBETEbw5IL68USv5PClUJj2Vhne8hpv0uplA9Dyocgi92cWMO/aMETwoI5u8E0SPvEC567uoNim8sQEqvS5CKbzhUOk8/EKHu9lGazxZGqA8Oc0rPZpm2Dxg7kY9JKULvccmrTk3tso7jRXfutkTFDw7c0O8OUSUvLtUH73v6YG81oK+u9h1lbvjmIg8wDCCvO+zqjuMpOG6FVLEu8inL7zQdxy9XGPtOjfuFb3J5XU80SYLO6T/lrpdkpa9BsR4O/rQ0TzbG649Waf2PEu/jj1hv5o9ypo/vU/pDb3YKu88akASvaUYPz2xRqg8Ny+XvUJq172A8Ty+2BQOPWSGvzrxfr28TWXOPtZXo7wGekm9ZmruvH6g370YqhQ7N2gFPfUH+Tvtw6E9V55uvQrHPj15xye9PscwvkwTNj14GAG9VxG0PenSzzs8aeO8M/UXO0FKizw/xye70p6Hu3slvrvudio9US+SvRrHETwjFJg9R/P6Pb71mbvs7ag8mqZPPS5bnzwCi2c7jAl0PKHV4Lx6mnC8hH+Vu50NWr3Ndnk9J5apPJ3yXbthvIY8qNQ1PYv4TzxoG0C8c8KDvMC3H716aY68HFJSvK9FHD3BgdY3mtriPI9yGj20C3E9CuMXPTJzXz3H8HQ9IS6gu3uXd7yXbA68if74vP0/1Dw0DrS9bPEzPmKNnz0Yq0w+qwhfvsX+gL3HRVq9tLnFuwU94r3m0tS8XEFnvDohkD1Nd/c84nuHPG1Wz7wo63K9Lat4vQ+Vl70i2mG9tc1ePdbwb7yxmqy9OikCvSVf+DtyPDA9yeNFPNxvTb0A84u8bxpWu9vXjDjaT5O8yGyhvW3vnT2707A8GAOQPCz6KDyO2lc827mTvKmA6ryS7re8+HWMvdQGIr0+s2K8kE4JvSLlGL2b+YI8DARlu0f/sDxDVhU92cKDvCaDDj3FdDu7",
                "nXRvu7IbwbxTJMm7BqEQO3XyaTwJhvk57vBOPC+GurzBi8O8CuTbPEmi3LthXTO8+YGxPKhnYTyDeLA82dDCu+znA7q+jeS8xrf6Oq420zy6ajC7mBIrPOcSATv5oaQ8pze5PD/uqjwsxiK7RuZ4vPuJmrzGvtm9sLEVPIkNh7uLB72/KvsNPEzFfTwP1Gu+Yu7HO8Z6hjpI3Mo+Tr3MPIpN9j3z+oA85h7tuehzYzwotfM7ujIRvs4kmTu8OVs9YQurOzPgXLyV2bo7LjdMu/ggb76qhgc7lOpGve80HDzcyxc7s/ISu5zD4rqcDec8jQilugJJnDtuw+i7+xshO1asxbtBIWy71/j/Op/aDb6GvZS9PC6HvZCS2T3t8JW8gKJ9vCm58juAZFI77sIRPBjOlrl/FpS9i7PBPX4XnzrVYW26WvkMO+JTgD3MSh27LaffOMOVjbwdNF257a4nvFOWrroNEM86wm2Ru1GZFLuQbSq6BzQAu8CNjbuyH2A7NmmnvKAy/joW1e26Lt12vAWaHzhw3Lc6Z1YgO/Mv5Ds5STm5j8b1uhJqTDo4i7A6SNJOu4hki7s4LZa+ZgMXvtu/870YsnC8cnhAPlz7Gr1BUKE8Y/zEvHsPEb0mL169fOvQu/qeR7xh8Ku5b7i7vIzgur20k4u85Re/PWaMnT3UHrU91W20PCt86Tuppzu86x0qPMN9Qbwpgue7bdtKPSYQED0EFu08AoMWvDuO3jzvHTq9E0N5vTmBqz08tl+82s25PDGGlDqPgBk97y9YuzFVhTylJJU8WN5kO+lMYrwSqMQ8CTqFPCpEGz4x99o8x1pzO1GW+Lxd34I8IcYSvYz/brzWaJ87z00CvG9S5bwBmpY8Fy0dPIK4Sr0fIB28F9aqvOi1YjrmjQw9BLwRPafTmLzSTQm8d+siPHr/+Dsxwss7pN10vPz1bTzW3/o5dm8mPNDTGLyhgfa88/ZQuTFGoDws9zc9creGvKt9yTyTLLU8tFEjO66ltrv0t+E8",
                "6xe8PJ6lCT6pa08+w3UqPRXgAr0+SgC+2kI3PD57dTzp+Lu8rch1vcWKCT0Wa/q8wcA+PZruR70GYaW9WktLuxLRjLzynF496KShPpjNYb3CnEe6w8OduoibELuq3we8KGMBvXLNvbtzf0e9M0EKPYXaKTpZnIw8qEsSvW7ypDxlAiW9Is/CPUeCA7n05lc5Qy6KPMTKDLxdyMs8yBtavU/6GT0Zfrk7i8iJPT3My7vhjHE9rmTOPL6ag7wgd1s9PacfvPa05rxtEoi83OnaO7bwKLs/SZ286taJurZkozw3FA49Y7yIvInFxzuQXa+608KuPCqwRzxjj50629NkPCaagbyx5q27YaIGOTnKDzxz0pK8ucWgu1U8ubn4YZu79PN3vIdABr0GN1m6qV3Bu30VIjyoiji9ebUBvSUDlbqEjZW95Wm0O56x5T3DJ8i9hB8wPT0mOz1/JCe+zA6TPZ0ecT0PgY+81y9APQ8aOT2+HtS777evvFSev70OjVu+AsXcPHHLkzvkS808r4OyPrSsab043AO8YoaRPG+rp7u3TJs80Qdgu98id7k8l9O8SDAGPR6YG73C+XA98RBtPoHLlL3T0b+8a4ysPcc/AbsSPZm7qn7BvJIK/7sQi9I8UEQYPdmo3by9o0q9aliYPLXxNLxMXVw9BEuHPYm4pjyjWui8OKrOPNBMDDy1+iQ8LjPAvJ/dgj0/zIk8KhPdOxDTgD0NZqK9iuVfvCE3Froh3j48K5n1PH2mgjywJOq7EygKPOvYNbzkJdi8EW/3u3BkCj378787lMH4PF2YLzz0nCU9ylQtvaCqEL0ejz29pR+7OnztwrsZ6YI8aYwPvQIuBT2hvUW+PGdcPFeewbwjiii8xZRkvCq8pbx3JVW9BdqsPNEw3zsy+0S+VO8AvPbfVTpvRAO8S1k1PPbWtLwVlGa7wgSIu8+MpDwnTm6+oC3JOzcDabr8Hqc8KUxrOpBonz1YhaY6IAGbPAMypjyMOlq8YoX+O3sGhro6rF07",
                "MrBZvZWW/7x6aRa8GKZNPIBzNbtMKTm7T5DCu2QZCT2PuJk89L6mPCCGN70Wuyc93o4OPT3Gfj3AoCa8xo1+vN4iWLyTC7q8rKYGPSxkvbzYYk48OiU+O9WgSr0uO3O6v2Jnu7iUlTx7/cu7CyobvWhgeDuJ83Y7oGA0vCUMLbzFkgg8A5lsu1BqejrPuOC8YenovGJA57tXBRw98f/ivEFgAL0zhyQ91nMXPARdwbzbIIg8v88zOsDDPjxWJSE8QFHPvF1VGj2pjkA+nzwYOlGB/7sHjdK9rPAfu1UAqrupAAc+g8B6O0DhuzoMEGo+q4ltvqo2qryV47q7pnv5u7soc7xG5lO8UfHhPQm7gzoGZRq+7qxaO2uNwbtxZb270YPcOyd7Jb6SCmg7zgwwvs/Z2zpSzcC4HwEduzPCfzpjWAQ+RqXlOhv4DzwVMhG8kI+hO+jhjDpSU5e58EsaPBKmm7u6BAS9wqJXvOWy1zyIbwg+GuvIu4vGg7vGfCo8ixbRO8Z5Bby5U6Q8ZcFxvQHr67klnuS6UCbKOlv5xjxl1Qg8HTE4PDhr6jvpKLk7hvGsO3uUmDrQF2g7AOAltkWx3jq/MXa7LmX7O21P+bsva6m7kq7rvBK7yDukQ5S7vMmTveMBzroFIa67VN+LOofiCzsKLgg9C+FmO27evDpQZHe6BtN7Omlk7Lt2f0U+eSiJvqaUlL5DLJS9/XyAvCAIDbznL0y8s3bEPN9DFT2InI+94/qGvIO/ETxj5oM8tHVuvNm1ArynbnE8dtYmvP4diLzWDiq9d3gMPttjJL5uyZe8G787vF4M9Tzn1bM8BEwFvWFehLwKfp+5Uq6iO6VGMr2YC2U85jXHvZzNIz0XWIQ83GJGPKEfOrxhXse8XmKuujogWrsbe0A8yBacPIZbF71ZDdK8wuGGPZ/oqb08nlY9iJSePEy/urw2xEe7eIzDO+q7F70xP8g7exo/vMAZSryCZX074zWAunqdJLzXlgs9AVSXPAmGSj0RkBi8",
                "8amKvMDiujyRRyC8WQRIPOLkyjgLKAO83sqhOkI9/zthd8U7EEXuO2Sdbry5Ptw8q5AKO3sneLxEKU28qq4WPNcotTuQMDc7E/DhugV4Ez20W+a9AIEIvTkSYr06HBy+AMOyvXc0GLxWyvq8MvcNPpC1a72xuYQ952izPH+rmT3vmNg9YBpVvELKeb2WsqW9d/3gO4HTtrt4I4G7urZdPuJOoD0VYCo822UnPKc+M74AwPm7MRTdu4VTszw415O84xkevOpg+DvV2Mc8Em6iPcnrozwYQnW9b9PIPFSUODwShrW8jSk1PCugFj2MMiA9JlpPPVh1EbxFZRO7QTazPGbf6TxcheI7AFWRPcRf/7sbQGS8QmFDPSJVXTkzwZa7KJVHPKyYXzzoIQu9xEsFPfU/QryQowA7O4L0vBMU0ryxJz48Mz/hvJCFEjuKWhs8kZSDPJJ46bySOg68/C+ePH7NBLwBAIa8QXx1PQbKiDvb3rE8zFr0O2omVLv0zj290OKqu8Hl6rsV/ua8cn2IvPaZijyF+4++1qHPvU+HljwLogC9uhqAPnCLQr6UJCE9QriUvRPYyzpSvqa8VZKwPZT4pTsT/oo92Onfu7W7i73PBs899aKmvch0hbvR6i69UVhjPbpJoj2JBI48Lyq2uxb4iz1LlUq74QcJveR7ib3/PKo8yYYEPQeQsDs6ceM8j9ywvWpiqL2xtYm8kl4sO0NS4zpzcM87+hbjOqcoQDy06BY90hhyPH4BYbwriG28CkTEPaexqz1QXCI816FRu96VxTs4Pb+8uHS4vFHNL7vHm028DePNvEWOWTzmdwU6wm16vIcGXDwzKN88pxYjvbhKu7xtUow8D55pvLu8nbx3T448aZqyO87Ch72uww89LEAIPcqokLxqwCS97wipvI+rBr1N5iY8p5CGO8zTObzogBq9lKRYvIfwrrtBVRo8dXrOPAxNhTrufQ09AAKmvZb7cjxsr728G5PQvSNzCT46WR+9FcpkPAQMkj0GnwS9",
                "YKEDvVF9sr1qa9i7jjkDPe03k71+BIM9i+OrvL2U+brx5ri8HUlOPX/fyz1hlDI9AA5lvNPWqD11W1a8syDyvC2axzwzZFe9p4eAPNWKELvt/7e8DJOJvdsMf71CfLE90c8tvRHqKjs3GRu8lnMHvWhcHT3tEUO9skfPOzcSar1iL0a9czRtuwW0OzzV0AI9uR+PvMFYIDkF3p+9du/XvIuMibxJeHe6HgLkOzDmPD0PDRs6vdSLPPFWujxtEkg8mQAIvKqDf7syyH26JGTKvL1Ppr3cmwY9RLxxvLPkoT3VTlC8h5v+vND9FT2zE4s8mVVEvSGd8rrZmXc8y5TWuXbyGry1vQm947TzOgFysrwSQrQ8Oh9OPIiPHD1l9Ju9IbbqvOXXPb3f9r49+YBZvUoO3LnRQaI8u+srPL2fWbx0Ym+9KMbCPNOF5r2V3fM8c+IkPZxAXLwpJpK7pjk2PTCHq7ugAzs8znaju5tVw7zF3bW9QrHEurJgpzvQlQc8TL4Ovoz+DT0nmpE8PEb1OgotGD3uVfw8gtD9PCALhb2Khv68fNE5vV+PuTulut08BuJIPI/pPD1hai27fdSUuirVB7y8ara8obTEPPstyLzr0i09WWuHvKlmzjpkVpA9BwcvPcCc2rx2rCY9GQKyuysb9r26lIE889TCu2TvXb19mLa8kdbmuz9ilTybR2m8vfiNPGrFYTuuldI76VCJvPs92jp+tBG9V7e8vAgXw7waMBQ9IcmSvPFNGjsz2v47IuodPPqqAbyxiKA9NUZhOmTV3DzNpKc74aV2Ok4pq7qO+qk9XMZgO65TE7xzkTc+T3cBvAcJFjwUwim+SjhXO+Fu3DtGE1s+1cKDPhbnNToRdZQ7DHOUO8fXO7zj53W8l3XDPaNjYLnyxvq95X6Xu2CAkDtJ8hM8MJCZOxUvCL5W/7A7cjMHPg4YlrwcO9e7ypeHO0Jyt7tucry9dAxrO/Di9LtfjIG7PYnzOqjCGzvuPVC6Y/DzOzRpIjz8ni88",
                "OHFGvKGqlTtnZuK9JNoKPAKlCjxmyMw7cbtLO+YQsDtzE9C8fxSivQY42TvRE0+7xPnCuxtmWLzWo3G6Qw/yOfNZKryUnGS7iY83O5uLArqB/YG6Bl26OxfDFTyT8Mu799KUO/Z4Z7sIZEw7mC/Xu3coQjsMn9g5xc5evernprnOyym7goonvO935LvZhQW9mf5iuqTfLDtgfN27IsM7O055ibsPw889ds5lvFFojj2Hv1q93d3mvFLQqTtlqBe9zuYyvW8cPbyjYgm+d/UbPCkG0L0f/f08bWM9u16iHb11n3A9EWzhPOWZRL1qDao9wXQfvkrMqr1iffK6iVKYvHJNBT7VFVE8Rydgu4nkxjxAw+o8FptOu901Oj2IMVs9fvIrPe6i4Lvbo4A9w7yEPPSVK7vUpvg8a8G5vDl6QL3lgXS8yjo8vXgWJ71uXkG9IkMJPZO04DwtV/a7x4MuvPbpWL2QdYa8GpcIvVm21bxPKwK8kzrmu+V/crwMtQi9e1QKvImzmbybRsU7QuEkvW/EZDyRbta8oEXPPAMrEr0sv887kdahvJA7g73CL0y9q8oRvbIXlL3eH/e8UJ1pvbHWpz3RNWq840brPAPuFzzzVje7WrQmPWGGcz06ryG9qLKDvfecAbs8sBG+suy/ve5YAj1jdbc8YfCBPQaij710yKy8KFb7u5QgXj2Ilr28wqsBPf8+Wr2nzzi9AOOrPGM3vbzsXhm9ySzPOtSPc711pA2992QGvE71Ij3oSq49vox+vQK7PT167o684wohPgHdoLoWvr48vBovvY8sHL37cES8+0ObvABWYT12SU6936+DPJngSzylN/Y60oaxvHu9hT3mvIM9l9UVvWuoTD0kQAA9pKOGvJM5FztJgos8MRdJPS8g/LtbKSe9FTyGvM1bvruR5ag8b7YHPEZBJT06aIg8fbVfvPl2oT1olk26dAyKO0sOtTtH34E9ArWsPASk9DyUDS29suUUPMdTRDzqXKO8O5eEOpEuZbzmtuA8",
                "cpAoPF8HVrzJpbS81w6avPyON7yUZ0W9cvIsvT/WDD2en5A7oJwEPa+8wbtMIqe9"
            ]
        },
        {
            "shape": [
                140,
                141
            ],
            "weights": [
                "/ZJbvQpvbLxmIgg89ODnPCaUN71s2y48WMGKvPRTjzzKbk+8cu8tPcNXIL3oeUo82DHguxyr9z2LhwC8vN5WPabIjTyQGg68wIfsO5QmbTxC2I69mm+CO6dQYbx2Nxc8SzyJvAiiPLy4QTa9cu2/PO6Ba71v0B07VjpOuiwv7TpuJJO8cNzIPMhiwLxxJF48ENBgvbF1DTsv27c85LwFOretKj2XED69VQ2IPIjZt7y8zF27eMsDPCbMjzwXs/88Iz/fuksYCjtagg28zchDPF2Lgrx8zwy9iTObPLoNTr01/E69Jc/eu1h4mjuz88s9eOM/OkTVELyEzBu9/b76u+PTqzwF2BG8IMDou8JH/7u/R5Y8C3ccPRtE4LwI8ew8nUvIPYNQoj3mmGq8Dw9avIDhsjpGmci87BkJPdcdzDyZ39y9tiMyPaiMtr05RMe8CK6VvDGASDzzVlq9562Cva44jTx/WrW8O3poPOLzhTxmGnq8Kb/+vOhUeTvYQLY9MoCIPDk4sjyPLmW9dBV9vW5b2jz+EAk9acGKvClWajz4qlG8Q99+OyKOpjzjJwO8UAdxvGur+T0MkhS6FANyvYsmQjwoZiS8DZ9PPYbYMT2kBRq9RGIGupDMv7tkE1E8X4tevNNRSzusQ9o8b4FsPczu7bw4v827aeK4Ok2Dar3QO2g8zu0HvSu7xrx1NqC8GpAoPbnUYzzm3x09lpYAvbR86zzM1Te822hLvC79lTqbrji+F6MOvEsSebz8VyK9zAZZPBGOkr0G5aK7vh8XO7Gf6TysHnq8yxh7OxvQtT0uFM28/vHhPC3iKTuc2vC7MqC/u7d9Lr2BaBA9DdrTPH/C8jz4Ha+8sKpoO4nQA72/sgw9NVIUvTPZWjo0RXm8ANloPby1yzoXHFA8x1HCuBHgHz3B7JQ8bCeoPAKwULzebtq7dNpkPZl81Ls/M908wxg4O2UO0bxsQIE9tBV5vVslnbzBw7o8fPxWvPR3Dr1ycqI8nZZ7PU+Rv73+c8U8",
                "HRcYPYB7/jxNWY07QjqPvK3Urzv41tk8f4mAvHvcGDxeB6m8xXt8PQ+cIb1Is7e87wPRvPIoPLtd50Q8IWdpvI1iejxMWNo8b+oMuH4YZ72Pi0u88p2vPAZPLr3lBI89tVq3PEcOQr0iJCA91iSoPRxkLzx1j5y8GcqXPUKXZjzM+2c8pVEQvDcnr7xzWyK9RkWJvPGtXTy+Q7O8oMy1vQAU1rqsCsY8YHZLPDyBgDwL/Cu8TqowPMzkHryWi208xBMAvJyzdz1/vJ48DYa2vBkOJj3SgfU8ux69O1YofLsQ0qi8avBMPEovjDz6EHK9IEqEPT1mi7znoN0800WPux/mcbsEJtA8F2cFPNIxpjwlxrY89LUcPHy7b73sMIc9oy0yPZ+xgD3I8ku9/fAfvCmYKLyP3cI8oBhdvbFMITxtxX69NwYpvQdJYD2UIPO7B5SLvIevOjzV9qA9DBm/uoLQsTzaqiC+G4Dlu5N20Dtc9kM8b6yCvLYKyj0vxRK8B7l+PWzAWr0NUG49un6uvFFbtDx1P4m8phz2PF8CxDz1NDy9o0WeuabamrtnVnm7mStjvNT5Br0fn6G6/PGLOetktzwxKCU949QkvFmZgjwZrQK8kztgPfknWrrnLi28FRKbvLfUGTt/mq28C3v+vLLaxDx3Zls9ykb2PKogebx4GA28vMb/O9lUMD0yVpK8Qm7eu08PzrzxV6o8STiEPPSkcbze6dU7Nn7svC/t5bznz5o6AloZvSgG7bxXX+c76mQ3vIIGvjxzzL48piOGvBNDH7wBogm7Hiiru536A7wUH3291YFfveGM5bwWBTG9V2TUvGUc5rz6G8i8CdAlvPBlmz1uwyQ9Sh4tPEApEb1ksKk95DMkPFJW87y/p7685341vW8WfLv85ZK9eFNIOzutvL2ZpDm9By0zvQNlxDs0JyI9FPTEvInRnDpWWRI86U5APCc6j73QpFO8J1xMvTsBCTwAO6U91yOJvTMxP7tTt8u8OwQXvOoOGDxAHL46",
                "52Dcu+4tVjxt3Zq8H10avdqgq7wkS4I8Z2Xvu0Ib3zzQJUc8ouQnvKa02Du2Gky9i05YvRCxAD36YiO8CzDnvLTpMb2Cq0+9J2lxPL0p5Tz0WnU8TyKluxUIir2TIwW9/iTVO45xlL2ghBQ9QjYsPK+iR7x4tP08EvWBPeqKszkdA5W94R+BOvQP97tv4vq8qon/vAbvEb2o5x89XGy/vBM7Xz1j6pg88jIivdO+rL3YQ0s8TR92PYrKarvTGg+9b7TOOp0a7z1U4409cqvGvJtPEb1AmdA7Zs/CvLdBAT3F0cQ8rmgmvLdMHLzwjq897nvDPYe9/7xKDDe9yfSGPfDndbwdyI88vu3BvLmWvb3K9Ka8381rvOUdqL1qaEM90GnFu2Z5kDysviM8Zv1TvS+wiL2/Td06DXGlPEtMO73KcNq9o0AdPUN1fz1pQ528r2fiPASAWruL7Tw5y17ovJQ0Ujwf40I+BLRLverF8DwICe47oJQwPVWpeLt9GNA9UlZSPYVqUryDXK88dmZePd3xzDxMRSM8AJWDvUlH1rxytMu7+nCcPZmwCzyJdZ28UT1QvOCRpL2dT2Q7q0pKPYkWerw8XU29tAxXu7N0wTy9pAS881wYPasjFb1vwOY7jnIovUr4hj2B7SW9TMTivC101zxx+RK9S8OuvDfRVj0BKl29bhAKvf6XkTzvyVe99bSzugx6ALtDB429RLUyPa7+zzx6Wpc9nAiGvEaaqTwQARM8OOWRvAwDsL2JGxU9SdE9vRR/5zwZYTu9k2a8Oy9TL709d1084ZbYu26Ht7xFlzg9KZaVvJ5O77xi9Lc89zOYvUO1GT0vKA09H51MPQMOzjuXLRM92CaAvAM3EL1GasU9bkeMPGcmiLwC/Ea9ALq3uy3B/zxluce8yd1NPO6rDz1GbdW9AxTqvBvg4Lmd/s68Ck0+vFPP9zo8a5q+DDafvJ9fprwR+rM73kkCu9YELL3Ahva8P2JCPMPDeD1bBXW8COmQvfw0i7kaouq5",
                "JyBRPUpSk72ZLsw8FbCLvT0idbyzdYg9xIXeu6H/ez0t8os8Vvj2vAkLOb1FP3U9q/jnvPQa1jwVwuW8onRJtteh/Dv/dH28bINJvCdGgDz7iRm8ZlqpvLp6tbyAgXW8eL6kPYpjCLzzaBM9ffWXujHVAb1cirM8yzURPD4Z/jzKWrW85Mz6PPA757wOMUs9RBBXO2RtKT2SB+46cxtjvbGaJry2XhK82p1HPXpG8jtnklq8igt4vN+egDvJOI68kfslO6181zvpPQK8ZdchPYYoAr1qkta8tPj4OwKITT04XR+957P+uwF4CT0CKlQ9WKZ2vSWUrTzxRKw7Si4evUHKSjtrjCG8usYVPeaYfbqHoiq9+dqIPcGDpDwc8Ls9c76YOsRFyr2xp+K8rNCSvWyySj2T0ce8uohlPRNbXj1jOkc8LK0EvdWPNbz9tdy7jODFPOdeW7wmWkg9Bs4uuwi2Xzxre8s8yJ0+PZhP+bzLNcs58bAyPfERk7zov4K9VlQAunJKy7rofIw8t1q3OuV2wDtoUhM9HEnQPH9YBDxAys281o28PKjbCjzJPlu9zL+5PLCsCD3K2OG8yTtHvDKVuDquwSq9il+ZvC5TLD2o5X09gIa2PD2VubzTMuC8XpQhPd0WBL3A9Ro8Z+YIPAg2Pb2/K1480+XsvI7MVbxISFm+6EmSvBknGDxwytK70Pj9POLaRDvVEC4+kv8HvG258TxxVpU8tcIHPY2Xgr3ot588RTZlu+3OBro51zW9NAA2uzRX3rwOwhA8ijS1PZdZmzuCfBu8ZVmrPOBDAT2KReA88ijnPJT3Tj2Am4W9zUxQvMjlmDyfyK67S1QtPeczVLxPIcs8l0QUPNqRi7wY7Ig8PpokPfZOFT3lvsa819WzvLERCL3Cz9q8zzCdvHNsEb0cHwg8YW2+PZAlojxu9is991XBvPMAGL2UnQ69GjkaPa30Cj2AP3o95MY/vaE7Tz3aoPq7NTJVPSjw8rxsoyk9Hw58vEvbAj5DhGg8",
                "aomqPfB94L0ypsG8J2Y4vNryw71y/PQ8ZO7mO3ybXbqAGls8jMXcPaOAqj2Btq08090SPLtofr2EWAS9SmCwPPEo1LxoO309SKm4vFcbSb0vy/g8gVw9vYLN4Du+6Cq9JZtGvZfgZLw8JXE91ruquo+RhjxWOo69XmQKPXbhsrwIBBg8780tvYpF4rzwgR891c0JPTtkkD1Y1bG86TUzvVvx4rzqCxe8gsskPINaDD11Dzo9lw+AvETgiL22Dpc+WZT3u0ZrqLzrj9y7aK2/vJ/sFb3MR6O8ocu5vW5Y3Lyc+pq98tHQvZSysD2CA6e8Hh2GPCsRC7xe8wW8+OzwPF12dDvWoG29fygpvlGtKD0qxLw6w4A8PfVpqL3cIPm7oPYSPGQuGrxlmj68ZqHHPX+fn7yiWiS/wgKzOzF5gT2zwGS8+6XUO1v1ojqyE568G3TJu5cwKL09F0k9ZzhIPZdzEz2lj/S8/W28vLjTS70H+QS9FaJpvXN/9r2efZC8L1j+PEtLiT0qz1I9F9CBvDRP8zqQ8Zi7ETstPhAWUTxdIbS9q3HLPCuNATzAhpW86F6JPBGbWb0tCQi84RNFOkOixT0bWXc7ne9BvMGCJLzQRFS9tEoivPATY719/Lg8I26+PLhcKrpQkhm9oCT0vB0i+7wOoQw7Yiw2vXz/aT2Y5QY7xalmu+7Df71jo4I8fNGUO4x2Zr0WQA49Ld/SOzbUY7wT+wy9l/+yO9i0ljwlIBm8QkL3O9y0UToCmm07+rMwvfMnw7oInAk9K49KvPF+QzzBVQ89fZkCPdIrgrx0Jee7k5WFO5iPJjtl/0Y9aaT1PGARCD1T/XY822AZvA+dq7yC5YU7Xg8jPf9MDT28VdS8Ov+QPWMW5DwBa9C8MawMvQwZ57wUGII8G41UvQtnzT0yDtw7DOFqvdrygruzXEW9auysOs10RLpQAQI8VixivbpspjySyM87TkdRvf/exLxMRpW8kyB9vLJkLbga0f48p73DPLFzQz1SaEO8",
                "UTXgvOMm17smBo48DfIDvMJTgbxY4M68tmC4Pfl2JzzBlZm99rPWvGg+Ubx3+Eg9lSqAPC40pT3f6uq7+wm9OT/3Fb3sbsy8OpZ2vY9R67yfC4M8c57cOroBkbplTQe9asKbOZEi0TxRE1S+GFwkO07khTyI6Ji8zSIXvRFZhLzZN6O84fcfPHIy3jtdYVk7+N0DPWIGrbwUTry8DnDUvEp1Hb2pPhu7+OSHPbO8yDzT8AK9YesgPW4Qx7yR0hO65EqzPPy2ZDtufUO9fL65PKhwCbzhJ6I7lFL8urdu2TuQhZQ9uVKlPJNYwLruzyc9yGSRPfaTRT0QomA86ovbPMIowbsCLss9OQvXvFY7AL3JIKW8DEGeO6hmw7pR1mS9mcYwvXDTdTyzEUM9xmTIvJiITjxTF4m9nzyeu7VHpjvnGmo8sDEVvU1IHTsE7fC72CpDvFu+TDzPyAE9WmXvu8PlMb0KFnm8gBBnvXuAmjvJdcK8DX71PM21xDw1P5g8rCCHPDj6Sj3Gccw8WpUnPM0ZYL3FkAG9ZFkYPS2RiDvIkyC9fiM7vaWRFz3jkhw9CYdEPHvnib0qr6s9L0A1vWdg8Lz0rPy8pb4rvYfUnD30+We84grLvA3poTwFFuW8agTwPMHCxrz3xTC8vTrpPAPimjxKcA87fLpOvPHFxrq4YG48yxATPTZorTx+6y08k/4ivGO2W7wo1Je8k+j6PDTJQjup1Ig8WjcJvUOFGT1neYs8lYJJPfoXNrsEzQw9aHXjPGktcjv1ao48nK6hvZbvkTzsTxW+c00QvHWvLrxoH4s7CDkCPBWlfL0N54O8qXZTOyXH1jxfxOq8cHauOjkTobzC3AS9agn4O/xAzrz4T268vYv5u+si4zvbzSq9pDlXvCY70LzjadQ87j1TPfDXBzxCUtG9Txa/PMlvizuAgeI8QPYivekQQT10NAq9mrnvPEfRhr09jJg8oKhLOoGqjrwWqhy7KzOdu4U7eDzgxcI8y3RrvCu69DxRAk09",
                "ZxjsPDESUDzNPVe9VzuSPVU58juNt5S6EeVJvcR8irumLlq8h72QPJmYfj1W+Bw9Lz2VvMto9jzMh0g8yGIxvY1DP71V5Bm9cQyfPcTkubuHgVu9d9MDvQ1KiLsy0DQ87kLePPhOD70oEsA8M/XsPTu+VzwrmMG8yUWMPfGZ0DyvTZ081QPKOwTpqzwlwlm9WKbgvIWmy7s2+iM9zYO/u1KhEr3ENa0831CAPDCV2TyJzT49g2AAPdecLj0rNmU8YX0MPZDVZDyg8Jg70A0vPWaklTy4KCY87rghvDYGQT2GJxo8aNwPvNkKHb2JW5s7O+NsPHBWf72TH5M9FbJvu6z5KTzk+Qu95HzzvP5LnzqJ4Ry9+RfjPE3pIT17y8y8XR4FveR4JLzeF8U9MR4FvahBbTxpOcq8OdVkvZGzqj0H8qU6zF0bPS9+pLwv4E895T8lPPvPUT2U1YW715GHPRoCaTkY53Q7UzOAu6P/eT0r/Du7rQu4vUnOa7wc8ge9TArCPE5vf72VkQ470DvJPLkls7xWroO7Y0arPfQpZLyWaM68zz0FvVAVqzwMAqY8fUA1vA4vpbwLkT65Lvg8PHx7dLlm/pG8JGqXPJjCLD2ll7K+/V4VvdbLCr3bRXy9flSTue8UgDsDfw29r06KPJUdHzyeJvm6u2pNu36DYD1uiua6EkHnPGnaH720S5G8cQH3vFrbLjsheB29845CO3x4n7w3p7679GDDOnDoBr3CH0C8FcPMvFcvmrsQfIW81ByDPKKOSDxRpFm8L3+ivC0nYTwB0AA8RGvIvN4NAryuf008eqk1u80dQTzdim87T2jwvUXJG7u6Gtu8D8PXPG9kpbw9E8m8/EHNvPt96r33RyO+VhmWvR3lbrw+R0u6nwFIvEal4rrq1vm854qMPPzkmb0zVzK8QjejO+BhAT0R6Ku7VsCCPGcFDD7VEZC9ySFLPPqdST2ugcI8XTcDvQkaNL3nqJm7eBzPvNlQl72fob68EcCWPWREJjxgtr68",
                "ra+5vJYBFL3bwqS8CfSCvBrCe7uT3pm8f9XvPO+bi7uej/Q7oVKqPNdsB70vX4o802aaOwTMor1VQfk8oWRVPZgiAr1YB8M8yBilPYQO0Lil3NC62RJ5ve5nwbtb5ui7PNJCPFk/EbymySu+1lpVPYPayjz8FUm7K8OPutJRlzxzh8e87yEMvJekP735cAA82QdzvX98ADzJqAk8gXD/u8EhGbo5iwi8KxbaO45WXLzRN0a9v6tOO6c6tjtIaXG9vsqcPFh/qDzc2Ie8alJ5PAdiSrwDWww9b9n0PE4/Br3bZqO87BTHvJ0817zMdYK80VxZvBLe8LzOB5+87/xhvIcLMz0CRPQ+JB4CvZCV5rxhlBW9ZvUuPZEuzrwTCxQ+zljgPGASxro5VfS8QwMvOs4nO72yX0G8TisZPFISjT28vSk9OaPrvAPH9LwDr/U8qqUgPfwrnTwSVJi8XtOkuQUXkT0xLxk86AETPYIuzDwPNG+93OvgPFA0BT2CM8o8/IS3u8c8Oz17hb+7EqlvPE4Q5ruIJZA7VTTSPGAMsj1TyCs8h1h+PNwCIL2t/vm8Nll+u2HMfzytbpm8TEEfPnftzLzH7gU9IH42vP0xhj3sC3q7Lp7nPA8ibTznEpu9AuNbvG708bpHNZ07MBi1vLZOB7smr6C9buIavXVwkD2th0i9ealvPVlOrDwkLou8MDC4vALg4rwaVJY9ZWwYvIRpwj3ybjU9D5f7PKf1hDyoewq9ar/QPNp8xTx1mBQ9FpxLPftNIroR0YI6UmM4vVeeJjtQiho9zdk8vbyzRbzuFiE7GSGuu2rZtb3Lv4W8s63QPKDxQzzF/3w9RgXBPTdTNT0jETw8pz66O4nXZL0vtEi9eK7RPOcnAj2VDUY8bHIjvROGET5v3Sm9EmfZOgC6GruXKC09j45mOzZjuLw9gZq9egCKu4PAOr3GVxg9HOhePH+8HTx0chw9XQd4PGzX4brrMmW9F15EvWCbPT3Vuj69UUDRPF/Wdr1bp5I9",
                "5LcyPVnoKL1JYQG9+x9lveo4Cr1MlZU9gfhcvHUWtr3SRdw736ExvbmLODsfVqs8u16OPM4n5Dwz7xu/cvH2OcRYhr3ZWqO6SdnsvD55F7v8LRY8hMJuvJrQBz0ahMs9aGZWPGl0r7zwblU7BWIAvWVm+7xOJ7e8jvicvNhAcDzwq+g7jmepPHj7FjtulvA8zcAcvPlQ3LrA+/E75WswPDk60TryG7m8TwgVPcbYeDws5A28/NCqPCKanjwIiQ47EVHmu5Z3GLx/q0U8cQ/JvNVMHL2z+6Q8GHkpPFRRcLwqpmA86bD7O572XzwoH4G65RIQPEilTz3hiKS8x+3CPLj4Vj3gQRG92r0BPXxp1byhBJs873cCPc3gxjt4dys9DeudvAcLCr08g4A9JCl1u35tybx4XQm9aI+wvE6RIT0s2yE9k4QHveNnxTw/IlS7mdyEvHyURzx7uuu8tiDGvLYaE71sCdS7tcxIPaaTbjzM+3M+mV4YvBsiiDu3KvC60NsZvYBnkTtQGAY970HyvKHnhjs680c8DgytvEZg8bxaxuQ8LqxgPS1vnrznDSq8/CybPD1wwbszE8o7rgbLPKkFy7zRIKU81M+aPBgwOrxAlqq7273kPOqkHLzJEps8te2nPGyjRbwRSRS8l7NyPqqEAbwPoFm8Nh2SvFBtCD3Lxiy96TdaPW5y9TySm9k8X8u1PK9NJr1XN8S8rBlgPRnI2TyutEo7pp+BvJkQqLwZQS+8p5WcOw0A+DxYwNI5Z4mBu/qmtrs8KR08wOy9OzikmzwxpUM8LGVevTWJH703XXA8h2BMPP1HprwgO4i+YmrWPC0wST2vi4G7Qf4kvOS3DDwFcGA95L7gvE+DYrw/GE89rSDpPCtEDjkAvS88j0BDvIUAAz0G/Aa7fIi3PSZQ3Dvzk2k6JuxUPb4X6jw280C8VB6Ku+dP4zyFQgq6t4gAvQ4ftzyX/mG8i8SMvJNCH7vu6Xq9cmhcPRtRzjzvh7I99JsKPaSCiT3U6/y7",
                "lsIBvXjoB723cgO8eCN/uhlyUzx2bUa95qVWPDIwh73WSBg9x0iJPeS8rr1ZWSu9D0IbvBZTYT1sTVq8a//FvBZ/u7zg8rQ9SZRzPbzgfD2T5kq9joGLPOKKMTsd9q886pOyPDKmnbyyaQW9aDy1vKacAryhTQC9Gz1XPVw5az2Cxgm8EZkhPcNyFD2QEC+9wo8PPHnFg7uMkmE8PQ4rPZtYFL1SWlo9AjnNvHoPyTtah328c7w3vAYV5ztiiy29kUBLvO9rqTu/CDi7X+cTPTEJkz3uOFW8GnyfPQZgXzzYQAA+87lcPJOaADyyPiM7mG8DPe/ZXz2IEhU9TA+rOoeiRrxssEU+FRQtPcfC6jzIU3E9ZzklPUMNJjy1EYw9DQyUPWeEYby0zQg+MY8zvETVJj0BZFw856WavO45mbydyGi9Zpx9PN/OlTsW0MC8ICqrvYE27rzRQ5A9bh6zPEDXqru+Z4287PuuvR2bOzuYj9e6NrnHPXZuDT21l8883NYLPTFkWj11kqU7Bi/Uu8/mg7wXBUo5oksLPKAN8DxI4Ag7x2BoPWGkZDwXZ6Y97EsxPOW+Gj3oGoE8O4ItvAphCDy3sJI8rB5gPPhY2r2U0b68uPCcvKfr/DwNyKO848aGuxGXEb3MY4w8GKDJPcE+C7wzw7i95hnCvdNazz0H5Ne8KgghvcX5M7zy2Dg6uduJPV9tHTyjfTW9Nx6GvT7vSz09FLq8kGBfvF1Z7Dz0snU9SK24PLSRUD4QZjC7Fes+PO/Cljz7kYI9QF2DvAjF4zzBp867IJSwvX4CDj12oJK8rXbwPXUCH72UyYk8rkC2PXq5MT2kuze9NHQnvUjbgrg9lQG9I9mmvZTwozzw5Uk98AuePdATdDwrQDE9dhMSu5nN17vdMwO9Di/0vICPBrx8Eh0+ZbiQvddnmj3UWPa7SnLHPYUUOz0KqPs8oTJNOjwjmDxzv8s80qd1vd9fIz1IZUS9imFMvYvDHjzSCJM8HdrtvOwGKbsPHhK9",
                "nb0sPCdAzDzDdR+92u6xPJ+k2DuxGD08/+/hPffzKTx99r28s4pZPd1AuTzlpfi7uxdIPKcMPbwKqMi8Sd08uxY9JD1alsU8mFALPD53aTzlkwA+TGelvIDHiLxBfkc8SYfzO59VGb0s/Yo55S2zO8/th7xq9A09jzKAvbWxE72jpcs9HfqzPAjwXz3zVcO8tphaPUlYFb5/Jhm9wnOfu+Nl87zBwbq9OomsvNR4WD1eLIC9Gia5vG6GobxQX6O8vRYgvH8lYDyymyk93FqEPfpII73OzQ6/8y+GPaxikrxq3gc8lZjxO4bbGLxm3ic7/ozfvHfeGTskAFO8AyjKPIoDg7x1vgS9CPDqu7LOkz2v3Qw9xcPYuuGFmTtvJWY8BwO4u6AwrzxkdVm9qPsrvVJPTL0jnxA92r3xOz276bzuhnG7wEERvX5LqTxElgM9WFflPLnjWj477Hy98UR1O4f71Dwk0sW8fTWzvF5yQTwfGo87kNKGPcgCMjwed309shwsvcJTvjt4HQM9Ay6qvEOGibwENsc7mxXSPAw2PrulMNM7YzIAPfesuzt5cSw6zxHau5kZqT2R/cK6m1ivvHiYXj2xtVq96Q+PvP4nXT0+G6U8SJY1vCvMXDwMRLo9JWOFvfh6Krwv8Gi9fItePFOSH72jh0w8fEJdvBDgFD2FoN48uClsPGD2/Lt/7Ci9JOeauzhYQz038gu9b67IvBpuGr2nQzE9G78bvdlf9LxM3f67TFwSPT5Cpzwif8y7qEzIPKWvVzvurAm9aKIdvfg7Kz3VKFi9BSRlvMqy4DvDc7+8/sf1u4j6xLtzNkU7xpJMPX8VM71T2rk8Cq1PPaxq2Tw3AJ49s5AwPfWWvzz9RMs8qbPvvDX6Tjz6Iny8Ig0/vR2aJTzMlJE7oN3ePDM+M71quWE8FsHLPMoSST2ohjS95O0YvZutVb0+AWa9iCZcPMjaqL175Ga8QpK+PJVuq7wEHCY9JCgvvQrCJbtN5pU8eRSCvMOR4ztsciA8",
                "e/k0vd//TT0M6bS+EXHOOxBL+rxsS1i92JPZPJ2JLbyli0C9KfevPBr9yDx+PZa8VY4QvPfxgzuHpl+8l3pYPVi6drzED987QLiyvBlO6DoCTDG6sywVvUfORz0jwpY8UaLbPBTzAL2cK4Q9UU8DvJWBsT0iuME4ZlSPPBJMQj1EYUk7h2o5PUFYw7xR03s8AWdVPZHtLzyTBww99fEuPYPqKz2o+ec7vi8wPmHk+7yj4cS9Wy6OPYTfEr0/X4C8ApUNvUPxUTxOZeI9a3d1POdvf7xbtx09RKDDPAgffTvE/xA8+ZAGvJcYfbz1n5O9q1vyO1zztrswXI27nQx6vKuD/bwcow68kjd8PUe1NLxPtEs9zi1Eu/JaHL2/WKA9cQx5PGl4CL19OBm9AeoUPovEnjzsSUE9qRyPO+YeQTwe6G68hKcCPWRivryRHZM8EmBKPEPrD7wNPTS8J56PPKbCxDz8tCG8lkwNPeEBlr0AevO7zn3KvLRvXTwlncC8scGNPEfyQ7wVCC+7L0/+vA8H2rzMIxS9Vjo4PbaDQL205Iy96NVIu9awqTmbPjq9u+C6PNpgoz2lLtm8Chn+vJcbPT1PWrK8yPtkPqdCcTs/yjQ8PnayPLi/RT0tFRs8dXOTOdqbTbycopy7TDFjvpkX0D5cQAy9S3I7PVFvlzxxHgI92MdBvXrE8jugpyw81wa8vAdMdzvGMkM9khNEvTqSab0fN7c8E+gxPV9Pzjwxdnu9Rr8wPDyOoj2ra4U+PqXTPaAcFb3Vdjq97I4zPRlWPTw45bg82FC8vCiqLLxI8YS9AHsgvCUchjwjwpO87IdtPNKSAbswv2k7QWaRPMA0mzxuOc08Gxq1vPsFsbxShwo8P6LuPORDgTwHeDK78FUmPbT71rwpO2884hDPvOZkZzwAkA29UTUDvVK4+Tyn9s88wcLFvMvnNjoRJ4a6pszePCZgnL1L5ha9i2r7vOJqeb3PHbi9Jo9ZvHVGlj1w/X68M3OWPFxoNL1DqIO9",
                "AbtuuwWDBb27Gv67VKETPQ7glDwCKIg8hl8CveVPLbp3Nk07RgNtvMexjL2BwvG8L4U+PPJxEz5ndoU9YOGOPN0hWr21VMy799uSvEEcvrs+wZc83DP5vH0DYj1AKIA9/BvCPNrTKL1hrVs8YoTAulTyBj3PQP+7qKlSvH8PrrwzjJ88vytYPFxlG7zQElI8jpuguVkrFT2IhBw9Hzehu0epH73YM4e6oBgYPcKr2ruLWpk9Ot2+PDh5jbt88eo8Hi+rPCBribxHby69CZy5O5rjhDuitfg71RRzvVngGT3zBUu9Tb3evJb00zynL6O9Mv8+vJubqLwtzpw9IkU8Ozf20zywYqM8hEqTPdWwoTzNDTk9oTyEPCPIhr1EIl68F24JPvRbLrq79AW9RImZPHaGbDxEgOu8Sl6vPHXfu7t2FKm8G+8dPZeNGr288Sg8+z73vKMRrjxmErM8rF1iPTWJ3TxJd6Y8THyFvb0X0byosPa9sjmWu+QPp7xD2Ks8GQ8+PaJp3bxo+ug6h6jEvJzJajxtrsm7cB78vItX8bwXPmO9llmlvPSuSb2NeQ68EBBcO70zWL1qqAi9oiOPvBjE9LyEqPE6+fKkvBYju7ymxRC8d3uJvE23YjxDj9c8rJ4EPQec+jwGU0w60CiCPI5hib0YD9a7/KCQPacoxbuKW9Q7Tsk3uycp0zz1sO08qnF2vNSRazzb+da8K/GyPPK/xLsbmWa8VYKyPAYMqbwgc8w8m4LCvLobSD0jXF+8chmTPF1fmDtIAZG9tMpTO5C5gjyOldM8WPBgvPojsTmdAzU8hkvsOxWaDj09euQ8pK/5vG3FCr0uKga9KktwPDFZKbwPIzO99lzfPIaPzDyjbqk88o3TPM6/QD0eNXW8z8eFvAdMZjzmKqg+8GSdu54ZADwpxm48zT2CvPI9Zjw33jC73iyJvLiSsjueGyk8R3fcPG/MtDwrVRm7FfsGPdtpajxLmIs9ojbouwwhGbyBlYK7iMUWPfYQKbwXGO47",
                "BVm2PPezl7yKmIW8VJEWPVmS8LrFm+q9lp8hPPAUJbw0RaC89QTovACgW7wtBmA8wuJLO215NTsl7p090g/BvLYJWjn5qDY9C5GaPOx0gzy5WCc8OGkhPU3Nhz2HCwS9Nn83PRxC17yEPOQ7Ud0GPPB9y7tqEtI8e3xLPIuerbwXfQ88EEixPUeZwTwYuWI8MACZvCd3T73kLgs7BkC8vFhz6bymHay+V104vXm7urwR7R88P/MEPTOnhjxc7Ga7ccHKPOA7QD2qjm48NLKDvA3WqryLZi69pCZQPbUYADt+eAs9TY8BPbN7Qrw+ZiW9rNUsPQqN/7tEZBQ855tQPViqTj1tHkq85JvJu1b/M7w/nVu8a0daPaHAd73ft6G83LYrOoQwNDzCbVs8aY+QvGzUSL3yVbM8pMiGPaw7mTtnVAE8Nq6aPLUUvrwFOOC88saNPW6t5bkJnz07yj/lu+EbIT4KcFO7cFxIPDQXATzaDmO94hzLPFqbsbxykEq8xIF1vM6KSDxZCaa8diSwvPWz37voF988q6q0O8bRqT1C/oi9EvOnvLKvNb1rP++7gSA5PMIWlTyNpQ68MPHGuxT/vTx5+g28z0iDvRIULbz9oka5l9wmPFr62bwAo7e8u1nfPBcFijxBKIq7YmwgO9WtGzw8Cpy8cyZKvEwNRr2oC6o7KXQMPdaVODwMXAQ8BtCQvBqAS71ABCa9lQzSPEN2WbsBSZi8YMOrPKVpBb2/qFO9mZRlPFMztDwLpfW785TaPJSSm7yGo768goZgvHwseTzzUBg94i4AvaaRubxvxfE6SxzyvFLHkTz4p4s9Zk8hPKD6pL3tHSY9ObslPUrxrj3pHpE7seSBvIAamr20Kqy8VCfSPDKC3DmXyYK9kGASvG1UlzxJROo8FTECvcDV6TwcQFc7Yvg2vAZxbr298de859MxvXMwMr2mosW7S+EzvIMyBTzjb3i9pSz6u0/EqLzk8I+9sv+8vOF43rxk8R071HqTvFyXQTx6dIO8",
                "kLwHPcrZF7xpt8c7gP+dPNBx3jzW3TK97JU6PUJhZD316e883PSkPOJa/rwEn6+8NtcDvSzcITuYu7S8wFFrvGCQ2jx+0qC8h7navCJxUbsydk89xKxLPNMfJD1328c8uXLcvDYhJD2ae5Y75puXu7fHNb1vJN68fWX7PCkYcD0SGwE95ZzYvE24TDwJ/+w8ntCEPFSqsb0M/dQ9YzYKPAFNP72vVZA7frv/Ox4RYryJr0a9PyR+OlnNM7zVFl49wCPuvOG3YTxsdK08mLWbOpKXt720AIg8HiBAu160Rr3kVpU8S8iyuxCCnzz6f0A8t+wtPYIvSD2BByc9NxIhPK6Z9zuWH+u8u6kbvS5PuTxAboS8Hy9YPNW/ez0MbWs8yNZevf0QdDxyRpY86qYDPZksL71Cq9E6lGUdO9csbz1UsDQ8EZOXPDzXxLyeNDu8TS0dvVDGabupOd67MNrIOMODQT2oJEG8KKGgvc1LnTxmrx+8zGxDvbs2ErsMxFS8ChdHOeGilLzjfd48ut+5vDn2DDtvYu88Um2QPSKB/LxVB4M8Y9soPc4LArq2N9K83HIbuj4cg7yhiHs8qUgGPWDLBj4EWdg8E6IivTyBHb0t9ci85iJAvRrobDxS6Ye6KN+bvDhzy7tAvwM7Q6VovWSkcTx2foG8fBiSvIClxr1bRbU9kYWBvPWDk7s86rC+xTx4vOp9srx0zYm7ZyHmvLpVkzwmBj68HlNnPDDYpLyo5iI9vWEYvEnSl73OcRE7VXdWvFlRSDxUJk88Gl8IvXFGmrxQRhq9t/bmu6yrrzxMSLE8LBWiPEJJxjvWU5s8j7kXvS0JxTyiQIk86smZvJiGobx8ldI8hDqjPI5Zv7z2l7I73JoKvXPZDToWkEa9CsspvFaXIrxZ/xu9EKglvdizKDxB2ZQ6C7+DvU7CqLyRhxy99nOAvUAlg70vWSg+NaPwvHFqiryVMdq8dGgPvPLqT70Q60Y8oaofu6ILN72FgY+7FIT2vM+ovLwgmgC7",
                "LYlIOnE9SL0OST68Je/NPFXkQ7td2Yk7hWbTu/I5CjssYqO8+cbVujhg2bpmVWk7g1yePFLGgruKPQI9MzZ7vMOmaTpxaAM9DwQzvQo8Jr2Bhas7DZIkvZtWLbyUlTC9JbhqvEdFC73e3W69t4RePfsIsL3lGoK7/UojPfyO+rusdnk8iL+JvNFJEjwBibk62xvLvLdt7DtkoSW8y1fUvCXG9LtCeNi9FWQMvOtQYjwZxIQ7Mh8+PF4zBLlxpBK8bMyKPDvxITyJEEE8oAB1PTtaNr0/tAS9324NO0Y86jtIoKO8PPZqvbXRwbvg6ia9qUktPXxpmzwiaRa9xM2gPLUhx7xt75i7dFTKvSVAyruCPPi6MrGtPAn75LyTVzg9Nu5UO4HFWTzhJLM87Q8kvfJ/57s+r2q9crGqvKzt67rUJfo9tlEID+d0CI9+FwgPdLIHD3nYCI+INwmPECEIj659CI/ZNQmPDS8ID8Y3CI8zGQkPG64JD527B4/pGQiPfwIJD2/wB48yXwgPchMJj8GtB4+axAcP6vMIjzJyBo8BSwgPAzgJD9LNB48GKwiPRDQJj/8KCI9S+gcPeFgID2hFCI9GxQgPvzgID+7nCI/hDAiPP1cIj7+OCI8ZWQkPnuQIj2WqB487EwiPRPgIj4HgCI938QiPoIgIDwHxCI8VewiPrdcHj+DGCI9UfwiPFBEID1/CCI+6cwmPNisID5mnCA8qXQgP6OIHD1x6CY85nQkPLvEHjzK9CA/8vgeP5owJD+bXCI92xwePqAAJj3eNCI85KQiPcecIj9HKCI9F+wcP5TIIjx27B48XqgiPhN4IDyfeB49GMQmPfgQJD2OLCI+nIAkPoKQJDyL6CY+oqwcPmMgHj1f4B48UCwiPp+oIjyrgB4801giPhxgID22GCY9B4QgPRa4Hj0W0CI/JcwmPwakIj2+TCI++fgkPrSoID0KdBw+mlgcPJ3IIj/DWCI9rTgoP2UoJD6bUCA9ArAePRCsIj+VACY8fSAmP",
                "CM0Ij2yhB48hYwcPw88ID0RKCQ/tNgmPUWEIjynPCI8/4QiPVe4Hj+q9CI9ILAmPNzAJj5MDCQ/rzAePqYQID8nzCI/jcQkPqXsID44HCY9PdwePOPgHD3IdCI/YegcPVxQIj59mCY8R3AePY7cID1gTCQ/gH1e/3waPusCn7ryF/e09taYoPalpRT1Dtny9xROQPDW1GD3wmKa70UM/vKcnh7zR23c9khmCO8VLZbtP7YY8inravN/0rLu7Yec7V49RPYMJej0BhEo9B7kxPJdWgT2MNiI9TyCgPMEpBzzYu828RCFaPOxALj2HArI8oAmlPPxPJz0dxa2819ZnPXFnTTtVA1o86MqaPDiIODw6wQI8yATgPdQwjrpQgT88W14HPeHnGD2MlIA8Lnb5PGLT1T1dprc9eNKvvbKLqbmpvbw9u/CJPPkbL7xi9lY9sCoaPErC9rsl0yc7Spl1varVXL1+bXe8Tzk9PvVDFT6HLkI7JHCxOc9qFD1O20A8llgVPbEQhzpCNII9NWE2PC8TwTzXPjG8qO/HOqH/BbtYwGg9FbkdPUBZlz27KJ48c10jPTHXIjzlyuk8IOvAvLTeYD0V1eA8fvQ/PbwynrzZb5U9LOZTPaF9RT4dN8s8YX2pPPl3Rj3isfu8I+y1PPxECD6ljjE92PW2PEEW/bk7FGc9aCHvPP3w97saufI925GIO3Yjt7zWIni9SLZXPOAHQj1nv1M9w4vpO6FWFLuI4B69ENAWPry/5TpovJK8C+q6u3JoVz0zO2m8asqGPbanELtiPtC7U57APP6sC7xCaV09CrALPAJaiLz/Rdo8oJowPlQwTLv3qlQ85imNPCeC0Dw/OL28N0m+vF7Hw71mMJc9BlLFO7qVgbxd99+9w/SAPSwYzrsMlL6/E0ZfvOuUjjzdaxW8tXo1PLCgCr2GQIy6rIAsPaV6170h+UU9ExMKvak37jvEhqg90tbdPOKtzbqP74u8L8rjuxJKMbxL0gq9qBWcOnVbrj3wKWw9",
                "fquIO/AYqTuX9wE9gv/ZPKd7Pzzr4L+71l0OvfrJTbwp9au8weHLvOG7QLx0sBC9ftwvPHKmwTvH9148UHgpvU9yxrwMwhu9xQ9GPLa8WjsK6Mc5wlAYPYxlET1jRc88h4MXPfRZsD2vkgY9VxG9vDcO4TzgLj29Y6eovPjat7rMUGq8rbObOnOlv7yYBxm9ByF5OgaWbjyfCrq8/uQMOoWMQD1UNo499dEePYwILrtXW6y88LgjPQ08T7uOH288db3NO7WEtbz47OO7TXclvBTYx7vO5Yu8ylu/PLIXE72iraE80w3JO7vKwzzTuZ+7QemdvCVDArwvOGi7lsGBPDDJujx31Rm7QGm0uyWqt7vWmgQ8/MriPK5GFL2cyU09w/LJvHGh/DzoIM+8VV8IPTLG5Lwc2oU9mssBPWdnMD2KCSU8ws2GPHWRYLzakPA8dDSiu4C9oj1wsZS8xsB8OwrjzbsXD8a87+eKvVP5IDzYNXY7FmiWPVB3Oj1qWWq9ryp1vcgNGb3hmIU8YnMKO4aqgLwfYqY6s2xbPVOctDzSCKw9Ak6OPA/kG71KrAc9gtuZPMPCfTue8wI7Bb+PvCiAGbypZ9C7vhybuxqlBTtRYYw8++4wPJkK3rxcl4q+8sUIPb3hFb1/WZg8NorYvIuMp7z1P4E8noULPVm4DTyQElI74ic5PIygg7y2Wgg8FGYUPQwDK7xe8wq74af4O4tmb7xYm6o8pxRLvFY+ubwtSI89gsN5PUddizzi2Io8bcywvPU22byOVDU9reAJvZq6D7yj65o7WqsLvbmd9ToGh3e8ZB3LvE2UAb3cZOy8P+XOvaguSDxXyzK8S12TOzb2mDsPkSO9DVaGO+bBAz3YcqA74bhIPEYaF7zIZJY97EE1vL/Gr7zhCRa9ftniOwIQkLw/tBg8ZN9HvGOpzTrAyA68GFecPHA7pLhoH7G8avRlPRef4DwSUkQ8HkkVvWpIurv5QJy9Yz4BPRsWjDtxzQw8jd15PVos9ryjbOs8",
                "n02SvL2Lfrz5rYC8FuFJPO6OLj3deEg6xS8uvS0Ot7y9Mus8VtBavDP7c72XBto8ANItvbfO0TyIJwg98qGQPFdKSz1RlRA9R/tYvQcFoLtD0kg8ENe4NVLnKLxC/Wy7J0cmPFLlhjw/Ygk+lvSyuyNSpDxXbhY85hV5vaftJzwd/zk8qwbSvOpptT2YoGM8ov40PRA7SzzlDt28xZyoPGy+GbuU6vU9KRXOvDT3r7zVR489goXSvBDNMzyL1hg9ZGnmPKh4fLtvD+U7GpiovBTCwjyISJY8RDWRPMimEr04a3c9dr+zO6d397uZorc7w5ANPcxc+jwvmrM8dGAyvZv5djzw2YA9jpYEPCPEpL273dS+DgmRvAXKUb1uYH88E9P5POVuU71CIjI8A5AWvEuK2zxfOcY79hcUPSeQwDz+lBU9bTfyvAd8/jz/FS29rYPaPFLw1jw7aAe7havJPN3Boz0a/pc8WK9UvJRmFb3h3aq7iPGuvAzOAj0Vgi64EykEvemww7yIXUy8kXmfvF/ftzzMYyo8jWJ/vQVXUr0mucs6tcfovMQsJz28eJW7DocxvQ6ZLT39hke8NfVGvYHBBD7YBD096dNoOynbCzxeK649ZdvkPLMntjtE8R46Eqy8OjWeEz1YwIW8Oov4PCSkGD1yWZe9v2TGvAHQgTxlT8G67gW8uxKiIzypA3u98ZRbvJOxFLzqPDE8QgLJu1zODLwxR288jj6dPMCBmTwIf8G7T+eyOxcSB72TJdq8QhsXPV6Sy7w6vK08baLbPD0tp7xGWme8ClMLvVGecLyqIj47MxC4u1WeAb1+jbq7HJYAPb1t2jzj6AQ8DAVnPRrSpTxPEhs9gIwHvcCZOT3/9iC80iEKPcZAXbzN8JC94DqhPOU89jwRDiq8gYy3vKp9Y7yIuqs8yru3PG8R1TyRm0A8avNAvP+rqLxxM/88Al44vA3SAL03fym8G7cGvdFis7x3JRs9iicsu663Gj2Oeju9F1zoPN6iJz0PJo88",
                "U7mqvHkCQD1p2Ea61dGRu6Gyv7wkgrC8x5pfva0sqTwcNZQ935mFPWX+BLwQA/Q8EBlVPKbkJrx9O3E7tPkIPaXAjjxwR8W+zfkJPZ+qBz2RpAQ9t1LpOw5aoTzsb5I8Ys52PMx38LzLR5I8NX57PGUwh7wYABq9M4iPPY3Dcz16Upk8YW+Ruhtpazyzk429TdqgvHdne70VLfu6yD+Tu7Mk97sVaRi8sLnLPK7dWzwQ7No67Mv/u0UALzyqoOY8vjAxvIsFdrxwdEO9NMdFOs91KT1wIZs9JvVWu5B8DL1fBaS8I4FOPBsKOz26MSW9lPIqvX08DTzOfA07cxk/O1ib97p9nlw8bIWyO1OmAjwQeDw8SL5+PWT/Ijzkzaq8eUoKvZnwPL3awS69uKUnPZt/Ej7bdw28n+aUOmCRYruCT7E5a9UEu4+SpjyFEpa7Q0fvvGnk97shPp25mleAve2eFL04/s05ZT5XPQybqLwBl1a7JGqLPeE2gz0y1ts7L30ZvFCtxjvR4KE7cjsIvL3CFbxxrW276cEFPeeAc72GZZS82+jEPFJOxTz5nr68pPONPbUw17z5NJe7jaMYvIOEKbw+8Pq8SebiOvSgoz3LbK+8+Tn0PPHAIj1lZwu8rPpBuoj3wztrdlw8tjIeuxvn8L1VEcu6AuzFu9q2jzzWh8y8SXfkvEVJjb2gt+I6W9pEvFUZ07yPwh29V/q8u7eZozyMAR89EwAGPL3dgLzNM9Y8XhKuPFiJ/LurIp67ixsRvAqG3Dzn+Nu81/IiPVHkQDzjxli727uiPWXLZjsNhBi9/2+fPD/tGT3sKda4LAAgvQibEb0M3ly+uZsNPatz2LwjkXC8qS4pPLr9hDsmj7O8A3mcu5sLIrxGa9Q9D6gBvF0kOL1FKsK90w0VPXLJubsiGhi9tDuePGiV+TsyOSK8b2E+vGkOMTxDSmy8fn0uPWuBv7uHbII8ZO8yPHLXRjududk70ftSPW4WQzwLI4I8npbXuwPtj70Is707",
                "kyaRuy7YubvFUH+7boWRPGJPmjzMLuA7XHKOPMTuCDzd6bI9TWKwvKEh7DycAU08bKysvMy+pbzuY6w8Ln6kulDI0zsPlp08bit7vY1JFrz/J489iUWbuvYFfjyrGk+90v7ovAg/Nbzh6aO8x4aCPPHarDvQZJS5RxslPbiTJL2LPVo8xS3CO5qYPL3Nt3u9+Hz0PB5xobzbgCI8CiIDvCv/7LoW2io8H4tDPKgfFj1rq4q8ic7NOyst2zwgpGg9KnQJPaxg3Tw3FwE9L0Ppu9zEHD3bUKw8eyOfvAqxIDwXPBq9Qv6APKxZizyiBL+8gvGPPYwvpT18qDm7gCrRPYNfpbztOB288mLHvFB3Rj2qgAY8zk6hPUbaGL3DKqQ7TFjevAhmCbvurR06L0DjO3Z8iLzjCY87f2ytOwpi8DvRLqW7DC3LPFoyKD0MhDi8acYrvawpZDuf+VG9/q0YvH+pMTxoI4G72CWMu93KVDwOPWo7dfhLvNb9+Lp93S+9cPwdvYUvc7x/4sA7cMeQvZOHgjvzIQa96YWOvC9egzyOdcy7c1Dtvf40kzwx68K9rE+zvADkIb11Rgo9GMD7PNctoLuXsWA7DfqHPI7elLzNtYu9NKB+PZuzBL24JhQ9TlYaPdxsCzpxC6G8GFNzvey/vzzzh6A8gaqivR7yazxjErG7UJQpO03dhzwU4bO8+66suqfrrbwqs2w9r+svPL2Ga7xZyU486y0DvJTNPTgJLss817oBPRNEvzyvFaa7VV4FvaIlSztfjxG8VcKNvJInNbw8+ks9SywpPdSD97z1wFI9BkFIvBWDsbwcJ9A8ZFVKu5+iwL3yUCI8SFIFvTXT1ryaIb46VAtePIjdhry+MZm8gy1qvK+mzLwEJvc8iP3TPAw22rx99mO7EYWjvH5ySr3g0hM6w/4mPHuMLD2nX6M7o+PtPNJOlj0uyiu9sBlUPYQfiby+35A9/okiPQVyvbuElI49R+0YvXSfSbzDldC8F8XTvRpMi7xSSsK7",
                "A33QO2HR2zu5d5Q9R32ROz2cWj0J+hE8OEefvJ+CL71d4ok8qjRavKxrHbztTpy7WmbWvF6hyTyl2My61q+2vOI6IjzYWNu8JNcaPoPVi7yD6JQ9IRCcu0VBETzJFp+8QRqWvfijoDu2CCi8swgvO4PxprvcW408TstdvQ3p9TzYIMg7f4kuvHcT9Lw403Y9YmyJvAgA0Dxl+fY87WE/vRFcOjvZN6+8AtE9PSEWRzzUvTM8Pb+GvMG92LzrV3a72cZOun7X9Lzb//y8tD/XPC+i37odup88KUI5vNEtgrw06oq+nl7RvdL8hbw7rRE9uuaGPHUOyzzkz5I9V+qTPWTcHT1Nugu9BsX1PExiSDsl2gM9rPNzvCBgM7y+mOK7VKVhPDx5DT2mmSe9Z63nuz5GbrtHQoM88gpLPOXMRj2YUkY7tiusPM0PWjzCvTs8vihbPebfHr1F8Kw8jDP8u1n9N72RE148QMohPSWrIT3g50a8iV0XPVsP/DxmaMo8vh5GPbX90j0qqHC9wfFEu8lxgjzmC4C7DIIzPVMSg7wy1vQ9QI2tPYkojzzJdAG8rqHrO6+QJT3304M7rW0dvXMTib0WF3W91m/ivM5Sgj3O30g8p19APK0gIj2uWrC78nh2vCp9kDzA1kK9LHV+PeGB1zxZ0ug7BHVBu/43gLzVYkU7kL3tvPDRaj3tuX89BR8NvUrgzrtB9aU8fEYWPWPrNj33Aoo9H4WPO2edzjylOny8e9+PPOsPHj2mvey7u9JjPc43v7s9mHg7GXDpvFecGz3cYb67tVHSO3jT7bwMcEq9KAY8uhO+7jvgQQU9X6uEvZ9nYDy8wzM+RRnOPBDJWTu6dAW721YWvFYjWbovEes7AzllPMFSNT3Anwy836zDve9fOjs52de84eF1PZ9DGz3Bsag8Ra+2PPAwZT2RT2E96TfRPZGjRj3Ky2Y8pW8mPQ3NsLvj7YS7A8KWvcErijuM+vw7vDc1PNgdt7vPxAm9LIkkvQDnbLxkywo9",
                "WhnYPcIj3LusVoY8OROVPPkoBTwv7hi/tFD5vGXZWbxgU7S73StVPAwmhjzJzVa9uXL6u3b1Tbz/iM69o57avJXfyzwwYTs83KJnPaQ0ljvKvck8kWE5PXPRDDtan4A8ruR9vXueLr243+W8qyh8PCj1XjyoFWq9uZ3EvHeZJ7wAHkk9sWOaPWWYO7ylGIk8oiIlvKg0LDzUddu86FKDvIpJCzxAa6w6XZVUO0BNy7txbC096YjEvEglmrymv+m8GnZrPctIhTxbz588Vt8ZvSCu2DuKywS89l++uY00lTxIYre879XivL905rzGPI271P4JPcLvyLxXN9K76SlkPCe3WD2i8x88B2sru6c09jypAsE7atHOuwtMLr0Ur8s8phTAu7KpqL2ltXq7Ut5GveBscT2DhA09sT74PAuJobwYDIi8YGZtPXaraDvYdhG9mfpVPemttzy23GW8GjGNvAtBQrx3Avg8M4wyPTSscb2pz2e8V5ymu27BZzzwTmc6TsoaPdUdXjw67QI9ukemvAGBqL0W2DM6D/JZO2w4R731Ibe7e1qNPCZWKjwExS+7n+8NvcoDHDzUHEM+N07gPPTxfzzvfrq7QQNZvBKnqjzNmFe87xEjPfLNGb2B7bG8k/K1Ow/MuzxBu149ha6bvBAClrxItks9JQe9vBiEVrxLCqK8ayN0PJcYpbpm/dg73/q0PLvYUD1HOEk8P7r7PFCrQz3DR6Y7L5DfPEFZC707BxA7sOXSO0JsLDx9yBA9URPqvHTHbT1TF1u+lOWiPB/WBrxgs9m8aasMPPwG67zRczC97DAZvVWCDTwP1X89whQaPA4UNLw8vzG8mfemOV14cDwDjLe8H6hTvHIhELyARhW9JFN+PNQpdTz0nH+83KfMOr2bRj16dCM9C6r5uxt8Rj2YP1A8SOFlvcQGST3Ev4c9XIngvNJHbjzTqAU8y0LOPM+suLycYJG8aR9BvbSbAz2Jthg9uz4yvRFzDbxEicM93v3Hu7pH6LzkD848",
                "oPHzu5pzrr0+5qs8hlrpvMb6DTwfcKC8+WG7vIZBHzziaRw9xEXjPHu5NTxHlbQ9YZOjPOFvmLuM2xK9qOPnO0uE6zy1L029rN3UPBtRhD2l5OG82H5EPC0NlLp/57E8vbP+PNh2Czw08Js9LgrBPI6CcrwLAlK8uIQLPS9GDTsYf/E8/YePO06MHb1rujI9Az4NvWVd/bxJMpi8aKCWPVWQ+LqcG+08KW+cPS+voDxcpKm6wUrnPLIdFr1CpbE8CPZVPNnrl7qc5A29EFuXvP6T5bqKuOK8n4C1vBo8Jz0cn6I9K4CrO1sGVDzWkEK8JbKLPAnogLoQhnm8fQuTPHWK/rs2tjY8WIk2PV3lljwLVKC8AJICPDt/qzzxrSS906NvvGvjXLyRRQ69T/ZgPIHRy7yLA5M8nQwgvIqu1LxAyOG82GhkvWOcXLwera085E71PDdtLjvuR0g+McqpuzzQp7urbti8mVROPWYA1Lq4sUq85OGjPAU+LTxzeT++W22HPapkcT0m+049SJA5OwLCYz2xXhE9OtM6vQ9mTjyFKaW86D3DPJoCnLy6rVg9+IySu2tuS72Sqo+8iL3MvJM7ELw+x3S8Nlc3Pcqf8ryp/we8JALfPAf8EL3YY3u8YCpUvTRebLsmP4o8htawvYynGrsem3A9oYUKPB5urLtvqae8btFfPTdZ3rtpBiq9EcSmuLWupjxbr1W9nZDaOxfaMjud8he9W/KDPV6N/br8O127OVnTu2hCCb0WSJo9mOeevVblB73usVG8s73XvEkhgL0HNHA7Kh4qvYaYj71971w9STULOn2gLjxMJS68udAMvKJTfTlZEzE99IfeuuXuADwxCja9WqcxPXyOPDwG5gs8fkWAvDlJ6ruuxJk7s4kUvVzHNzwN+x28eukxvLPZorz/uUe71qyQvbNcML0jQ2Y9nS8cvHzSCjzd8Q+9G6eQO5JlgL2Udta7PZXwO+fECj3UI4o7OBsIPMBM0zzQAMS88TYPPDhhxzrLTBW9",
                "4TyrPH34rTwa0IY9fWFuvMi0wzuxXMa8q9AIPTiZVz2k3r47cyEKPEgfOj0vZhA9EVHgPO5M1LrJQ/W8bxK+PTjvMDtsXck8uXfKOu2UCb2NOfm8UGF9vSQ06byIyyI9PNCbO7jyF71hEDg96/+IPNPpkLq0erS8ODxtPKPP3jvTp5Q8fZXRPN5b9TyMRD893cRyvTU0ITuv7VM9Eb2JPFs6jjw/whA9BbLYOi6bx7w9/Ly+YF4CuxVlHjwC6Io7RHr/OzzbmL1I4uM8KcqwvVP8TD3D2oo76zrZvESFYbpfQhi8nIuXOjeBjr1T7/68egFNPeTJCzx4LXo8o8LBPA2daD3TO868UG8bvWwqF7xIsWw8Yf4GPeBtL71kgaY8sa48vS5JhTzRWcG8GU8/vSI2Ur3hnco7PAwAO3U+ErzIEuE8mPPePHKJOD2fuEC84iLZvNw/IL2NidW8DoCVvEGSOD0UkA89yX0uPTuqjrx34V66+N0ku9j6grxu2Iy8rPCNPGzcgjurXhQ99dVGPcux5rwHe1c9uiExvVRHBb3wC788fi5wPeP0GzwqqEw9rWmBPWAEqT2llmE8rww7vVcX5TuS0ym9IP1rvaFw5zx9PZE8sma0vVDDbT01JwC9VE06vMQYTDzdzyA8S29nPGTPozyeotc9lgnnO+fxkz0hZw29RqRSPLgWLD3Lxfq8svwYPSzQvTzhVaw8MKzUu8xDMz04+ga6OZASPQHzMr0cF1+88+3IuUe3fzyC9PK7tpWZvG/HD7z8kCq8ji0zugdjPr27iw88+/9SPKXhtb1rE8y8tPU6uz2EkDx9TIK8TK6YPc+WlTwaVPu5NDfQvIHzo7x8q5865r8TvVXllLt9OfE8GCsPPNhtujyR3ns8WflSPcvkYzyYKLC8pK6fu/m/Gb1nrF08uUBMPPJ6JjxmbAS9hdkHPaY9HT2U2qG8bs4GPli1Ab2y/T67PCJAvGfUDL3TsRa+95YZPaVhzDykRsU9UQZnvWIPjjzwAec8",
                "BlKrvLhyKb2gCGc8vl8ivLk3wrwYaRI9VV2QvF6wgrw8pNS83ihbPUF3ibyVnO48obdGPADYBLUxpUk83qLVPMvpgzsYngU8W9ZDPO0t2bwl4my7ZPNEPBOZs7wHXZs8CWCUvJtIHj3R5jw9GUnTvFpscDr7c+w7uM+RvNbbGD3aTwi9qE9fPHXxOj3tzPI8KeSKu5/Up7uU/LO85+4GvINH471pXcM9VnE2PdftLD1m+dQ8PY3puqkToTwvgy47Gc8APeYr0jxXWaI9GbEpvIWhvTwCIde7mckdPXFItr2rwUK91d9vu5gDoLzChmk9rylOPAUdzjp6U7y77EqtvMA+kT2E7JC83SMAvf0jUL1fGU+9RrSPO3rvab3LES49hNcQvfPKpDwhbyQ7IR6DO+Lp0rzGDrm8bfs/vED8Jrx0PC48NRCXOvtZfT1xr7G7vFnMPbCjFr2g8bg9EAe+vJKSVDwRpxE90Cx5PU4UZT3ROh480hw8u38kQT1wgaq8lKPkvHmJYbz/Bnk9TYQAvFTXr7zn91Y81wwBPb49OT1nm9g82+XivMNAPz3E/AK8fT2BvfQgPTw8p9e927pAu0KfCT0dcaG8REWLPVO4vr3/Hk28BFORu++5ILw6J5I85HLXPRuKezwR5ai8ZPdJPSuzHj2ePFE9+JYdPIeoVDykzrE8AOsJO5NgCLxmMo68dn3rO83RuLkq60O/u3tsO2BhdTx5F3q960aIPWNDFjyZi/Y7bO0XPYHGUDtigy49tBmDvGVPPbyML128seWYvGLnM73KNpM8YSWyu0IygjsjwB28bXunvNjmqjq0Ozs9gAc+PQbZZDs6Zpc78PGYPGK6aTult7s8YhQtvIR27byYNLo80OHzPLQXiTzImGE9pZ6xOw2UVjxFGqI8mM5RPD9EL7zUA8i6hHewPIIuIrsUMpm60YCgu39//bzrZH08hc7YPPh17b3iyZU6dUfvuzH8vjuNDDq9DQ/RPCjt4rxtvC89WF0xPfewl7wg65E7",
                "sTJMvddDtbxDC2A9vU+DvS11ML31Lgi9AZDvuh11MLtwzzY9KikMPLNxVL2VXiQ8bM7luy7xObxemiK9zyw9PcB6ojx2f4I9YmmaPDijAr3wP649d1r/vCMKMjyCWxa8St/SvEYCPj279Qm99OD7vAw3Nbu5sq+8le4nPKOMKL2/36C85Q8wPTIYCz3fQKK8lMMuvPiKjzxTUro70Xc/vKtNpDzGM888I8CbPMOZ9zstHtK87cIAPeV5Kr16ZVU9hjKRPaB9gDzEfA28LnXCPdp6jbyaSGo8gGhpPdcMurvfT+08ChngvHQ57rqX+JM8qb3ou0EIWDpMjBo9L90ePKgWGr5eogS8uhwDO5kG7Lzhud08W6eCu5B6qTyjTV07o9eIvHrsQ73Omag9G8rbPK9XHb3Hn3Q9h4giuzo6BTzwq9W8J30FPSQkIj1g+mw9Zd0UvfO1BLyEQT8996OMPMHzYbxnkKm8aU5BvXcLDr3QNFM9kBxCvaR6Ir2+R4A99m6vvKlMjzyihdw8O/J/PMAJq7yEddO8rlyKPE9g47zT0Gi8HU7+OzDT9TsQgy89xcR7vbS2zTmFNRM86MYXPHbQOT0YSA86Q2nVvaPV0Tw9iLk7xdc5PP5qUT18F8M8ttAbPQa6Erxes308EgC5vAnFnj3Vr5M9QCpau7VHr7ur6ZC8GAEUva4NGLwqM4Y99j1OPSVNTDtkBai8W0IcPa/PMDsG92I8TVj1uxQY7TtBP9W7TUKuvEmI3Lu96Ky9hJTiu7XIFzxYWE09TqMvPNuAg7tOhh2860xqveZdKrzf9PS9RC5yPGzbzbhyrgU8TibaPQ+nrLzsg069JJJSPWqqezxWyoy6GUHnO47M7bz1EKs7y15IPT7npDxEUzi8JndcO6L7zrtgo1q8SuppvXx1yTxqMf86HdLlO/7eEr0SEIs8aZ0kPYDZUb1biTi9y2ixOyju9TmydH6806/fO8XAvjwoEnE8ZMQsvU3WRDy1XNs8zLg/vcVkQD0y0uM6",
                "E5UxPTE82zyXAHs7ldWsPFD47LyN0Im7fHykPC/NmTw/FLC8FTkpPFZYU70ybxU9NyLHPAUNwLq9CEC8XfIivdR4Pr0WJLw9nf5avCYvZbyt3Ay9YSQ4PDfHATyXSva8LDS5PNkNGb1Nonk9cCoVPT4BjDtW3uS8XsrFu38KCb2gn6i+jd3APFvogbv+SIK6fSZsPYZOrLtGOK87ylgVvaXSUjyUbdw8MFNLPXT8xzzd2Ao81QhcPbrdrT0V/dc9VNUVvdsmfDxZur+8Yma8vCqfgb3F1Ig8RWPZPQW8Tr3031O7vvP+O/9mI72rwb08yLmKPeEcFz0zltS8ELHLPIYl7TzukIS7t9r+POehCL27sCM8gxwhPd9MlLxZY3G87RObPFS1Sb2Te7a7zcU2PfA4Uj2B72O8QK0fvR1xED14V+o8p5WZPRzVCz6z+AM8vfwzvQYt4zydq7W8iYpvPFAbkz3oBEq8P80rPQnsRD3dxvi8tV5eveEXIz2og5w9ybsbPUR2hrwJm5k8Aj2jvCEC2ruypmE90BfWO+8C4LyPagk9QY1HPfVWOj1ASWg83hmXPZY1yLrAjA29UstaPOSKRDy4RW88331yPVPMLDw/eDQ90rBCPNw6k7vixz684sdSvX1i4jyXTOG8mRqivL0kjjtpO1O9OiR7PNgdnrxpHIS5keEIvL1Fib2e20s8UX/EPYAR4bqIH/28l8szPW5aMT07z9A5GNk3PHN6DD30VDw9YS/yvNXgijyw98S70GYTvu/8FjwhJzs9ir7uPELglj1yHqo9kltLPP5LnLsrM/E8zyYgPWm+Vz4xUk68UqS0vX/6gD1vcTS9Oev8Per+mbulUFE9O7cjPFprhTwEBFq9rkAFPdGMmjy9ZZS736uaPEEw1zxOBRK858QavBs9u7xEFEm/VeXYvNR2lT2dRYE9Uy8OPWWJrD1ttja8VyTbPVdUtry6O6y8bduNvEiYOTyRtY69yoNXPWPbMj0mtDe96fGkPCEdMjyDzKI8",
                "WevbOxxq5LvUTq29Eje1vcuAt7zLWTk8Q6nbPJvFyjlXB1g7MbH1vbqNm73j77K8/1C9POltQz0JDVm9Nn2zvBJToLr9GQW8G6zmPHWyLL18K9C9YAxBOuoTs7y5fgu9upGMOq65gDw0J6Y8OGSxPJGQuz26oHy8HcokPUu0Ir30Qb28hkh9vVG54TxEjGA8AbYvPUx/vT21I7I9lmXUvX5q4T2vGOm5NicmPa2g2TzsCMs8EIE9ukki7TyZaYY7jyCNOTW1sLz2KDy9caBGvLtDEL0sq6S8ckMWvCdLijkXofy8mrISuzDGhjsRwz07tzUFPW/54DxUWYe9mM2zPHoTFbte7lg8keIVPVBfzbzdWaY9EgGBvEAGEz12EYc9y8/xu0iHgr1yfUI8QHJyvEaMBD3R2tQ9UbcHvQopibwCWFW9FJihPB34ZDyMXge97Cs5vdD0KrwbF6a9cCEEPQEdGz0rWtm8E3mAvFu4kz18Uou8nJffObmoHb3axHK8KRsnPWJKITzIQvM9eFNIPkGHvbwjKo+9cZ2KPSGCzLyJl967FkWbPPb4IT0oSQq9i/JDu4KONrzQElw9Rov/PAnB1zyK/HO9pHt1PRsxK72Tbv491TEYPDi88Ty53oK8Gts9veNPCz1bIg2/mciGvIx7Uzz5him9Nf6ZPBsGFDwH9Ye8CsgHO3ch5jsxCEE+3MkvvEM41jxMHgE6Et+bvOnWRDvmq1e7Ev5aPKi7PL28FL+81hV3O+PPHj08K1g8Jz/6PPeKWzkzA668E+EDvTsycTsil9U8i2RlO9t5Fb2pyqY5n1frO2ubPL0zfpA80nCZPJEEDrrGG6g77kqjO+jnrrwCBSA8+fjAui7e6Ty5i4s8FnqousGy67rclis8TVoSPJqCyDvOVji94Q+nvBUfvbxS++i8xOQVuyAtbDsZ1tW8mKglu5hFcTxdCuy8nrArOuS20DwNUTC9Js+BPINMwLxkrWW85fzWvOnhpTyWcSa7XL8GvORBirwwVOC8",
                "lNKyO6RXH7w2k4u8Ab1evIEaU7wCRzw9cquCvSLgBb2tESq+2Hy9vAdD17xmZ5a7Q/3BPOvaADwZwSO9ffWcvZnAqLzoKO28P7ekO+lxUry8l0W99A85vWd3Vjkx88U83XL5vFmM1zzUEZk7zEqmPD1Yh7xBpza8nP8BPOmzCTk/hFA9RDvnOxx6OTufR3G9dTR7vF1suzsfpRq8i40yvp2sKz0w0hG91CcDPf4A8DtI5E68JRzcOzq5q7u2Ac08ByAsPB9ORTwURq08b819Pf2y+zvHMcU82TeZOhN0lzy+/aA7TeMlPaiUtDzjsKG8p1niPJRUjD1TeBE8IK6evK4CNbzxtD49WIjsvMNcJTsvkaI75GmWvAl4hTtH2ow9HayyvFPznbzMRlk9PtesPG7bODyIxso8obOOvdPPwjzyIaM9ivkZPPt2bb3zUO88yhd1PdzjVr0I8/k8bYSxvc09kDzVbam8Q9z5u5aXSLtRY5S87XagPc62ib0qY5g9V1VlPGl4Fzw5yLc8lewgvdqJgjxaSY48KBgFvLuGlrxT7FM8U2/yPFqUETz6jrs8SwP3PLXtuLxyTCQ9ShsZPbWslry8SnM9gpVpvN7vXzzHOUo8Mo8IPIeLiD2Hg+i8MjRLulAYqj2Vo7+8lCIvu5mCcz0DWeY8+4LRPO/mCj1cOlk+ez+qvIA9AT2HhI29gFBUPO5pbz3ovQC8yuLqPZfO0bwy1MA9dbw2vR2cwzwjLRW8eXQePWvn2rxNYZK9aGhuPX7pQb3LaeS8ys0EPUfVubz4beA80YobvOvSoL2v/LK7MYX0vLIszjyKfMk8PkkePdZwZjzEjDU7N/dUvHeprzvb19q8f1lLPI6wWryTBnK8dxKWvD6ASr3aPJA8qI+1PDmT+DyGrBG98I61PB8/Ej1Ebuc8+cAAPAsShbzom189fRLJO3W2lLxdEaS98JzRPNrTL72YpFS8p713vG2wRj3BASa8vwc9vbFepLxMuym9RhkAPS1hTrwHbhC9",
                "njjYPN/kzjz9jiS8FVnVvK1SAD76tga99FtEvOitcD2BrtI8iIaovHMw2jylSA4+JsX7PLzqYbwDqVA8GRc8u3rJELoZbNY7xh2evcIMF73LVAu/lin/PLtLpr32ZiM6wbDQPPjfF70wtz29E6ksvStPwryY23+9vZ8sPSukgDu5uZg7jNg4vRaZnrwkCde8NEmUvG0NvjxJGxM89Mw7PEIzmrzS9oc9QdLFOxJCt7tzVPw7YDqZuzH+LTpI10Q7JboPvUV3rLzK/Ia7BbyvvM+PN7wxkmO9nZYGPVAUtbuE6Zu5hS0NvIZYDby6k8a7w9yAPTshLr17NvE86hjvO84gGL1l0c07aRhfO/kXk72zQH09eaBOvYaRjb0wpkm9r/UuPf6pHrrKkce7/ptTPFMzRzvIyZk8MowrvCS2qjxih6s8pz0TvGJPVD3RU3y8lXghPa2cA71KP6g9XasEPcckyzuCrJc8rTc+vHSDWLwrILK6+ETKPALSLzzt23Q9S10ovfjVP7wIwZy989djvI3+s7uOTcw7sBSHPJzlCT00QNo8EWmeOwuDwzs4/Ty8OWsbPUSMiD3v8hu9L9G3vNFgXrwgeoo7cwCMPAoVRT0EUT29jKZWvac28DwtbPU6km1dO8bNRTyI6wg9ve5cvfQCpzsZS8O96e4FPYTiBrg300M6BbovvS/4MbvzOtu7bKXoPQcisjzERB68/3woPBQfmbw+K6G86RB2u3UPX71UrkS9JVyrPc5fv7x5GA495rxIu7mrR7zxsn68q/CSuyx+tTzECJG6X2+rvNEQ0Tzsiow9yCMxvfo5TLwoex89TbFKPCW0Dr0ijhm+V8FOPUiSjbvXgDW+IrmAvLwjQz1ovDg9vPgoO9jpnz0sV/c7cIGVPQXVaTwmCjs9GRN7vBGBc7zFSGa8dpRBPT/wyTyoTIY7QXCgvETGFzytKuE8r4KnurGwarq1cO+8D/VAvCXeODxFk/Y6oy+ZPGUALDzp/QW9DSmcu6ocR72pnJ47",
                "QMgZvX8iETwYLoi877PQPP2mXTtkgwm8FXmgvDuEi728BU+8u8a6vHmkH7yiqZa81fpVvCbjMT1yFsc52acwPbPdEb1f8p09chRdPGQ06LvSHZq9VdOcPJV0LryAQbw9GMBMPTcoGjwK/aE80OlMvPJ1FT0EP7q8CQ5ePHf4rz1+/qm71VUCPZR0CTvOtQ69vsC6OZ2WhLw1vZ48sll+Peaembw87z69V8JgvAvssT0iZ6G8iLB+u5fFjbyQdI+6sJP/PCzskzsYvxe9lT1TvZVb37wqOEQ8HLcQPSNWs7xnsIG8D3WPO9x2Wz1U/qW8d72AvCc3jLyWE5o8O1BZPGqlGD0QgJg933vLvDPICb1PZ4a8QekFO8ulFL3xe1S7tn8VvMKb8rs9xBo9DAs3PHVthzxYUUy8v9pCPbRQcz7Ah4874lqKvGfPSzxGRJu7xNK/vDDp47zjjw29CghlPYFuyjxAlyI9hdJ9PdSczj0slg893yBrvHHjvztGFRa9ktntPDql37xDhee7y7Q6PXTpVboY2rO8E3FfPVmdDrw0OyI+4QDgvJUCc71e8D483pWlO/g9kzw1FAq//QkmvbAYDb2ZxGc8EaMcPPpmu7tdDK47jlm1O13jdroUPoy9rtP2vFsK5D0OZZY9yXOfvIMo+rzjEjU8/dLWPEvt17vtPFm8E/hsPIPii7xgdxM9UhMBPGO9bTzb0r47plqBO1nfDL25Vxe8BDiQvOWrerxoj1I8RSfXPFS2ez3VWec8hvCDO2yqhD2sxw09bIQEPQjeFL3DnIM8KMNHvCs8qz30vwE9irMPPapfhrwQRV873AUsvM+2EL0xqkE9VvEAPcXAXj3cd9o7gJ5qvCrwCD0jhCI7XfZzuoI3hbtLj7q8gW8wvXW9H71wBk29RJI4PRzbRz2UgFO8gQVBu4oQTr3aB3q9dwcCvea717sUCWw8ErovvdJFJTwNPgK9+GmsPVDpojswESC9ISICveW587xuMn29UXR4vMWPsbxBB6Q8",
                "P7I5vfHw57zYdBg9uaM7vZbnbrzo0Y2838kHu6EK8Dx/MQ497khpPOIhjjzyBPG81kPQusotzzyhZ1m9yZZAPJanzTxaEZW8/qn8vIJ+3zwcV1S8qFqEvV1UHL0XVge7E1iwvEf7tTxwjMS7yvaYPQfOkb0JZSw8R+UGvQ68xzlJ6pu88Fvxut8zsLytDaE8MS3QO1bPzjzquXC7+Ms/PTt4tzweRZ2854bPvH55bbxFmMQ9gYtVPBRSCL3V18o8jySQvCAhKTv9BS695fINPNoEobpi9je82938vLoRdDxV1Ra80AUGvQa23jxPG1u+qDQvPBTK8bzGA427eEONPViQGb3Y73s7wK7EPO6sFL26Baa7lgUSPVZOgD0SUMy89vv8O3NjKLy018w7n2CPvbDAb7x3b847RGAFPWhHsrtJbYi9kEf2O181iLqC7aO8epOJO1x/ib0s8Yg8gpOHvf+vVL24Uci7Lhayus65UbxNixa93dAHPWuVZzwB1fg8l9KaPTueibtPaYW9rbz8vOlFmDwAVPY8JC8pO/lGizyo4cI73HNnvFwAS7nS1x88XwWBPGnuIr2cNmi8ygmFPSFmUD3Rj7Y8yrUjvRL5Ij3JDg+6nb/7uwletjyvsaW6UBqOvCOovzwANH497fvpO+w30bxblx29doCCPeIaUjxhxf480AnBO5qNZr0iq1M7EL4svX0ykDyqtlq90ZFHPKhojjxISIw8cxW6PC8Q7Luj6+o5Yp41OT5RtTxeLCG8V3sqvCIUc7zigzg78aBdvP63Ob18KXS9PQbIvJdwgT1RA5U8zBcpPTT/SD0YPJO8T1vXu2RpE72W+cU9aJJ3PalXTLzRZ888nK09PZoOCTwUGWS89kjfO4XETL3XbY+9LFobPeMElrxs3p26JSeJPSp3Pz0x/nA835U+PFo0FjzF26O8P2+PPFPyr715QY09naJsPRn897qnidG8aYWluryjhbv3mb680WUTvTVe97uxj3U9rfvwO1y2UDpUwb68",
                "WLk5vXXp5LxV8uc811avujzbIjq9pLm7TgQ/PcItELqj1MG9AguSPBX9i7sILNg83SCmvJ7CCD1tvDI8nKo9vaJFrTzLdym8nupPPHxMhjwCs0U9QUFMvcNytbydAIK9Q5B8vM1OybwfrCa9744qPWFSbLwUOkm9rwjxvDo0kLwkNVg8trulu5VVeb08hqq8miMbvSpLgj0bpxI7Qm2RPc/YKDxtRMy7FaWxvO6tVr0Lwi28dA9wOrTFOr1NoNo7sEHCvD2vG73Vwo27QHr/vEVTFr0swe68qNvDPOpP3j0JBAg9GyKovN7bZzv4Pdq81HhsvVe2hLs/UEq8IHMJvV5m5jway0u8TJjUPJVgyTymUcm7FufOO211TT02OJ264KQNvUGawzwNDmc9EdNsvPlB0jsqJxc8OEjVPERYDT23e/W8fIznvL3yNzyvGwU7+RN8vaSczDwPYS87kYk/PDv4kDxKdue8txIeO6yiPb0gGim90bQkPH1bxLvIjCC8v80IO7kamDz9LFA7T0umu8ncQT38Iwo9aPSEOxrvC7yXPQm9gAoevTxpz7wH8hA+RqMrvYVfbTzG7JQ5kh7Rul0w4LpgL/A58zsXvFcnnTqzKyi9YiYyvBXOgbxKXnC8n/hdvcRSrzxvDwI64Ox4PF7zIz1q/ng9F/1zvbOKCL02qDE9ozjIO9wfBzzz5eW7CgW5O0P0Dz06bJ095TjUvKnF1rxYwzu8y0C3u+zRqLx8JhC7jbIPvfsBubxmh+M8fvRkPfYmQLz8SDc9QH95OvaeE7xNNGi+6QSeO5NhgbzlNJA8HP2Ku4XsKb2Wngu713fnOpSHQb3EcXc8gVAZPA65Er1IIl8846TAvHmrBLyhBoq7zSqBu9lRCLzrD8o881kMump6sjzdql89unIlvUGIcj3+qPE85MwCvbGkX7ysE4S73CElPWabdj1Ay8g8uzowPSL6krqEEEo8HWULPObm2rtktqk8DDyRvSytqryA/gK9x0QGvQf/3Dv2xTu6",
                "sD9lPZeitDv5nFa9Ri7ivMRlmD27qMQ8409uPLvwgzxGuOc8TFcDvUxKnzxNbCk8QBQOPVThk7yNTb+7+CqUvBbxMb3JRhQ9i32VPOhSbz2sDhC5ZharPSCfirudiR67Nks0vW/yiLuCcCm9+XQ0PKMijLsTZ/W8g9gNPYDBrDqh0LU99cnXO5Rf67wI3g+9K4vIPEmSMT1Ut627JjZOvRTzB72vAvg8ftqTPErQnDwmDb+8Tok9va8a5jyqkE88WIfWu1dzUb2z9Ls7bbtlPJrp47sgqBu90aTTu3j83DzWmiI8GCcdvVDIRDnDRP47yl/uPPhOmbyCR3e8BtgHvCv+vb3ZvJs8uos7OzHOGLx/jhQ8HQMSvS8EHTwCVVY8JnzSPFWpUT0THws9y+2FvAk8bjy03lc8IKAVPLErtzyc+aC7vmORPYWV5Lw0hhS9IvcCvbNXrDuNlh28zjjUPGzLTb0VEF88pniVPKVMEb3vUQ68bhUxPH9por2WkYq8niD7PLdcwrzocCy+quMMPZ44HTyLfjW9QVDkPCWXfjocb0e9tlW7POHm6zvrC6G7SE88uqDACr1cCBK9YvgnvaT0/bzVGmw7CNK5O55p9Dqd6Qk9ja3zvJvfNTsZymM9xNrwu6emab3KWc+7FuMHvTpj/bvQm3680nGQO2xZlzxeazs7X/CcvFgvXzyy2uO7Rc/gPCJGiDyrYua8V1kCvMisKL0ZYY29tM+HvevzQjz1ooq9C8LAvG2/lbsbPpA8kt+4u1BtBz2fiqW9lkYuvVc3C72SjgG9FPaUvJtaoL1P9lO8PACZvMI0U7xq42S9TMTDuzAz+Ly5bnU9bm8xu1a5LL5tESu8uTHZu8ZS9Lx+6Z281bqJvI5peL3++nk9wPKIPIB3QTshq5c8Ie4+PKx9Gz1e83E8qpMRvYOC3DwoxEq8581vul409jsn6g89NQ9BvQfEijxdE4K8HzjKPJb8V704OIS9ueYvPU8RMr1MIAM9mrLtPT6/orvnbl+9",
                "gHPUuy2VPjyfZzY8sU32uRUa+bs462q9X8GnucmhAryFSfc8KtGFuzK8Jr2OigY9vSIIPS3kTT2P8vO887CHux19z7wCK468LSYFvRfN3LxDbGs7RrxCPDXMy7twyHg7ETYKvWT/Xzx7X/U73EP5PHoeB76dIA29xGDwPOKWsToAAXi8rAGNvVb0D72LXgm9ybzvvJj/j7wcvvw9GYy3PHpXir2oS0w9/UbZPDeCkL0txY29dUNdu98tUz0Sb0c/AKEDvMgxqL3XxBY9BKFTvHH75D3Uhuc7B0ekvIigQD0pfg49y8diuyRa6ryAPgW7OwIEPT07GDpMRVQ9q0Jyur72Ary6VoC8PjBcvEGRPr0PLNU8CN8OvRpMZj1EGnY8KF2nvfeuBr3iBaC91vbzPHTLqTyyFyk8MVOCPYy0Qj4GdFq9QLM4vXpjI7w9Vtc81XSkPfK/SbvLUw895dinvDl0MTyaNx09r3ttPFVa8rs74QS8qF3kvNTDET1v6IC8gEpaPclWQLruRhO9VrSLPOyVvrw0JE09nqAbvYgx4zzR9eO8VcImvZx5TjypjkI8L7cqPUa5VT01iEs9OxpEu6sehzuB3kq81ulhPB0H4DypVxY9ZLCFPFyU5jzPUEa8E5Tku+687bv7KQg9PAdYvYzibLwHEWC9zZA0vER1Cb16nuw8fKjJPeP5SzyGoh48HB+dOjvLEr0gmIC88tmePCJmDTxsros8NlphOzbu6ry7wFU9tAnivEhZFLxOJwq8itESvX9GJjyP1pK8k2Hcu1vQpjzEF++85FyBPQ4e77s2Jt48Hof+O9yC8Tz1d6q8HpeqPWFXALzn6Q08QdVsPCtsgzw2WrQ7TM8OPVxfWD0BcCS8z4IwvTw+3bvgxtW8UmcuPcB/ybxcLaI9UqSQPEyyCrynAZO9wD0cOyaPW70CzCI9ISD8vAzbmLsWQSq8+xqyu5mADj3V87K8RLHVPNW3O73edJM8YvcIN+1uMrwcCp++JNeBOcBb0Dx4gdW8",
