{
    "input_shape": [
        74
    ],
    "hidden_layers": [
        {
            "shape": [
                140,
                75
            ],
            "weights": [
                "ouI9vcYoVb0GdDc9WPSIvD95EL1Q8um8/IgjPQllo7350Ym9cZFUPNRzzrystpC92qBRvOCTmzxwpuq7nY0SPeJ2FD0wFK88decIPSk7ALzcAEi9nTS7vEHsAD16C2E9s+H0O0ojqTytSbE8UcQFu1y/Cz1ltk88k7WjPCm3i7wk9GI9jGnsvCDxJj3ogla8PjF+u1V2UL0eRAy9KwXKPFtAQTzrIjq88n0ovJm2Hz3qAmI7r0fKOuBEATuGLpi7H1+EOz6oH73r8iW9BNooPPAZ97snxJo8tz3Du5fvBTql2K47nMo1u87Ebj0inO6845NSO+UUIDqHZm27yvWuuhtxsTxbIM87hcYzOyR7IzlvgJC8rJxWPHnbEjz0s048cf4mPI+4Kjtcu7q9VNwzPLv//rpCmU++UO6Uvx+1zr34cqO6MjAeun+kRDte2v+54HdlvWcrzjtshU68NmWAPlzsFL5c6Xs7JLgqu1k9/joiYyC9f8Glvn/XU7uaKB45E3qvPerciru+goq6CMLIO3JzFbuHIrs6Nwxwu0UGYLskK807GD1lvWXB3TprmvO32sEuO/vCazuLlyS6S+VSPHlLnrsOmra6CefOOtEJQznvvjg6y+rCuiIQOrsXMKy61Lkcvcm4dDu1iPo5V1XTPBCwHzs+Oou7XagAPcqYvDrIF187fBWGOw8v3Lsr/BE75t3duX/yKboWZZy5kRQSOqgX/TriqyS8Dza2ukSh9boBspK6IgO+PImbtTpgZsu6QRmJvHuzRTsp6gK7eN44Ol63cjtk9Ww/Z19BvZGsAb2UpqE99VihvSaDlrsUU4o9BOIGvo2AQ7yEf+s82drYvAnO4TwODFI8MISxu/5RfTwE1r68Yk+4PJgaTLtAjwS8gqsiPSZmwTzLX1Q7dTvtvDkLtT3C/Ls9rmYhOqTqwzrce2I8xPMRvXvYnD0R3PG8mfXdOm6yH7tzF4q8UOJkO82CSDqlMZs8sRfHPJcFqrlB3Xg96B/WOzUrET017AA9",
                "IVadu2FhiL0P3hu9+mlFOxyYb7u240E8vsHoPDfAYTzdTlw8iKRAPGZbhLxgHIS8x3A4OoennLw7Z3i8wv/sO6RdQL3JlQU88iGZPJ0Bxzvo0wy89E0nO4yEIT1Fx6Q8w9nQvOI/LTwtSIc8+fQNPAHpzjzMTqa7qTOsOYFGgrwX9/S9+TqSvXhdXD2JC6k8E+jXvJoo3LydiB2+9kc5vXOkWjzrdP89rkyvu7pCgT1g5k691pogvWZJXj38zZS9qzAEPc9Qnz3BE4U8bSezPOXKWbzGRzy9fCjROe60irzS9fM7VpwsPC6p2Ly2j0m9dAlMPf5r07tdB4y8qQY8PEuQuLvWxLy72KvcupQNbj2vkpY8pbQ/ux9jeb3dLhi9iVy2vOQM67ylV8Q8oe3YPKWV07w4cA29z2DdO8IQwDt90qK8NHq4PG1rmzwVvCc8DhGsu4e+t7wZMgU9TexcPAYw/TwOaxc82MV+vK5tULxyVQc9fXDIvAjX9zv9+j88ziJuvGrzyTsCGfC7xX4ZPXDFfrzcbhu8iqIXvKtibDz5Ino8mJGUOzVkxbl+eU++UvgtPaMZNj32K5w6YKzHu9c1FT2COnG6PcwUPWzl0jw1cyE9yq2uPEMkIj0zKDm9kQDoPAw+VjzWGPo8Hz0lu+KtJzzBQ0O8IKrKvBVdyjztEw09vDFfPKP8QLtxBjy9SNNnvGr9SzwHcRI9yCJQPEosUD3hcdE8nMQ6vFQ8VL1Mtfm8ZpdaOzr+rzuqqb07Ya3DPFT2Rj1Ij/w7oHElvfiaVjvWsqQ8ywMiO0STLzxKMtO82/oEPeT55bsVudk837cqPFYtgr0lfmo98aIRvLyaaD35Al68lZCJvE46pDzmY888fi3ZvEnfLD0aqwA9kFABvS3u67zwbC88e98IPKPvEb1JdDi9b1gAvbDnyzyELPW84xkVPJ4Ko7zxbbs8U5TSuzvc8bt1oYi9LsxhvQfx1Tzrq+m77F60O2rCTb1Q/Ja8SGuOPRjsL70aBnk7",
                "B4YpvLrG472OR1G9d1DePDBZzzx+guc74w/OvJU8/DonHgY9sLmXvFr1pDxtjtQ84BM4vMvII7wC7Sq94RoPPN0rr7u0Mxk4osavPSxbKj3Ewig8Zt3Gu+DrN7xLN467Dr9NvZTg3zu1EgW9NxO+O4G8hz0GC8+9Bw+cPBgJwrw6s6m8TrUYOmQg/DzPFBg8kkO7vE50Jb0FsWs8yIMzvTt7f70w+0m72nyyO5aTKbsFUSO86+KaPAKPjjxdGfU8p/TYPDz/1Dwr80w79mrMu0VbJjuBB7O8Q0iHvPMP4jxSnwW8xsERvYnJyjyPCRe72jJcuSWVhrtReam7PFG2u7qhKzyfIWQ8nTRwvHaZM7uiCfy96+Z6PQTzyL2Y9S68RCvMu/j7Ezxnou47G33qPH75FTxD4IE8Li3nvN9lrDp5Wx+84hNFO6DW+Dvsw/a9yoB3vUUo/Lsewu07TFO+vMHoKrqxiYA7h2yQPUcVDjzszLI7f7lsuz/IuTohp0s7EDYAO+rbMbwoScy7tg8Hu200BzvOiMS9+EOoPLfiqDtA1LM7afYbvAmMVbsnTim71TmVOh+WSDuqAZ+7BqCmvEhhAjvNGEk85bUsvdjEaztHV4E7C29HO0hEHjufEkY7Skjeu052e70EotY7DXGRu52+1bt5Y025HRrFuykvHjxPEcY9PYlvu6OWFryUZrS7u6rvPEfzlTtsJBC88iYiPTZHw7r0W4W6Gwamu4co3znCNq+9To7SvVCMkz1K8pi9LXwYvKSD3LzGo7s7GM30vPDtLL0kt0I94N6fvOpZoDxBE2W96HdXPDAHZD0PmJm85k4oPLCeMb7v1zY7FdOFvbiNv71W1io95O4PPGPN2rlTV3m8v2igPLdigzyWCR890XkhvKqwsjx9OvY88OGtvGSps7yGIpW6XXotux5guDyVA5k8DR09vLxYGzvO1lA9Mhd6PcXuFLtXTgg92KW+vIThCb2K6II8SwCcOjjJA7y80Jw8pyAhPRwSSDuS8JU8",
                "3l4cPfZQPzvEnA48Kc3dPAZVRTvA0lG8+EhbPNuUJD3V1ds7+nDHum1e+bu9Qog8dYORumPYVTsKCp26P3LSO4IrDTwYTVo7LWFYux3bfTtj4a07rH+MOtPB6rl4ewm+9XMYOyxvFboFyQ4/Ek+dvjApAz7RDiK44+EUvMXwL7ueF602/3UJvLoS7Dqhi7m7KaXcPYcMfb2nxhW7YUoru8Xnijs6ecW9v7D6PEK1ODq8fKM7FGYiO2YVCTtTT8O76Bxpvc8EnrtbRuG626iZO7+ZwruCbGg66m+3vNawfTo2HRU77oAfOcIpNrupNlI8aZADO2jk0rqL3H06G6zjOjPZk7emuqy5giLLua1JLbuNV647hw6EvGeISTul64u6h2rGvEQO1jjw7tw5aj2SPOdlyLqjHI271igjOiX9ervh+wi6rp7buatcu7pvWJ27bWcpu0fLxTvHSis8dXIpuTcUCLpxcUu5TodvvAiCljtZC3g73BRrPMn0uDm1RSI5iNvEOkQfjTp2mOs+6k+1vhHiGT2Pxtk9FD4wvV8qUz0UaW+9E4JyPGINxzuYxo87IiHCu9fXPb6K0wI9BWAMvEln6jtrWuO6t1vTOTjkrDuWbv87dS5hvSC+vDo4BCS815stPEz1kTnunCY9qE4ZPIlOADzIjFU8Z8sMPdjfl71Nrn29rRynPI5Mmjz5tPQ8R5MzvHVnmDu3uY48WMGUuyaQHD0wnF+8IXA8uxaBJbtSAeU7egsDumrYUT1Hgpm8JkPhu35K6rtbbJW703woPCDDAr1VGPQ7mIMBvZdv5LpSwKK7lqYfvG6dojzo6OO83JQxvTsVmby5urO8SGCHPAo9yDqhtIy7DajdOktj0DuqPAI7qCj6u311e7wV2Am8lq2cO7eAVbvGl3o6r8w5u/gjQbu54d89hseOPdLgHb5AEp09ksBxvD/fYz0+fAy9OXlDvaJNMzscXZe9mI0NPKFKL70P0RM+sZULPJbbhL0HfaA9cRvPvJT1oztkw++8",
                "85EdPG6wDTs4reo9tp4ivUz4iD0X1/e8EkP0OnqEBDwyGj08O7aEO+zelrvsdzI8U7b/vPqSTDznT8G7BTatO0nXzzzpa8q8SN/bvONy4DxWJL88FAz8u8F9S7uf5bg7nrTru/BnQ7uWcDG94Zwqvel2dzoRm8K7J4i/u+tlOLzH36Y8q27muX4unju5NCQ8PgJWuvJKFTyUPME75Y8EvcAtZTq9yKm6jByvvEUErzyeGSQ7SVaYuejQlbuakt48aJHkvPYqjDvZ2N28oAsPu4HepTwy7kM8ZqBjO23ChTwyJBW+SFKKPHZN370iPgG9/neju4oF8LyFaBG9pRcJu0YdpzyFYU492xp3vHB0o7rN+Bs+4qxHO3BJ7jxPP+k79iY4vTM1PT341sQ7kVG5vNMQLj2afkE8HihQPbFoMTyVxTu9jti9u8jYEL1Bp029M6ALPSWDhLtxdq+8MEn/u8UlITxl5iO8QjbLvHhPUrydPPe8ghUqvBw9bbw7EaC9ir1Iug+bCL2PhKO9y/kwvNP987xw/Mi8788EvVgAbLy072S8Trewuy+sVLxkkMK8fts+PIyASLu0tcU7XoI5PC0FrrtE6AQ9t869vK1iBrx66Ca7XyFlO+x7CDy0liY8bFyOvCbqcTxp3II8GLj1Ozb1kzyO8ga8YI9TvJ663zvGs8s6y0JPPC9M/LsVAq69X7vtO5KgbryC9DI/qgo+Ph61X75UQzU83uq6u494Kjs+lQm5PGPwu4yYHTymVWG8myGFPprdFDz8KBA7DaQEu9bGe7pgbIA9sPkMvysyM7zbQdE7u8tTPgUXAToZTCg7ELxKOpQkoDoBv/K6EMgtu2rwVbuEbGM7jNSuvDL7zLdVoK+5rYyQOyZFobtYlb295AsivIV/jLkKhCu7Qf7VutvAKztG7oW5E9HZOixFrbip1Va7Xx2KvFGjoTqfIIg52Xx5vIZGDjuh26e5E5iTu72aATvlhSW6bECsOnbpzDs6gNc5cs32OjuD/bpOTkY7",
                "KhmFO59jZ7p/RBu963/HOpaRQLtMJFw7YRZaPDQOhjpCqD27tmESPEp8qDq+txW7Dga5ud8OJzwZnoM/X5JWPWAiwr0P1ou9Q/GlvUvZKz1RmMi8KMGOvEW33DsN2Wu9DKEFvbBCy73CvGE+EkGuPYqe0b2ZpAc93K0AuAf6q7sBggK9+vUsvS/ihDrScsE8J6ABPHcBnj3koNq8hRlTvILPKDtpScc9ifCluv/5ATwD2G2929FNvVs+STxBUl27oA9bu5mlizzzzge8ULz3O1Moyjx+hcQ8y3+IuquwNTw7qNE8WjfXuqc9H7yvVCS97eNuvABbCjoC/pC7CkB+vFcwALwtPnU9YmmOvKVfVbsy16G8Xgyqu3/YvbrK01E85TCnuxtBPztfq9e8JFsGu6IlTbyrVhK9GyDoujXW9DrocWs89OXfvApZ3ztfwhC9/JCKvAaNKDxq/Dy7dA+RO5hNKj2aZQU9iYz0OnVmQLqC/iM/zAy1PpO+mLxJ+lC7a4OmuQIJKrfal3s6PtLjO+UOizkKowG6O4NtPYExrjzdiPC56unMuiYn7jhRngk9sdQfPRTZuTp1Hj25d+L8O2tPwLucMpk7TiazvAdoirqgvra7XOM0u3Dk07tBRey6sKHjvMPcCrpPGj07UBrXun900jlRqK+86yTKvOVAgrt+H5o6bbeSuSLWrroaoY86Q2uvuniSbLr3hgi6x/kQO3GoCjsL0PE3w2UCvYAsODvGqx+7BN4IvTscLLqWb6S64Fi5umEm37xqznc7YbK9u23EcrqTulg7Pi3oujCEsbpZomQ9QoMZunTmjzmTXWw50mWNO2rIm7o3kBi7TjMcvOFakzr0SYI7CPZYu2UWpryuIxG8/RLPPdDz1j2FfUw86NYNPbhqH7ykMjC7rPGevfCukz2WNIY9h/YUPTmp2L2Rt8O9VO6jvMorcz0AQho9R3JmvW8kRzwYn009qOSTPOZwbz35c/I8/edevAeGarw7sUy89X0xPT7eDjwgytY8",
                "XbmCvdnJpL2hiOs8lk4HvBuoVbwp/ds8x6ZNPeksVD1OuCo8q6Pru2KEO7yfCgk9By/kO+b4MT1AtSU83UmqO7NIET1JD4g8eFk4PGYzJDx2+YM84vFuvLyD1DzdaNU8FqxmvA4DtDw/a1Y8GyjOPNWn+LuXyQC9xOXmujnYabs01l27aNvJu3w6qbzDpcy7cADuu9qsB71DCOS87tW7vDwEAD0VwHi82wmqOQ40+jt2aEG8yIT9OwLdQTxJ34q6O9OxvTtUJz5DuKU8482HvXeg+LwW+pw9VwiHPbh0+bsgFwW8j9zHuzgFgTzdbVG9ijFoO3nsDD2v2nk9n7kxuma9RjxaVh+7Dk8/POgzizx1GNs8IGo1vOGQjr2ajbk8UTWKOwI9aLzVZGK9ErIOO70whTwQ3bC9tA3Kuk3YlT1pQxi9r6kePAx6GD3CqBW8RXMDve70kr2ljJC92DVVO8D9Bz3sIXO8fv6vu2GV5ruoHl69vvkcvOZxMjt2VYa7WSpJPW75MruedB68hkuGPJa02TsKvDE9Y4rYPNbBKDwzH5I8wX01vK3qo7u4S3+9xuMdPbCldr3V8L078MkBOn5XpDqaOUW8cF6aPGkPfzzC09a8Rd4+vODg0LwGzAy974FQO8NNwrxD/W++d9qVPUXMKT0sawm96G3fPE43BD1KIYo7517nvEtpeb23FkY98yApPOEqqT5x7vW9x5mzPLNXer2ppS+9nUOCPHq0w7r+BNu84LkrvCV+kz1eQGO9kKwHPdqLiTvqGiY9BPBavW4BfboBa/K7s6z4OjligT3DTTM9qZNpvWb9jb3ud5m9VY0VvQt3MT1N1qE816sSPKnh+DvhbIG8uH0HvDWXQb1NPYM9Xoa5vMOmZLsH7kS9pwrFOuxJnTzcIQC9n1vmvE97Hj3FjC27Y9sZvIEZ7rxxv1a7n8mxPO4EFb264tk8VYhAPJUIuDtPb8k8fQsmvLcDdzw/ubs4EQC0PADzoDytXBo8RtAxuwusUb3b0GG8",
                "pAqGO8jvTLwANJq1aIpkO8rPWrtEZem+qmCMvTDUxb35EXk8Tf9lO1sy/Dw1ZAc8+w06vZe9pjzgJsk89jZaPUmaBD4EwyM+q7TQvINsgD3qY3G88nM2Pf+WUDvX+vs8rx5sPCqhJ7sqH9e7h5AKvElhIT09Yak8Q+9dvAsiGzy2R4i7Vk8vO1JJ/7wRmxc8aLcTPS+EB7u5POQ8jYxQvV2X5rycAY485wjZOxy+jruSpNg6XoF8O9elQb0tEOa8BGzbO6zxiz1nHTs94AIlPcae1TvbpQI8+GShPF1UPLtZ1X68HafNOgRs5DsHrrm6AOnJO9wsXbxNME69AdMeuv5HLD2s7Km8VItWvCeKNLx3HdE7RjmyO0qpi7yza428jbiYO7Rokrw8Osg7CSK/u+DXO72xMzE8Mt/fOQ4qQLk9+z29cI+yPOy29rnauJ69hzhTvWtVNL4des47NTSUu8x4rDvryHC75+m4vG3fijswOVu8YXqAvIKE+T1+Xqk6wVuaumvYQbtJB1c+stHivtz0uLv6DaS6wiMZPs9Mt7k3tVu7QAkJPtEROTxc99G6SrtLO4wrbTtk+m87e66FPN9Lr7tsGcK7BhuROlR8oLtQDT09rpB9PCP6pLikDPS608tKO9EGljtmQWi86rtWO/KMN7qSIzQ7y2esPThTJrrUmTO7ztKnvWsEvjtjbRs6KjbUvcYcAbzh/ji7QSwIu14Z0DxKPXe7yR+VOwXP+rrkjDS7unM8OuUGhTnf99k8yX4EOujqQjvDDQY7fv6+PExLd7iIGja732x5PdnBz7pnrsC6cfkBOy50IrvckWM/gLFevul+pzw5JmE+zGFLvHtXdjwA6jW82chbPJhFyL3OQb08qDP3PGJa8DyFJS064CiEvR2wSDsMF428BQQYvPLDibySlq+8nvfEPMjtUzymtku7mvnHvPQYsDodKu48Tt4CPbKYFTzE5Di8Qs5ju76Bw7xNPca8UIWzPMzbPzxC8zI8HgD8vOGfvDwDASg9",
                "Mcp+PDeNcrvQ48Y67GU1u9jFIL2ELXs84og4ulrpzLwvTVc8lszkPDKclTtjxsy7pndJvAESA70ZEcI7qT49PPz9ErxHkWk8aVIEOz6QBzybJBm83vlgvPkz3rwi9iS8pQTmPO+MirkZCaw83cqju8JOHj2wEE28O8yxvPBzATy1KYc7cEtVO6UdjrtwNuW7OvKOO/X/kTuufk+9QS4VPqlfUD418SE9IMswPRsLUz1JPC08pKoYPHAU2LuF05m6hex1uzWsqb141vC9li59PW17a73VCri8OJA9Pc6PNrs9CGW9b+PpOz7tn70tRUi9zmzVvEi1UL1zrSe9HzZlvT/dVbz34Bi9jOqsPdX/sDulvsQ7Scv1vCJV07z05CA9Iwo8vU1N2LtFDQK9Q/FsvMP1bzwI6Q+9nPl/OZbuYLy1zlK8O+x0PGiBQz1gX6c8sUXJvIKldruywN25U/SkO1Q/FL3D+xO9NE9QvMezNTwACas7WS5GOz1uXLy2Aha8K0hAvM2NK708SoA8FFEPO9ltpztYQRC9BjACO4/m+DtAEY67w8r0vB4x9bwlcxI83YlOvCSTC7xG1em7dFXwOrCfLT1o/be+5jsLu+ubej0aVwQ9k16ZvR8eTr3cQTG9cjqYvVivcDytYrM75eD8vE79aTr+k4w+34ALPVmFPL2UGgw8qqaWOziIRLsb1wg8itsLvY9wRbz6Yv+8gzZqOlHYNL2Bfgm9QtIfPNsJlruJM10900yXvByBjbzeY9u7kP3yvMh4kzxX3/K8e2/GPOkC1TyNfIg7dM2xPGEbsjzMEDw9Qz6MPNYTdzxJ5Dk8tVsRvHXC+jurQfq8prRXO12KmzvxbC48L6r2vE52pzu0hA49IUbUO2MxkDzWEKm7PHlKPOm1/jujo1i8mjBtPP9TgzzTijc9RVNGvDNaozyXGYG8/aj0uTaTb7wVK7G84xi7uiEJmbx2tVc8x+wfPJJPsbt/y6I8tKJaOyNloDzK+zg+kkxqO2Rgybv6sm6+",
                "8G4RvYok8T3Q7aU7oi2tOxJr4TqOcoI7TkTBPIIBkjpkGKy7toq8vVrTLb2/U9u7z0tCO50nkjkSkG09mK1YPWqeyTuopFm80NYKvcARfrrcHo87X4xWPWft1DvZ4Wu7ujG8u42ZAjxvO4G7GXSGu9jBWrv36qK7Wz0ruUqx7Ttxd9c9EjVxPHroYbsaJUE8omJdurmVBLsc5R+6qeJYuyH+ErzFxIG7py/CPP7DwzqfHlM78ZZIvXTXPDsgk7I7wQ3xvHrkgDpoI9Q7Ix+cOgi1iLyrtMg6ThYOu3aKn7pE0Zm7OIt2uqog57aa0SO9VJiUu/hXszqpS5+7MBeMvCFnlzlnikU7CyEXvHRIdzsPuKS7e0IPO/9MxD1/AXQ9AT+RPVhS1bxS3V29a/HjO1EIEL1YRZG9AvcRPgvHcbyJaHC8hs+4vAu+XrxFIWw9ctZYu0qtBD0/Cwa95mRYvaHVvb3HdaE7tFyUvELEdz0Hjpm9x9zCvGS0QzzuaF490t4FPXegLLqb37q8HPuevXqaa723sAW9FGJevNhUND1pWfg8JkgwvHoUU7zEMLE8EzFcPAxDi7xuQIQ8WFFiPdhVJr02GP+8uQ4TvI8zuTwZqR29qO3Hu+ggJjvrzpm7H4hJPPblmzxxbMC8JqQbu8fDhrzdnlm84W+RPLNt8Tvp3Nq8lAbAOoPeFLzonQk7cdW8OzFHwzumHSA7Db9yvEpRA7ykx5U8hOBFPIQX5Du+KRK7sEHju6yjIry5ICG8HXfOutunfbzgOlC+UsEjPvuIYz7254Q9ylqVvMsCsD0A6dE8aNuEvVnYs7wfq0O8k8DnPHkh8D1hiAo+zmjXvH+MPj2BPa86E1LiOfGjjLq5ng+8SyDxvPl3JDonmmA7dW9cO2SSbbz3XCa8C3K/POGEszpQdC68VdfYuvvEMD0djnS81LM2PNqBLzwbnxC9nOARPJMUaTylwo88WEyyOyDUvLrgqZY8hZZNOuiqZzzEuwA83ZKNuxNGHb3jkcO8",
                "X6vgOn7i8bzrcKa8ETdlPKM5I7uw1iE8zFcGveeQS7ux1wG8QR5WunsM4zypmxc98ZUDPEDhAj1YelG86DClu8r7U7wiPRC8KHpRu+M4a7rii9q69aVvvBE8rzzweEi8RHCtOud6obvbS4+7osmbOloe4Tr1czO7p2NAvYSymTwax0m9tSeHPSx4Gj1TfGI+6IESPjHCAz03xGc8TgmIPdtMI730hBQ9EvBzvN8FaLxRg6S9D/VXvGAHjrh699u8vUATvfnieLxv33K80NuOvG9yKL0hb7I8T9uPPMOb5ztIVt+861u9PGLivDxvP7Q9bDxoOtRm/7xLIDc7pKjlu5gDZDubtfa8kHMovdV11zxcTUM7qumjPB7pNLsf0Lo61rkavGoKp7wJ5sA7rqN8vBdWCjwBZVG8HVd9vW6WLDxbzhS9dUTkvJvfqbuun0Q77OuduwOmo7xORqO7AlDxu8SerTtWFVI8TsmpvLvfkTwnd/k7x315PG81KDtgzoM8acsFvKUT0juElfA7Kdqxu6kU8zv+cJ47zpBMu6+vgTxceBA9p2i1vAS9c7w/WrM74Z6nvQZMtzze0xo8BRBJvbjHhTz8Evo7w7eLvOpCuL7Ewcu+B5ehPLKEsL02nXe5cbziPE1+cbsEVoY8N6oyvIw7Lb0Z/Oi8fq/TOp8mo73yYY29/uv6u2iP4DsRH9q8zYCePWBVAL58NSA9JywGvTw+frz2Kas9t+kKPfDUrTzNtTg8Gbkru5n4XTstBsO8Ay0tO5k/nDz5gJo8ICbIOvVfiDy9wjY87i48vJ8Gu7wXCca8XIU7vDkWVb0MazK997MbvN+1ADw0dYs7JI3HO6giSby2gTC8qrIgOS/u/7ztGLI7UXexPHUXfDwoqKw6dYAGO+LGqjuxwgw704OmuyhRELt+dN85CvBPPOiiszxk1nO7ORuPO5RyjLsAmRe9JO8wvHA5rbtUfCQ93U9HPZzRCL1lS/c6JSOhuofBXrzKE227hd/aPbp2Mrzcya48",
                "sm+/vVLPtzwAH6G7ADXDuxViHbx12Cg+OsRAvExVvTuI5Ky7J6xgvaA+MrsPwgK8jVghvTd7WjzFenY7pN7SO8g+HjzmUvw6MYC4PfURlbnTmbO7UHJcu0fCFDt7rgw9dUesPFOEFzxRmAU8Hv9gu2cjuzscaRu8ul6ausknmLqXSVC7A8MYPYe8uru9sIe7BZpFvcBZEboSGZQ7hRI2vSC1BjzYooC7GWKju4HNmTz+DQs8VS+vOyEBhLvSpsS7g3LAO2vG7bt3phY94hQ6PM4x0jqDC9o6OWsIPZnTkDuPOrM5w6ckO2NyFjvnAaG7d0XPuu9r4LxKDTE8fV9AvTJR+TmIEQc+ObYzPkEngD2zZuY9K7cIvT4elbzPh+M7UBsVPWWHtr5WhgE9wCEjPSi2rj1KfII9BUF9PVJCIjvTILw7M9iLPdVLwb1V0B09c5HxPADtSjz13JO7hAKPvQrYgrda3hU8K3MIPNJso7rgPpS8O6QMPaH1VD2Db5A9BjsePct27rzKs0I8LZ1Ku4HeXzslK5O73KSpOeOksT2LJiK94u9GPDJzO71MFq08QgixujW9db1ETXo8aSoXu4pfUL0x27A8WMIGOxRaOLxVqTg8Qc0hunuiHLwjrgy77t6tOUvZ1ryyAX68tXboPHxbDry8NnM93MirOzlXIbzoYro7xfM2u82/2TwLA8U8g/i6vNndZbk1bgM8gUsVO+g3GDuK9ym/JV9NvYUyYj3eLoY963UjPdlQsT3Faeg8QmsUvcaY6bvqeCq9e5yWPSPgiT0mJVq+xtw+vWFGkz1DuJo7UpzRvI8ayjxFgzY8IaajPckUSTryjqu61HVHvKE8rrwjVuS82Kr6vEqT1rw1XLO8JjiSPHTSOrrhll298YFXPcsfXTtFax+71ES0PDvojT1FRMo8J9iDPOABwjwkdAy6by1uPNKHEbxW+ro9F7ahuZBvLTwngpK94jn3PHpthDylt/O8yMzzPMPOWDuMNIM7PUERO0U4ijyIaQi8",
                "JakiusGmoDzikT88gYMhvVEwJjxOxsE8E6aKOKLLfLhiIjg91tGPvCqaJ7qHlwE8cj1VPJNvVDzIQwa9L2feu/+WwDwG3cE7+YJyO/5WOLxXxJq9mcICPkfah77gI4E9XCzuPIUA2j1Tki09mrNpPbZ2ozsBpki7rrX8PDXCsT29CYK+bJ8Ovd8ylT15Hmq8WJs9PCEXCzwz+eM6mVEpPAqK+TpoFNG7oCoUu5N0OT2NkOC8yyPYu1YED7sCLbK8vxCFO9VcsjqtoMA8gBGYPO3MDb2EY7w7zT2/OSV9HLyuGZU8PodjPEIVK7ydzwW8K02MO0ZwyLtVDRQ7uqfHOfgDSzu3ulM8t7jLO80XQ7ty7PU7kU1oPHJhbDw8fAC9fakavRH8GLtb5qi8i0hXOluvU7zP0IC85M+kPP1TSbtQKk49OGg1vDL1qzxaJYs8vo0Uuv0JLbw1tLU8FKQdu5plD7vwFls8kZE1PIy77juX4WU8jnilukT7UrwEEtW7kce6PTS4Mr5yJI+9HZXwvEUQCT0JS7O9kQfGvbtNPT0oOPy9ZGoiPdAjSrySO6498+J1Pa1wLb0P+s28a8SMPH3BtLzCgw29FlhivSOrDjwBkUG749C4PL5Xi7151Gs8R4cgPEEzs7wM0Am8gV9QuyjphzzoCdW9WtZdPFJBbT34z9W8Ws48vHe9urwXrM+8DooAvMNjQbwxpEK8Hk+YPL1QFbzSids7I9AdvCA5ZjwNPGq9aOSuu9/mm7xZVLs8zJ7qu2iu6jvzvbO8pwgTPMjOODyFy9o8ae9yOipbFztxtWU8CFOKvKvL47pJic08j2WYPNrzE71ddy+937lIOo3NHLplb8O8hjLbuzPB0btSH4284rMIPKX4ZjyiMbA7m5JZOicq0Tx+09Y8JoyRPK2so7xwCy29lneVPZcaP72ZnUk+qPQKvSV5Uj29b167hxQfuzIpFr6dGfk8Z58zvKOznz3qCJo9J7vkPb5KfLwFT+k8uOmjO4SjgL3bfcs8",
                "Lvq3PAxvbbynmHs8KhsCvMMnvzotKz08u3kGPdwFSDwDPxg8zNYfPXE9Vz0VeiQ9uMqnPe3aJ71ZXAI9eVbxPHd8wTsGw9+70bGWuzP0zD0hThy9+jIYvE7roLoD//M66M5BPKD+s7vmwKE7eeQoPMRosbywGIS73sPPO+c/hzyZJMq7rOplO4gJV7pLIgo8DXO2OdmGpztZdOg7Iv+CvPBSGzsBiTC8hYqUO2SqkLwZ6jk8LoFhPHPayzw9l1I6x0Nhu92Ud7vq+cm70C41u9V8cTr1pfu9pusUvZ+VHDyy9C69D/xSPQJGQboFZSu99OSBvZMqJ715+XA8wwI4PFUZa7032Ys8MiUevf/kZT0zpYC8x9YFvbjuAD0skpQ82R3CO+BchTxcgvm8iWhhvJReZDwheDq8BnHLusHHkrzxpJo8N+KBPIZUkD0w/6Q9XCCKPWZoi7wlab48kQ6Bu5fszzwKBCU9udYCPW/YcD3TmDG7/oW8PKYVUzz9P1A7cPPcO6ATz7tPGhk6tyWKPARGgbxX4ls8yGuSPQy3gzxbqZK7s9qmPcY4bjxJx7G8kOpSvFvEfzySAtK8DnvqPBgzZrzlpae85aT3PCnwZbwMb4W8p5goOyFnIjxHgTW95sIAPBjzrzsxmu287eKrvAgyuzrljKq8rH8QvGCDvbut/oC+S6P2OwxLP7wXm3O97dqUvevkGD7NmfO5nur9u+XNszv6cwK8aQyTPStHT7swLIm677A+vNkG+T3b6v07RfKUucz+YDnuzzk7cX0hvWj0GDzsv9Q6PHjqPV0AbrzAbFk85lzRvU2OLruO3FO8HlfvN+6lGDx/axO8enPaPf0KADwDzAC8JvEhuwxefTtucX897Y3hPXPTfzkHDcq7OpVEuwC5krt70rC7KdxMOlRyOjlJz5Y7DaG7O7Ns97rvzZA6xD+9PRPNOTtQHNc7ra+9PGnjQbvAx4w7P1t8Ow3Svjyh6sW7Le6oO08CIbpt6Ms673l0u22F2jrHd029",
                "/PHTOgA0TDrTaws7YC/WPGv/D7w4WIg6KuWWPAdP0zo3sDo7UGNMOrHTI71OZ9K9lPnMvE6cQDykyKq9sWNBvICTC70n7g0+CIIyPbzWhz02fnu9VvG5vGdWcT36vle8Ro2gPC2rZD39PIg9fKhOPR8AiT2n4OA7kp8ovQ7mB7sbjoa5BKs+PK1BCjlOkG+9XRA2PL6HDrxjh289qERHvPWfaDyaiDY99TSRPKOqory3Jw69wpaPvA/r+DsxgJE7Sn2gPBTUCjtuwOQ8Gs0+vWpJqjw9d8u8hxmcPK/pQjvSltW84k/OPO2TDD3CXLE6IjqKPWl0DTuXLic8uIBdPX+y9zs9ZiK9ENwruxnlc7zV4NA7PGJnvLXP+DsEscO7TIa3u3IHjrucqpw8IDPevLFr8rvTG+88D4VXu735Jr2hXAK8hJ8BOLzzELyECue7CrbWuzEqjLwTHSm+x3cJPDLUWLztEJs8fkOlvSYBHL49Gpe7xLUAPFirVruEPAQ8VvInvYEg3Tsq6Iy7ZifYPV2ufj1IspU7O0DvugfYhrvF5wY+ejoXvsi1U7vGWZA7YZY9vcMSnjusUE28OHEDPtH6YzwTX+U78K4ivHoP1zzxT5m74Q3bvGiAcLoedfY6Doo0O+9uI7vmEYU9d2UkvLtYgDtxiIi8uiA2u/0pozqa4Ty8p4W6OvWv2buCBxm8O9EZPG1B7Tu8RtY7OarGPPIJCbsE05+74MteurCyEDt7ZuM7M6+HO3fvxD0Oi4K82/BPPNhhMrwIuTW7CFcOu73phTvPGUm92f5ju4QXXboo7567w5lVveEmEzwneT07oWAvvHNTAzyGDKC7t4TQunddcz3DzyO++JPkuuKenjv0xQ2+hyZHPd8N5D1fW6y8rR4yPWdfM72/70+9EBa9PUvtqbzo4we9L2I0vQ8wnD3ueMw8mfMkvQ3meLzUxua9vny5vFHQr7zfWti6TAJlPXS+rDyKgbE8doHdPLnQ5Ts1uSm8Gz26PPMtAr1Xdj66",
                "SHi2vAwJrDue9CY8IoFRPDHMMjyKZSy99o4FPNzVPbxHje88G1bUO1IJPzy62J07Ej+9uiwlujxbeCq7bC+ovJsXALxEgNi8jR4tvQ2WE7w5vKg7wYtVPVu0GrxZuTu7Ope8O+f7Mj1eHII4RemqOxZBmTv2eC27sWeYO1zhrrvaUJc890Bcu74EfbwX5dO7KJXuOx1yIbs7EZY7EZplPE1OKjuRW2+6/i5YOsbEdzqg42y+NcpFPQ3dWjyyTRm9Ct5lvQr61bwsYUs++SyKuSyqBz7TcBK9lTIkvBQkybyG3yE7L1jcO+hrrjy4Nqu80rwWvDSrhjwcCdm7wrbWvH/zHj0RBaa7tDdhO1T1FryTWj0+ACFSPIj6qTwYiwY9lV48vE6HUDy7sjk9zd5VvNhcmDtShTM9cdBGPDajJbxIVIu8b/hpu9fNx7yENDw9vidDvIBaWr2nFgk9OZNiun6JjTsKhnG7H0mGu3RtCbx9VlA8s/GVO3/etbyBBLs8vzdzvIvIxbuj3M+6MewbPDRgbrxHnJI8UHiCPF35jzzVkrI8YCUDPK6NmbtRutq7tW2lvNWDkzzxl7y8yKadufGCYDzEYs07Asuqtyk/hTuz9d47ozUZvF5M8rtJZtW9u/gdvPCByjzxJ4y9a2qzPR9Oyz35Euu7HJaGO2X2kToxra07LQzZuz0UkjtlHdG74lQ3Pgq0Rr6amvo6kVIuOw3Hx7uD2fm9Io7vPnfbqTvb4t06FJD9vYelfjpbSbq7sL4zvuPKV7yB45y4EFCwuqv9yzqebXe7Qy2HugT8QrqsqSk6vE9Nu50BwDuniMe83ivRO4/GdztME6G6XiyYu72nArx1V9w7P+qLuKxIHDsYYng63BVvvfEelDr5/IE7fBVePU64jrsAdPM6XD3cPVh8hzsxFYk7JiHrOrjAg7yRTag7bLCju22rGjuzoFm7eO5Su1trJTq4Xg69TCXNuX1bWroIOlG7RU8AvXBsOjqyXy47Ag5RvWABDTv/vac6",
                "7mC0Ot12aTyhPY4/Mmg9vZbG2L04zdo99jrMu73vtLxRDYI71CPeu2+av7zZHQ+8MpPsPAbVRT72/zw+5SMou9E02T1EUM88Hg+lvEzuNjxHtKY8kUJzPbR8LD1rVWc8FyOBvJd2CbxLE3c9QKlEvFMx1bs2Ibw8AssPvdnTi7z6JAs9GOYaPT9nsTklIcC8Y3tDvSxvkLtDqn+8m29AOxg+6LxJyUs9VoURvP1hEb3G8DG8As8fPDB54rxDz+G85BmROydyP7woAZM8vt4MPcZZMj3nTOA8styrPJnUK72PZC47GUgEvOyD6LmGNwi9/rgKO1KYYrzCSDC7VRlkuxGxBbpjiMu7WJZNO2jMSTs0iCe8r89ku48w7LyCTRK8vWy1u6bLo7sWt2O7yREBuiXvqTqxv5O9CSwsPXhZzT1gaQC9LOomvc9917w24ay86pTTPaD3Ubx8P3O6ZMmvOykGs7yYtha9n7ZxvT2NN70MXe675sPyPDSMp7u02ro8kk8LOrcWWr3O/+S8Ki6ZvPNP3Tw6NoA7z0CYPaaWIjyetqu8amE9PYacCr29KRY9qcaJvCdBZryvByg9/KfXvFEkkLwRLg+97+7HPGFsLrwTsFQ816/VvF8vUjzDINC7ZQ3gu4jpcryN2NE62giGPJcYqTtYeGm8GfIlPWv3ujzgnIs88mSPPKsXsDm8e9E7qgivO0NCOjsZDzu9J9Y1PI4cYTvcpHy7GW0QvbV5F70Uin+90KCbu/J3oTx13YI8kuanu6CaGjwVany8DplEvHMGGb3Gmss8bMJRurbfCj3+ZRm+RhUXPknrRj4+AjI9BdePvIBKxj2q7sK8/jSSPTCRrD1J6Zw9F3e5vObTQb6KdFq+vCuJPZClE76G/Wa8HVslPUUvkTrQj5m9opmuPVIq27ykh6G8nAmxvHtHL73cuwq91tN7vdOxlbs/cQ29dtaWPcHter10Rbw8hHzFvLhnQrxaIRU9I/OVvIkKHby+yUK8/SUTvKSTVLmMVYe8",
                "d68Ku42whbzisz681OVVO2a6ST06hgk9cTgnvVyRbDtCUCs7NS2EvF5Cz7wNTe+8XRkMPC1YEzzlRXQ7Xj0YO6YgCL3EDxe8cQq1u+o7r7qJRpo4rzoGPNzHSTzFi5K6RUWgugOGBLwOthC8mSkIvYmL7LxgoGY8lTamvA979LoTdBk7w8m4Ol78CD0/FBa+arNrPP5EbrwAl9C9NhD2PAx4kbwfxJo9eNy9PaYu6jz5WHq+H+eZvMFWLDvCJ9M70SfBvML3tjw36hm8h61VOUrYhbwHvyO8lBefPMS6IjzcR8Q7MMSDvD3mir08hAI7el+kPFh+Xbrre1a9tjQJPL0KY7tmvKy8J5bHvMAcCD0zf9q8lQ8BPNmpYz0rQ327o+e3vGrKaD07/D49hIaGPD0lDjz8o1s9URrZuucPhDuHy329sXdYu74sEjrjfyk88L0puy6J9rn3Pry77a0/OwhtNLpzvu47ybaPu6bmcLs+A9a8QNUbPfGDiru0XsW7hsbquwauWDwAqig8iLtFu8sUQDuSsy292oHMPOykSrx8baU8AWu7OslYbbsRISI7hl2BulnNw7ukKNq9uEy6vPND07tbhZO9egALvO4PJD3aPuI80zWuvPWIcD3OjSm9qQbkPM+E5rzwr9w8mWEBPTqKPztXuwI9CucEPIiJUzwvHTS97FSWvegS4byM6FS8nDnrO7EUK7uMglk9YYnxPG+g2zsPiBw7rFzhu8bWyjsB1Bm7zycHva/MJT3Cw7M892EtvcokrTzC8pK9E/ZtvRcIKz3goBo7tKfvu8Y0tryXXvO6yZRQPCIuzzx7XQe72iv8ulmQgbsM3eG55B4nvR0yDzwXsHU8XtuwvFTm3bwJvJc8tL84PCz19jtNKaY8gD1IPD3kybxjxua8wT0oPCd85DsATF88OhD9uAm1AT0ZccW8iPbNu60WdTsxL5o8/vFEvJ4bpLviNoK8QFzuuo8wWDwKIsi80l5NO2jsMbvplo69ie38vVC7yrvbfa67",
                "YW34ubjxLbwTm8y7+OjBvAdbh7tl6ZC7FiqBvTcZ7713oD887w3yvLuBTrv+sN+9rky0vKHmijzIcsK7V+oMvSO1NjoL51E62dV7vRE+uLsszh86Xx02PFSaPLut86M6ZtAuvYZilzy/yeC7h3mhPDIdgjwf7RA90Ao8uVpK0DuGdLM6OrUJu7dswzuFVKC7o+iRuArtLjtU9wM8A6KHPcwxE7xSlUu8wjfHPctp9bpKXh08uCp4PRJW3bv2OD+8RV/Yu7navDw2qRe8xDTuu3hORzpuCru70SCTOugFLLzXOoa9PPaju6CXxbvQtAS74b1+PbxMQzoc26+71CkTPU2L0LtMcE+7mRrhuge0Sb34zCC+wOHzvI4CIrze8bw9KmcoPXVAJL4B/Gm79xONPNa01zpaeH0855EkvRCqSrykQoA8lmmzPP4Gkj1F7em7GDRaO6vYt7sj/wY9JLKAPIau7zrZUpg77EADuzZUg7mC11g73/P6vOjfijt1W5A5ajEcvC/uOLsQom68s5mAPY31hDuHrZY7ZzpjPBBh0TzJRsA8FfkSvhPtAjwJiC88XgVnuoYz1bluPim8bUwVvBKqELu2N7q7bo49vYUx3Drz+dc7rJGcvZqWqLsyGHW602duvTP/Ezu7NiS71RJwumGvgTxNdvO7Ap4UPBASsLvSc6m6/QSEO9e0DrzLInO9WLDWO0cluzvl7tK74eJAPIbMLTk20bU6Pg+jPZ3VYbvWIwY8kwo1PKCH+Tzbswy+TYQ0u+ZoCbzAH7U7YwyUPERY2byFpuQ7OD9hPIhmGr1vIBI9o0msO3hgfrv1ZLM83BAOO9VNYj1onvO7ZvqgPH3Dbz7C1GA9V5D/O6g+Gb3k9P08NBGBOieo0rsS1WO8VTwfPdv7Dr1xnhq9+Df8ujq/Djx2YeQ7N00XPDjhwjs2H1S8XHI+vCjXMrnLyZM7rUlmvPPOgLwzkoM7BJIvvanSCzxJHYy8y7/CPHyGwztVqee7On+rO+ofOjvw94C6",
                "N+Ofu32OMDxi6ou8729DvLRCCLvpDhW8MhXdOwOgmbp06w48+dpLutxYSblWFB08kVZQu9mFrbqccBg6TZ2nvMLIh7s9sxE8WHAnvPwiELt2LC46NgMBPEhXtjsor7C7cDWrPOjRsjv3Xa68AwPQu14xU7t+nBo/gXsJP5DiqTy8n1I6mUyNuaY0V7uvNhS7Ix16PBTYnbv/jO87H21UviZSjT3+SQq7QnV1O0JDfbkz/EY9Gy6dPc5F5rpY68S4NRLTvJAfxDuywYu7gVkZPYsUVjttHgg8658Tuu9wgDujI4m7L/2oPSC8AruQloS6OQ5QOywxILvRcCI9XSGSO9RQujtJ7sI5qe0NO+eMoDtcgRu74fUfO1PqDDuP5GC5HJH2PO/Yqru8ZiI7PrGGPBOxgbsczho63jhiPLRedDr95bY6H08PunQHHT0Zmee7IDkjPGAQ0rrP9DG6R8d2O+2qRrqmZwq9xOd/Om7ElzmLfQo7CqV5u6uF6TmXCBk7Aft1PHz2Hzr4w927ajVnO2hcRjxBepU9JBStO5imD7xIYAe+svWhvNOHBDpfP5S8IxCiPPbPNbunth67j2/DPYaRW7tMQg09ogU7vQm3GT1z2pC7itgGPBxBKbklpks7PBJDvXUzC7xuM7y8vcThu1y2urt7jAm7LPcbPHXehrptr0u6mpWkPIOxsLyCxMU7gfMqPQ4H5DvRs2A8EvCoOp9p7jvuh6s8OlGHvV0wATzkLaW7hSgrOsDijbxdI4a8YZQ3uw87ObsWHbW6oZy1PSLt+Tq+kcU75DSJvdDka7uTOAa8lpqBPesmF7yMkDa7ldyUujN7fD10WbO8UrmdOiVGnjp/ZZq7B8whO8NewDssA8+9YTywO7oJzzvLdmA8EpyZPe3Shbvyxuc7asuVPAKVYLoflVc7fEDfuVeROb2dLbe9hSTGPXTd7b32LIu9tOPxOiplb71QKAk+9On/Pd1uyj1ve/e9uC7JPOYjM70GvSu8D1Tlu96XxTwy5aE9",
                "Ybj7uzJso7s0WLw7X7uzur0dUbvikFm9nZkGPVT/9rx++w09a9lKPZmPO7wd7jG9rHiDO9kizrypUyW9P+aavDULyryT1Mc8A1+8PCqNoL2IOLe86PDpvBJFOD0QaJs90n+8PORabDxB+Ti9RvGPvBChQrl0Apy9jdXzvP1R+juPIi+8Za39PO6wpTtVYT89LQ+tPCpLfryOrEy9NXEUO9QXkTxpHPK7s6EBvW+9Fzzqz0u9107TPO7bcL3jG4Q8d+pnO71bubykF8M8ux6PO+9xkbtum2u7Ae0fPJ5EI7zQeGq8eOsKvBXNqLx80sW+9LfBOzlOKbyyJgS+a5LrPHMmNr2Fw4e+6FgSvkwgj725pxU+cQiLvKikpTx6hYs7dUQHvNmHYT07I6o7Bp0eOrni0jx6eni7zn87vHChuLhLNI88G4oNvP2Esz2+Skq9w4AYPEs5Drwr5EC9f/AKPTlQa7xMcFS9ZGS3uk8jSbwf+fW6bRMou5e3VTgBd8U6DKjZPD5SDr0QGbE7ELsKvMR5SjzNb3K9ZVy9u1EaDrxeIKI8Q73FPIDOAbu539s7bU4RPBwoUrvjB6s7HUqHOzcsTTsyI6+8JAYKvItvszsccNI8pu5LvWOlj7vFWrc6uDJRPDAU9bwSZeW79FBVPHS9Frwnh6M89jVLvK+7jDpNr6C7bMLdO4yFWTn1fvS6LeoyO+mUmDt5Eim+Kt26vMHtc71naQm9mseevX25vrwGnxE+av8dvskk2b1vnKm9l2NEvRrtwrzm1A47lOXdu351arwN6xQ84Zz1vIgkkbvNkVy8mm7dvMjZG71zSbq88XSdPPgcQLwh6eM8A1wYPcaui7wy/Ym84hqrO8Owkz3m0wy8xl0XvBzqZzyjTou8gKZpPbA05TxpNfM8ugydPPJeLb0F1TQ73I6evD1TLLwq5O07PULbOwuyurwf8mY63cbXvFpWmTyh7sU8kW3pvKhaXrzp2B87YM7RPIeW5zzmN0E76FcsPO/xgDx14dO8",
                "X7ImvY+QljxTPpS8O0swvFY4T7t9OYs7PW9mutDFA7w4jny80aAIPLUJAjsERHi6L3ocvMOxKbuh/oI8mDRFu+mR5LuwDrm9P4MIPLlekLzqBBO9RqqXPUbCwLwprxm8heU/vKkQ/Tw13Lm9qxApvayul7vYOXi8W0TkPDwl1Dx0uLa8ekgtPVjwkr1FDbI9ATEgvb3BCby+wqm8jffbPHu2cL0HwBi9PKQmPYNAob0SlnE9tiNNvGjDYTskEaS79bpRvL+z0bylxLA7BY94Ow2MjzyxYC275qPIvJ3YgzzUifu8P1vFPL4Cojy9NyA8nNmsOjQ7TDyBaNO7tV6fPL4PgTlMZCA8uxl+PFo0SLwrp7K8lAuxunKB0bynkpC7iHS+u2ftH73kVK4797eLO73HMbysn008VgeOOnRgNzooYWk8Hm55u1Ptdjxiu5G8ZKbBvE9lvbstvCa7YRhGPPQDFTwyT3y826mivE6gtTtJIgO+h20cvIrVXjxNToC9QkSyPDfEdbvrUFO9GbzbPevDtL1EbW29LsajvOUyOL3d2Ey9KayVPN5DjzsAnTc9ZVYAvq+/mLwovJk7svpYva8N9zwm2x89trbVPNtOozxr3bo8eSsRvTXlFjylcPc8xtXVvG70xztA6ry8OeaNPHPaFrvDn748b7PHvJIGAr0WPxy7zkJmPE2XYLvEo8o8LWyXO4+XQL340+S8k0kou4dsZjyJIjc8pXkrvAOrszuiLAA8jMW3PF2S0bu2wME6UQwMPBrtnrxBOMo6aKDmuuQzsTqIdIk8eXL+Ok8merwQpwQ8VygMPWKEND3aZyO8YmCtutN6yTywzJo8ge33PPB2GzzBzKq73KZuvN4BFjzIAAq7iHiVO3YwY7xjBxC+c6mTPdKPVD3M+oa94L2CvIAtHjyBmTe7EW+zvN1rRr2ZIYQ9RMg8PPiJBr3Xk608az9GPHvPZTuFSOS938JCPed4Mz0sxJ08FSicvE6dxjxBkWU9jTRmvKOUhL2G18Q8",
                "M1/EvGzoEzxqori9eMgVvYzD1bzWlAO8YLxgOibwnzyyQYq6W9PxOz4CkTt/9Jy7xCNsO74K2bzyQh88QsCSvHV0VrsJXlY9upEEPHgbTzxTqb+8is/qPEKrzzsZhRo9PNQvvNnUgTw2ew69XXILvGP0iDtnnYU7nGAivMR2p7yGSnS8zR9WO47wrDjXAMY8K3ScOgiMNDx07pq7k0VKPJNr6ruPU2W8VhxwO16puLzQRem7XcveOokUwjs0KpE8wbFgO9b4CLzZayy+Nb2FuwBCSDy/4Cw+x8GmPsJfJD4LkWQ8ipkUvJaACryl9ms7OTwhPgHhRTwbB6k8imWZvZzw2z45+Q28kef2O9DKEzv67X89fW6BvX3WpLvPDTU6wyrxOvB02ToF/oS7gxLyOzibTbuuAPK79VkCu5w+Njv2Ive6Gzo7PSmOjzoNhxM73V+POpRnL7tBv9O8AHYjPYpiNbtpjWs7Wf94OqKlBTxOqQi8Mz2VOxsC37nidcK66i+yPBAhTLvp7FO8RbOcvBe6jroV//w6Jfl4u5sMljt/OWO5V4NDO9ydIL3q/Cg8veU0vEllEzyYxnW7qfKju2GvJblZ1+Y8rWnJOd/E1rqTc0g7w8NNuh5epjo6BFO7hj6wPD8KVbu7Azg7xQqLOstOrLxYsss+ag9FvkJ4JzzKWig9YKEBvb3NDT19aYY9PLCxuxCnS72WdDg7TJghO+7LNj57/su8Ibg1vBoMTL0B0ZC9IWG8vdqKKLxxpkC92PujvKYT4T3AKYm9FfuYvLEz17tIxSY9o2cSPQncWboL4tK7GFBjvBJ53jtG/6g8Q6zfvDUKIr3l9Sq9D+v5O6d0I7yWzEy91OkovS7nwbwFu6Y6g8rsu1uls7yp4Jo7aJcJuyD8ar18FwI9POG2vNpQ4Lt19Zo7+SVsuqhjRzyCuC65Y01muiS97TyFKNC7HTx2u3eynDwMz8w8+UMKPWIqKDym9sK7uDw2PBOFxbtIzt27736nOxYaOrzP3p27",
                "hNqPO8L5ljz5QKc7nYkMvP8uAzxr+tW8NGyPu/Df2DwxuIe+Vch1PVFUhr0v2Ze8ZFFPPf+lvz26Yja9eOXmO5JFd7z9RoO8Gw4qPaQ2h74DkOO9wNbiOu74xj2wWms9VimCvcuxc7xrn+I6UgB+PYQI7rsz5K+7NuXKuiVjM72k5QE82cwIvfNbrLtfJ1O8PAimPN5oczq+xEI9Vc2lPKT9C7xvFE89HoUXPf9s57ttUqM8IxcYPYzlOLwB2o07MH4rvXZ4ED1HEk+73mv6uwe5QrwcVgE9yWy6PJuVmDrxVC486kkDPffQ+Lxap7a86YuEO7utHLxffi67GQWWPPev5jo7k6Y8M1WiPOFsebxNcyY8sl+XOxkVGz1bZRG8IxW4PCYVLLwsahy7JyQxurGfGz1Yp6a7bxLEu/SxKzyQ1CS8ejqGuvHLgbxBf0m+UguQvWW5KT5bNN49QAqWPUwywjt26Mm8a7Xzu2LfOTwZJsg71nANPfsMDj5aT4++2Qf0O3P78D3ANzI6TF5UPAaex7wi/BY6tHSQPULp87l1/Va9HooJO5kEhLwm5yY93OIZvbk8YLqsjky9o1Ktuljrtzyljxq9rBM1PSjhUb0A67e7vKjCu14sAj3+lx682oPjOTvdYb1kxcS8AjFEvA2dbrx5DSc9nM+ou3C5wLoxuhM9LvwWPBvdqju15iS8Q8/3Oz//FT3CMYS9ReO3POITQLu/b/A8kBhJO0Qk6zuYX2o8pAlSvaISDrxQm6K8BDlPvMGhBDwSq0m80YF3OpmBWjuWd9G7vzMdO3g91LzfSNe85WQSvHUHoTsgu2881D7NOC9Fpbs7Tlm+6lvZPYIUzj0h5sY8nGFCvYdNbr09tf08lotCvXPtz7pSTFI8pV9kvYEtpT70EVc+fE8KPO0gFL6ul4a8N1GQvBnM8Dn1L5+8xNx7vXF2pjqZXhQ8JQidO+R0S72G8BK929diO1k08rmIJF+8z6scvdOGajw3UCa603sCvWLxEDv3oVW9",
                "NFOYO6iyKDznAQw8mCj8vFlzDLxT5kg8iW/uOH6M3Lp62k88Jj5hux6czryv24i6uHAmvBbbZTzlMes7NOnDvG2iND3GVIo8TLn5uwjgdDzTYXQ89ZtGOztLZrqnLnm8xxPduxw/5jtIlJC812aROva5SDviIuK7CCJPvPygmrxmK5G8kFV8O/w6hDyPln+7Z/mFPJ1UHLzbNa27E4wCvFadnDu3QhA+hnNvvT2qfzxbqpW9D0RvPEZAJb1Njbe7COJ8vlKGHDzRuwY+OC1qvSKK6DxIFxO8LnIavd1Pujy1mzy9dXlYPD1lM71D25y7/4LCPAQ3OTxqi1e7PGIHPAwlgz2vT768oOmUPLeAuzw0+YY8x1z7vL6xIz2xKHS8zovBvDgp4DoQWY+8BBg2OKctybvqOSc8HvlFPP86KzxI4VO9/43ePO/XELo3E+S7n856POlVxDwLnnU8PwKKOgfwkzxDsY68mcKQPNbEJbz0jei5y6o+vHRclDy5FBW8MleevIwUQ7y69eK8y3A8PDEsN7zoI1U4Sojru93oejzEu5O5wyU0uyATUjv9k1Q8NwdVO2xkhDyTjyE7nEbjOuFoATzFgRw8eBiBuwQaszvHPlu+bem3PeTihT040Ws9ybJFuduhmr0YLe68j6O8PGTDnT3sOd88/RtVvB3Pjr24tDy9Epf6vRDj1z2tLAm8nB/APbYsOztkqFs9KwzrPIWLL71pEEg8vhF6vAxGUrx2Tjq8KOpVPGDVcjyB2ME7N+h9OxuSCL2oAOu83TZnPdIiMztS8dY5hGouvXchFbvh1oQ8ciyZPSxpwLzC+AC7vZGyOzHpDbyRP4W5vUYRPDLyeT12mZU8C2PRPKdIg7w72Gc7gjl+PfDWwLMCxoW7KDb6O3Dxzby0cG+8CPG9umjehDw69ei8d3IKvJy8ZrslacS7wGorPC5YvDolMgO9AhWxumG8/rsYEee7fYKQPJHOGLy+Yik89NalPLpWw7ts2s26mUkjPP2bIruJ8xi9",
                "y2+qu3YbhLyY7is9YonfvP0Wuz1unye8V12KvCzXz7uk7mu8QLcGvvXiobspOJW8I0AjvYdstD3ZXTe7Ym/rO+JDhbsXiiS+mpJMvVQ7HDunPzs8wyw2O0dtirwD+ZO62rpXPfU1bDyaM6Y7lhVaOrDsHDwBRKm5ZwmCPbQG67qR3PY79+JFOg3HUDqXUoM9/ZttuzwAPDvREfG7/OW8uttiSjxOIDQ8OmWdN/mqZrrup407MUPEu7JCMrw8isG7UlsIPI3pUrwfcHC7rCcTO/im0Lo+XBM7kiZFu4r5qztxYB27LWduu4wqDbzTlSY6u0SeO56vMTjfIAQ9hga7OyYZpTsehSa7E6RRPQSW3TtKQw87NnqSPInUFzw6uiM8/5a1uur8WTxBQQw++0SJPHZLkT3d5A+9quZsPcKt9ry0fgC9C1IQPqq5RD0G/k09X4p/u8YUnj2uXIg9Gl1mvTl8BD4+ttw8KWy+vZhzJzwlW3+7PSOrPFcAvjwGJKQ8UDulvGIZK7wxadO806zFvHx8u7y+/HE80SZ+u8IHkr1UlSU98AD2PHlYCrxV2MQ63wVCvTOZTb25Lao7zZZcvEK1tjxdD6q8+Hm7urZxSL1+eQq9rZS0vCR80rtNuXG7e7JNOy9AkTvOnbk7n0DoPG5YULxgYYA84zL/PLW0m7k+JIS8pe2Tu7iDirxG1+S8hYTRO3UWEL1mGLs8CnB+PC9W5jyC47i7cX7BPFxpOzwU+Ze6xf1pvLXHPLwh5hw9XBLxO50sbryxHBi6rf07u4xxVDx2GyO+Ljw4Pvsgpr1+bzg9Hc7xuy2PvbyVeI+9DRmKPbKRfD3GFYW9BkuOOy/r57tQldy8o7Z+vZKrQD2DjzA9uwWxuy4qFL27mmg9f5NLPGIGCL0MFBY9DGzkOm6VVD0rG2m9xwKXPFRwTDw2PbE7xoZNvYt30TuDAO66DavKPIOfAb1LdLC8JewDvJ1H1jme/Lo86M33PDg/OL2IHMY86ZSbuvwoGjxQVOW8",
                "B1j4u4km0rtXxya8s4OwPDqBDD2sE9e7R34fvInmMz1QbHi8VE5tO7ChZ7wLUAA9n+Tnu7/iVTybsPG6i/kqvDDAhrvzLUi8Io92vZiCpTvMwke8ACa7ODOq+7oYWFs7UfzPO9PXwrlVBhK8LnLQOwmEiTvNUgq7ViYlvK3Au7vfaRY9aTSCPelWkTv+IMs5wmWZOx1juzw9oC+9OWYePdupsjtEftC8miEJPU/Ejbx3ocC8xAprOxVlWT0hW0o6jzeZvOh3kDuXLYy8bBGkvIQ/rjyNSh29RO5EvVoDDL3U/WA8Zm8qPNNoJzy80Be7RREOPTF97rql8JA81JprPCY9jrv99qq5lcsGuJpbgzxdBgO8D62BPMAPpr0mIf48B/tmPOVw5TwCYKG81LCsu2IFzLzklra8/HGYPTSbhjsuw1e8ARq7OwamiD0YMIO80sABvU76sbwwEBc8GLTiuuxgRjvXo0c9rOwZPZ3qRrxTwem7vmQ0vbGZcjz4DnW8l9w0PMcy6jtSScy7AHI7vXTjdTtynRi8C3PgPOvRjjxZAae8/mRWPBX/KT2d35q9w44PvEKrhztA9go9/onzvN0d1jzJPVc9cohMPRj7LTzNl8a8yMWqvDrh+73kmu4+ePr8PB6TmL0BYEo9pop1vIYVy7oS9bU8N4KyuxykYjqcLpc9huvRu0sasT32UCa9iQomvHIrMLsXxV89iRfeOdx+mjx3r9u9gGsJva1Ypz3mM+e8+GakOS2tUb2uE9U8bP4BvGLIfDwwTIw8oDWaOUvM2ruXvxu9xICwO+d+YDvFJjO8txQ2vJQFhbvl9M48t/tqvP1gnrxjxXI9iq2/u4Ibizqe9Y28tI6aO4FDx7tzFkU7IAe4u7WYpzsqQsm8jkpBPB11o7x9zaa6nxzNO8suubtnKvG7bZ0Zu9vUErtcNWs8Ngl2PKkjq7zcEZC82nc/uzMwErwrNYi9H3j+ugq2ADsGegi9ZTsgvqtaGD47THc8X980PApnhLsaoqo7",
                "i8Q+PBhtNjxSYM+78NzUPUtIAL5RdYs75hhyOxLTWzvvQp09YoymvPgHm7xhqzk84jYMvc8z0TrrUAo6qQq7vdAEVby9QIo7eCpbvFHrebqZ4wg8AtvEPD4e07tgTIe7Afl4OjehUjvTOpc82Bcgu9G9kzvs8IE8raWXO2FzE7w5S6K65YE0Om9tYTtb/fg7CDacvG+zKboc39I7vDg9PedI17uodTI72km7vK3M6bk+/E67D8+XOkm9Pb2r5Ws7tifTu8kwgTlevgG87HWDOyJKh7tL4Dw895+rO2kmdTsI8AA7bUkwvbSYCLowSBQ7mcaRPXt04Ls1hKm7hJaXuo8xu70vpSC+qXf2uzYcD7xsZBo+XvppvWD5oT32sju8BqaHu+NRNzvVhL66ULqrPcgQOrzQhgM8RpAevoFdHb62SHe8IucfukV2FrudBmM95flJPV8cRTtM6Ao8JB6DvKr8ajt2ioc5aBQovOtxTLpmsFI7t0EFPCuj1jhOY3o79YHzvSOHhTugFlq716LlO93ZSbtY6tQ9Ih9YvDSbbbqc+Hs7ttVTPGfkyjnlt927rXgOutLFGTwrKb87QZoEvWTzhjkl/6m7kLkJvCZErrsn6iy7QcoAvuJo9LtJZmo7oP9Qu9PRlrxyJCY7nRkYO/Dni7r1BdO5jyvEumo5ezpxaY89AV1EuzPrFbvNhIs7SQ6UPdNEDDpG99a7YMeEPNtS2bpu1xG8St3luwBXGbvdI5G+4yz4vQW8gD0kp2C845WvvCd0CDwjdt09BpyuO6Q11LwULkw8OjvAPGVwoz1ZBxO9aC2KPHwCFDzk+gw95dNxPJY1Cbzlrq28CQm9vNgmczxZghC9YYtTulDKsbsWHVE80MhPPLizjTo7+ce8Z6UfveSdfTzfRt48WnWfO8dXg7y2vYi8XG84PYFaKL0qYj+9lUSfvKqLu701fp+7eejJO3PkVT1qv1a9gmsAPMoBMr3GaDc98+JSvFL0tDt0ZuK8WZArvPqNhjy/yFO8",
                "Pxe5unMhGLzhHpS71WMzvEqrnjt0hiW7cXd6vGCgALycPwm8GCI6PIk0azx4DOa8f3Cvu6+xGrxIkmg8fTWQvBatJbz2qXG8mYQ1uwaUZrvutym9hLe/O/P6zTxKziY8THdVvH5babk9kMU7By6mPZO85D0PelM8EYOMO7h8c7sz9IU73K0/vfgegTz6taC8OjxNPZWKyLy4sCI8FbAeO5R0vzmvxfm9ohzgvfu1kjn9rli7TUUZugqQqrsxgzo7dpH3PTH1yjqzUzK8CUQTO/Z/bLwlKHk8C21Qvek6i7seMGy6lxjYuevxY7uzFBa8+4DjvAAun7nYw9U6ryV1ulQOjjpdvBK8VHrqOy+gVDwXWo45+K6nPIoK2DteqTC72FOEvDaj0jpYwPG77MnvvAxvA7zXJAA7z4hNO6F3Yb2pxG88CyU1vEO7nDtUWKQ7XH/Bu83dH7t9ouC6bhwxuHHZXbsCR087pXDsvL++DrxJp9m7JNnAvJJHKzpEaVq7mB9huycsrb1QCj8+fnLOPN3NxT1y4WS9gfpaPTTMNj5N7t+7/MT5Opg5uTxCW8o8UuNwPXu6hzyJNBw+k7zNvNNqsT2PCQC8qdI4OonukTuBhp675hMlPbg/vjs/bIw76UT0O3IA8rdWQh29A+9RvQegRLwhxlg9Ci7CvMbFrTt/lnw728IbPRevMTx/Dqm7Wj+6PIzXsrtxnPM7KYwmPXiR3ztFe4w84DskvN1YBjoO5Dq8P18zu7pcirvcAFI8iVJhPJkobTyGDAo9WOZFPXIyMzwdWOo8eE6wu1HnALs89BS8vD9cvJYuKLqOuSW8sDMDuVa7SDwMCI+7YvFqu0EfMr0zkZI9vv+kOk3qSjrEIMe5cb7cO/vL5TvSDUk77X0DvQgSubqJGy+7u1JqvGD7C70emou+Dv18vTYf6jq51NO9DC+9vO52B73mdAg9/7+aPYcnU732Lxu+nJNJvOoHcz18aZG84/eJPAD3KD1fX7a8+iCNvVSC2j1xfU+8",
                "gao3vdwGXb3IFqq7vX+Qu/RdCb0OyZI7+175O9UYHzy2cnY9an6zvJj2KDzj9GA7ah1JvO5Sb7ySVQ29p+dYuxz0gTzccYa8/LB/vIGpUj2rrbc8pjWKvMgDBb0Kdws8AzHBO1JwBT2CkBk8eouBO/Gm8LyqMHS8nfmIPEDcRDywq007hj3WO/VGWLqMipC80PoZPO+hILqhzi+7DXDpO3/bWDwfw6G8tBrFO7Zb7rt82DK8pgnOOwLpbTyMPSe8OqgNO7VjZzs584U8W4W3O78on7zNGVs8Q6sjPGJn4jsOqna+MKKJPPdamb0NnNQ9SPsqPkYA7Dx506q903AqvWk1LTyNYT49pUIAPTysGz1cI82+Fx75PM0uujwqE629HTHCPJc1cTuPp2i8tL2FPRhdBL1Wo8e904IUPdChAjwCjSe9drtzvflsn7oWrR87WmL9O1xfDb05ES08LQMqugya5b1KXGo9NtqjPGGUTT08evg7Z/pLu3a0PTzeDW088XFyPEzqDTw1f7c9281Ju3fXoruB5DC9+y0hPOy1mTyN7Ra9o7IyvNIBtTrv5VW99nbJu8puUDycgxu8C+8bvEXm4rxz6Aq8oNlQvJwOnDscYKs8gyzsOgeEgzs4dwg9X0EpvDGRUryUy8y8ekb1u118Dz1KWdW8/ODNvAOpm7uLap07bNk/O9VBETwsrVm/RrM5O0puLLnappu97v0MPcFK0rzykJk7BhvdPqBCDL3EfXc7MRWSPC0jcTza64w9JkM8vWfJJT1esYC8ulisuup+CD3lyRY76zCXPGaw6bzY8Aa8rOAkvcOsLb2QMYq8dG13PSbR0by+y+y8ZngZvfImQb3cb6s90ZKxPN6NLb2fqRM9Hiicu8cNPbyX8GM8AiPzO/Mv/LnoIlS7JlfFvAwQrjy2bmS8gCBePAcuG7veyAA8WpmvPLSrj7xPMQK8AUUJOmv1LLxylYW7QWf4u37jMzsM+yQ8V/PLOwy/sDglZQM73PG/uzWbBrxDyyw8",
                "x/QcPPrfVDzeTQG5QQMzvO/hKbtNYbO71f8cu4rTQ7vsODG8204PO76WAztPGs+7YXZdu2ErvTtGVXu9CBSpvHFihDxQXuK91y7MvHt6grxPCsY98A4CvqfXLj5fbes9kd8ZvH6yljy1WYw8mU8NvTFRSD2Rm5M8cayCvXN11Lxnjjm8Smy3PCkUSTwQXIU8V5Plu0cefzxLfBM9FgfKPNGg+Dvf1hi8CceCPBrjUDxRGgw8MIJmPKopGTwBtMy7ndKuvENcwDsYEfk6tNMcOjpaGjyi/p69RYFxPM829bw6dOy7yhsYvNQmFT0rcPk87tu8PE2IXTryxey6o4rFPPuUizkw29U75w3tPB/NvjxvvW48lDQ4urG/jbusxTc8sUCKPDfr9Ly92Vg84GCKvP4Oi7xzK6G67840uxPz6jyfAJw8zih+vDXXgTyI43u80XyduwossDwePZg7880ou4D/+bv5U+u9eqc2Phq5Oz7fTqM9mudwOTvunr2D9Lu8xnuVPf9Zkj37yl09R5AQO7xanr0SXcm9jTHlPGp2zruzxgW7lRkBvVCegbvoi/e6ZP25vTf38TuO2Te7RXKwPCmsmrwKPvW8FgGCPBm0ebtutMq8ZsYQPToP1j2Wrya9nDmtvH52njwWbk69Vok0OfGGBDy5O/C7EgMUvPrd7btKkLW80oMoPOLXnLyg2Fe89OOQO9VdMTyw4Zw7f7vXvCVUnjyvpiA7nJ++vNq37DyO4IY86xKBO6/P/zsUsF08cuq1ukX1+rtHCts8Hu3tOx01ND12zF+8FTyAvdZbe72R1mS8nqoPvM28BLs/aC46eyk9vPPCDrxEwpQ7ByQYPDYW57xlqU87ON03u6KCfDw1+hI+XRjXvIr7Wr28JJU8z0i1PfZPjLye7jo9Wip4vCJtG72UvbG7VBzou0HPJD4WrYo852AzPB0vAb3BUSM7n1qAvOXlfrzufRa92OGHvDV+PTw/joE82OgRPQ5H4bty/Z46oCroPGCpK7w9qgw8",
                "E8cuPQ/8Pjve6LQ8OTtRu2p6B72ovyu9Hej2vKU8EDxVCYA8cJPJvD0mjD2sS6a9oYdfPBjyp72TI9o7SfOiPEXQ5zyR3Kc82pl3vfcvXLyoori8QVszvB/fjr25TqS8FoVePPWf3Dw6TgE9FtiVPBCDkDvMwYs8GLglPZOG5TwkcGG7IWR9PaW2mTyZ9lO8UrgIvN0eLju64q+8crheOwU3zLxK5VU66Ki0uwAFj7takpE7TE4DPNPwX7w1Khu+We9kveLcLjyWy7679tUJvXkPVr3Z8e28WBFaPPXRr71UrCY95oHCvK/0kL0g5X48Ix84PFto0TsbcrS9I4WivYMWA7tpwe88XKluvRYywrwuLY280C0ju8lzOzzyNkQ9G963ux0BQro5PiW9g5QdvSS9CTymU6C810a6Oh0tnbzt4US8ks5ZvL3lXDzDWz88KSZ1POX2ZD2jkh29D9XivJEL5rzetbE87nHFu8Yvn7zuYts8VNd9PK6MAjxvy5C8w8MBPLN/hr34uJk8Bgeyu/BfvTy61KC8VaB2OT4SrLzckBY8c50IPc4J5DxrPVM8xKbxu6y3LjzQ5YO81p4AvFcyhTx9DR67DicwvCaSqjyBqdw8Z4+GO08yaLxpt3M8lD6AOhgKn7sBAaO9vIz/vd1kAzz5CV+9DjIrPZbQhb1+Pp8+WPHdvPgiPr3UqUO7QUxSvIOPSr3X+o880IrSvE1rbj11thc9+IgtPV05r7uOHiE9uEbBu1e/ujxT/+i7Pt3BvKr4sbqP8w+8NJYOPXvmQDvonwY8sQ0oPbuUwz2AoGA9fJhYPMKePb1uD4G9tkX+PCP9Ybyrx/A8XKq5PE+2JLzrAdy7FLsovO6PTD1IN+q8EU8YvALqWjunAcC8/V1rPap6JzwIq0y7keZ7PJrW3zzR8KK7tnobvD1we7wICmg8l5NBOxVblztWcPY8CotBPVirkjyF1KU8uockvYAQTTuJABK8MTWCuimzyrs+Nde7Y8w5PLTesLxigNC7",
                "ircPPONeh7vOEQo854MYORsiSbzjd9i9rZhwumYQDDyMn3a/rF/6PiMJgDrTf8i5aFc3O8u3DLwdWys7zn/mPNTaZDrgEq87vsXwvbbncD0eXxm7y4wvOxmQejmZoTM9IlBJPlCJlDsJkeI6RCJ7vWnvLrvYfSC7WUg2PWftlTtKQQm7Z+bHO3rJ+DsRic+7Zd10PXhHQzu+pwW7Zy6Uu0H79Dn0G9w7iLQ0vLeNp7vCf6C7si6YOtPfArq17a67Z2d6OqUx7rtEZ2M7yTQYPXvxyrtMuqs6EJ2/OycfzrpE7k+7WGQivHM0sDk1e7s57NCxuugctjzcVFG6qAhVuriqOzswOay5bE2wOuY3O7r2WbW68AjhOb9Bbrpp7te6rsHxPAZpOjslbIu6PQgSPHDWD7uTy3Y62QSZuhgTu7zvbLs9LjcpO8z0zruZbwQ9IRjKO6r1Uj1uYGG8Lb7aO8R4sLqQ5Y27aHqBveDe9rz1PxI8ysw/vQb8vr2O5Ua7GXczuwaRzDq5uGk78CSqvcCbnLuiSSa7OcFNPHntDzw3cwW7sE+SvcUjiLpqJTi77JjpO8C5qDvgKQw8SZDtPLSGDzuJpx48NJKIO6AkubtpZKY8Rb6pPcwfPTz/qv+7iXfmOnZJ6zub6L+7Ke0Cu3jhHLzi3/w7I5UzPQ2+i7tTA4U7rjNXvTkeFTrTabq7EQqovdJLvzoHDr87xlQRu+jwcT2tn4W8wPlaPAsv4DpwHBy7fwM0vKmrT7klHh65W8oku7xl8zvVKqa6V+IFvDXMiDtO/gU52qYXPY1YvLutS187uNblOsyn9Dvf2na9K9c2PQ5bmzy325y8+YVxvLIuTbw4MWG+VJFJPkGkU73UeOy7I1rhO+oULj062+k8ObKbuvZM+ztBxlU8QJlPPUOKRLxFLwK6EYKAvJsIo7wy2LO7NB2huR7V7bzYYf29vkViuk8ZLTxzQck8RM2NPeXf5r0RacO8t+Q/O838azySqkg9dAkdOwoopLs301C8",
                "KYIJvGPhL7wyzu07lqMPPPYz4buUz0W7Jj7SOzD7MD3KJSm7qVcgPPdiujw0HiM7J/o9vGma3zkGwV27H98MutXdxzzcym47AAPcu38w9rs3axS9WQrKvMt5hjssTz+7cSAau/oSnDtRCaW89IbGO/3jt7xgL4m8UbYRvHals7v4POw7WvVJO4QmDjyFDs27BqqWOrh19Tuphqu926rDPEnCSz28cYy8vHWCPUOOoT1bHV079i4oPfbIyTsLgQw9V+H0PEuJKr47QGw+tukBO3Aotz1uXYq9KfsOPAz9ETytIls8l+p2PXSUIzwX8Bg8JEG/usF9RT2MrJI7ZYmqvHpYujzEjEI8PzKnO/C0fjxAwA+9OMkbO+d6HT3hzIq8/GJEPIJ09rwFZdc7vDbKPN6RYrxPk+47gWc/PBzf0DymaLO8em1HvBIEvbzj+4W71HiMPObrtLhVzcu7xoVQPNDERzw/8a08cXk1ugtU5rv7DXM8YpVFvJ9VWLsMR8E7Py+0PNV8uryLbAO9UdahPDuKGr2qHSS8XO++vImOHDyj+Yy82cIFPKbNpTvCTtQ8v5Luu7umCLyhq9a8fD4QO5iSCLyjEoq+tooXvRn5hjuAtRI7nnRnvVgda71Hbru9ids+Pepvjr3fA108XpYnvTgirD1AhLi8jcmtPQYpBT2lb3S9aM8nvRXABryUhJe8zR7kPFYxejxYHym8tZHXuye63bxQM2W9hfCduy4+FzpZL9c8+9gQO3yv2bsjXnI8pYdVPUnkGryVqRi9a3QTOztwbrwy7Mw84rGcPWsfsLx5aa481jl+O9L9KTy9bEK7z7lbu6K+pbp8TDU5J7MbPMwtuTxNHE86G0tRPXQUmzzbXhS8AlbgOh6bBD02ke28XGStOwK8azzv3iE8aWaAPGd5XDyNYZu6+dBdu45wVzuMVV+8rNA6urZIhLyifNu6I7cLu8zdiLzwGSe7ypBGPCj5tLvjNW48543juwPFZr0iRQe+mbAcPQeryzz2XYc8",
                "zB4+vOM5Nz1cc707P6ksPEzi8boSGZ48+KSDvb4mGrxkrDE8OPNCPZRvoL3pYe68CI1rOtva7zwuBp68wsDOvCvnmTweyJ28ybmIuqTDJjxivis8iOQbPF+cobxdT1a9VIl1vHlGBTwvq6u8V98zvVcGhjx64Hi8JkgRvRTeFr0WPqI8n1s5vDdZGD1jp3U90KirPE+BqTxLUME8BgQEO4QPo7ksSxI9VvbFPGU/SzsiWb48JTREPROFFT3yOJw8Nrf+O8lXUzrc6/i8cZjYvPkD6jwN9ua8AUJiPHjz1LqGQTU9VRYcvBnaG71tf3K8KHLAOmK0iLziqR09ePnmPLcYDLyoal08az4svMaU2zwXfD87+Gh3uwOKirunWRS+6vsgvZjIEz1eJxA9O8iFvRSCZLtG2pq9P3eVPMG5E7yyTXc8WZbhvOIX4r7EOvk9U02BPABdmL3PY5w8vZsfPdUeM7v3a/u7EJxrvAkJq7q1VhA8EpUuu6YkErwvZqE9tb0pvNWI6bsrCwo9w3nyPMOJ2Dwk4+886NGPvCwWJD0+yOY8Elbiu2JPrDuiE8o5ugAwvOT7IDyeMhE8O0/GOiNnQbxEKXU7Lqmzu/5Xn7t79sw63lXrO5+Gu7s6Poy5prQ8vDbvEr3//yw8tsRGuyT0hrywzV48dyQevKSJ3brO8Qg8CSqPPGxaYrzYSba7K9OfvONXuzqVML86milQu/1oijwNXZu8KyW8O0Ti+bpzajQ7ozlvPI5mZzqBeFy8FUI7u7RgZzsr3dk96w7du62l4rxNnp49t3M2PnSORj3akLy8OiozvSKSqjzTMUG8GKPCuwzBj7wllLg9+R7LvUxRgz1yHD28NWSmu62FFb0E/Um8QGv9PcO/KTxHs7K74gU2vSipQbw8JH26oPlnPIIeDbq5JGG97inGOx3xPDyiLUm8UGb8PFMICj3+MdK7YVQ0O8FeorzPLxc9awsEvbhbSr2+cju9//ZkvJ6Xv7vWNBa9+ntUvKDpCbt+BDw7",
                "hz0NPcc9ujxdfv28cKIhPb6N/Tttocu8RoXhOxGPzjsrldE7X91xOh+JCzpAj1Q784bHu8UL7To8PrA7KWdFvEHS4TwrU0C8fi+HvFEtGbtBEWA8+sUHvLxmA7wTfgA903CoPPJKgToJyNE7/hakvMu2Y7zAmDO+BzkZPAnefjxZW+69AgmHPeX3Dj3ZVS29MdWWvSJ4Ub3U5D89NRjgPO/j3DiiWYi8DpZkPcVkxzuG8GY7KmoKPeaD1rw+eZC5Yi7kvTvAlTuA5648s3m+PBk1BT1Oism8lQtNPc5/iTyQsB09zxACvb67PDzTwgy8u3MvvbgJArwj/qe81or2PEOHFrxiu7u9fsV7vTO3KryuGD+8CLmxPElnszxGUew7hlRMPGTyxTtRxDi83h81vdEVhzyibiS8UFTZvFRYBLyi2gI8+vwVvUzijTzIpWy8kgGJO/TTnzwPBqI82eaUvKezarlWcmk5K9MtPADFF7u+BUo8iRxDukOh9LzOVIU8KMeAO8xtnrxIkau7I0fmOv6VJzxhF0u7kpWFOwQ7sDyYTxC+Y1DZveTkND2Yutq7ho+aPS3HKr3Rn629g79IPVQWCj1Ba0S9vybLPK2GDz54wsG80IQevEXDZT0g8Bq74OcHvEyUhL3v+509TokCvLLWCT0lSBM8Sc6bvNoVkrzfvD49nuF3PTKaWj1lBlM9xMCCPSUc2Dsgbsk82USbPEPC0by6ldy7DnGdvQt7Hj1Vqs48KtHSuvL9aDyQw8O8RFBtOdEg2L0JluI8W/gou4oCPLzGNMA7dlfMuzfaHrxV3RE80yiZvCF3UrxdTv46LUL3vEuHb7xLx0k8xQpVvHj1oTuJkVc7ObJRvDKfYbzh8Jo6J0xmuz4ScTu5cwo8pF1APG95yDvF8TK8pZgquscfdzrWIre8mIu4PMN/6TtThcQ8Iev2OnxKKjx9SZm8/tbiPS0ZHT4IbwU8jpLSvULUwTyQagE8r6NXPLcAHj3KzxY9miGDPLIBD7y04028",
                "8Fcbvek+5Lynqo+8RGW4uX7tkDvfwqG8Z6k4vJeEk723Rx29B5s/PLR0Kr0FEb+8NA/5u61DOztL5T88KiMNvf5xLD3VScW8SY3oPJfltDzBDGe9odt+vFrVJDzz5NM8JQVNvHXmdblzkEK9n7npO2uOXr326Z28aIWqu4VKBDzQU2y7rryhOu6EjDxTmhE8Sh2OvNEyvbzLxhG9dMkjPbY3D73kJ4284aCBu9F37TspJ9m8SaRDPGB7+zsQxqY52ZQlvO8cDbxRVCs9t2Wtu9+N8bzPX9G88PWavDOqHDx6azC81jpyvF1d0bxOUJA7By4HO67K8rvT/dS9cCNpPJbqjb0i7na80Xwbu0ZDjL2AL9K9YKAXvrBd9DsbIIq9m/4vPL9zTzxEsqS8+ebnvKAkjT0A3Jq9QmSAO1UpTzucRjg9VI4KvZ4fgbvHGw08Ph/qvCEPjLwIs788a2xvPRQeRTwgDyM86VZAO58cLz2B6dG9xV1gPEOIqz2Vj+S8awsKPHuBPT161Io9VPX6uliZHjyF2bQ8XYmCvKTCIrya95w9bCB2ub97I7y504K8qZ03PUSvS7uJoi48DnBMPHW2NLungRk9OOLDvJ77D7zATva8N0TWu/YZnzyiTh28XCfhuzAMATwpvHe8O0wfvHyezby/eHe7uqWDO01tVbpEzIK7CZndPLQ9CLyilxA92dLnPEsPx7xLLDS7Ga5WOvgLML0KiIm9FGYkvbAtqT1b4YK9lvm1vS5xrLrl5Eg8vftAO2bjg7sT6OW8h20UO+YSkr2I/i0+ZQhXPC4rrr2giFU9lFycu9E3i7zVnIm8oN3zvOppqDvMVfM8ZcZtPIK9kTyfBfm72Si3PIjAAryrRl68s5KUu7LrXjyOR8e9oOEJvUEGvT3fyjy8v+IovAhe5Ty++3u9HOPau0yoYr3gERG9QqTbuxHVQLzGFp482TmLOgzdszuItp280B6jPNV1Sjz3X488gTK2PFkT6jwv9Xe96Jd9O/PlBTyVpMU8",
                "TvWmO+fBtTyBUA497XUqvZccKju7ig69/oIzPD4DCDvKwj07BhZmPDhVKLj47RQ7sv2Iuzb82LsRboc7imgDu2FKqzvP4YM8MihXPPmfTzyxkhm+jptNPQAuOD1UkxQ+hLx/PvRbjT1EQFC93wixPRxSJL3OBbO8ntkePcGmkz6K0aI+kHhmPUSdtT1MV7U8RFGrvS5WojuHG4W7aTu6PZBTpz0q2Tk9a8U5PaxrJDuv/TS8FAysvZc3hbwfkIw6J8Hdu9hdFrt5/po7cZgvPbcbozzh4sG9TQFJvV7GAr0+iZM8AuroO19z8TuwYs47HK6Nu2v1jL3NRk69tjnXOzAvIz3Oj8s8fwtLPAHqIz2eNBA9nv5EO//cLD1wfSs9vsJvu9y1gzz4g4o7AkH8Oz3viryNVQa7I4Sou9TTCT03uYG8eptMvPJEirwpuDQ9+81Ku7fJwzsMnTo8h/c3PNpaIb1P0iA8zvSGvGsuDzzqlA660beRO+F7ObxUiGK/KEP6Pez7QL37UVa8M7YovkbFhL3Zw2I9X6nCOvQqF7yJbI+8GutSvQZSKj4FEo292xn/PArsN77wQx68Qb3dOhJHLzyC3B48WNVxvQeaNbxOFdq7D1dMO6sbqTzyIjm9yQcLPf2roDxv7rG8djrbvP9+bT27O5c9qo1evYTHkr0fPTC9SGwNPI5DwbzHsH+88X+nPBS4oTpiUVK8NoIKvBT8y7txnd+8dUIkO8Xwq7ytvQI9XlQNPQXOD7smSMc7RDgSvTJMFzr13Og7E66iOheu0zuatTq88fziOwnJsTzFGAo8E6CTPAMQrDpzGNG6iFGqvAzn1DokQcq7PqLBO/mvibtJagc8MlDvvCZDeTmw+JQ7Grewu30sGjya5Pi7x8NOujKDED0E9hU+RjlSvYusnT2fdlS9INkyvXI3AL0gNDm9JNIgvQMGobyuG+09JZ3iu/O5kDxkf0m9Gc9nPE8XBLy2r6U9qN3Cu5NotLw9jx07Sg5jvfJfQLyiKEE9",
                "JQMbPfQPEj4W5429fsQTPBprH7y63ec7xSAfvLPrQ7x49TU8hIn7PGwGdb0C1AQ9wBbZubhmnbtPjcs76PUBPI4q0zxoI447JDyZu9xWmLx1LDm8/ZldPCQw9TwgCx+81Yulu6OpXzzUi7O8nppdPE5mFju5+GG8WPmAu6gQOLsdEq48yNeJuVBeaDwucus7yu2tPDBUOzuP3KS8JUm4O4en3ruICEs8yyXaOkGRh7xFm1k8JBOIPAXToDujwy68HNKePAOZXLzo1BC8OQztuy+PG71BH/y9dfG6PIevG70R/8S8EptPPACxPL1Lu6k7SY7fPE8PvLt0D5m8KNIRPUeTFb3ZYN88QtYVPPnglD05am2880W2u1vG17oPvL894cUFPSUBeju0JJy8O2jDPPOUkj1I1x+9uQ+FPWsSk7din0w7XtCsPCDfmbuCaZe8aM4dO3nDlbwpy5o8He/wPJV0krx8Li295cbBvG2OUj1m1wA9pq/Ku3J5mbtBlaO80fvSO9wLvLybBcg8pMPkPMqaJLwD00m8NF34O/7caDyXJaS8tjY4Pf6t0bpj8JO7DERjOx9GlrwFaog8gzw8OpW/G7w7d5+8ttdAvMvQADznSRy9ly/ou0XC6jqt7Zm8ZgSePG+iazybaqI8NrhYPNMQBLyyb9c6X+qYO6TexDwd3KY82ezMvOWY6bxw8dm8GBoCPQzGqrurox8+qvanvtf4nT2pLXw9ccSNPE9yf72Csfi8XwHpu+CMGj3TIps8gHSAvbLZ/Dx1FsY77jBevMlT3zsz2du7MUCLvE8+ij3SJU89fkpWPFWYbrwYH5U7oMYNvdm8oj1FsUW8e7SLvNOzSTtp0V291ru7vNkyWLxFZ126tGouO357ozsiK928jD6suzVJVbty8a68OvZaO89oNrysn0a7eQgGPCzidrzuI028WRDYvCG2KTw/pIM7T287vOIhzrxDeQ+8CqeEu5F+SbtPwJk8//R/u5tb6ztbEQs6QqXYu2ydArw4Ecy7",
                "P3BZuxrcEjzXXIE8LjPxOW9ffLtBVS27ZxabuSY+drx3epE7+ML1ug1tbTsxnOW9lC6AvWuZzDxbk5w9CyELvY1od71PghQ98XmnPLhdhD1InZC8o4iUPUZT8TwlRkW9G76evaYFqz2n+Ls8CY1cPTmBOLzCLhU+1bb2PAFlvjyoo528/aMlPDQVSLx+SIE80df6vC7jtLzJwKk8h3bdPADDV7yuwWq8Aax+PGL93DtxYDI8GsZsvGNnaboQVx87zKC0vJpGOrwrN9W7Xm7ou94DALx5ch89mObau6/9hDzPZnq8kCgBOgP5pLszCUq88WFkvBVuCTwdYso7iGAoPTV+YjseH3a8Ud8uuzyGGjwRglo8FhiFvCOVRjy+XK88KMgvvLbJ/zrTM/08H6nmuzp0qbwZf0k72zVGu+oYrzuA2XC7t/PsvKUlTLysxs08O/2Nu5jFITqF73C9dT73PE3nr722JGa9enDLO6HNkL1hzhc9mTkzPfihrT0RdiC+whx/vYKhJLzYKts8opAuvXZWlT2xjZA9NSOoPDCa8LzMI4U63kt8PO8uBjvFyY+9q+B4uiKAEb3WfjM9LqHOOWMexTyi0Dm9hhoSPWMJgzyBnFW8UCDAvMsqgTr09Sc8nH1YvJB1zjxohjA8qZ22PJSpeD1L65G8RoyoPAMDg7ykrxa98R6tO9LJBjx/6A69Rs8APfhznrwi9nW8tMKoPGdVhbv316c89fP6PLluWjw47JS8hAw5vAn5ETy/C3w8QHUIPL4KaztZ9xO91HrEPIdt1bx8YSU8bJKlPMdsMjo7dcY7FQ2UO9jx6zpB6Za8XP6OvNAhHLoJmGK83lEXO2mIabwmFR2+9Lo6PeJHbT2JzY6935BqOiIN7ruPlDe84BUtPbiu9z09KcQ9XZRTPAcVk7ztBp+78chROgqCl7slNFe6Z23bPN4cvTyzhzK8kkyuvM5erDvU5DA8qiakvB/qRzyXlL48BO8CvMIY9bvCwp08/7xkvckIJ71jALo7",
                "r6F1vN2tPrwVXoc9CFvnvOVRxrziFrY8SQQOvdo/rLliD5e9HtIWvE3RtrwPOo68TVC7u8ItVz2fglk8FZy/vGwj9ryCv928kTWbvJMAIzzMT0k8ipa5PNTuaryszbq7azLauxDkPDyTXxc9nRodvDjZm7uB0mE7Wp+9PHp8Aj0pTAi7xUOhOzq7Dz03HTM9+++dPPeNv7rJcZQ6pSl5PBahJTyxBI47YOUnO5bT0jtaR+i9gvYSPHuTpTyAIEy9n0gzvKxIwbwLfCA9N8fwPNlIAby9LJI8VQSxvELusz1vWrS+72icvJWEkb3c6sO8kFq+PP+Ggzyw82Y7c1oNu3QBk7v8YVe84u5HuqZnOT1XPlO8el9avLT+KLxkrtW8D3yrO77LDj0J8om9rpbYvKBxt7sh0Co793Xaug45KzxLOo+7xzJPPCr4h7s134w7xvvBOZoQnDyze3u6V0BxOxhgsrzSbhS8f9lsvLJMjruCgCO8N1AfPJr8bjvK4uS8P2RsPGSeKryU1oi8gZe3us+JMzzZ2es8PLr8uyEzhrxP76w8zzOcPLc1mryguLC71kgCPN6uC7wAviE8rK96urI6tDo2tWI6i1HzuRB9qjvmCeu7pvQnvPdtQLqH6gy+7ChUPTgPRDyaGVi9HM6kPeLm9DrGun+9CMVivaO9mz2dF5a8KWI4vSL/UjrKSI68C882PFnxAj2iCqw7oPP+u7SXBD5ifKM92zBKvSLchTy09Ye97Qggu1iRzTw4KAs97w5vPZjcLrtJ5La8FjkhvZvhLb1kakm9BXxAvKVK7DvmS9g8x865u0zavjuulWE7URE7OzbCHbzl9VY9qWo1vVZNgLybOWI88u4HvKUe+Ls7f/K6RwMvvPQa5jt9JXw7OPvEPPFWNzwKUle8BSWgO+2VELzYdG48PuJsvFa47rsmp7e8QK9DPDj9VTxJ1fq87oACvEjucro01ws8fTkGOvhigjtq5qo7w8IxvCM7H7yMjLM70RZZO0AhMryTq467",
                "rnc+u20riTuFYOm98FOJPcsu8b3KhIs8kFGku29cqr33Sqq8LKTKvCSNTzvTXA68Qa/kvNMhZDyJzQE9WAEGPDQf6rzeyIg8TPUMO4uIpDvlAsa8G+yOvSHtQ7w54Le8qlojvVJs2jzNcc28PEgHPXiE4TqCqYs6mt0eOnTyEboADoE9Q7JYPMO4mr2g3RE8TR7lO5OGOT3XGkG97jiTvSBFND2C7R097T4qvHXCErwXUC07Wi0jO7pgu7zfoIs8J8R8vQt35DsZ+wk86eYEPWU6NLzyYE08YhaxPFbV9LtTbtE55Ou8OR68MjnkbfU7oZwxvEKRiruR75Q8bLizvP1UHj2BZ/S868BzO7RERDuQOMi8Sz0UPX9BHjsmmP+7Y5vNvBpYoTzfDxY8qUl5O6uZDTxQIr08N2YsPIQN2DvSvDg+/lMjPsdMv70DwC07uZcQt4AiDDsVD1a7+4IUPc33ZrplClu8cKyfvHvPAj44db27R4Tju/Ws9jo46ru83ZmVvVLGLzzc4rc5qZuVvM4PD7zz7lw8BWcgvUYLmToOQt064d0Xu6JkYbzMAqE8y70XvOJtRbotcAU7fYEjO8tPzrrpk4Y9jwipvWINB7urpok8ZWhuOdOmKDvoZv87Zc+/OqySnLuulTm7eBMDvDthEbtQFBw8lfo+vH+5ijvmemW729DgvDqQWbt9biu8of30uHbPoTpSseS7o5n/O8tMnruAcH87RjX1OjaUw7psvIK9gYrJuRqvgbvlrhq7J3LgvAZ6oLkd9PK7v+Y4PbEpn7svrMo6DhAhu3uivDxmOUA+WtmAO2pTJruXAwS+rXOaPPu9UL7LlDQ5yyoBvGznP7qs0yq8cR3MPbHcnLkBd0G8siiCPWfYcbzwbI27/fjqujFkGLswtRW+UxiRvSKZDDy9zLE7C69nPGjbUbuEwB47wXWovXxNALxWc/i5Ou47PIjcs7siMOE7yIfrvGWVOzwmO0Y7SfJDu01UN7zgvJE8i8xDvYqjYLs28de7",
                "6hTLOx/w2bvX6Oi5I/aluRxidLupMRU88XMdPV3MQzp563q7Rg+FvdRFnLoaiKs6zIsavP+bELxrb4O79x0uuyPejbxXDDQ8FuYivBEwXLmz38s7dlVFu0NqorrCWqI85dVruhGzTLuq+Xi7PXUyvTpdGbtIQBc5kXNzvfnHxToXx0o7KrK6Ol0czTs0arC9ZebIvaye3L0aw7K9B1AGvj88v7s8fnQ73aixPFl3Fj2Lkwo9bsoXu8WFEr4PEhS+/RKkvIfhKL6N+rC8o7kUPaKoFzylfw29yQqjvaQ7Bb0xVoC8ZGejPK5Amzw/nmY8Rg3PPJNxCLz2YFq8MEaCOgGf3L1KiQY9CwNLvSPdEr0TDNg9yk3wOQiHMjx0dCI6BmYIPSS2KrxZGCY9K1vgOyY03DwAmNi6fgPJOv6ADj0swB48hW+wuy8oiTvNx588Ij2TO3CRpDxMCsE8IGm4O1ubBLxEItO72ycBu7DtnjsPyU29N46MO2I/iLwSrGc8e12DPB08NjsvT2C8IICiu7lGx7unNJK6Xdh3Ofr3mrsiDo07X7TTvDgma7yyHjk85fprO9F7fTyPJmO9azR2vSwXAj6EeZa9HfJDvm9is70Tgtu8KoYfvdVlUDzOkJe8aaRgvVyXmr0oqIQ+niGJPdLne74xHAG8ZwIpPJyVqzvZ5G28X1wkvRFbdjmj28k80EdHPMPoV7xDRcc8mBiCvJS2ZTuZcBA9UJ4lvEyRHTywidS9AIpmvUkkrD2I0F68X9kmvMrGs7yy3HU8ctOIvDhK2bxDf4e8RSMNvPOpETySAkW8c9WgO5ry5DvnOqG8U4scvbxSGLwqACc7uv04vI9A5brIfQu7iLGeOgS2DrzJHnU8+MT3u9ZHoTy0FTY7Aq1EvO9kHLtnz1y8qDOvPN9WpbzqhCS8rqbMOqPtMTwqVAG7R+SXu1OlwrppJYG8MdFOunZDuTrKkoc7CCiIO2BrPjy+rZy9hNJPPQLQcbt+Ecq6qjMKPT5p+rzdR8E8",
                "fhZDPWNd3L34O4m8xuPtPBHpgb16hGw7u/yku6mPXD199c88FcKOPIK/zr2CHrw96qhbO9W9sLwJr7c7pWyQPHpArLwq6uC8o09aPTI6Jj15Kie9fXyKvUkP07sYxoQ7ZZbLPP44kjx+zru8EC6xPJbMobt5vwS7qclEvPkMGL3CwCY8Zjf0PJPzaj1HATG7DajDvDk8nTzSPHe7zTXHPPoQ/Tw6+Ai8sFw0O9DAqjw15QE9R8mZvBmLT7zTuUy8w50SvXxdArwZ4JW8iG4LO/1jCTxpBm08D4q/OqfVt7vwcA89xrWCu0y5KbzExiG7gbmRvOa4brxOPx+7jYdIOwmtiLz4f1i6mK+ivPBYpjVxTxC9s8yCvG6YxT3zOsm9IaNFPZCDFb3Dhzu++9ElPFyvFz0dOVe9WS1Zu12SIzwnA6+99nIAvazVBz3qPza7uKGEPFk8DTvo/7y8YIqSvO2SqzwZoSo8vBG7ugRgc7xtTY29S4uOu5GqtzsapCM916qdvJkFO70r5LW8JamSvOYLEz37DQa8Auubu+TBKD2gHZy7CU1VPOkiZT0Z9ng8qHVFOwJSTzxgYVI9gCF4u7ZKmjtGpP+7FlJLPMEWqDc9G6c80QqWvGHxIjy/C4o8WgcQO+qYh7vVOWW8TB5iPGYnTzxmFYw8PZGqPW18NbzNdKW8qzKkOxvbjjrro+M54X6AvEYqdDtgIpA7Pkq6O25MgDuJFgU94CW+u1tBJrvaZJS8oWI6utxdDjlvOQm+0vGAPEerjr0KSx891RgGva8nmT1X3Yq97E2VvXxGMTt1YYY8i2CXPZOqGL0u9xs9IrYYvU9hnj36FlK9s81jPEW+GTzbzIE7uh+DPTZvEruJHYm8/ifiO0MvkLyX84+7mw+BPXF1XzunbI28sWDouwexNzzq84Q8RtuLPDcEZrueDS68GLBguoKVhbopHLo83cwBPOA63bxOfAW92OsRvcqPbLya2rI6dP01uysUQL3iD2w81qCMuUElhbzrFqs7",
                "QuAIvRRZhjwcnOe82AqiPAMPxTom9y09E3YCPLT8YbuuPoU5BnGZPI9957ubM0y8XGZYvNihGj18Q089JbHHu7i8qzthkLE6lAV+vIShuLvF5rw8RDWaPNIoWztF27i8776ku4h7o7vXwok9XZZruylaKbetDSa+cUd/voPfqj2kl1G7H574OvhYdrzK3GG7nUGcvS7Gvzuye++7CmgFPtNX872Y0QY7qJ+MO23+jzomax283DMwPi7UA7tYBWE7bqVlvMahIbuaRZi7irAevituU7zXOOo60cMGPBHuVjmcbKq4JH/DOnThULs2gYu7HRJROc8Lb7v+GoK9wOKFO2EmZzudcFu7ZoSkuz6Z1jshOgK84mZtO8t4/ruXLjM7CZ2dPPunBLwD0xk7+lszvaKc7rsFIBG7IpYWPXThPjtdh5A6HXyuOdMUWL0iIfI7m1VZvC8SzTtd4WO6D3uBOhr1lrv89jg9CJvbu/pP+zvY56O7AEaBvdtGnLtjzBQ5D8/bvD2OwrkdPzW6Gw0HO7f4ETwPNMO9JOMZPkePhb3Eunw9XRJzvRcx37wUseW8lZakuunTsLxJC9g7h5EaPUcrLb6t5GM9xjsRu1S+wz07flG8/OdNvCOp2DuobR496G+1O43dOr1Zhcg8u3FFvL3VOjzkHIm9uAHNu9SyBTwE6Dw9knhaPeezUD0wIRM9ftk3PbcyW7ypwq+8eJP5PCvGpLyD5u+7iHVvO/yR2z0uX+28X82WOvv2fTs3s1s8tOkFvItbrzy9A6C8qX9fvJjKFb34lTK7RDsTPeuxgr3E+Bs8PmuUPDemtDyJX0e82swBvIL2fTyrawA98Mp0PVdWBzyMIw88JI8sPO8jfzt1WH68GLuTOqgQ/TusMYM68r6wu1rYC7oZ/w88KnG0vJPR9Dqh4kE8I9W+Oqv317oOa3+9dmbSOpOJcTuDLW685gEkvnA3Zb0oBnU7pw/wu/rOyzvisJs7pq6svYrvFzg59ZC7b8MDPWbjBT77mne8",
                "7tVUu3QxezuYnqG9vYS6PFCNizvsh5Y7Tm2CPa4yGzx78mY8ZyHhvV0Egbxtv+O7M5HquRz2BrzxlFK5oPHhvXtnHjx1pms83qZPO3bfhTuHC508ilvsPRCJDDnVH/W6lMIdOt1riTuFFaU6J9kCvBBYKTpYBPw5mgAGPYKb0LtTGZo744cZPRvKzzq4QgE80CHNPeI6zzpPVgq8ARy8O6MW9jyk9Im7SGk5PLqADzt/FkO7/xr+O6TeSzpmgYo9+OCyO+mYLjuI7/O6nGBHPKQUgbvCtwa76G2FvOsNvTvz20W7Mo4fu9DuP73KXC++iJDyvTxnKr5tGku+dsc2vWXQqLxUuee7lS81PK+6h719O4e9DMoWvZum+jx9tR49HxV6PcNYRTxYZ5M8zXQlvYTUTrvlk9K8ArBNvR+8qbvqasO6t2OLPPjX8zqLri86UJusvCcotjuPshS8TbsOPWjbhzyaXMy7hScHvdzewTuan0m8cE0RvRsu0ryfMva83yF7PL2+a7qMUFC9huV/vIZ5J73cdQa9JWXgux7OXDzGQjI86AyFvPj7S7tKa3+4LxjsO+T38LxCWAe9WhrbOtwOQzwSQOU648kFvK5YS7yToHc7/i8CuzW+t7xI7Xg8/EcmPDEjgjwYf9S86EKAO5aJzDs5sIU8I+EHO6LvWTvNkak7WZllvCOjnrs5D6g7SpWIu8P65jvrjlO8pgxkO6//lTzFRW6+MyU5PXkDu71v56s8lc+0PDhoCzwq0Bw8M5GXvQCdars9DZu7gTEvuy6vvz0j4PO7kZh1u1UCZzsy3029RPjOPOgACbx65UU8O24Lvb5Z1Ltii1C7rI7QPf9jnjvJR0K8aPoEO4gw0Lqq/RE8uZQhvZ6qirySLkc7hDSqO4LhRjzZA5O9muRqPGiZETuoDlY8b2PcOjNRkzvF6xI76xp8O4fxHDsLSv27wBaGvLEdHzwLGWy72LM8PMmmKzs70nw7YGnOvONKQjs8A4Y7o/sBuxfRZrswmZ48",
                "0HAhOjz31Du1l9m79ggIvOVEyboAYVg8WFNYO3ZGCLs6JAu84vWqvbpF27t+rsY7ntDmvMzMu7qAa1O7jX2MO0EAkz0AvHg95ap/vEIELz1Towk9H2HWu1E717xyjfM9FNDgPTJRAzzyAty8VWB9vI3pPDzA2NK8+Q9RPBumbTzxi7Y77wwAPNlFPrplUTg8+j33PB7o4jtraX+6gNtAvJU9+L2uu4Y9k7S2uzvAljsmpVu9PqDBO2h2wboazsg9pEqAPBWGB73Th2w7h49yuypftzxfCJk85I4KPXSlqrtVmaa89mMuvI4t4Lrb0ZW8/FBhODZOB7sOH549sIz4uxkKkTuLWw49yU/cPGwb+TrCOR+8tDRsPBk/Ljv5ZRQ9GuD8unU6dztQCf+7puKPPKFrgLttowa9TBdkPL5o07ww69u8Jw1Bu7a/NDyqDRC9x9NpvLD/zDvAtlI87+eOPMvuWrsw5fi7MW+SOxPutLsMP8q8cOtHPeSibb3ISte8MXb4PJlcnbxxihk8JLE8O5uwJTzOVoW8g78HvaJMgz25Tam8ss0UPDkI5DvdD+W850T2PIfCrjwZO7u8IqUwvd5g37zsY448IRfVO+Lt3bvAaEC77EwIPNbwDT0dUH087hkpvGFTPLzyOhG8PqK6O5A3EbzMGIe8CVlpPb7O77x08I2847duuwRvNjzxiIm8Az+KvQec5DzoS1S8TB4+vLZHXr3rrMA8CHXlvPcfNLygGwU87pVPu1PqxTyE6ri8IbvNuu747jzZpZe8ywZxvCdpDr11xKS8LMtXPP/0RDwFkPq7hToLu6BJwrwbfra8wry0O3qL/buoU5O6+34LO+cz67ndjVA8oIaKO5v2aryHqJi52w42PY9FpTpZpnG98rQvvrwGVDsMH5q90ZCrvBz3871LCWe9j8VEPWEvVb3XVx49YqEFvfFjETydcvI5cecUvfvyRT2G+X+9NN3BvV8FHTztbGM8bkkMPGOdjbzwHjY8wLlXPSxHUTqHPb48",
                "LJ79O15T+zpoa1s7OMCtu8NemLysGBc7xEXsvFzMAT3hIzY9QXinvFkG0zxOKqK8ExOZu5Aeo703BMM8ekCjPFPIcb1wzBE9LiP+uyTLQ70V8RA9IlhQPH6AIb3T7ze7miu1Pe63sjwLzNm6FAinPRTBvrxB+qo8G6lGurU/DD3oAOc8qOSeOzcxlz3oB249pGWFve9B6Duwuag6uZVSO1PY+zx8UBm7FiSmPMloMj2SxIo8gzBCPLPMCzt0ork8wWwAvJR3Mr1XfcK+3iMTvQXZvT0PhSC9Wt2xvIUcb72Gvse8dDJPvFhYJbzD9Fw9dKRtva0bSL0YvRg+sQ1IPQKpe7yazpa8mjWqPJpCgbvHWdm83+FVOzua5bsSdgq9lYGDPBwIXj277q+8TaW9OwM4GbwS0ZE9FSSRu4AjlDyXFhK9ZhreO94XNT28fFO7WdMUu/zMyTtX1Yq8ABoBvWGnaj0KN/M8heA/PFRntLzB1NK6aP6KuzA+oLt7DhC9mi2CPBrljzqU9CY96ZmIvOPfD703oNM9d+xYOkIkArwZ22Y7/wuRu0Uj5LsxPfK6kOsXu26MeLtGR048CJUCuy/axLwbTdS86CSMuqXZZ7xz2Ag7uskPvCGKRTs4fF08p3/yO+nyKjxos7M7egd4vNd+qzwLnhW9uSoAuwSaf7sBS8U+qD0LvkoWPz5hBPU6VnFVuwipvDvs9Ri7PvSwu28M7bvI8gk8l/KqvgZzjj23sZM5lmlRO9STCzr3gJu9OL+DPiaOKjpB4WC7OdIzvuH2lbvtAg+61ztDPn1FTjwdWGQ5vmZzu+iA2TpkenG6jy0NPN+nDjt87h87ur6nOS7mezur0I49m1PKO8zfBDvVMRG7/PueOsayxzqs80E7Iv6Guhi3/jqhCk+7LMXAPEWqK7tSsSS72O+TO7O5OjsGqkW7OavIvIkMx7nlmQw7NaPLuPIOuDzckn67yomzO3XcFzvXmvc7NrVLOgCadbqg7UO8CMmht9wuSruQsV67",
                "NBiKPOgLprruAjG7yBWIuzV0pLuvVys7ZvNduX2PHTyzULk+Y+2sOyClCL1did89fOCKvV/xt7wYjvk8W3kYOxfSRLvaoGq7OCKOPWyV57us9c88FzS9vRIOMD7tFzQ6nkGeu/9aCTumcBq9eiDTOp6RBruK6Mo67xYTvjw4mTyZ74O71fMRPopoFTwzvDO8et+iOx38Bbw9I926o2wxveZ0XrvCtsK6lzgyPJBk3bwMmAI9u4pJvfwFfbn4Gu27lpNTO4dIMTtKzWe8IrpUOK2BIDyCXYg5eDR1PLmTebtA4tG69oNkvcGpIboQVSA7cCOZva6SorpXG4q87LdZu8URsruyVDK7qERTPD8xHjszI6s7VhVAPKmTHLtw8Bk9v94PvP9Iv7urdmA8ZCG/OAOp2bqezzg8G0gMPTxsP7xsgmC7qH4xu0RvDjyyurM+fLkhvc+UuT2dUIC9hm96vMD0o736TW29t5CvvY78nrw0Xeo8wCkEvfHNpzv33E89sLsAPOvkjbyNKKG96LIzPeLqjrzslXA8DjRVvUbmITyDi3i8LUWwvBnQlbyMSeY7Py+nvCyEvbs9z4K8UOIHPP5nTzyzoxI9cBLSOjN1yrxapY474fvUOsUqXzxkg7e8T+HdOqJr57tKRFQ8iKVsva3xhbuz63s9u4GFPAk4prvu04A889zau3emFDuDMWy8wyolPMxGrjwpG9A8KkxtOlojHjyc0J48BVCrvOrdCDzY/Cy8Fk3KPAyuF7zGVwa9Js2lOyuK/rxCpFa9Z/javFT9TzzbBe28g5a1POvqhbvBYI+5XvQ3O1ZquzuxnG+8BJ2rvP1kK7wXiCi+E7bxPWarHT4AJBm+3VajvGtHAb77oS89ijaevWtdvT3WyKU9xTsRO6Tv9bqJSJ68yG19vBuiMz3Qp+C8VQ33PYC0gjs9OcY7lkhwvSLPjD0nU8Y8WCaFPQaj/TykaBE9J4egPQI3xTq3oxY9k4RQvQHBHb3kmq089tS9vH0HlLq8Y7S8",
                "fwJTPbxTHD14ghG9sa16vJc7eTyfCWS9twyiu6Mqjz1AC0I9igtRvNycJD3xt/I8ATy+vN2dHz3Mgw89wXmEPTffxbxvCM68XjaePZGcHz3vcBM9PBmuO7EVuDydjh69H1vPu8yclL2CKgU9lDAZPXQgID0+hpS75vAju3i5iLyTo2y8ckzjPPnxr7ya7Wy7oTonuxhiJzxEzcG60jNoug2/C725s+C+HWO6vPRcmjocfM48NGePvXdYgb0zXlu7QIgYvG3PUz2nMgY9sAG+PKFbWj1uwy49Wlc7PRImbjxEj+C8pae8PW6lBjwnqxM9AxjgvWmHwjs81ZQ8iSwpPavW8jz44Zc8fL+APJYmSzhF4TI7pzEivcRiVLxaH506JVrdvD2ambz+TEg9JIiqvOHpwLo9joQ8rJKTPJmds7ws7LU9IVqkPKz+BT3X11o8ioIAu4O8XzyeB6A8zPfWvNmRJDzfxo48IHFovD9nST2Blmc9lU0qPd5HJLwzB5+8B0XIu/TssTsxlTK9QDQfvMHpWbvTORw8ccgNu0wFhzv4kt68XaNyO489B7yKHJO8Y26Yuwg67ryPCno8izQJujIT9TonMws7wlKcuyoSGLxRWVw9jMK1Ojf8hzuigem9iAqSPD1M57zJt1++96u0PVa6eb6MgLw8XZh0Ooebl7yVrO+6+8rwvOxjfj1Fjtg8ffOZPE5TpDt0Cps8Yv8GOnEIDL2IBSK8gB/JvJeoory9zoW9l3b3PBJz7Ln1tkM9u6eGPIX2ozxAjxY8tk9ovCRGQrwb6OO8NEvtPBx/h7zCnYI7RfKMOnLclL1PwAM9m3CcO8Jl5jw/7Yq8adUou+sznb2JKu47S0wJPLxkfjsOi+g64dKxu1QVJzq76Rs8bz8MPHGkybz8m8s7t/m4OxsGi7w1eba8Fc3Huj1ZBTyRsqE7tu0POtfmLjq8nQE8Glvau30rAb0zZqQ7rLQOPIvGvrxccSO8f8Eou86Lh7hQ8a87uhEWOs+O5jntYCe+",
                "CxI7PaC8PT2LyYm9o4k+PZIBk7yJITU9FH9tPIX1PrunR8i7qTfvu0Z1JTxuLB68zpMYPGHQhTojOz69wuXevYW69LyfNyk9Qo9Mt+hWjDx5sJu8ZsBgvM8167yMm4w8xthXPK1a0Tt5KM08CtzvPHFPNr3wmmK9hXLfu+f2YD0TxRA9EGFXPL51y7wNVnI8OoMKvV4OD70PjvA8vUZvPGbKAz3h0K+8LupiPPh54byX3m48KySBPfHXNbxczNq6nKkVvVg3NbwtrUu81xBbPAaluTsndQG6LIjYO3jjcDxFLEy7V+myPE8QFj0tZh27WDk2PTrl6DvY+Gm8T8VpPI1DuDyk5ZK7pT9svNi0fjuffq08FQYGvXkoh7w9a7w8YjNNPJg73zwM8Fq+to8KvcI/6b2c/ME8Sr30vbTINr5ImDk8sBtSPVgMEbv09168A3DtvdmEDL0Ht0q+u61JPanQW77Q+4i8uujru+RNPDc9AnS84zZyvUZ6kDv3miS7W9Q/PEng0TxJIwY8AxpQu2CQELi8nAa9tLIbPHOZR71MIdA8rqRxvM5fCr3iCzc9KcSeu8FJD7wr5bo7DtGVve1ChbxDrOW7tlKpO3G4sLu2R/I7lgw/u9ES/zvYWdk7ScTRvNmMTbtBHTi8qYIwvRp2Erwd9g+9x6loPC5lB7y8co+7QxW5OuS0jjwgZcs6WLWPvLHhCDz2nVW7zGuKO/SbuTwVaqK8oJRnORI2+roqKRU87cbkO2dR4TspAwi7W+SuPJHlGrwVk6G5/EkKu7ev3TwEyg0+aU1qPbIaYLwi5Ie9TThYvfWo9rlf3Vk+p7xvOos8Nj6DQC+94x25O40K0bvXOoQ8en+3O1SGBD0laT09LO2PPejcvzvECSW9lqFxvev6Fz18cQi9p5DjvJiPBzvoleo7GjHwPBdkqruywCu8hEuzPDWdybwmNJu8uVYCu7qc3DzYWrE7j7EZPZsOCb3eLdG8ABJQvJaCSb3xICw8nSllPDSdAT29NxO8",
                "WtbxOnf8E71gNje6q3cgu9g4yzzfzZe8SVZCvN1JSzypBsq8kVyQvBqjnjsFfsG7y2ynPF53CTng12C8JLssvVTKxzoc17s7iKQDu4H5Wjs/mkO8JyYdO/20kboUVL47cA6WPJO1OjyGnia6N+aLPDq9SzwnC7W8Mxc1PO97wzxfCFK+Beduvqnlsjz9bFM9Yl2HvFoeuT22too9WdVkvGD1w72pev88C2iVvNfzjT5IsFy9OgKAPcwvC76Kx+C8no/xvJZKmbsEvp+9G1uoPQm3zDwLD2W8EIrYvOjgnLvKN3M983Z7vbfav7uxjGy9LcygvQtTOj0piRQ9I58RvWp/zbwg4+m840qPPIZ2ErzTTFq8f0Sgu30pwLyx8is8g2VJOzOYgTz4Pxy8PyqMO0eAYr1YQO88O2JQvbW6ADxEBok6FZKtvPR1Pz0dF0K8MOmeOih7LLxzv9I7xg/luj8VBb2vWKM77c/FO25nwDo9qYA71bdevJIulDtzbKA6O2coOohxOTw6tI+7XyHrvDf4xzxgLaE8XMezvIutTjgBQte7ORIWO6Ec9Dw6YBK+qNKwPO1vSL3FVPO8Fje2PVYKAj0QdHy+VyFOvsEDb7xeUYI8A1nGPDil+DwBEni9+AtSvf3fjTtAXXg9sRMsvApNlDwJZCC9MEpSPCwgjrvPL2I80q2EvPGdXT0CdfW8tk/lPFbMV7tRqQk6AwzPPMjjMzxUZaC9DfPBvNvcKD1gkgQ8qteUPGNl6bv0DsS84cDRvAmCoTyGvAM8oBsmu3OUjzuc79K6eg88O5kweLz2Jcm8dL1NvGHgAjxOO8i7WDvSvNFYirwe5/Q7aiC2u29FeTvTtlG7xe+qOw3ltrzZciM8eSmbvIdZ2Tu3oXW4OyCku0Z/IDxGeyc8bKHPuzmzo7sYBXw85uqeuy4xYDuXdYm74dmSvKXwCzx4wyU8nD4uOzzEDTuswjY9hVW9PaJeOz266B69uKb0u2lh/jyi2jw9we/YvePztz1zMkC8",
                "D5SevGo0LTqMLYC6EfBEvDdKlDyQNUA9YBkwPRARaTwBuQe9P+gJu/gojrxLbVo9PTZGvFtrU7zCC1m9sefCvAOQgTy3XAS9If82PY1Np7oG8zI7WQ3WOzI6njorLAG8BZZfPWYvyToJO7Q8DDqbO5BnuzzTybG9g6Kvunw6yzqhcjC9XTb9vA3mhzsWPNU8P/7FPCp8Y7whbby6pYoWPcpv0ju0LdC87EQ2vIuuOT2ywv08Gg8DPdZFubzPaK+8BnVpvBeTW7uCMbe7GGtHPIOZ4jzWsow86Pi7PGsGE71fpaK8QcckPDTeKbzHpI+7rcswuYAyvrtsrCA8nCBWPGazabxXgxm+skExvPl9EzvERrw8JzwUviMGsz1WDii6rRlrO5RDc7zSqJm6842GPWf98LqjNma8cNMgvXglKb4TOp65L0tEu9w/BLv6kMG9tMT3vB3NCTzdCOA7hb++POa+3Tm//Vq71jGQvd8OILsI+Fe8Q64lvICdB7wqd7e6S8rPvD+XWbxGP2Q6T8R+PNiQSjwTAgK+pjQCvgMTV7wHsJo8dtOEO9uYZjybtEk79p6guigHG7rn9jA72OyKOx50QrrOs8e7NwigvIQ0SDtdpgq8sGcVvF5c1jmMPQu8UYOTuxPSJbzlnca7aE5gPPpMZjrx9D868nM2OuwEfrqlJkS9P0Xduo4YOLuGXSE7E0rivBKnPLysoJ+7SbKXux0hh7lwXD67BIteu/RUUz0ewoK9obzhPP+y+zrSdBI8d9OGvVcgtTy/vkG9/LztO0EXjbwTIrg7wTHQvLhz/D7/7d+9GtIsPCsCub0eBoC72POAvO/C4rpGzCc8FsxjvMNZRD1Yece8P5A/PFy1L7xsuNc9zFyIvCcberu9NWq98++YvQAB1j2rmJs9PHicvNNHZ72hvGW92GpcvFtljDwIcVk8CptYvPQXS7wI9bY7jQGGOnP5ibyxGk8860eBOJfC07w2oDw88vYyvEFN4jzKPqa7yG3cuwsaTz0G/Ym8",
                "pKMpvGFnbTsyLbu620DPuzuWwLtH+Bs7wHfwO/ugDz2tOsw8xtwPvdWoYLqHLnQ70nUwuwQ7orlf7ck778BwOvZqvjvhZao6Pvd5O6eEPbsETaI8BBe4ukkP/znYw9i7HFXmvfh8jT7Ljzc9bL+UvUe2l73hZFI9IX1bPVMderza06Y9jGetPLCCzzkyMEG82N/8vKy6I7zybk88rtHMO6mxtLsxm7Q8Cxw1vbr4BLywZfm6UrJUvHaGVL0HqXk8M1irPOLeBLum3aW5MffKOqdoqLsl1Ou7xZWPvHmALT1w/Ce8qaQnPHLrDjwInyu8MoQ+uyrw1Tw13Ns8490Ju2ySWTutpss7guVlOvBpALzQYjC8j3hTPF9kWbzQ7Mw85kwPvNuWNLzUtg89DPb4u4OLabrh0IQ7i5QdO8DOhDx1KlI8PT4EvHR3sTsPHqy8TmaBPGnvAL1Vf1m8LxbjO8EPJTy9tJS8JYyNPFotVTpoYp66Ar2PO1jRlTzQEo887tgJOiOSjzsglGA+ieBPO+Se6j2BuJy9+T1FO45547sSAoK9GrqevfwtJDtAZ4U995v/vGiz7LxLK5O96cTaOnX2iTwBeLG9PHuHPIVVOb0EOJ+9F9mQvGSkcbwir6W9A49OPNgq2Lu5XUs8vIOxPBhzUzthloM9jJ0fvFkRjTtrPfY724uyO/9/27wWu+s84jjgPIdS+zze3vW7vjBiPETxbj3hAWE92h/8Ox1NSz0BXpc9aMgDu9kt4Dxvgri7ke/bvI/5JLyLJHY7G12lu5YH4rkr1ro7NRBdu+OlEzyN2488tMJsuyv4K7yDHmq7Uy6CuwSkcTu8jS+9BlXzO4SKhrxgV3W8AUHsPKl/xDySlru8qGF2vLSbj7p1Qj86LIiwO0W0jLtp+Mg7JV9+uyUyUTsn6i6+N8gfvIcpnL2kFoW9VCe+PLeMlTxvQky8MNUAPt19jzshI1O9O7rnOwZIO7tS+uw8VQKDPYIKmLx/34g8iOcEvEs7Gz2MUTu9",
                "UCOwvR0Jj7wwgMS8jdzfPPc2v71TV0a861+0PHQeLTypDhW9iR+YPGSGKbw7w0I8FXcCvfAmvDwecPC80dL7vGxWrLyg+UC98LiMvCAAzrxy03i9X36XO8mu6DvH8wA7WhjYvAbXWDpnIww9N0sxvf+XcLtnd++86Y1KvBq1RjuuPKI88AznvGdsozxYKGc4pL9zu7bmsruv+Wy7aYMPPHB4KryKhkM8LVyKO3CXB7xN7YM7/KctPPAcKbsudzW8ccgjO5lGwDwxzkK8BdrtO33xHzwQtgI8ulLvO44gL7xeOp69pyhaO8c3PDwUvV+/S9hYPjoZib3G1oM7fVj5uct08TrZlsi7lu1Fveo1ZTvDyPY6V7pPvT6Vwr1B57M5/vlWOq4/qbuT+i89By6APhMTgzvBz1C7ouLSPKn30jukwaA7ofE+vo4marzsdVM6sv+XuxU3oDu3dqq6PpaSPL21Y7tbD2W5TQ4dOq7eODtKRR88oicCPP/VzTs/h466R3IWOqwPlrf/+aQ7VhCROyWoBDxLiRU7MlskvZ9OxzotSig72xM/PFl81LqtqMQ7KVRaPWhr/TqHl9A6wznZOstCM7xVsIk6XzEyO5VvRrqOqRy5KIaQu53psbsr/hS89tl0Oqug/LqZTiO7mvO2vDjfnrmmD/O6ew+/u6/7NLsOonO75uD2OaVX2DtlKC08"
            ]
        },
        {
            "shape": [
                140,
                141
            ],
            "weights": [
                "pQEfvD/gSTsaebg7vrJHu5hSrLzehYI76q4Su8XUKrrVkNs8vqwMPHhcibxNfE67k+EJPQZTF7sLmWa8eaMyvC2vAz3M2mE8SeuhOzcrYbwmTqS8mz1sPbzfCjxEjgw9s8v/vHNsuryDo4M9eDYRO6c0uTxX6j+9Fy6rvPgaDrzmEgs9MbslvHGas7yGVqY8yqp/PHQXBr1fw7i8i+0rvVs61TzvUtQ831kLPJaujzz/LXy9qV/9vP01FDxfNSM9T8wfO5XoHrtjBDa86aEPvBEnar1Yp3o8dUkGPIsXobvZadw8NRbiu6SVBz5R/6E8c3BavL0h7LxlaSs8Vez5u0NOyDyIaUa9VIa1u5F8BD3jWTY7tcX4ul75LT2If3o8DCEdPUWySjyGycG7kPrRukMbX7wvMSO8Z59TOsO54ry5GIE9+22TvFTiFj1HZn89DXstPTQVGry2ALW8BpNVvGv0ibsTAiw7T+exN/uLsrywSRA91iKCuxBQvrzBOhi8zF/LPPryI70eVqE7rjzoujp8xTxJWFY8n4S4PVuooLw6Pf68bANZPdLASz031Oi8vaZbPYMMj7x4MzK8+0/YPM0BW7w0Fb47of0AvREJ3jwd7tO8kQiWvRt9eLx/AIc8vQ6VvDz0FD1HLCs6nca0PH2piDyFWOe8pNsmvM8wFb2AJCy8ErEFvbXuNL0YmI857bYcPZW/3jxDm624rIbvPHPbCT0x7vY7V9qGvCvXErtNNmy+c1aHvFt9mTzov7+8e529u/DyC72rby+9liH2PNY8vLy0Mzy9LEHlOmNhFTx/jyu9Hqa5OthE2btbnBM8viFnPF6Fzbz/yCW9uzQPPW6XKLykUDA9GB6QvIZe0jyKzjQ97lqLPFizlLv7dIk8w631vOMGHT3p/se6sF2+vPnbmLzVkHi6PutFO92H9Tx3MLQ8Zf8evMQuiT0dMEK89xl3PFYYkDySgw08Z73Mu+5dqjxxxyE7HijCPCPUnjxCEeM8kZ12urSNrDwKj8m8",
                "9+IUvMAoMLw+fDQ95chBPNmNzrw31P88qnPiPByE6DzAerc9rguGvDV0mj1By5s8WtL4PJwzKj1ef808wYaRvGVXAzqdKqW8kqtfvLpe97xTdHU8FahqOkjyN71YFiu9IpkDPfcGazq3Qus7e9doPYLFjjxjkq68xUSAPMHhI73an7i8ZMRNPOFyFL00+5Y7yp8LvfbPgbwfjQs9oQ7MPCWDJLyrTpA83UOLvFKzbrwv+Fm7rQ/APO1viLx7ozy9+b37u6J0vTyXaPe80pSiuxP4ETzBjxK8A8bYPMAynLsOJ0E8+jV4vNocJDzJtCa87LX4O1w71zyPhxC8be5lPDp4zbyrhY46kgvkuxRF0rvijmO8UsUnvE6irbz87Mm8drjPvDf08LtiHIm68jRlO1PzA72btnS9xNgivcU4krykTau8RZt1PJd8p7oxU8+8qpMlvYJ5qrqFooI8O4CHOlODXjw6fou9Fo0xPLU4Ob2g71S8wpCfvIkHortihQO9xryAPSn/Mr0D9DS9LdJmvL3Xerz3wRS8PhOiOYLyg7yIaG08xkr5vAbhlTztPIk8XlUXPRAEtTz7uG+7f6WCvMDM07sTcSc9DLQBve3RPLxU2oI8rOw+vFoiMTuLYes8txGAPLgr0ryVMxG8wzYNvd0uCj1/3im8iKMiPEHX2ryiEwe9yuGZPK49lDw4+Ca8W7A2PL4WGr0XJYE8mhxOPDA8WDy2xRO9vFVEvQMrhT15m8c9V1Q3vX9miLyxtLK8b/fHvL5wFbzwWxw8L4YNvWB637xLBlw8882qPP0L2Lvjide7cBCPvFsdFD3Z/Ia8+UCaPP/WKjyEQRC9+7KVPDH/zLxPUPy7lvh3vOql1TsqFym9gdkAvXM4hbtD3mE7c1sbPDP1lDymaSk8CB5auLfRMT2dwSy9iS2aO7+fgDtQowS9COJ6u+Biszrtq3u6z8fFO+hDLr2p0iC8fi5JPL73NTr802c8VX30PHVWvrlxztU8c+CavHNcLz0E1Ta9",
                "wnvCvGmT3btPUGO9K5NUPMVC7zzTTv48iXhtPReIJz115Cm9obwPvaEEwTyF1lg8fH4YPXhnCD1Xi229Ln3ovVWF1ryAaqS84cJ0vJFFBb2pPCO9JzGuPX+p17wIowC9oNd7PLY8FrwGCzu77Od/u1TUNL2MPde88gCdPJ21jryTGAY9ZFwtvCCrLz18+9S8JJk+PFk9Or08NQA9GQavvJAgdTsOley7aRMAPeBt8jsZLnM9jgLhvKTlbb1omb+8Zz8KO17dPL1aUYk73Qhou+hVvbzAlDs8pRGcvaz+R7yEsHg8oQXLO9+f6Lwtmy+8aNolvcWFDz2oLO48F2MAPcWD9TwSbiq9eWtrvNgtFb057z68Z/rYvMwHhrucwHg7i/dJPQgs17yqpbM6kQouPG/mOrwJQPI7tlK9vLZECTydFLW8gcvtOw4BjjzV3sY8ip4fvXsiqrxPd9c8mHsOPVFOvLx47S08GJfTPXfmc7vTPlk9yrO4urZo9bxugUM94+K6u2Duzbwlk748JtfIvBiQxDpJml48gVxgu1iLAL28CdW8i8gRPF3f3byW46A8XPQHPfXDmbzc/eY8yxdSvL/rZzwF4Sm7gDAMPbUKXT3xnZe8L2IaPW3ZqLymxyc8QD2YvBm3Cj35Bqa8AX2JvfUaT7tus3w8FcDyO67TdzzD5ZS8N/haO1bilz0SsZM8s/ouvbZmhr03uKo5EDZ4PB4RIjy/aYk8qwDyvLJ5zrziEn48ry0gveV1cjxYbQI9eOM8vQkHz7o/JLq81PG1OoEU2Tw4dHK8a0ZCvGOHnDz6wue8IQxlPcEzKT2Ou7E8uYbSvG0GIz2/vdm8eykBPTlPy7wOIIy7Lhntu4Lidb0Uo6C96g11PdKVHbwgKac8F7ydvCfbFj0Pp3y8MVCJvYh/ODxPa5s8YGShu5B66Tyn3OU8J3O5PP5z2LzXzi29iM4EPb2Tkz3vUhu8bqBzPJT0SDz++dm8XRI2vZbtob31Nha92986PPMhGj0dJqo8",
                "JrhAPYklNTw0j1C9dvETvbO1hTwzPby7XsXcPNFVxz0lKze9r+uHPZcRc7wD1E09MRZNvS0UTL1kwVc8ebXNvM+8Nb0A8YM7BtdLOlvomDqiU9M8s2RuvOTXHjzcGIY9hO/vPCbuYTsCaSU9BQf9PBOfuj29RcG7fznqPE48jLtSgcY8u8aVvL8gZTxhfPa84A0svUv+Y722sTU9+zk3PSW0IT2zNBy9zec8u8BW+Tz9y4y7p/z5O+64gj1b7Ym8xcBVO3Y24rpWlgk9t8hdPZWqo720kvO8Y+gCPRXWojxjBmW8UUrIPIp6Bj2P3bS8OkouvBrS87y/c4k87ZIxu1UQ8rweY2U9eZwrvbJEhLpemXo9E2TpvM7aDj2AdmQ8ZeBQPNCWNjxn1hM8iubePKyL8jkh/Nq8ywhfucItL71LTsW4VN8PuoMaqLw5X3U7JjI4vOXRLTx8yYU8deQSPU8qCj2scSu9mW/uvPrDgrxTCuu8ptqhPKz8a7yLNAg9clgcvG5murwCPYU8qlFuu3JtsDpdEpM9IB0jvCp6yD06usO9PtTePBxQ+LzKuje8RKcbPd3JWbyucUI9zyhgvX/R0bvF6sE7J8ktu0mdHj0cEMe7bxm3uwbMmjz37488HpnLvK8QTT0sJbc70lLBvG/NDj0mNpC8pYgaPBZzmb2UMra++OEUO3jgITxtwu+8mW0UvAYpWzwcz5Y8whyTPKWQQjy1Dg28rtO7PEb0V7qxRJK81favOumxXDy5T6W7kiqfvCd0gzsCkYa82dgkPdcXe7wv+Ko84n2EPfFjOjyu9Pe6HQ9xOzp0gj0MCQ280yVpvV5i27uDQeS8hkOLvG9U6zxCgcU8nmzCPJaSbTtD2Le8mnoeuxPz8rxllVw8t5+4vCdtGLySCw29BPTGPGmPe7sMMS28+4X/PAakADmI0+28bUDjPKykhTz7LmY8kjNlPB+cGLy67om7hIQSuaHcjbvOoLs8rfYEPY0CkDw1Eoy9FtUNPO6tob1BGpU6",
                "AiaFvBgdpbzn4Ag7iaxNvBlfPbwgP3i8CYCGu8XUCL21PWM8AYC+PAhTkTvqN4a8W/GEOoVD1LtmaEM7xYhnvRgOP7wQQVu8MIL3vC9PczwYDZe6K16BvJHNbDw7eG488RKJvAVrwTyvGEI7M+XUvFdWeTwkCpE8Kyn5vAMrkDw731m9PoeEu+pwiDzDBuO82WMyO/fxnbxUfOE8MvM5PPbia7wLL/K7Y78tvCcWnjuXkrg8FQrsPMeE9LwSEoW89GErPAriRDxs7308wMGaPEKnETymYDm9i3jgux8oFj0WmNU846PTO/5e7LrwU6m8ldHnu7nKNTyBvHI8oV+mvIwjRDxV0fq8+6wPPpvZ27wqmqw751YyPBR6rjxd7I07d9ZSvNn2oLybPzi8dlcFOhMK/TuvZO28bcapPGSo2LuWO9O8GEw8vbQ9IL3Yr6s8irEUvHTQ0ztclWI8fM7SvJiPkryDYPM7nHWFPQgC8jwWNKk9kzaQvEnpnbwrDkc8vEsTPUCoaL3jT+e7mAyHvTDOxTy19gs9qnemO2xGjrw0t4S7eVoXvgCwGDoXFvK9XPwevbbvQ71I4oo716w/vb8OmL1vljC89p3CPHb4BL3lk1M8WVAUPOhqwT3b3T499uzSvJ62Ob1y4+w8fHscPOaFyLyJMR89RX1bvAytrD1xYo89SCC+vBc3Xjz9ckg8Q0QkvORrqbvJYaM89byePXRCsrtodqe95TOfOheqnj35hym9wXPVPDZHILx9SIU95LsHOw36X7wHZuI8xBQYuqqdLjsyNSI9Ap1/uaoPETuRwE89/JTLvWxW/Tw5sDe8e6QZPQUy3TvKBD+9/4vJvOxnxTs0xS26xv2FPMhZ7Lz/LlW8r/17PBL9sL3EVXI8nwWLPAtBhz2xEEc9WuyYvIJLR7zIjIk+ynLjPMt/BrwyMQG8sNhCvQlFfjwq64i8Kg6SPMe2hr2cjO08vQK4ulh4jrxJXzM9tDtbvdIwnTxe/9484NrEPIwMlbwfyYk8",
                "M6ymO90yET1ceEw8UGALO++WiTwszou7v5n3PPi3q7uO8oa9fK23vJxToTwXy5K8jiiVvHMzojw0pia8LClLvYf90ryLPhE9Ym8qvRwyOb3ci4G8qzWNPQ/N3DxRsdi7Q+6GPJ1Z7jvl9UG/Le66D5B9ug8277qP3Ni6jwxFu48XrbqPcbO6j0cpu49zcbqPWZ+6jxaIuo8uwrqPXCu6j/V6uo+iMLuPnxW7jw5Ju4/4ULqPpTy6jz+auo/wHLuPsZu6jw9Hu4857rqPtUa6jw4Ku48V/7qPBIu6j0KHuo+E1rqPWzO7j9wFuw+ISroP4Tq7j8k8u48N17oPqQq7jzSmuo+KarqPujS7j36Cuo/SKbuPrAy7j4Nsuo+EO7uPxxO7jyixuo+d97qPYry6Dxopuo8LB7uPWz66j5u9uo/vHLuPS027j0XCuo+6NLqPHAS7j6zouo9NH7uPLVa6j36muo+QG7uPUz26j3Voug/neLqPOOu6jz9Pu49FVLqPKky7j9U+u4+pabqP+Su7j4qJuo+R4roPPCy7j5rYuo+PwLqPH/q6jx3/uo/kzbqP+iG6j487ug/m1rqPWl+6j3DEuo8NHLuP47O6j03Auo+t7bqPxsW6D/Abu4+zH7uPb7W6DyoYu4/oaLqP6zy7jyGUuo+upbqPbkO7jzwtuo/utLqP4EK7D0Y1u49w37oPVki6Dz+7uo91qrqPhgS7DzSIuo8e8rqPrJS6DyD5ug8h27qP1Ae7jyMwuo8sJ7qP02W6D7dCuo8DXLqP2je7jwVxuo+vO7uPxi+7j4Gbuo+Oa7qPZjO7jwvxuo81E7uPO5i6j+lguo9+CbuPEFy6DzXfuo9qnroP+P+6j+q3uo8HSLuPjzO6D+tWuo9x2RW+Y826j1enug+Gh7qPkxq7DzHGug/r1rqPPlG7D7ABu49cfLqPfm+6j54Kuw8qSrsPwx+7jx0Zu4/AybqPjZe6D2kzu49lIruPb/m6j1+yuo8xGLuPm2O6j8rYuo+5QrsP",
                "Ixu6D45Vuo9nFrsP+Sq6j7Mpuo+0QLqPE566j7dFu49cI7sPaOG6j5bnuo+vNLqP4Ua6j2gCuw9KULuPyoa6jw8puw8HSLqP2GO6DzTkuo/1qroPgG26DxZLuw93GruPMw27D17huo/JGruPeiO7D3gku4/pLboPbHS6DzScuo9DN7uP+Dm7jwddug+sKbqP0ue6DxxNug+S5LqPnRK7DyMPu4+wO7sPYGS6D3WYug+GproPhH26jzn0uo/j/LoP8ga7D4EEu4/i9rqPk0y7jzUOu49TUbqP//G6j3Qju49sV7qPAPW6D52kuo+tL7uPbxi7j5dIu4/sQLuPAoC6D8y+uo9oSbuPujW6D4XDuo8nx7qPzx27jxonu48rcLoPqXa6D5hBuo8nrroP1DG7D9e8uo/WA7uPcVu6j14xuo/nX7qP3mS6j13ouo++ybqPH2q6j1HWuo+x0boPyPm6Dwhsug8zUbqPRr66jwqSug/v6bqPcyu7D1NXuo9A7LqPBgC7j2uGuo9kZ7qPMlq6j8wjuo98mLqPvd26D4dtuo+8MLoPbmG6j0JNug8ORrsP1iy6jxVSuo+kL7qP9mu6D/7muo/4FruP94C6j56Fuo8VD7e+OU5PvKU0ML0a5x89smxoOx5gND14fVE8lxhSPHT8DDxOXRG7Y9nyurR+vTs4/pY86cUWvRrGJb3X4BA9bT4KuPdXKD0XtIg8qjK7PBFNBT1fZyI6bneLPJjE2Tz9eRC8UdqNuyDllbsEwPs7M18FPGB1m7z3FqS5Bj7BPOzHgD6ATEg9VIdrPGFD5zuRQzA9aUw6O7YcYzvVJ227G+eoO79r8Dtjy7089kRxO5oG9LzOp4487ZtgPNJdgTeHiic9TQMRvR0ZW71uSiI8zcHCOjQjHDtv1Kq7WfIHu90VyzxRDBy8m9gjvVb4QDwSYNk7mBK5vScIMb2i7pC76bMXvAXClDzdBb28bjaLPP+w3DrYt5i8IfxrPM2nIr1A4uY53JqrOz2NXL0yvpm8",
                "S3kcvYLtc7opeSU8U3kLvCRMkLyDZNM5sRSMu1zE2jl/nli7qDjtPAuT1rxP+Au7wssPPIvtIb3t5va85YBRuqULMLwoWPE7N2xfvU1lPL2V4XK8DfZ9PKp2jDykyNO8gf2yuoCuh7wetWm8X5OpPOhnozyb++S66RwzPP1MrLxi2aK8OYA1PQOwuTo/DfK7PzPzukEZJ7zkkNg8sLACPV4GTr04mFA7gYuSPLT1yLpA0oc8uT8WPQP/STt7FT28M3faPOR1XDky7eQ8wlkgPA06JTwXDWq85XHQvOs+5LqYVAu9Krnyuxdqvbxw7eA8pjSlPAloCT1f6Bo8vUbXu24Nx7sDsWq9noS9vO6Njbsu4xo8JZaIvKyrkzwt+d+7dAh6vHV+aLuaa8G8n8MWPEG7WTvGnJM8iguSO8pwjzooUea7U+tVPLvZ6ryszCK8vg8rPHCRkjocWac8o7coPYhdhjz6mQK9KWrPO2ScL7yW5mw9VYTROuQ9yrxSulO7IkoCO80Bkrwr5BO9slSNvC4+zDui4kc7ECN0PXCCqrzBgQm8AMgBPUZqkryTBFW8G9i3PCAD5rwn0vi8Lfp5PK8NxDx6/Gy6/6zXPFwA7LwN7Yi8tYSPPfY9lr3TysA8Q8W0O1pml7y7WRU8iNIpvPLghLzrU5s8q3GGux0NWLvXjgk9on0uPTr1bLxVCwq9Q57bPPreBz38SS040rC6OsFBkDt+zZc8TqotvN8EDTzCqhS9pDhTPHMx4L2/2eA7i3z/O+lUTTw3jzC8tmhXPqf81zzF30w8TzltvNunTTqusXO8IE+ju2W9a7urUPO7wMPkOFqoQz2Ku4U8jboxvRrv+by8/Zw8KCi4u+o5wrvUz+m718VCvfJ8xju0oL88gDcVPEWOhjsyAgC9VftRO2bV2buy/n48WOAMPHOlRTyYoRU7J8tpvVBDCjzVFvq7XIvwPNB2GL316E68+pESOyXCg7wQ3JK8MQxUvdLpurzWO6E6/WbGPBQgW7y23AI9",
                "u+GHPOgqnr0lJOY8tNKnu+h3dTy045E8iPfNvA+E+bwKCPy8JXnwvEzsvTw/P2M89nwnvXa9ULz3qgC9/McUPCjdu7ywaXI8/WBrvCe3w7xoVFA9/NcPPePHEzq2wgA9I42OvFboN7zzNac6ugI1vIDeyTuUP3q86fNDOyvHhTylZ9u8getQvYSx3ztbgR48q4KQvAp1bj12nem4Kr8KPWFg/btiHYi8SK3cugi4trySOI8757IkPFibfjzBlZS7Qsw5uzuR/joaH7W8Wp/SvMrhEL1isb28LlZoO7HUyrpX/X08klHmu8wWLb2gQj26mayFPR87rDzG6Bc71C/KvJwVGL3EAQU7ZEGovBoj9LrBlUc8ojWkPP5NxbupPEo80jkjvZDqFzzHWCA8rzMrvaPckz2Rnd67FfmkvNjMv7z2ArO8yZdWvXkkFb2kOhk97Kn8Ogw2tL0Gnhs9yu88PGkVq7znPJY8ezCMvcYdvrrG6QM8j+u7uw32vLxQKQ28mefDu5RW1btvlYw8ttIuPHdUz7zg8CU8vUbHPBEoqj0P2sI8umjUug+c5bs+xxK70fgdPas2f7yDhSi8DQy1vAyIPDzBDE48qLUDvImWz7vdiwc7ZgE1ug1O97tzNCE8Hg5YPe/9DD1bZja8MMEbPR2nETyJXuq7o/exO0xLnLyweHo70DdlPbgfnrs2nQ88RtLBu+m7Ib1VssI7Ijxdu3YkmzxMuks8drBAvFpWqrtEGjK7yBeRPeRt7LvvJxg8XlYhvYo5Qz3I7Oq8Dj5tPF+durwJSZG7uKUWu9oJkb2RWeQ8/BR5vIPEsDye3BU85fY4vC1MqDxlIjU8/NZePVv0Er2PcsC8Z/FNPDcFkztqb129j3wNva6C0TvnP8A8zSjAOXeB3ztmObA7BIOAvZg9VTxfCHS8MGsHPXvDij1Ib6G8sa8DPevhgjuWAJO8+ozrvOIYODpYBU68t5InugW//ryEVCW9z3MFPOPid7wl/S+93WqWvPu5wbrO7mi8",
                "YLeOvfDYc7yGi9e7xQbCvOCK0Dw9P6Y8qsxXO8m+XT2rZrW8v4GvOynHETz0yVY8OqHuux1JzLxNh1u9UOFrPLlIEDuHQQS9pie8OyDLjj0x6vO8PTrpu6MbXjzFOru85IbQu16oEL2bqNq6aN4JPYfQzrw0W7Q76ptMPV1szjsOo4y8rOluvaqLhz1V5yi9lpNTObdNyjwZNbM8uyFOPYjBMz01aE+9UAALPZh59Lz//O88rKLMvadYNrsuRSa9cRpAvAjsKjyZbo87lyi3u3UiWrsMapy8icu4PAFvlT3OSfK7nUeFvDLPOj26Lpw9hGeGvT7hDjzNJcE8VrbDPBH4EjyyQxM9/wgzvfZ5Hby7qDi9F2dAPHE16jxR89y8+uAVvN8dL70X57E7XmSKPC1EHz2uB027XLkJPeZ/iDyzXvs7af/0PNhDsbzxxke8Ds8eu0HPhrzY3xg8L/dMvNCxoj1/F8M69aCuOBIYibtzmT+86DYvvJ69jDwmahe9XbzFPNgvM7oL6vS8lefIPH0xKbyDOMs8SE22PKarQjzDPQy+PJz2OomXnbzk7qa8ugIsvSWos7tCti074YEzvEfjUr0PzEi8kLWgPEBckr1o9Fw8XMNxPG9fOj0QPjm90M3FOjsvDD3ZSfA8PaDiPFZCczyPyl090+b9PMDtTDy6eiq8W9q2vJbDnTx58SO96UbCPDxsAL0eFOg7mennPNH7UzzIXwM9wEr9ushmgLw9+Pq8S7ZKPOuOB7xbSTE9jHSmO6y6Hz2kV3w8RRDju0ldiLyRYyC7MfWGvflwErzJsGs8r+arvAhZe7wSc9a8Ya1WPK+jR7shObm8XE/FO4CHdjn9kRU8yAfcPG/uCT1dtzI8FJCFOxPUfDsDNUq9FoDYuylGWD0gEEy95gIDvayPfDozMvu8miLGvP9KmLt0TmQ8Xt3FPLoPtTx+i+68oMjwPBIM2rw+epw9ykIaPZH4fzxxJ+E7mol1vTo4Ur3+Xxq8jPfpvFMI57zL5SW9",
                "MN7LPO7ekjwE4YI8J3riO91KijwGLom7CplsPfbo2zzr9vs70lCAPX3ZCjzz/zY8K/6tvM/pB7wLjK27kBGMPMS6ST3ei4W8sW9tvJJmQrwLzgq8etYNPat9Iz3Qy548CTjNvP575DwGsAk8vYyNu6WIVbzO+po7clhkOgepEL0sY/K746qmvI+DETvujZ68eTmVPOFpvrwMnCW8UvJmPLIYOT155KY8QbYIvL7m37v4J5i88sQHu4b3F7wxKKC8WPTSOwZRsrz73Uu8FO//O6aM1T16G+y9+xLfOzWQmrzPmPw8RW3FvEsQHbtZani6QjCSO0gQoTtjSX49Y5SJPYAgEDxQIN68OhOmPCkzkzw/iMq99TUPPHb1CD2CQWE8woETPTHkDrtCM4Y8gJ4SPbDYJjzTUVU8aLg0PTfpgj1BPem8V/lEPNjpg7ysfEu8dYOIuZZNBT2IvdK7DseWO4Hq9bwaouM8CYpLPDZTmLwCfhE9NorRPDBVlj0m2zY8ajkcPcnQi7ysFSe7W3rUPC8HI70StIY8NrOWPAQ7Hjzz7oC8UrPgvBPtBDzsq/Q7s5VEPSH/ebw1jh+8+9hxPIQBuzwZ6bs8fCL3u2nX3LwMwQ27VHxnvXeuJT2KA7s7dHqEumhNVb35RN488zC3vOBiEL15BS89fiyIPV00PLz6kzE8e74EvY86YryEa5c8J5pwPUSdv7ynkVO99ZwCvb5OHD2vTbU8vGJIu4PSlbtPtR46jMzmPChEbrwek2K9chxtPWJbyzwNDgs84dg4u2P24DwZWUC8GIaDPNsCLD11dx28dqRPvDAnpTxWCFG9C1ehPPNCOjss1xo9x5m0PAxBTLyj1sG9gL0PO46iELyY6NM8UVZ+vKbi6jxVX049d6Q3PdT92jyJHa48XVVpOy2IszxuLDm8PKWWvM2zx7xPKaK9xryxPGnsvrwWQUC89zKZO7xLH7ww8eY8OgUvvPd8izv+BwG8E+R5u5YxG73WfeI7vpOnPN/HEb2jW4A8",
                "0eGvPVMgwr01WRS+hpSOu2JAjTxQOhg86c8JvQ906rwJ0SS9pAUcPLAJCjrmOjM8N+pVPXAp2bxP4Sc8QdVOu83s/7yQXdy7DTNHvGHNobx/Wj+9AmcKvSkn/DuAOwU8gOkAO/fG3bz9+0y7StdxPGMQzjxoYII63FFtOUHG8TteB0M7MzigPTBOpbsJKAy9mvi1PNVSx7tuah47sx09vfXfgbxNLRa8e73cOyeiGD3i8FK8poVqvDD2k7x75Uw8hmiZvO5tOLw7vy47bb4hvMcbqbxS+hU8DK5TPJCWWbzYW3K8hMYdvOrz9zt2byy7FlsRPGwQHLz+khG9VFCSPa2l6LxoHqo8+wncPH5cOjyIQyU93dXUOuw1Y7uZuNK8DJVMvO/5A7wcOae6dCrBPLZNKb03hAu9GQyhvfeOGbwVn/a8qYUSPXE8wzyRChI8EllDPIpEPTqctnc8wT1tPIgwl7zhKN07DtokvHQCaL0Fz+i70HrNPADXkbuNPce6OjQEvd6POb0WYYI8+ws1PclLwLvp36y8IfDlupO/EL0YGZg8SfagPK6A7D1jKhO8HqoWvVjMQTwMyIS7VL+8PBHBpLur0FW8ZFimu6ZUjTwP1GE72gxpvLVFADx77m89s3dxPId8urv4/pA87WovPI/ljjwnydI7QhMzOwp7Nb2Cio68mOY7PEAlt7v/1Sa8gyTTPCiMP7x6OL+8BzsIPUZiyDyTab48KBUxPNRnsTwjE0S9i47SO3B8QzvJeRm+Ade0u6cdz72IwES8RJMOvEJSw7zOlVy7tRASPBuAhDzieaK9dZVjvFbcf7v7EPE8GFefvOwwlDoJWRe+mVV4OnF4Eb3nZte8SOAgvXkNMT3FpfA8596uO2td9rtXfLC8ua4iPNiTZbzG4Bc9MU6QPC6TYLyPnR07lpwHvFxFXrxqXf48WHAEPW0PezyDpAi9vgZtPDLaojwqwQ08AHaBPGPt4TzJDkQ8/3gHPXhB+joyui+8ihJbvA80iD1jX/+8",
                "lX7jPNxjpD1f7cG8RJkXO4lK5Tu6cgc8krNdu5CbV7y3ALM8R3a7PCHIBzzzjxq8jSBfPLbNYzwgL4U6jDU1PeR5h7yh0zA9HIeIvFWn4TkW6PE8x+hyuD/20rw4DZG87eR9vG/4nbwDTiS7b7wMPa2SBj0Acy486f5MvHKziDxuR8G77vu6PEl4s71xdzs8SDu/PHoJg7wPS8W76fSSOQw7cjw4mYU89hAAPNab4DuPqd68jxl+PNTDq7zgjjA8Df11vPo0PLyWiC48pczhPIzU8Lyf6Dc8dH58vEVCBjz+ng66gLVkOynMKz3H7AA8v9XMvPegL7xtrwg9fTv2OzxcarvX1pm9sytbvd3Tqbwbe9C8mDExvduEr7uTaVg8Jo/7PKheDbuo5Ec+Tu1NvBRR5Dot2Y+6OYb9vPQbVrxTrLK8rCAQPP47N7yZWMU6BwYBPVWNUDszSnC71ksqPBZm3LqGP4o89A0EvdXCXL1UpjA+t+WnOpdwnTzw2K88mHmwu2JZ6jzJalc8N/udvMxdibyxC4W8kG+wPHfnyryunSi95C8oO19ScLwXO/w7lSPnPGTbFT2B06y6M0luus8RjzzImU47jlSLPBTlUzyRlUk9UmWDO19ZPbxZSFA9OgRMPO4XqTvcb2G730ewvD+xKD1NS+I8a9fbu9GPGL0ETLS7isFDPGqYOL2LCuy7er8ZvBdT7jzglMs6LAGfPO+lhb2u9wO9qr8NPeU4ODxsZog9YJGZvKkDlryH2Gq7AjR1vHGlz7xfJvy7hJXEvJWy4zwVFty7Bcgfu1UvIDyUQdq7wQbsPIVP2buaBGu99d/PvMUADbwizG87lgw6vFiI97uR3VQ8HjpsvDHPH72rb1c9ndKePEk95TwuPCy95CdMPHUZIT2h2wS9YVAvu51vHDxyNeS8DQEQPZQcvzyT+bm8MsbNPP4mDj0QXko8RAA7O91xhjqUPmc9P+isvPXu/jvo7x09ZscyPE3UQLwVljQ8qHvAPJCcJb0fk8S6",
                "j6mWu0d1FjuAGyC9LaamPKST5Lwnt7i8ORRkvMoQwDxRh++8aOoAPSjtgzzsRlG8oFoHvWKgPbyW6zs9Z5EqPaKNsrx/Sx+9vBWdvSvNILztP2q8hDOCOd/W27wGTzu8CUhuPGq36juzWwq9KoC9PO5PXL2uwZm8cvfZuxNdDL2h3ie9jLuxPbA0jzs4u7M9QyIfPJ/lrTxgAya8qgIQvbVXIL0w4Rm++mMEPR4CDTxS/qe8affaO1MMBD1KRYY83fB5vAEwgbyor9k8efZ5Pf/zAj1LXJM8Tya9uw9Ns7zDC4y9RMmJOzL3Gz2MLaQ9HhghvcPMKrxwCwU8h4ZHvZaH0DzVrfE862opvHsG8LsBuuU7W8rFO+oH2LwHUJM8LwMYve5thLyh6TA9ptnkO/Y8nbyoGuk8l3KEvFKiJ7yVil08u5l4vX08rTxa3z28ydBSPChmMjweODM7JwUkPIMVADyW0Uc8VTb8ugh+WbzfMJU8RVWvO5ZMS7zNzLo8hlTwujsa97sDeRW8FGveu8faID5rdRq9tCAJvIwi17xXVJ28Ow8eveF2Tjt52JE84225PMIShDxLvf48QPHePNa/g7wy8h89a19+PMeAhDxc0Eg8A4mHOwjtyDwg1R69rmcnPXu7xLyiMUE8xzMUvdPmijw8fmU9uyQavDzuDrwHRLU8tj4IPfqQGz0KHpK7sW9mvTX+Mj3DfMS85p1AvGyXsLxrDms7IG/pvNM3lrwYAE+8VQ17OYJp/rvhccE8fO3kPPyiA7xSPJa8gdFjPDTcOz3Sj/g8DrLXvLdsqzwrd5y86CX2OTqABz3k+TE9VJEqPee/cjyVcMA8FAJ6vZZDD726sKG8X72xu49zc7yaxay7PFQevV4l9rtiSWG8GcflPPZ2VLyCnxO9tfuWvEfrOL37ww49zPgWPazxhDxgT528CoFEPU/b57z8qPW8OEWavApe0jr5FFK+meoevUhXCz1TWlW9XJuXvDtt1Dyp6lK90uEtPUS1XrysNCU8",
                "eZYAPGmg3LuTD9C8LvogOlTQj7xbjkE99RU1vQJ3ujxbWAi8h/y1u6oLn7zx7927jMCrPFl4Kj1dUha9h4cJvdSfEz3iZNK7jVCZPXhekzx/aJW8UFm/vA1wDz1LQkq9b6MMvT3U6jxVZrA8Lbr5vBNzrLoHoL48DlTHPAxxTjzmBp48BFXTPMECerykQ6E8y2baO+iHEb2Cz3U9lbw1PYeDTTvR2Dq9aSrHPEbGXTtB4/i8Cni2PP+MArziJBg9m10TvNpd+Lzih7w8Jv0VOyBqHj3lHhQ9eWeXPa/iBTwNm7e8L1E5vPBZpLyuw2O837MQPBiWkD2Bkp+7qieUPOSQorwDfu66jFPVO5RJhTwwLw46UxS4u+vTebyT8RG8v1EJvdlNiDw7me+6sjJNPHtspLr7BNA8L5aJu5ED3Lmzcsa8I7iLPPd4c704CAk9icOavGY23LzrL5q9YvGGvN0P7ruRIyA8GZMGPIdKbrwVm1O9eTMEPNuuwDuuo3S8EAvluktwuLzfu9k79r+zPLrrAbzdqtw8qB5VPTPXDLyqDYg8yNa6PLBUHb0Ie6C9jUnUPHmDrjy/pmm8uiaivUPbJjxuyBK9jaUpvZNYGz0WRB8+6et7Pb2Nk7udX908Pv6OPMF12jwAz+y8UjoGvWABSj3cKJ08cQzvu2an8zvtesA8MmmzuVAOmjx97yC+sIoSvVSUNb1jfom63JA3u7jLdzzVQaK8JnXbvQ8GiLr8qyE9KBwlPOratTzvEVw8U1nBvCsnCL29A2e8g/8IO+WbST2U98S8GpUBvJqTGrvFvcg8CIwMPVI5MbsuQbu47UR1vOy2BLyAZkI8RIR8vftoFL1ZsVI844FAPM8OZDwiV7m84ripvAnuCj0Z/ce9m3WhvM243js9eTc9hGAHvHejj71pWAa9QEMWvUTnhbyiDWa8CCUhvO2hR70Cakc7/9mRPDJL5jz2IoE7rfGbPJ1cQL0bLIO8WWQ3vCAVeruAvO28S6LsvdPQHrwwjxm9",
                "e/NqvLsQGj0NkZg8yc42vF46dz12IkK8krIPPYZwOD32IPy8MuAVOvQY1T2uiHW9eJh3PcpC47wdFTG71VKgPJPl1LzFQhK94yvzPFx7l7xt0iE91rjQOwbQE7zh1gu8RcakvNqJ6rzufqY8J9kNPY/iCjxhcoC89xfrOwTBBbzy7ys7UtqPPMR34DyRvt87PpMMvWcIj7vdbK+8wsctvC6J+7zllGQ8TYwNPCto8Ly4zui8qdE0Pb2kBr1y4Zs7Q6zKuyooW7v2SE28oIhWu0uO6jxlpU68q6EtOsjvU7sH0yo8+xwtve36qLyoUmq6vVshvEQa17z+VWW9XICCuBMByTv9DLA77v6XPCO92bk4P/U8Z64ZPZ/VPTxuelU8SFHhulM1lDwnOxs9zNpXvYyE+DyUoaI7p+7dO2ltsDzrUFs+8xOzPEWnfzwdM2Q85iP0ObJgbrutSoS9OSh0vJ2GhTy7gNM83lgNveH3OrsA0848ki8XPEm3wrxl3Za8pjKEOxq0szsQ/TQ9a6hxvTI1GLvjitU7+ifWPAsb6btSipm8feJ1POBTijyBxEc7PXZVvF4M/Lzl49G7xq9bvFnvVzxDfJC8wrSavU12pLwAnAI9jeItuVMduDybOc28s/o9vBsxqjypVRi9quU7vEHDg7wNHhi6qrpXO9mKpjrjmzS9a+LBPIHo0Lyoomw83mYEu18wlbslHJQ8y2u8PI+E0zygIlu8ebSgvW7vAT01Eho8yTxBvMYeZD26PR08upEtvXALQLw57oE7Wo/NPOmJfryQRy0757XRO9i0vTlw7AG9Uw3qvK8G1jlnk/O8n48HvRoQpzvGUlW7HiAxvChZuT2b8Ma8lAKyvEJxCz1YGqi75BUsu1iu0LxQxAK8Hv+gPAq9kjt0U1q95FaUPE8QVL1BJiA960aVvF4MgbyEqpG74q/8PUQfcDqCVqW8Qc3IOzuyq7xHQps8wXo/uuKxHLy6eyS8quY5PXwJATwRZhO7sbyHvYyUbb3IYE68",
                "yy0GvG3eXTvpI8u7BhSQPbUKtrssZa27hUxLu4xe4jtD5k89kQkmvRkK4rrKCj68CcjzvNVenjzSmgO8yyCkuhPCKjw0+aM7RHI1vQdn4ju3m4a8PjmYO2nDmjx5NBs95xQYPqy4DTsVi3K87wOxO4z1BT035RS+6vvouhLKGzu4RF883KLjvKB77LukZBE9iVSHO2Xw7jxQ2YA90qEJPEHVoj19Jig9lQmAPW9OBT0UlZU96QJ/vTSzOb2H2U29PbqCPBxq3Ls3zgm98GGWu51G4Dzak4C7CfOOPBtDFLzn9ns8EaODvZOiV7yvJc07m18rvapgL73JeC49G2S5vOWSLby262Q8jUYyu24zYry3Yze7l6guO2eiuz1UjXK9wCbBvMB4N70xpBw7nxLyuguaLzxs2RI8jli8PFPVJz2WYTG9RHIXPRsFKj1UUuc8NioTvHERBL2IUc87+usSvBfch7ydJDa9o3WSvVg0Sr0BPgo9o1VVPHUY5zuHUMu8rMziPG5wBzyaqHQ+mghtPHwYEz29IzK8MT1vOeiHsTxi19g6freXvPIfjLzQbeu7csROPO4aeb2Dz3E8X806PHkx5jtHMSS8ssz+PGy5bD0cvKk795Yivd8KqTzLqV893V42vCWuAL09L6I72bp8vdRsBjw7oh0997SvPCCcHj2UNII8gxHwPLrRNjziWwq9eOvCvAUYPr2vVag7feIrPbi6qro7ugi9SbKUu2CZ7D3TAoq8LzHOujikhDze1y097IBdOyIoC73HGKK7lCWUPNujir10r5i8YFyEPHjQQLzWkRS9UIZovG9dJL0Ze4a7YkYsPUsA/Tpf81m8qEjkvKiZGzzSikC9Ms+vOyjwxrxmyZo8+z4tvcj8O7z1Fdu8YRM6vPyZOjyx02G/OJvDPNGRoTw5oyk8TjdvPd9zzzx1Bu67DJYDvICptTx/num83/21vHNnzruF3447/YojvDj8jrubzyw7JOzdPM3v17tbRKs8rcaBPCgWmLv8/zs8",
                "cqZfvGe+5DvlojS89NzjvNUikjxO3Qa9XNYuPB30v7zcBBI8m1OYu0rBEDzzwjE9YS1lPGAeMr2XYwg8TOqVvKK2XrwruyK5RWOIvFnYiTs4GZG8wQ8nvBaAhzwHXte8QvunO4WyrDsXDeI7tg9FvEsLkbz5e4Q8zyVXOnznOT2A54K8p9eHvdmMCTwnJcy8LIHYvKbcLbtOfnW8m+0Qu1Pz0rnvYIC8FGGvO121qTxEqDo8CBu5u5j2gjzMHfk766TQO6a4DTwt6YS8nmfXPGNFRbmj+y29XO0VvBQEHD10QR89fUiWPABCOr2d5bI8CoqTvVb1JbzqGxM95vA9vIQWLryXuP483EjrvGxT3rv3D488Uf9VPHuZIj22L1O8swsVvCHQozrGZX47qsQCO9ZaAb3sPYI7aXehvXcBg73mvDs8kAbyulAagzulhgq8nihKvBpEdzzjAIi8EDTlu8h4pTviTri8U8cWvRdMgrwobc+8qiS7O9ALqjy16LY85GkqPOzSOL38vIk8lIElvdAFgbziQJs7tuS0PFZsVz2iBKO8gJsKPIj+IT6mf5o8cOt8OyBX1bzCv0o8EIONPO3k0LuuZAe9f1+2uhYFwTwteaC8KZmUvN7yHjt5Xry9HzauO76BgD0Vg189v6dYvZ74xjz64c+71AOUvGPM1rx5yRy9Xgn7OhROjTycL5K89u9VPNSCzjrA5YW8o8hHvQxkKbs/WdW8VEWhvExW3zxumpY8WTCCPd8kTrxRedQ6TRctPUN3SDwDNjC9v5JcvKyccDziyjA9SsDHPIqHdLue7wS9cltSPcBOOj3MPmw8KY/oPMaNt7yRup45Ns4WvaErNDvG/7M8zp4QPLSL4zyX9Lq7MqozvP+T+7ziQ0w7xWYvvKRueLxvlwi8R41zPQWqursgLCU81rohvScVNj2H1S48Diztu8VzKTvics28GG3Zu3IqQrtonJM8v7BuPO8nDz3FhfI8DxuCPLwymbsHhhQ7zs6xvJFWbLyTxkG9",
                "SJiHPY8ET7tbP3u8/yphPRZ3mj0cvQK9e1j/PEAlVLwq0es7yEj4PCx9nrz3cKi7FUaCvRttgzz8RRg9MVoVvdaKk7kHG408wd4OvL6OZrxBNGu7gGFDvaUojLxXNlE8UfZLvY1opb2nums8qS+iPOK5+bvVMfc7bLIbPWDY2TyucHS8T4MRvY0RcbodCji84nyNPPl4pDqkmZ28DuASO22oXLzRR269ZfQNvQqjgr1L7nw8XKQPu983Ojn9/uG88YpgPFVawTsg6M489laIvJeQqrwvEkY8r25MPK5nbT0k02685AK8O7PS2Lz6PI073jqOPLnu8Dxccgm9s7xjvBhr7js2/cA8bW4nPMMS9Txa8R++CF5JPD0H07wDLZm7LZ7lPJq4pTwdpkE8uEGwvJStlbyPsDi9/UdivNuNnbzQtR09/IeNPSC6oDvN3Dy8RKSMPK9vVbvbIZ28IEf1OvKT7LzyEQO9vCE2vAwd1rwmpHG8dcIyPVnBhDyeu+S7KAPbvEzZpDzFJgk+uV1Bu4p9Cr3K2jo8d7yEPQbXzTv24uK8hj7du6Ur0rw8mcm8KzmIPDKDSD00+Q88tA8qvdcqALyOa8w77IUnvDub1bxpjAI8TAOIPGJ1Xz0ysMk77r3Bu76AmTzI8TS67pGDvLhvEb2eU8q8I3eBPLaykbyq0kW8aV0CPKjmYLy2ZdK76dLHO44+7zw+mXM9VVYdvSSQ4rxcRsc72AHGOyUJ4rrrfYI89l0UvN/iEz0I9jU47ejvvJxekztD6iO8nFqmO0pnlroabt+8XKxRvNFZDrx/GV+6QRX9vDhX4zt/HUM8JsJKvHDcZTzN10k9KqQZvU7t/jy9PmE9qqPQuhupX73DncA9lcnWvDM5pzxZNgA9bRgkOkKzA73YSuK8pho/PIlzxrwZ7Cm8CExWvCWLcj1J7fk7d76zu1UiTL0g5Qk9fhHhO2fqWrxl4Xq8Nh+jvGUiLjxehx88T52qPFdc27xxaYk69/UYvbrPGb1z6ba8",
                "cTf1O8JcP7xs0HO8bfIOvdE1ortNghQ9NmRavTWWjbzDzmu862jPvMOzMb0Lhpo7eOxxvesbAjwbFdk83l7FPH7EHTzG42y+0gocvKdQvzw2TzG89lJgvFXDKz3nNBw9xLirPAuqdDvNbmS8Cx0TvPnkIT1iZim8oR7vPE6aMDy92m+9+6gUvGCcaLx5wNu7opUXvcCZITymKBQ9JmWsO/ULPzxIFC86gAgkvZIggr1xmy087ykiPS9GH73Ysiu8KNQTvHM0QTz6u5w9VMNDvOFTOjwaraY7Xqg3vGeWBD2OlxW9UG4tPHncNTxeDvI8g1JVPSYCgb7ZJqo8C1uYvIfSvzzsn0a8qGquvD9QPLz6HAe84m5DPNPlmzwHapW89giwvPEonzxKr7k8K6IKvJ77JjyCs2A8hk0SvPMgU73fvYq7V365PNpdprzmrG+9G64rvbG8GDzKI6O8K0abPB+VDLyVzDE8WSIIPEcRYDyVufi8JxOoO9o1fzyD8gS8c+sXvJFu67vKCXs8xMvRO6icDb3lMR68/GM0OiquKzzkV4y6Q/7XvMWvibxA3qe8ZLubu0SGGLs7Fqi8zmUHvLEqgzx3Txo811NMPMrfBDwB3rC8bvDfu0W0oLzE7C09X8Keu1K2nbyvLQs9/86fu8u1jrtQdkm8cbGWvWZRPTqEXQC8QpKQvA8TCT2osEQ8DgbzuwcFqLxWJFY8Td/ZPGWjsDzzerU8diskvAAQIb1EqxS8vnF6O56bNzyE1Kk7WOXrvG1eMjypF4o8SpBnPXolHDz9ffi8OvTfvOMe17vU//26bHaBPEpEzjz4rr689oOUu8JX7Dy3fI+9hCtgvKt6pD6pA7w8RoI/vJKeOjsCfzo8E9eNPCY6mLzH1L+9ER8vPXYz97yI6LG8jnLQvOAp2jydc2G9F2TVvJsDMzzYpCO8NfWWvH9tPz4cH7U5ohF+Pe4wNTyQRMe8r+oNvKoBGz1IlZQ71H6ePGIWaLyt9Ye9vtb2vGeY3zzyHkM8",
                "NS0TPb68grw+sgw9RxmxvPVO4ztSzSW8K3CcvI4WQT6jzr+51vHBPCjsmL0O9Vi88F8FvVWM2TrXCY+8hS7KOsosBr6Wm2O8lhcTu6M/o7xDJSG8pvCevI5V5LwQQ7u8GM9+PMNWYjyAU/I7t3iNvNrqxjy7v5e8Mj9auhVKo7ztuoo83Nq1vL9dizwyNjk8NjOzPAsmtjoHFxa7RaP5vPUAbrv84o281jNvvQrpPTuDER68r0GVugnLRjwfrjq8pSFGPDwj5rx8aK685xOhO0beDzz1Vps8m4iePM2nmDxYCii9qunhvGMNoLsCFK670AZZu+nAlzx1WoW9AhQbPaLugLushsG8y1pxu+yK9ry+UBu85pOnPHHHBT07MJ+8gP09OapjHD3CN3k9cmUJPdxeBD0PSS68HaWRvNZpv7wKvy08q4c9u7EArTwG8KE8tYIXvZ/t1jzEHmU8JGrCPHOs5jwSwJS8+Vnyu3xHobwfH8S8fEHNO2pUdLxZUH+7moQrPQWC/bzi+zO9z3MNPNIeL7zWYqc8GaZoPC3LWbxH7cE8S3MlvfiV/DzjWu2+MM2dPD9cUz5RbI+8rlDkO8e2QbvsTQK9LSONvOUr9zm0HDG8hm9+PPAZHb2s1A28gaduvOJsBb1gzZE6OWWvPPopybjf6ys93f02PD5cQD2LotS6y25CPOBSWrxeDE09ZKGGO1UdmDz6Haw515y2vBenFL3RGB89UXkBPSYoszy/7Oq8znrgPA520DzjYPO8qqmBO0zviLwBJYG9srwovaX81D0Ucqa78xx5PF7gxryiy1i85TkHvL2w4zsnuWg9dDuMO1VcxT1OgAw9+uMKPZe78btifQG9JnlSvJRSQTwtDUI8YcS8Oe2HkLxfV3U8L95avBN+nLz+J1I8jyTGOstb1zz8UxU9KytBPZfca7wZ3nc8m4ujvI+dTr3u0O68djK6vQPT0TtgjZ67LzEVPQvEpLxlgNS7fymgvN1BvjyJchG9brXKO0s0ID2FBq08",
                "0eIjvaY1EbwvKV+6HKCOPCFbrDq83ms9iBm1vIgH4zyKkbC82bNxPDmu07xRuSM9iGUPupqJLr03tEq8RyaivJyuDDubAZO6hTgIveqFjrxaaqo5Lck1PFokLj2aXWo9S4WHPCoembdrhLy8KhCVvMq9sbtXRpg8hJWWvEamj7wxJ527kgBiPZBowLw4Com8YCyuPKyblbuy/Xg+HtaKPdLeBD0fXko6BI6uvICGFzyj9Ic8XEtXvNmU0zrdauO8Vk7xuxHPpDx7gf08Tz5JvKXSFT0oTXe5bdDrvIc9MT3FDQa/9KcLPeGtK7zNwXC86n/OPDe40bsutz09SPZGPMwQC7xEJuS8lM69uun9A73Lg628TNr5PUsrTr1EyIM9xqmfPPgnAz3CQQY+1CsKvO0Brr3bXDY8hva5PAAG/rxd7xI7Q2WFPCBG+DphziQ8Sud9PaDO0TxatLq9tvudPa1z6TzB1Um96TecvOyqBb3VBCs8Nh0mvQaLpju+CBw9c2EkPTsOwT3pFBM+up7evDGzFjwiE/a7lGWWvALdFr1jktU8kSt6PNi7sT1OYAC91dM2O7wS9TuBLYy85vuFPEINTDwZaH48b/NZPBQM9jyS9su8laPXPSUwir2aPMk83aJYPC7HwjxN6SW9AJldu4F9R7xOu/O9kqtbPLaqdrx++e67TAo6PfESwrzBXV27RMgPPow0yLyYXPs8/TtivOx7aryi6tm8SgbWvKEigrtwItk8Z4ZVvK4/Mr1Kezu9nAyoOwGPk706t5a8MGZJPKQWlrwIKfO7PO2mPMAc6rzBEVy9OSwFPa1g5jxxn1q8PkpgO55GtzwTyz48kDiBPNURZD26pdo84y6KvP3ErzxUFZ48JJiEOryzz70fRha7bv2SPN5/hryO+s481J/QvLruDD28GPe89zXDPM6Xj739Erq8sRKzvI5XzbwBgUG9O2eJvEFJCTzNf606JO0BvXKzOj2YyV48MF9lvCS4fr0EouQ8qYN4PIXvzTybIj48",
                "iTixPfCDn70LyzY966tfu4o5wrvk7Se/ZjZZvajIoLyh49O8369sPXokSL2d5do729Hkux1HI71PvOs7mnQVvC1/cj3LKQE8OWvzPIbvB71/emG8j3jDPDFw07osOc+6GuzXPF/vRjlQMUW7nS85uWeWAb3vOX+6msefvIyUQLyngL88Ky5ZvG5zEj1ShQE9gmawvThrXTxcypE8r97EPHPrlDs+4BQ7sUK/PPKz+DyEXxo8AaIvvCdQibqP0I47jBExPTdLKrzZLQs9fkrrvFJl8jrP1Ss8vNA+PI5sLju3ldu8Mt/lOz8azjzIX6069X9yvKB5lzuYQY281wF8vSEmgTpLhOs7jhVcvaQ0RjpD4Lk765a7vF63QLwQ4qm8d0lJPVbThDtyRu08Ah65O1mx1TyrAAK9i+EnvNGgSj01MVW9PihpO1Z7OD2Y45q8TIaevB2Dgj1UNgO8N/dOOp2r0bybNSe8JaaOvJHWLD0Vdp+8InSgvH3zE7wrf4a8EDT0O5uEc7v1/iS9w6CnO2KeDbxRbY48sIUnPFXNFLwnj5a8V/dyPAN1gzr4B/Q8D/+ou3SMjzxOvDu8nZmpOwZO0ryyOmM7qVmyPEcVyLxKnck8UiH5vExhKT2J6Ak9xn7HPAMOHLyzLpM8kzwDvf0ug7u4Eqe75x13PHc8Ab0EL2m86UezPSZ3cDzS4gu86hODvJF2TbwLdW0808OlO7vPWLxtiXy8e/U/vAoCEDtJFyY7SmJaPOnGs71HeCi8U7sCvcnbqLwZObY89XEVOmKXYT3GQbK8121quwG8sjs+S868JOrLvLWBAD1JFiA9kgVUvP7dBD3svIU8at1iPArTKj1j79k82p5HvHykoLzS7yA9YzXDvDlmwTxlqxe8eHJDPOLrYzxZOCM9xU2VPGRGiLzbS4W7sgHjPDkhQ72z7Zg8JH9XvOtTuTxIO5Y7rGYhPGKOvDtas3o9CuQSuu6r0rybl8+7l8SNPDxWgTsi7AA68WOyPDtX6jzhj/a7",
                "dPOjO+rMEDypeg05kk6DO4paUL2q2VK9nPOXuyuImrtgGLc8jIyOPFxStTtcad+8I7sVvaJpMT2IEk28Q5BTvJxDmj2ZCNm7oE4XPN4iirz2AQs7xVk+vdaaM7tzlEI9HcnOOztqjj3V+cG7bEuwvPAiAj3c15A8ZkfcOyRHEjxJPoC8OaQbPDl38bxfFhk65FdtPJmtRbxW9pg8qSESPJm/Sr1G+Wq89OqLvPPxuT1+Oh88SXrkO7dY8LvKhoO8QRjnPNADFT1y0+48W/pMPGRDxjxwYTi9ZfqCO3SOg7zn5ya8B5RHOyDIdz3iPqG8oL32u/6lOL2Ys/S7zo7aPFwxOj3haBU8D/Pyu6CfyLzs4yc8mS8Du0V9mDumRaG8P+eEvC4KHbuvoRy8/msfun8HKL3Duls9yf+sPIxE2bvsfB685WcNvZq6Ir0/dim9Kb5+PU5OfLwoXCI9z8P2OvScsTvT6MG8kI+vPIT4Pbzfeys9JbcOu7raIzzbi5a+Fy+ru7IVcLy8j7465ldnPE5wr7uxhmE7x5FJPE+nkLwpYQC+gM8GO6RjObw4mPu8t5r3vGhZf7ogTOw7XXZgPDRNpbwAm4Q7VJwTu9+qHz0YoQo8v/Y+vHu8nDuaqhM9UvshvMI7VDzI/AC9mH3+unuPfr02xsw86HPIuk2Q5jz/zIM8pQnUO/MLATxvklo8qzpFPEsjq73ujAW8Gvc+vT6zwT1GxeY7Ir4BuxnUJDsnRfy85gHuu4sBpbwu+l69i9iavC2JSj0TUVW8kN+GPMDpSr2bh4q8yHt/vKt5yLwUAV48a+UzPOiwb7wlGMO7Ba80vJUIWDwWkFm9i52MvP2eljzVFwW8ZxXbuyK5B7x8QrY8m2gTPL8aTLwE1ak8knt+PPyPUzxWQgK7TqzgPDNtAL16BPq84z0+ueQ1LrtfgKS6Wy50vVNy4T1m3rY89vO5vPD7FrweI8o6Wtrau0SZ7DwEzSM9EZqePNpwQ7u1jQW9hnCAvKSSjLzg+jo8",
                "N3yePMWKn7w9WBE8UNDBvDFRKrwjjfc7CnLFu2IFAjpjVde8ICI3NV/X4TxtSCe9p2vUO11p3jxkQYe8dUs6vf/7jDv9IMG9QSpLvHkFD70jxVG8Qev1PLTmhrv5N/Y66lIZPawaG735bTo84uCiPCoxTbyaDq88XFy/vDpUk7zwGvy8Zk0kPDTnl7vnorI8Gh7XvC595LtnYr69otTUuzxerzpsSRY8e1l6u5c1Hr6lllu9DUAgPTn7rzzVrZK9MxrlO5Bm+TtMrQw9NdApvXkSWjw8AUk8B+bJPM8vkrz9kQG9LQjIO26RlL1CDUK8hFimvP4wOLnvN6i8n1ttvSQtG7xE0Q69c8mEvOucrTzwpag8BPyUO5RpTr1gHnc8MJVKPtATlbyTVjE7A9MTvQedojyFGbW4P1l3PLlXAjuBFqQ8TrNmu0c967y/mfE8ymKqPGZq0jwKUgi9AuIMuwmcdj2Yo6G8EqypPN8BvzpLfj+9uMmsPGLAN7zNa9Y7JHQjPMo3fjkl7/07sl5BPdSUgTwbzt+54wWZvcjfLzz1pXY8ZxtMu+us+ryN6Rk9SWWyO0cupLsLRA69MXUrPXG+DbxUi328RxWzPFutdTwn70C8ynYTPL9/ELyQkBq8yqbDPH93r7znub88o11fPQoJjLwEyO08NY+0u8dcnTxGqpg79yOjO0TwS70OoRo9XkLHO+MGhDwBDie9+5bBu5HjAr1FtNy8aWQavPmpnbyTC469AsmvPKNgMjvQsIW8MZAOvX4D+bzeRvQ84dqvPP/4rLxNovg8Vp6wO3bBers9fLi80AfcOo/bIz1MK684cdULuxx3DL3QOno6jtzXOquzQjrUvDA8EHceuj29tDz3s/M6+z4du9vtm7xiNCg6b1+RvCS7qLzH7T08H+YFPJDOvDuk2ma8Vf5XPWjpfL2f9t68wleOOm5uK73y0go9GVn4vBvvBjwSrk69fcHKOulV1Dsl5ji+ZUC7uBtzfTxK0WO8Njo+PA2v5jyTCoe6",
                "WqHpvKDFPTttde8784ffvNAAjLztT3a97NdHPUsIrDzRY767sEirvJQBmzwJWIU8XVWTvJGs+rs2VTW8i3inPNh0v71KQ628WMw1vRF9m7wAq4S7boHFPI2jRTx8wp28CpOVvAt0mLzzFvW8CPwuu6euOzyfIhi82ki+vPdUCD2OsYw8V9YhPJ8dtjqHsym9Fw/QO98GmD0X9Ug8a+xqu46HIT01pyM95bBhPMLuRjuiRAm8+CXsugDAAjzx9Va8lHHNuoP7I7x2XrY7WJhvvcMtkT3G6Uu992WbvcusnjzRUYA9VjN4PfL92LwZe368Re/Uu4xowLzgyvO69QaqOy0WLr2N5Ho8/ADtO3R297wxziA90wxTvGrRxrq5U+27bhA1PLp2d7xejVw8DVwnvIWodzxp6gE8y8LHvKxVvrzzE688yaXePCQLMjs3AGA82hoxvY50IbxCMou8Lw9GPHliIDwE4yI8/2d8PXfejzyOYIU9Ek3HvKIOTT1MN+g5ODl/OxrUMr3CYiK8Y8XPvBxGVb1SX7S7Vh32PFBz6TuXf1m7APOGOy4xXbxcGXI8aF+YvRtjmTwAQNg6C+KuuiNaIb3HUei7aXVhO0b/Oryeqgo91jfvu44xT70lTI48BzkCvOYeAD0nAq48obZlPYcuUzxUAyI9U/UZPBn7Er2h8Tc9fg98PPe0krtVDBY8OfSxPJiYHz1ELjC+FTe3PLkwyD0cG3E86c8buw6iWbxKif+5Tt20vJngDb323Xu9cVb7PIKBfzyP+zk8hlidu/Ym8zx3VXE7w+ZUuRl2DLwWBCW8RzAkOswyHz4f3mG8vQbhO9PHhTuzNJe9wJIXvRSSvzzLW2w8gmjWPRUQyDzBpJ6796rCuvijBT2m04+8AqmovIq3JzwLU189t/hgvDlQzryVw7k8di9EPMkQrzw1ZiI8r03hPIwWiTzBLTy88Kh9PP7lkzzbeno7DbIRvYNotb2MiWW9g4afPDJ7grsFCHE7Ck2WvGoBJL0HYuM8",
                "+yg8PAhNqjxdFQ09G9HAPJYecTz6hT29JUgKOp/dPTyImcO82xM2OwZoG7ygZcM9VSlbPUvpVDtbROw8LiKhuQW03zyfKNA6uYeXvL9xwToOJPg7YuwVvULSxDwnS708Ov5DvKCOrLzFGNG8j2V+POn4Pj1sVtK7VKnUuHtmvzuv+QS8+usXvSGCBLzgFNw8vFUaPBBrFDxc+bS8Mq4ivX+RjTyQV+M7esUTvCoEiDpBwwy9kg5IvEs1fDypChu9WJu8vA5IsLzxmLg8k9CbvGrA37wnNnq8VYcfPJscAD29Cq69CmeiPLBqKD0OSU88fEZpPDUvGTwjj1S8uaJwPCzSlDzXgBe9VDfvPJvd7rsyfjE8N/SgO1jC+7tW/hG96ICRvGgxqDpEKkI88+HBu7eqMjyk0si8i4zuPUqX17lmcFG8U+3Xu9tR/zrdRo6+NJGrO/7M2ryj4AI9bYcnOwzxDrsP8go9s+krvaozNT3WCq+89Y4uOEu4UT15prK8VomnPboRTDybBB497xIbPUfSQbuCyt68WI2RPCYlmL2Lx5Q8dG4/PatbHj25UA09d1dAPY25A7xCVWO8YimfPB5FEzyv8kq91WUQO/zURzw6RM48fB4PO3+0frypQ888UsN9OuFjm72HJ0C7e9fYuwh0pzpsvcM9ckBFPQfDhTxau7y8bOMGPJTAVD0oxFQ7aS5gPb9acTyw8qi8du9HPNJmMryoWKq5C1nsPJvjErxHU308liS6O+mwYTzueVY9NBzjPRrv2jzpLPk7ENNWPHG78TxKLkK8/IktuxZSMD2eWRg8hx4CvR/IXL0lDoM8JCREvavSWbkDmCc8kGu2vHs/tTrC8/I7Da7sOiGz8byUpx+8ufIGvUggVT1s5xi830t5vPJTibztHgq8BCQHPditRT2GDZc8mWPYOx8NhjxuvQ28Ae62vKjzDLoVddG8Ot7VPJH7rLzwlVA8fRZLu3QGK71BeZM8NcfpPP6kJryW4IA86HAuvXIQmL1Gu808",
                "PsVcuz9PHTxq2MM8KyAnPHaqCr3L1wK8JCB1PS7r7DrJRdg8ywj9PBlRHzu/lzQ907UZvYTjnz2Kk/S9NhnRO6FDyjzjzCq80IbKvMgVOTv+STE9Gv6NPdQWuzx86TM9066kvC9T3zyMWDA8MtSQPOyB4zwSrGe8+ldKvMpQJb2foC6+FEO6PLNovTz9q527ZT4VPVLxhrybJGy8aPFQvKgMxzwMm4G9MlBIvc+esDvAM7s7lsMDPZQgGr3USzY9LwyjPFp5kjs9gWy9XnsAPFSr3rxQyWa8YyD0uwbkYb025jK7/066vD63K73zVr+88TFHva21HLxsFNo90XzRPWYIKTpUAsE7OQvhPSN0UT0U+o687nSQvAszTTvN+pY7VS2rvAeU2DysPAA8T5cyvZjC4zybcZ48DeSQPGFEoTwguey5GrmRO4p9zz360QM97cgvvLpLTrz2pao8D1zlPCoMNj03mTm8Q7b9PaBILLwDSzc9BUNkPb9Bi702pHy8C8gBvU7hdjxZltc8nmBNORjK5bzjwDU7NWzhvHU/prn+Xvo7UaF8vIknybw83e+88Jm2PfvqW7yedGY8omUkvTt64jzGK5Q8vZQhPWirDT3kmKC8PNQ3vQzpkz31jS09UzHbvJeoijwylWu8uLSXvFSjVj2fo1A8VvGUPYvxBr0z7AG9rHXdvBoSpztx/aE8gG+IvP97K7ys5q26QQTlPPjAFryMIPY8kEiFvO7spjxX10c9soNVvW7ojr3SIkY8KOH2PMydoTx6hMQ8wD/yO023+Tp4L/q8V2GrvPTizDqxHRa9N8yAPKPx17zYjO+9kJtNO7qdgzuLVSg9kUyvPLkgyjtDSYU8Y9+LvQEO2rxsWbi7g8GOu9bdzTvCycm8UvNCvWwzXL2A3BY9llGGPMJ9M72scY6+aG9FPLgoob4kkqm8re14PBVaKzybrd+8pnPlPOcUcDzHGWU9pdgKvY2bbjtZBVE9c5IiPtQz8zspnr29ObTIPNNgKry9/Ys8",
                "o4oVvHe7Cb3qipQ6Vi1PuJVEV7wZXEc9gfYLPFWHs7wqZss6lhQtPJkcgbt7Be28zPSlvMBbC71jkZ08GgHsPH/f7zo4rJa8ph9bPPdYOjs5O7s8mCOIO2lgTbxt7YO8VKeLOvgQJj1kBmk7lwJpvFo0Bz3Ujru8pI5qPB3xkz30/wY8E5cKPMf2JrwbD448O3e8PLHPKj3SU907RmDoPDzZYjwxgZi8qlEXvZKuhby9M8k8lM3cO8tGFzttNtI7/2UJPQZzB7ziF7E8oRcMuzmSEj0yO528PZcSPR6cGr1m+Ac9I4QtvN4y4jvi9XI8drkVvBIYCz2HZgA80bWpvIZTqT0/Px494n0VvLC1Frz+qtc77o9OPKm8vLtxY2I8ydwxOwa/7DyNBfw82coluzoEDjxpowC9HjFOvFRugLtAn7+8TpLsu/OFIj0zX7U7+TKOvJaGtjwSNyA9qvoCPP5l0ztyC927lT3Uu1kAWDvW1Mo8UY7CPIttD7zQAbY5qdO+vOvWqTyvatS7VovPOzGBdrwNUcW7Y8mvPFnAGL305Ky8qAWovFFrLTwCpOM54fhNvODVtDwD25O8elKpvHmSSTw85yo972v5OlG8+Tzb1OE8q3GSuxu3ujwEm/08WWY2u4sgxzyNlCW+2nHUvDZzCT8qbQK9JvuEuaDK1DqL+q68b6R5u6SJGb04fQe+RsEsPRJWmbwi83S9oMGAvqo8r7ynqqo9SjFuvTR7EDxiDkq9TFpgO9If5j0PzlW9RYCXvMIhQLxgsok9Se2AvJ30PD0Jk+K8eI4YvWRQmL3MHxG9vqHnvMFz9Tzm+5C9SJDLOqajAb0Tigq8TVXHvHHTIr3jo5u9D8++uzj8HL1t3xK9+D8YuyqSk70zMOi8kWCbuh7HIDx3w2I8leXDvBOstz1D7PO8dDrLvOLStbxsgwa9se3ZvCZtP7ttFka93r/FvSljTrwU7hq8zOxyvfta8bqST3y88vg2vDRTNr1Niwq9txpBvGAajLvtKCq9",
                "1EmPPJlTXb1//4W94v/gOoM1Ejt6zHO9ppYrO08oBbzzN/u8taa3vCcLmTyLoNq83sofu5eFlrzHcE08aQ4jvUNLarxh61A6ax2BO7h6o7zwfR68ONeZPKmDE73ckom83OhevLbF7TwV6pK6VZ4IPcbUtryQGpC8rraAvFT627vQPhe98Nv0vMjX+bybmbq8Zx27vFpzYDuES688yEXsPONZrjyj7sa816FKvZ6JfL3ki8I9ti4MvTZMO7321EO8LmH4PEWSH72QWKm7qN+Ru37oObviXcm9aiffvAKHcjysgL68pNOgvFNBj7x6bLy8RxpLuEwt8ryCuH+9P3FJvDILrbwJoEq90fJMveWhSztmZ6+8pmIIPLWs4z0X/h29WlS6D1yguo8E0rqPQEe6jw2Puo+YJLoPtY26D7B1uo/w7roPU2W6j1feuo8G6roPOca6j8ZMuo8AurqPaJi6j/Xuuo+EcbqP+o+6j5vtug/m8rqP4uC6j69Oug9vXLqPrXC6DxN6uo/ouboP1Su6j364uo9XOLsPu2u6j3ZDu4/77bqPjPa6D85guo98SLoPJPi6DxV0ug/wZLqPWuO6D/Equo8zmbqPQnS6j41+ug8t9LqPWSy7j9E0u49g0rqPLEu7D2IRu4/mwrqP3ye6D6ARu49tK7oP3Ve6j2YSuw8tq7oPsnS6j0WUuo9yOLqPVja6j9Ubu49aC7uPuJ26j/C+uo95mLoPjk27j6nvuo/837oPQdW6j8LMug9eNboPXTG7j8Yru4/MS7oPDPK6j3rHug/iTbuPvhy7D+Ggug+8K7sPsn26D1pbug8YiLqP1++6D+09uo/BdroPenK6j6jLuo+OJbuPVPG6j7Wfug8S+7qPIkW6j/Exuo8cJrqP0uC6j1cvuw/6PbsPrwu7D+nbuo+HnLqPawG7j09Nuo+3hLqPXjG6D6Juuo+OULqPeEe7Dysluo/pRLqP2UC6j22Nuo/kpboPaf66D5Msuw/PsLqPgvG6D9phuo9Hu7qP",
                "Gpe6D3Eyuw8nRbuPuSW7jwBguo+ExLqPEUa6D7kXu4/LRLqPNZe6jyDAuo9fL7sPWC+7jxPXuo/EGrsPHWm6D9MXuw9SzrqPDsm6D3Imug/f2ry+gzD3PJB7trxvszQ8TAfwvOFfk7w45LU88jvmPEHj37yNgpM7DdkIPRUbgbqZTYu8MKlTPVT5IzzF68Y9dVExPbNJwjy9+cC9O2zBPO3+oL1BVq68yFKRPUdp3LzGDAa8fT6TvDyBSDySZKk8aQXiPXhxvTu3wPA9KDyVPLsBVjx0j5A8RXi9PU1lkTws/5w81UUJvSpOCr0x2uo8UXqHuyhSgj2zKHG93FxNPV+h9DyiGOQ8kr2XPJyPXLuor6I8Oe8CPIODeD0dLEy8b3DjPA8MmzzOTLQ880qRPRrt0bvp0+W8/dJzPBDwXb3CUNE9EgawvQvhJL3QJME892OavTfN/zsBfqW99hQkO7Cduzy5gq46CukHvPTTULzF5ie8V16nPIRLhr2y64k8pwSju+u/aDz8eNU8hmsEO/8fC71qCok8sWg4PdQq1jzqIqG6Bkyzu/u+bjyC+fw68ysbOwgelD0XXaG8nFofvWQ7K72Z0706dEPIvOk7DryBhMu9RjVrOwgIvLzwa9G8qJrkPOPqvrxksGg8NdYuPe/4lL1EoEs9nCVzPGX59rv4Nii6XzyBPe1Orj2OzQg83s8SO8dvrjwP/Cc8c/z/vLRUwjzC7Ee9OLMOPDP1u7uw4I28owKuPMEpO7wGDAi9liqXvaQegrw8Gfk6Vq4pPOzn0jzfuP87/yu2PQt0Vz2orL+8sWQOvfCP/jyEZZU8xpGavQSMZD12VI68JCU9PPQYKbwkZy6/goHwu0GPnbuBgei61MCGPYDtjLtbbCo84e5ZPBfCdT3KD8C8bV4XvKtiRDvID7A8ZGvHuw0QFLzhIbA8J9QZPF0h47yxDJy8ttYEPaXDk7zSuhW8ZYDivB57Qrw02zi9u6JfPDvMabxQJR696SZ5O3WFK71nqsA8",
                "Bqrnu86GnbvZf7y8DfnNvAMpnjxaaZk7L27cO/dsEryb4OO6EBMCvToDC71Ckze9nQ+VvEAlPT0pEl250eUJvDxILrtfmOA8KXz3urEMfbw6EWO8nAu5PRcHcbw/chK9Yd3Su7/+ZD1qIYI8b6RBO9Z9ETwi/ly869cQvcTKzjrE0449BY5JPBOzvbwHU6k8bgCzPLo1lDzD1l88tpX9vF1LEjtPGY+7Ri4cPDcWgTuhjRe9gv8tu63i9D1etMk4BHmZvJI1kDuqP4O8p8Nevfz+bDzbs6k8bVcJPZUkgrwlq5S8vqtFuveUlLyjY5E7/OduO8w5oDxkA2Q9lA3qOmnDirwRMf+8vYeRu6kkCb2y3/y581GfPdWKmboN0oU8oTCOPNdxhzpKKCi9qAssPDXhBDy3woQ8kSCuvEhNyzxP3zq9z8XhuzVg4TxxE0W8YtP5OR4Au7yCiIM9ZbTMPF5irDxULj48DfwlPaAsOjwq2oS82wEPPTtVrrxt+1u9iseFuxJMLL0A2ei8VuMevPcP/rt3E0I8BdRIvUi8wby0ZLi8UZ1wPK793Tyg6vi7dAvxPADwVLxeagE9LQbivLYUmz1oZSg8R6T1vCdOALwkrsW85jfCu9Brhjpory0+Kes2PZWjjLxnOfa5Cl8zPluaoLwi93Y9vsjdvEGyHT0zjZS7yYT9O4lbB72Niy68bZatvPPZvLpdLMa85ImlvHhJJz2ZsvC76YDmPKblOj0duGq8YJePO4QCzzwRoyW96rt4vP3bALzkktE75OLnvBWy+Tz83jA7MJv+O0Cprj2OAec6cEWevJrSZrx6RsW8RfC5vFSATL0w4Ba8w4//Osd7M72N6aq8VX2avBDOAL0AkbK8bX0uuIxg0bz4YbS8qEKAPFFshLwDAzA8SUV3vEQfgDy8hAG9uaEsPH84H72lhDe8CjZqu3APgLtVS9w833i7u7ApzbsQncy8Pw7hu0CeGrzMl/O8c3pkvMopgrwDfDW9js/TOxKaNLwbjR+8",
                "8s4qvGvUfL3BBsY8ja97vAHjB7wPBaw8sliIugacgTxffgy8fYyePLjZhjwaOwI9Q3xZu7X0o7yrvJy8awtVvCGDbTz0eni8/aLku0VkXzv8RLi35QiuvMxiojup50w7p1D6PKDABr3u0kQ9SHzXvA4UUTwq1y887Bo9PPX3vLzwsG09tHQ8vPal67sR2US6R8sBvbF/kzxaxK88U59RvD78YzxppIy9gkCvPLA/i7y7GyG83HkpvH7i8bwAbAU8oCAEPPumHr3HtbS8qa6Tu7Xe8bxPC5K87IYBPWApxbynHYq8rXMEvB70+zr588m+p22AvTi5krz2PDy8AZrgPNNJ6zwXwju8fbI/PHRzpbv9YTM9E3AVPMr9Lb3R0q284bqjvHWRC71x63Q8hlvTOhpXVbwSrXI8ZEKovGF5gjtk04Y7OGHEvODB6zva3Kq5G2WDOy6qALwx1EG6tw4cPv2uVju6NKG6KU1gPQTasbpzgm081auSvPx7BD1ril08FllHPWyt3LsW9bi8yyaQvGljmrwYgYE8O63TPKokazqzphu8Qqm2PGyxIzu8L3m8LNsPPG9ixLyFwKU7s1gFPFnXnzpGgLe8ERQdvGL/GDwMTEq8vI87vV8Eg7wGu+Q8tQqovIoEEbzopM48kMubvM91KDt5pTa8sYoLvHOmErzw8w29WIMZu4GnLDy0ENQ8iJw1u0jMGr1/IQS7u9ILPfJTMDx6D6w8SlD+u/o+Eby/SMq7nvUxvOuXNDwXqF67bbhovEzJaryiVUI8JdqPPN7JL71uVsg8kmeVPJ6jg7zCEgS98TGCumlNbrzQ3lW9ss8OveIZHjzib6g8rdghPOtSeDza9Yu8eCaCPELNsrzGNaw7zVHVPDa+g7pRhKA77Q2aPadVMr2fsAE9JteOvJGbAz2gFQG8ZbrJOwxZibx2ZnQ92dLxPGBC3zu97fW7xPkAPcCY/DxYJFC8TKSwO75vCL0OqDe9RYeTPbIdZLynOJe8/3Q5PTVeXLyDdJ88",
                "6yxMPA6jhbxPGpk6nsU6vX9AHDx3sEW9WmAeO00mMbsPime9va87PF0XP77bRZG8GVzPPOLEh7z6qLS8kvUTPRTzkj1NPdO88vUavTVH97wEJ7E8a9movXL3I7w6Mxm+OUyTPKiCmr3R5bC8QXlXvAhupD0QKn+7b9aBvW6P1bwi+pY8onmZPZuG0LzWHH49EpgQvAxmszzeexG9tCh8vILDZb1MoQc9nci8POm+GbzePLa8+fn4PIgJVD3oG5i8vp30PJJjMDy1qP68IaGCPOxokz2jgDg8VcwDO7Q0Gj1GAEi9MR1WPSF2Ar7Vbqo8vIN8u5Iv6Dx7wFA9X10aPULqFj1DswQ9GFuOvVsc1LxNLSy800+BvKVh+rwoxFk9t7wFPMt0IbzCn/88Y/CvvDpqF7zryjq7kXGwvK5ptLw/hzG7RcYsvCnT2LzSSoc8IuURvR6ziD112sY7TdaFvYS437oSuc28bmazPfD1uD4nBKa7ycT1PMPmAbzsBNg7AtJcvJyM2Lw0/ca88NMCPeHP+TyMbjO9S1KLPUqFPrgG3qO8IE6rvEasvDwyNTI8JH0RPVMGmrol+Zo8ChtPPaYuj7yS4mQ96e00vfe0tbx7lT08Y0U0vYsBKL0JwLU8UQIZPQme/rzUYNk8NIRBvfX6CD2LTz88kRNXPTkJWbq6EAm86S+FPFemDbxKobE8L8idvMrfiDzKn8E8Yt6tvFAN6Dy2zly8w2BMvB+LvTwYqRo9xq93Pe9LETtaomc9rs0yvJDzrrxeIGA8pGWqPEEGrz6uAf49vFwjuxRibT2RSpW8IdIXPR5xhrz1Bzi8LzLovE/vhbyqvPk8e6WvO1Eq8bxGckW8RcrUPJvRqTz7oKi9jucQvV3TO73KIKI8AOFCPPoh+LwQwEe99/wsvTkEtzyL7oI9Sj0bvSxP+juaJYS8TZAuPbTFYTw6DIM8NJbGPELG9zzN79O8S3rOOkGbS7yzRiY9fQp/vEh0erxmTuC8qwoqvKwQ2D3t+L08",
                "nFusOw6csTy/C5g85pS3vBEeCrxmJZU8cR0AvUnztb3HZRa8pAQuvZxFvDyq1cO8+ZamvP0SGrz2myC9x0AnOlQ3dLwEKkM88MYRO9YbyDwVHhY78tJBvOzWdjwc5Ic7GzpKvWEFJTuSxBU95rR7vAfnLD0qxB+80z9lvat7TzsGnMa8EHEzPPzQALsqY6S8GNMXvYAGGbwvWx+9jlkAPZdW+73CANi8P0yPO7a+uTygSlw9tUqAu1sWIT2gco07qkecvF+YSbsujQo8S/D+uxNBkzwDgkg8aUZXu6D/7bvOBY28pM0hPAf3bry2FMS87OtqOu2eID0uaOO7nzNSvaEAnDzWwAe962C5O1gYuzsZnhi8dOF5vMiIJL2Pd6Q96TRUO//FkDyEm2+9dqdZvBO0Bz0YU6a8JpwvvduImrxkF4m9Cl3Tu0TdEb32HlS95KvTvGFwi7ywlMS80bCYPMHQpbweLb47tu7fvClIv7yYB2q9FDMhPQPjWL0Yutq82qQwvY343T0zt+u9ypC5PCLHyTu+o74685AyvUscwbzMEu47Kv7BuhYT2jw8BYo8LMR1ueq9/TyKebg6pcrLvIFCWj2EzmI9AFQivZ64YTt4+KG8oWD3PDwVhbtrW1s7PuuPvKiQqzuixGc8ErbqOycSdroquDs8Qlg8vXRYKDwYIhM9ZwQBvb8AEL2XfNw84ODCudRTxDucPhW5HVFCPYP0R7sVnAW8REaKOLyF5ruaWp+94fzTvI/SGrzqBgu8mVPWO4OEBj1qWou8sxQhPPgJ1rz98zS7QY1ePBkTNTwzZfw7LRYrvDiqebmXt5y6TLJzvNJkxrqYGRm8MKYFPEu2yDwM9dS8PP1hPIHflTuWxvs8fjd/PFav6jx/Yxo+MIbUO4qSwTzJyIw7mVVIOzFwBbwZlw+8uohjvVnyDDtdLg+8/OqkOmMpnLy+zLs8fVFXPJ7ghrz7umQ88IXIO51GoTyC4ds8jVQfvBISmzz/XJW8swlkPMjUA72XPYw7",
                "VCwNvTkZsjyMkvo85sw2vKiqhzz2igs9tvnTuXlvxTsW1tY8+NKDO/MfA7uXwGS8eldqvE/zWTzdqS67dLO7vC5ZZT0EvwG8mGLOvIsthDyAsIw7hDszvF/lh7yLbpg6YSBvPM4Vg7s4Ikg8Z8E9PFKJ3zyQlmQ7L1HePBecMD1WUoE827e3ugYnPLwhJJ68/q6TOjI2UrzVGcC8iQMGvSFoFLz12iS8ucEKvVdBGL1/8t86i/YmPCeRk7rLw5+9XRGWO6WhwzzQ2yo9E+35O7Ih7bzSySm8lE+HOxr6aTwPDea8JxwtvJnVYzxPC8U7vA94PKd++TuTwmg7g9ssu8kYHrxMwOm7+WgTPN+jpbzgE8Q82Rz2Oihpgrz+isC85u/2u0eHNzwDVkQ8eUCcPPWoBj0iRP+85k1aPBqgyjtxFMK8GFGkuyMtVrumgOW7z4BEPUZtdTuXPSi8e2bEvDzHRLwKvkg7/kWUvMD5HDxN6Xq8d1vpvF4cdjzKQ/k7Lk8RvN0x3jtQC8a8TuK1vITSnLzS+jc9O/LoPJC89byv1Te8715xPDptyjyUuKS8ODquuxhL2ru1Go28+16HvUjAgLuVN6s58eVrvNmkHr317RA8verSu9plyLz37J09T0u0uxgtwTveTtG5mBSVPK+eQr2gYiQ8eXqKvBHFibu/mQK8C7uuPV2MqLsIZ527DBUdPIBPlboi9kG9NlhzvK25mDwTecq8AlNQvfrFw7wo+R69WIrJvDCSdLzkxHg8JFCiu7MLgLzbE4Q7uWlCPcPBxzr6IgQ7b+s4vYHQL7v2ljK8XnH3O0RMa7xOe2S7nRKhPA6RKzwjld08PP5avR/PzLyjtGo7pOQnvaiBprtt7OU8NQObu52PWj0ICNG7G0XPPIFULjuHJ1s8vU9sPBm7SjzWMCa8tTGgu31LorySS0O9g1WfvK6xPzwVnhg9lxugvcRRhjwU+iM9EybTOq1TET1NbBU8Rgy7PPgNIjwcxC+9ph7NvKW0ij4aJNC8",
                "31oZvWbgpbv2Hl+9PCROPfEdAL3Cudc9uCVDPV+zDL3SLJa6z/uAPXrjrLytL4k9g+WfvbnwnbxLZNc7L8kBPVW6k7x07ju8xZlNvVG6jTt6bs68ognvvBCYGT1Bd5q8Ga0kunEbnrvVK888E5TouoDPBj0uhZY8d91bPY3+1Lw914o8jvvuu5cBHL12LGe9kXvCPA+qjj1Pyzq9UsANvVRL3ryhJZc78J+7uyROAT3wR966fWRUvXZF0D1Y+iq9IcGlvWju6jwBX/K8AUDAu6JskT10dz29qzSZPONQNbyGUP68z7VrvAhkULvlCCw7SJtFvVkqObyf/zk9R5+BPPociL0biCO8srPWPEwQAjxFpfe8xwdLPY1lhDz9dke8s7/GPEy9Czt2p+g7BPZZPCWTqzzr/Zi8JQtYu1C4iT0698S72mMovCxGJj0+2DE8opkkvRlShDz6BSc7TsKHPJfAZr1ObOc85/3YvBB8ED0a+0k8ayeoPYjmIrvMB229zDltvKmDELr1l328BrnPvN8Z+zzH0m08YpjnvCzwZz0cVxC9Sve2PRGCFj05GOi8nTrovGscMr1OVY49hDn9PFkxiTz/D9e88/1Cu2nRTL1ZeMS7B58evRC5pr2VtNY8rFYEvpGDAT3uemy9W8iUO1Y2mLwgQAC901lhvU9/r7wVPKS8Zc+avIhTR73dGyY9SpJfvOevAbx49t06IW/aPNWymzwvxw+/Niu6j+Wguo/jIbuPnsS6j/K/uo+F6LqPi0u6DzYBuw/3LLqPy7K6j9+Xuo+q47oPz3m6j0iVug93PrqPaLO6j0zMug9YdbqPFzK6j0FOuo+9z7qPAnW6j/btuo+T7rqPDUq7D6kCu49XgbqPou66j0Mwu4/xSrqPawu7j8NAuo8WYbqPmSG7jwPcuo8SdLqPQLC6j28zuo8QtLoPidq6jxTvuo/AsbqPVii7j5aKuo/tPbuPWAi7j/hhug9YKbqPSTe6j4g5uo+SProPKXu6D2bluo+C6rqP",
                "f8+6jzOQug9h5rqP6p+6j9sAu4+CALuPgDe7j3oru480ArsPGjO6j+yhuo+ambqPt326Dwkquo/b4roPuE66D+U9u49WLrsPe8+6j+nPuo+BB7uPyfK6j99auo/SlLoPYqW6j180u49HA7sPPQS7j3h6uo8ycLqPbRu7D3erug9A4roPDtu6j6wYu4+gGbuPP0e6j2XYuo8knrqPpiS6j/x5ug9WRbqPaTO7j2G2uo9NjboPz7y6j79Suo//obqPPT+7D1yzuo9j37qPpTW6j2OIuo+TPruPl2O6jyl6ug+6QLuPwJ+6jw0Tu4+QkbqPO6C6jxMiu49fhLoP2666j+cOu4/2IrqPADO7D1GBug9eKbuPtGK6j+wHu4/OQLuPohu7j2chuw8fOLqP80K7Dyd5uo+YK7qPNiu7jwU5u48CZrqPliO6jw2Tug+FtLoPVEK6j3ufug+Ja0a+G6G6j5uuuo9/hrqPpaq6j2xBuw/pRLqPQ/u6DxLuuo+QKbsP8jO7j/8suo9kH7sPqm+6DyNLug8ILrqPskq7jwRUug8W87qPNzO6jz6/ug81Y7qPfFK6j9g/ug+kyroPHZq6j6fgug9sTLuPIUW7j5Tduo+8drqPu066jwoSu4/dn7oPSQ+7j6YGu4+XMbuPpoy6jylDug9b/bqPf3m6D/zpuo/aOruPNly6j5Qnuo92ELuPnLe6jyw9u4+jN7qPobu6jy0+u4/wNboP1F+6j+65uo9kJrqP17i6j9APu4+uR7oPS/W6j47lug9SrrqPHJC6D6Lwug/ukLoP/q66j4qduo+eGruPHWC6D0Mvuw//wrqPwDK7D+Eyu484QroPI/O6D622uo+LcrqP/q26D4RXuo+0b7qPpgO7j8CDug9Z0LqP8yO7j9wjuw+cBbsPVgO7j10Au4/YjLqPCKq6j4vKuo8/d7qPYr+6jxXkuo/hK7uPVGC6jxcOuw9HvboPjpy6DyLMug9h37qPooC6D9iJuo+rQ7qPG3q6j/VTug8qGrsP",
                "A0u6j9nzuo8XlLoPQ0y7j8JHu48iNboPRPa6j4U+ug/uLbuPU027D1P3uo/xF7sPPvm6j1lGu48qE7uPKlS6j0tauo85KLqP5/y6j8Ezu48jWrqP3Ku6jwSyug8iCruP70S6D102uo+8DrsPMiS6j4HSuo8s3roPs226j9ISu4/my7oPn2S6j+Brug/bW4y+exOMPCOJDz4ln2y9Ih3fOpI0TztAuQw8F7T3uxBpGz32Yni9SPZyO/5YhLzWMvM8ivOWPaBvTj0tYRM6iJ7KPNCnCbzQACM8RDC2PYJMjT4AQWk8CRQdPaiQprtWV7a64nHrPBoyerwgJ/S7K3pnPduQRTzUvgG8WCsdPfolsLtBTZS7nK7muidpAT1VZDk9tq52PFdOHjtO75U87kiWvKznkzsCTiY8HZo6vDOx1zyPqZK8Je0EvSjUB7vtHhO8oYRJPdGwhj34urm8UOB2u2zeSbsNkII71qMvu0mFpDwo6yw8RzNnPWtSJLxT0Zk8ncBOPCe/izwtBx26iG1+OVOCBz3+Apc88qikPEHclzx/EEs9PyZCvBjElLydTym9z1PCvbgWIjxk+MI6qqwHO6GNV7xHFzs7PDg1vMrPDblrNI66b3ePu8tHh70draA8rwYUvTouczwb5mm8XgAuukyzvzzgVuI87mS0vJ4/rDzCTs689hxXu98VZrxsxDU8/1Keuzgr9rxn7wo9m247vI4VBD3pJLe8QS/HvDSCaTxPyvI8OmHSu0XHdTyrDkq9hAbrvD/bFjzJppo8ZJycOjQ1vbv2rlM8drlTPMTFlLw/5yY91gNLvFkHJL01GRs8613NOQ46T7v4xCA9n/vnvJtXYTy7EWa7CBJTu6x/CjtQ3gu8n+RRPOgXAzyOgFQ9I8X+vJqxSzxsw8e8/a4/PSiWgD26+OA72+sIvVUAXb2Lv6a+VCL3vGJg0zzdPrQ7eG/YuyDYsjzFExy9mLoJPVGpSrwhO1a8xvxKvI08v7zLJjW9Qe8euq/QuLzJU4I7",
                "iz14vYLfYTxS4zk9YIMPPXtAjzxjoam8/89dPADIwTwl8k88W6MzPHymrrwlSMC88C8uvUciO7yzXew81LAyvcODu7pOeja9EWsCPskcOTyF28Y8rx2sPPBE4jxsXZO8bHQgPO//CrydNgS8JNgbPLhU07zAGFW8kBOAvDe+O7yrktA7Z2IBvaxDejxMfRe6o2XJPMroLr3bVh89pZfQO2Z9mTwkWHO85XlcO7lWhD0bdew8txAzvAncZ7xMk4i7gw+CO/LMFbxXaBa9sTWLvS0AoDzwdc68BAXEPIFPFD2E6xC8VyU7OyllfbyPLde84Z5gveoAB71ruGc8cL7ivC6UFTtCeXK81GoWPel1gbwv2Bw8BCn3PCGaeDlhZFo7zj/LPBbfwDwIXsi8KiM7vJ1pGT1sqlG7IdAVvRZ4Ib3+9oQ6/m0HvW8Xw7vFlue7brEBve38Oz3HupI8QtGCvIe4/by/Hei8HmZzuzNesrwkAf687GIJvdPacbwju+m8PabVPDaGo7ywZgY9r5sgPTAFwLsf2Lo8dKugPPwixDzUUsw8WcloPWq/3LzI/c06iudJPEGStzyRCOS8jtiuPAnUJL2xIXO8gLOSPEnB+TzHzck8IWILPZRHizyTBs06fgWLPROT3Dx3EB69ifhVOxAmbruDF6m9dzfzOz5ZYD1s17u7UuZJuyHairxjmHG86nMrOouUw7uLX6a98GqxOgkUPr0gg6W8fYCKPTxyR7yuMhE9cv5ovJr5Ar1pUCS9AD+VPIwoqLzP4Wg9g01BvDD9qDzKzEg9EoFOvAibdr23KIQ89PSpOze6TL3f8YE8HNYfva3gE71RRuo7pl0mPAHpPL2ZhxG9drF4vUN6+jeDXhG8QwYVPVwi8LpFbdy7h8JYveb7Vr0QuMe7hN8evGv20Tx11GI8sAibvEEgDL2JEjc8s30cPPFcxjzLBAm8rJOYvEOnEDzDdqq8HLCHPL4EaDwGHh27ssS7O5iEdDsxdmA7i4UZPGlZzrwa/IW7",
