{
    "input_shape": [
        80
    ],
    "hidden_layers": [
        {
            "shape": [
                140,
                81
            ],
            "weights": [
                "k+DWPQOf4z3Hfvi9MxSDPbvyRT7zidE80iMYvmp2Xj11E8s8Ra8/POBqzbwdyiQ9RCyavHtrBL2rHAi7fgw7vQnJAr3O75q9wcvyvWqaZj0DrxI9CE3nPXNbuT1OWb88vsBfPf291Dw8ntS8dA9GvagIkzxnySW8EBV2PYziVj2KdWm9QlssvIQjPTvxGTK8qLjePBqPdL0ttwG9z2AMvPfWo72r9og7v8Gqu9nFJTnhoPQ82gxcvLQwqLxQwQO9MRBUvIZzIrwWZhE9G1l9u+/Ggj1h32Q8zkyyO+SzNTw8KVS8rjE0vAsmcjtkbU48jKUUPKKAmzot8S28zvGPvLhjcb3E8uy8gezBu2NW6zxaGRE99+6XvKCanLqO8I28VjkcunTrtzs8iI+60R7EugTtszxmiao7Qd6UumqNtrsLj4a+EvqtvaeiND4QLJe8ZYhcPfK5or2iDXO9pHi7vAqp1j3ZhEG9crzSPF/0jTyhQ126XdopvR41rr1dGSk62O12PNd/ET26alM8QC0evHwt1D2ip2+9aEoUPhiV9ryOqgi932B/OzP2Uj3e/DO8hZJbO5LK/DzXcIG8HGuOPcbBz7wo8uc7XEk6PSsmWzwcRbW8R2J5O8p+9zyw3N67d3xKOhtFhD0bgy29YbmvvHYe3jxwSaw8BQdIPSPKQzqz04A8r6ARPWNa0DqaVUU9geHOvIOLjLsC2Is6BC1oO2zvODyuS5y8eJusubcBVjvEqLu78ARJvBdpuDwLQ1A8HZlQu8+Rh72B7oc9kN0DvF7qVz2A7SC9WpYzPbcNnDyr1tQ8bfKYO8QTFDwMEfk6AUuFPDMLvjzCGIq7uBIGPF5Iu7zuMj294rPFvKPFCT6fz4i7o4w5PdnTKb0OpiI9glodvBpmOD2gI8U8rJMRvT/wcryz5zQ9KT/GPXLMGjwVGzA8ljjjPNeyxbxkC+G7TIGuPdEaa75PtxM8rbz6PHubHT1L1v+8JSsyvZfwCT3t5DA8H2lRuqb0FDwNMIk7",
                "0/wtvt1cFLwO2AG87flmPR491DtHfS879F9XPVasDztxRxu9chu3PMxpgj2vCBC9j1t9vXCRT7uIPSi9DprAPXoghbxlP/a7sOwJvNI45bt5ioc97CCTu2J82rwNBy88HL9pvERcmDynijq9QE2aPM8AjzwDtpI7OZNmvIcTXL1G7lm7XD4UvKyNDb0d1SQ9a3wYvG5ipD0oxHW7a7gxPXFgK71eiLU95+yfOh13JTzFpUm8Xm4CvLN9arxifYU82iVavcPeczv/LXe9Wj4DPZQ5JL2rCB++zUJRPTFYHb0dRoW+/2Wku9Trd73hRMw9LrrYPQHUSL2A9sY6lcXUvJbnKT1iHzG9YDDiPP+QWzu7niC95aOMOVEgPrwZEQ88VfziusGXUT1H/Gw8h1gqPp2xKrxBmKs8QPqfO0NSfzuAPQw8x1ArPGj687zdz4K8NZ9hPf5bcrxUjeQ7OjF+OEQtL70ovC69fDKGvTjgtb1wJ8y8QxKpuwcHADzhj3m7Lq8JPTXv9btacCc+yTELvc5kjzqihlA8ykcEOxQ9Ar5NFmK8tHlWPSnGqz29HZS8uXL3OnyGFLqiQyw8zMR+ux3uELxsmZQ7R7x5O8epuTv0yX+7nvuVvMR5ejmdh3k7WNGMOUsnojkB8lQ7J0SKu5fcaDupsvA9gmn9uhZ5ernEwuY8sMe9OxamIzyBRVA+C8wdvWBsUr3u7ry9sbj3vP4yb70/ka68WX4hPoj0pr0o58g9Au50vmRyi71Zl/Y8c0MyPXk6ADwniBM9asZMPjl4ljx9pGG9SrALPnWQML1EjQk8BX/4vCBcn70mOj47pFNfvBDK/rsDmp27/rHAPOv4I7xT57U8pp5tPe3hIz2SG/y7YbL0O3vjcjz+oge8VHXGvHw1v7xibHk8Cx7Ou8RC5Ty3SPe9Yl8QvSjNILxomSm91asbPDwecLuTqdi8gp3rPDUi6zu1HJ88npTqPP86LT09rBi8YNmqOymxKDxwTog8tY6OOxpXEzybqwG7",
                "HKuMvL+rjjyz6S88SHEHPCIODjwocUI8IKUkvSL7c7z5JcO7fbIIPfcePjuZT6e7jY83PFYNGLwIEia8P0DBuwozIDxtYCq8NCkgvORQ5zu8K22+GhOjvT6fjT3X0bC8nalSvm1/hb3Cq4a9VXm4PJveAz0m6wG+A+yZvKj1hb2wP4w9VRjBPHww2b3erc+8mWG7PT8yMr1pTLw9FyjWPRGk9ryjEHY8Q6nCPP7hPz36KdO7RW2WvCycMTusrK4814UoveM+Cz3cc+48kezyvaR+wb2GIko97S6ZPFJOcDvjWyC9BdsRPNAtuDwG/fk7rk0HPGr6qLrk+tA8PAC4vSyfwjspbZ08o55dOi4vtTwcnUq8OMIsvU01iDww3ao8FAALvYAE+DvRo847OGJ4vP7O7LrDARq9xebZvPGvzbuFD/Y8KDUXPYM2AryceYM85m7xvJmEOrmxEUO7BrBzvITmArxoalK8i6IfPbgekjv6oJ87xckGvbgN9jwySRC7XFoRPDnofTw0I9Q7ScazuzEHDryhcEU+mdShvUU2bjy7v0o+euBZO6BwBL4iBdg9JCF6PpaHKb3kgc+7FDIZPfBwZj32t3W9ajQvvX8wq7z381w9LpuWvOEIKb1lxxc8zWMlPX6Kmz1cOQU9i2wovSjuEL0hH8Q7HAJsPSKSK70lILK88gcRvYuP7Tttb328MRkbPayDgL2eD4+8YL3GOktuBr20/hy8Y0mlO/H2TjzXErw8dZ7TPNpnKDxLYRg9073TPHUqzzyTe1E9gMnYOkfHIDpwprY8XjrPuDNk7TuPPh09LGBvvD9po7zvADG9OYe5PMpGGrodgqu8n6HdvBQbszwBMZi8liFSPUSVgbxs+oc8WiC7uyMy8bz14Gi7iBBwO/3nNzw0HRg8wZpUPc1psLkx5I28OMLROnHcbzw5P788vxeLvPVmF73Q0zg8v/0aPTO2rTyJO22+DxPNPNXVFT1ZRFA+ayv9vQ71pzsYxAA+ZmiqPDpnc75fsdg9",
                "mFbNvZCpRT2K2SI8An4BPu4abzz+bdg8gdDAPG6+UTwlhoO9E9kuvWRs1L3N2Aw9Nr13PAhHv71daiW8/rVqPJXp/Lyk3T68skH5u5H4y7yMDgq9i1PUPIiQNDw3ahK8dWrpvK+z2jzeoT88Mz9cPZ6/ij3qLNU8aSEOPT7mcT2dmji9WCLLPGXf+LxmSUC8aCTbO/9CnTzCFvw8qw4jPVeL7bsfgia929Y+uxdQMryixSK9+xMvPEe6Gbzw//u8ubLuPANiZTq1lzM7y/7FO/Z2l7xFLbK8yBRCvOYgUbwKSp08Oo/RPCWJJ7kDhgG8OEOMPTtkBTwvZ/U7R+WmvM6bOjwCwue63veTPOkhAL2OeBM9dKpFvGHy7bsgEZu+TQtfvJvYpz29hGS8n+VnvdEGmr5hlSM88ukHPr2J4jp+wvM8WVerPExypDwZoiu8YU0NPYpEoj3G85u8UkylvfCHr73siua9zQvCuxfO5zv7LtC9RcQ+vVmosjzzCoy7psbbvAnmwTuT8Co9QwN/PGgvSjza6z87IJ6VPBCY1T3ZE7W8ZW1pPG9gBj2++Jg83C5+u0r5fr2Fm/s7vQgBPF16Ejztd6u78TBKPOSM+DyEu8+8oC61vNozFLz5Phu8jNoGPOacorxxAo+8kyPSO97AwbuIjOW8N6gnvX2+ejzZ6Ag8S7BBvdgfaDx24ew8SDJHvK9oCTzMWzy8ipdkvBjYmLxuPKM8l84WPcsdsLyb9QI9bOq4vM+LID34zxy8NTu1uqZTDLyB/DA80kdjPF0IYTooMF88QQ2BuyWqrrrBI9m9dFGhvNY3/z0kBOe9w+9ePpjdBbkX/Bu+LryKPAoLR71SdZm9PFW7vRzXuLpBuBg8bVKAvIf0GD2pqSK9d4KSPRoTOD0Jb+U9NZtlPTJjAT72aqk8R8YPvFxJNzzzx5u7HsfZvC3iCjtRmuQ8y2tiPOp7Mr25GLg8ZEXdPb1qKb2on/Q6lt5/vBTdxTyVOOK6gzqTvJU7qzxsX3S7",
                "mRkBPAtfyLwNZBW8GHbTPbmULb3uIEi7IcjpvA54gTv9udk77dIXvbA5MDzGxtu76WwvvN5E/DnJk0Y8kE+mO1oopzwWn8Q8kPIuvPrpRDwHAoS8RAuou/WZIj29ilk8iwMou7rAJj1prOi8ALndPHHp/7wcVa87i1yDPBNKNLwBJZe7ahtKvNTWybw9m2y86dS0vI/DLLsR3/S8Y/+WO2MqYbtq0bU9DzFRO5+DI7x08tY+qhetu0m6Ezzrgms+qCYbO8QTt7p2ty29kz5JPRXDB73p/LA73rHruqByVLtYCi27bU8eOyzczrvt0Jm7T7w/uowyMbztq627ksRpO4eZBL3rxho5aP6CPsOYsbiYUIO7AnUdun8B3zkTZ869t988PDBzBby688s79gJjupHvWbpGw1W619yvu0OOmzzqXWk8sbjWPBsYHz1boF29C0YdvBqZKLvh+Jw75RQPOv1qqjnJyBQ+5dhCvNFdkztWnwG7TAPNutFmljwZ9bc7hsmnu92cw72zkJg7i9aBu8F7U7mMm486MxQjO1KphDsC3QQ7RtdXOvoQ47l6oHg7bh+rOxHoaTr2PaC7wvmcvMH2rjs9ERM7bZ1Fux5afDsFgPO8rfLoOafawbpldRE5pWAPu2jQfrumXVc/DfswvVURGD6E7YM7j7OMPHporjxBhgo+CJqdvCgklr0TlWe9NszAPMMvNbxad2Y7W5mYPIeIp70LGiM93QMmPXogo7klmym8o+OfukBim75z0DA86YohvQ+xmD25kxc82IxuPbadAb1gpsI82Ro9PCjqfrxF30a9E9glPnr6P723hpA8YMwzvHFo4btTQKc5UHqgu51cuTxH5Mo8kJG9POJzVjtU4wK85UD7PXFePb1H4t45sdWEPff6AryVfxK9q7MRvamXCzwlztw8SHybu1dsJD2G3nE7KRBWup1+L70dWd87UU4FvP56WDvWejy6o1CMuyanmjv1eku8DYoBOvBU1Lw7bKM8SDkQvD3OZTpAa/Y6",
                "QxzjvJeYATw6M4U8laFYvIVZkbyuPWa9WbCKOwsZ7jubnQu9RiPJvIZPybykxUw+iHt2vS7HpDySK6w9Z+kiPjhrBDwHooc9YFI9vXvjOj3NiAW8a4N7vS+H+7tsG8+7CgxWPJoGSb1Y8II9OrpOvGI/tz2P24a9AvCLPVvDmT2Ny8c9z91zvW8l1TzxlOa8V4bgvd3ruDs468g81l7ivEk7/jy5ZqE8o65PPdUanzxxRUO85jcUvWXZRDzL44K8CPf7PM9N5To7lAw9bb6VPMznVjvWxZU9BYCMvWfcajvu23K9JZRDO8UYBj1iVpW8zEKHvGxRVDxgGry8pc5vvIphPD2FLgU8n93VPBbbf73+Dgk9XZx7vBKwwrvpvZI8pFAhPYreZT225MC7/oUEvC4thzwkm9Q8M7INOu89GDy8GIW82giCPW60pzyCdm+8A0NzO3eN07pShwa9l2jbPKyfMTxn7Fw98ksEPOIC7ru3S9S9/CxKPQhCKL6ZzSq9xwzePLcDizxjtRI+ndHrut9dwD2jCKS9LKzkvLBggDw4Gz48Z5snvTZ2Hz6i2mq9rJv+PLvA3rs55fS8HmIavdY7pT7DBo+8PZiUPZ0WGj03dSW8BuqAPTRjnjyLrlG82DvAu8ac0Ty2Vz69U+dqvtU6oj3O3gG9LpCYPPI3JDwHAlG8f8TSvNA1bj3cYTw8VwfYPEY06Dz/C9u8UjbMvOcBXzzPHa08dSGVvd3SXTw/Hue81tkEu6PzRTt+BvU7p75uO/6pOT1P/2E8Oc3LO+pf0LwQiEq9DHEbPUeOAbsEspo81tRMvO9ilLxUmYg7ijulvBNxBDt7fd87IvPfu3ocmDwPPbC66H4wPInlhjvH8P28xBXDPAIzOj0n/wm9s86rOy9n5DoVBP08wY33PEC70Tvr8Io8PL/fPSuwUTyGzgC9y40wPbi6hj0DRRW9qkXtPfr+nbtprZS92XcPvKizPryt/Bu9TIcHPSfagbvjtAa+I/GLPRq0XT0sU1M9",
                "/jDCvYo3BL3f+Ce+zLeXvVRwIjyNbJu95ypXvTmlPbz9biK90RblvMRm6rvBTS09fHuRvBUEFb0THw87inwhPLz0B7sN8Va9gL7NumTEnjxSpK68YgQMvAr1iT0yK8w8JnlvPEayAL390Qu9vKsqvTlDIj16C4s7BTRtvHwqIDzdndK8qrGKPM9sMzyQy+y8wHqOvPUDkrwK8a+8Im19vOUFFr1HDys8mjGAvUpuHTwFDq66CdFEO4UYkrzW4T+9JoYYPB7HSrwW6lQ7Si2YPKRWVDwjqgY9eBYlPIvcj7z0+T28yjeXu90gi73oSWG8EJ6zPBxm67w+Vbe9Gz2qPXqs/ryplQ+8j0gOvewbkD7lLYK9Pv0Zvjo6yD3IDRK9YDQMvdPLwLxy8Hu81GdAvIcr8bydlFA7H10nPfPgjb1ajqq8CCqCPPIY673o51g8oCW7unOskTxpVHq8qQrEu9ESVzysMT095fsyvZYAU70kONa8bCKqvEfqkLxj1jO9+RZivdMXgb3ccAo97meDPD90YTyVZs482h2aPd3S3TxBolW74A1DPEtwrb2FtIu9wXPJPABCzryLSqU7qvEYPPUy8btWPBu80uaCO3kU1DxB8lE9Ri43ujfRJzyIAbY8omKTOzomijuDXpC8ob03PTOk0Dt3GA68jcnFvGRK3TuGQDC8X1oOO7TsBb2dtrc7UU57PMJ3frzzJEe8hBLQvNUS7jvexBe9tNvFvK+hTzvdzFG8+E3ivLOvgrt+0V6+59xOPRvrQL3PoRw9Djs5vn6wZj2dO9s84bJhvRdvk72+NBI9V8RuPq3og70F9CY9h0uovZxiI7s6b0U8jq+UPSfKgDw063y9yL04vO6ksLwVlEO9jbqtPS3TLjxUj4a8NT6FPQ2kxLzuNZo8PTPFO0tz7LsFZzs8z+WgPC7C4Dspzi68gAZxPa19oTwxSJA6R9UYu34yyjwRWf67dxlPO9vhnz3PP5e9nAjjO3ByqrwAWpu8xMQoPJQYeLxXGIC8",
                "iGtpPXNVBbwZdJO8dgSXPI48ELydpxY8XjauPHZf7zl+wS08BOEivH/0xbtd8TM8/ZLGu7iNCL1Aqm28D9swvCYMczw3fga9QyROu+ECqLxBK7Y7dURRPSVADry0rtW8NmmuPLIfVTwMZMg71oqbPMABqjxW/5G86L/HuiKlFru2+We+7nKZvpPFPb5Epao9fdl0vVMq1jweIzA9bB/aO+oiKLxztKy3hpbGPJT5r7lTAQ89TuxxvB4Vo7vRiBE9NJe1PC5e6zs9qoc83tbFvTbAlzzIAr68AkhGvDC9+TuNPFw8rVBNPFQ6ED1ltxe7LiO7O21IkbrATLO8Lvc6vDcn+zyVPTq9AQ1wu6BLLr1nmX28oAYNPCNjWLzInqi7upsYPT8uGbyOBxi9YEBzvV6Hsr1GyjO8KabYOxCgrDvh+re7wN8QPAgY/zynRQw7rVcfPe4jXbyUQbI5FhwBPXJouLqs8ys8LQd+PYXl3jy139Y89uqevGSuQLo9k/m7wMqcO891g7xlfVq9frRpu250PDzCbDc9B6Xtu8HCOL1Oa3U8LfcMPPOBMLv5fq28GhqCPNPgjLwJoXG8IOJtvEy43bvpdHu+GVedvdzZqL5JUVs9UXIXPTErJDwuS5w5lryGuw+WPrxOWQI8JYj/O6PpDzyeYmk8ZQWjPeBlQb14leS8G2CqvGyXDb2ep2U945hHvQbsjz1DFpW8SPoxvMUJyzzlcau8G6YlvTqq67nU3Hq7DzdmvGGnJzzZxcC7D5umPB3d5jx6rZe8L9M1POyKXbxTQ5a8+IfkPMr6DzwNJVS79JYCurIuijtJIIG8zO8GO1G01bu7JJi7RMCcPH/CezzRvYW8VoRHvZpmPDwYBC09nW9YO8yhkjwwYxw8WIrRu2/I9jwlzLO7Jy1MvIFydDz/lxW9h5+NPILJKzriTAw7xdXyueW6i710cjY9ugIAu7koQT3BfJg8T0VZuwHTJ73WV4U8VEnru+VPLLyvrfO6PeLivLJk1zyzFwa8",
                "f2XNu3yDtDvYKT2+bZzaPBoME76nSls+5maFPneBY73Wrgc9QsXJuA9yJz67rkw9temsPSqQLj1cV1Y83K4RPQDQBzwEdLw7c72Lu2cahbz4s5k8ndR3O9kHN74QdPW7ClSBPUT8Y72au6A6oRQePG/79DshUHi7XJyhvJbFcjz8CiK8enh8vR0e+Dwv0ac8VbZHvZkOVLyIksY7+q9/PG3bP72kqMI8iscTvGzMh73CQtS8OMmTu2pgEDyqtpS8weZdPTY2TzyNsD28YblmPYonPjzsTt2851uXuRxFAb1joI08IIH5O9jgnjsFwD29cG4GPSWFfzwu0j07DXPBPJf5JD2MjV47lSxlvEqA6DtOXoW7fpiuu480h7zmo887BWMZvE7c1Lv278+54B/9Otp2nzr8DpE8chpWO1NI1DwEwvO7PSPGvK8eFLouhCW+6I6NvpQv6zy0/G89TMRPvXal/j3F27k99C4SvcbRp7z12B293ccoO2dG0zwCvmU73JjbOpAAqTrGBi89UWd4vWsu1jtHKQa9C6tHvqaMCr7uN0U9cKgUvB30GDzVtgw7rhFUPAAlazt7/iY8VcSVPGSEBjvcBeK8d3REPbucS76A0Re8XBwrve39Pzy0T7U8PCBlO2xHhbtDkj88I97DPEtnpDySW8u8jE2tO0kaBjw1VwM9MxngPM3Q5rsToLu89YcaPaWRrLtQ/8k7P0H5PFWI7jwaXaQ72Bq9POsiXbxLhaK32Pe4vGswhLsHO9K8lQadPNjg5rsua6g8zZNyPMSumjzQ5Rw98OkiPBMyezvfbmo8//JGPXEO37wKmJg7tNJvO1Irzrq5nwC99MCxvCTDYLy7YwK92sVRvDf4zDvhbIq8f9W8vBarBj7MhKw99H6PPZs1SDpm+rC8BNQnPNeaKj6z66Q85sEmvWxHfr2R8089si06vYyTZ72yefQ8vg/7PL13r7wYz++5JqHCPMTnYD4LgAy9pSZPPYkKsDyZuv65gvILvbx5Cj0WuoM8",
                "4POhOpL9JLzoz/c7w4n3vXa7nj1UO0o7HrP7POWwhTxmP887aUhjPYKLmzuVGqC8msVfvKyJZjxOD+q9nRZRPes4DDs75Iw7DiAAvdq38bvkqwA94Cg4veBWI7ydLw691ZSLPCmEqbyD3xE8e+PcvOFxDbzMCLS8JHMvPAPdUbojNKW7m24BvNVbgbxW+vW7tS4LvP0SBz0z/zC9lzD9vMQyn7xmqJ48Q+FUvf/bkrw2jDs812XVO/tAVLpUBpO8/W6vOQg+AjyoYTU84ViVu4hK1juiIg0+eXKOPCz0lT0E7oK9MML2vWOniDsL4lO9aVYdPT+wXD1bUaG8xZYjPbCrED3EX6a8PoRMPTQtQ708uEE932uzPL1hr7zyKxE9lNM3vME1JL5vhla6CY9Qu/FBnLz1zwU9batUPR8Lx7zhDps8ugYnuroutL25EEM7bKCnPfLapLxB7NY84Mh3vfr3gjz237U7/7/dO9aapTyTdcU8uBaDPB2IcLxoQhi9UnLwPfh9CL1DXs+8A4IfPWMxtrs5SgI8FQ32Oav9CD1lK5a7khUGuiNqTLzoeVu89KJSPbFMsjvqbiG8q36fPPZiZzxlgcM80xZGPJKeKj3woby8awzhusdDC73BDWo92JpiPKrtFTzsYc+8OLcgPTUcqzyp/nc9OznrPATE9TucUjq8fnp4O+J7NTsC83+8BQ2FvUn0Qb0/T++9eA7XPkJlzbz1eB29Y5lBu5msh70b0Bs9cS5bvMPzzryBxU29fbJwPFNhmrxf8gu9M+sYO2ckqDx2dww7EXXMPOcWcTmeWSG8eY0qPtZU0j1K2Q08WbEZPM6DPT3D+PO7ZkjFPKcNbTt0wT+9u4wAPcaYRjxnHx29/mk7vK+FHz1KvtI7rY43PMPGPLydcKa8UP/au4e7c7z5Tq48yXoZvJe/wzyv5Pa8pEAGvPji9D1UJ7q78GAgu4Zo3bsFuEO7/KC/unLAvbw6LKw7rywHvenTPTuV2su7DDzXvEtOLrylhFG4",
                "CI0pve1aS7zfVKO7z7qlPIqtxzsIkbI61lI1OyPMrLttxti87PQePFSpETwdsfO7eI8uO/YE+rxTLK68uwejue96VzoGs6O8cIQLPPuSlTygRHM7ytDIPJuecT0db429hT+FPp5yZr0htNq6HMkGPfAtGT3c70o9N26CPPL0jL0b6g896pKzvB3jRrzflom9ecRKPbc0oL3d32q9PSSDPJlXCjx/6xo97RKMPeMSpjybwCk8s2RIvE1FR7zvZ4y8AIHBvIjk/zzFfHC9xacZPS6SeDq1LZ+8AotxOyIWJL1WwPw8Lq05PRbsgD1IBgY9c0ycPAHqWTzFs2C8Z3PcPGTiEztkHQu9gDAIvJVwlT1ngMG7104UO2rmyLoTM047BwwJvFlZJj0dewi8muI/vXUbxrwbgiM9u8X8O8DTxrkHpFY9FaRFvO2hbbyGN0s7EBYtvLUYe7vpTmY9ezJ+PDXEO7zs/jo9BBKcO/KFijyVoEO9MASQvG96pj2jOqg9g/B+vHL0o7x0Mr66AehzPF0LCLyYvp27hvPBvGcZQ70MUqq+CQj/vO9i3LySZcM8/kCXPA0OQT2e5Nc8OHENvX5FC7wz+TG7swf1PMX+vrzN8X+9MU2WvIaZzTxqBps8uUaYvLgIRDuXg0s8Cx93vmM7uz2F6kM9Gq0ePeZFiz19aKW8lgJsPY8JZz0GEv08a3YTvTKzAzvsJNu7gfkDvrUDJb7LBMY8L6hiOxE5AT1Kxyw88SjxvOUambyfUmq7Fdu3vHSkAbx0jYo8LM7evcI9AL6olKk99XVMvJC6cbuwxl+73Dw5O82HwLtBTCi9rBRnvYLiBj2/gUQ9OdaUPNUsA7zm2+m7Z/jsOffsZbyBFFo8JMz3vClotjzi4+S79/qJu71dQT0wRrw8V/iwPJbALr0G8z295ctMO2/w5j28jeq8ALgnOlXSiLyOb0Y7R09kPHOSBL0O6ao8xe5yPcp6Tr2RYMo6ED+MPQHXaz1rXqq89zamPa+8HD0dwXy9",
                "LY0BvNAUHLxqs4s9GA3uuofunzxE4fK9OYyYve9Ckj1YXiU9S4VNvb60mrtD0yU9I0n4vtaYBz7viN48J7dzvH6QKLyjyag7qbCZvLzTvbv9XMq7AkRzPJ9lJDvtRYM8QG5qPKFPdryh6K07aPDAvJiC/zxIguE8Y1Zjvbq0Rb3bsCI9t1AEvQxQJL3IW8q7yHIAvGh8Lzv6Rg0+DXthvJ+zgTwP1x68bkC4PPLjTDx9ZPo7u0tPvOLbiDuVSp07D2U4uxY2izx5vDo8U4gHPPw+Qzt5h0M62HXau+jcfDwHH1w7cp8dPN4B9TplV9m7k8LouzKUPbxdz1k81tyZvDx/jT3+kfe87P8uO1fMSTrHkp47wfDgOtgdNzxoobG6WHULPMt8k7zfs2q9Xaq1PAU+sj1N8aM7g5qaPTP3rL2h5NK8GdycPMuvXjsPuaG9w/YSO+Svt70iRIK8IxpVPX6ZsTy00LU8+UI5PYGxsD1eJvw8WxOqPR47Ubvq+YI9GoWLPLQlDrsnOxw9JpYTPQwTIr0k4Im8VScPvU2du7wT+8+8+hW3vTjZs70FZzW99lyfvKZS8byXAKQ8a+oQPeBWJb2qXgS9NsGZPG9u5zwmt0Q9KYJXO6SxIL0mXa874JrRu9s29TwSPZu4QCl7vH1sHj1U2Zy8ra+gPJlez7zwf049yEDvPLi+xrzqO1289bZjvKIR8TiVOkC9t8HkO882Dbxq8vU8bXf0O3rD57zcxiY8ip8GPSmrGzyZTV88CUmLvTSPHL0bsDE9j3GZu/H7IzwUe7M7nPTwuzoJlrwOj6484/QqutwGejxD7I89zZFaPIKnUL14m1E9Qd9qvSzt372UzcU93oXxvJMttLw+nZA8WNdRvlYW771RPHQ7M8FNu9L/8LzmgkK9XUK1PfWF0LvsGai82MotPBkTCDz0u1+8CFilvLwrrj3iOzC9Ttf2Pf2W6rsTiJm8k8sMPZoZrzwMYGW9JjuuvF9vAb13gA26lRUWu/0s0bwWBcu8",
                "giZLO+dLmz3bD+G8RJ+NvDw5P70Alv89cNawOyC2zTxuNgo9AEGCvMZRsDtOPx+9U4iIPO2GFTt3V2U8Pqffu9vRpzw3Tew8NeitPGv1F7oB7TS80741PC4O8zvcL0+8kXKduzY5crykV1c85ljYvGJ5Uzwi5zU7Css9PRaw+boGgmy8hGQLvWwR9ztRvvi7qnhZPDyf4ryljz89gFBWPB3d2Dw6Fz+8J8eNPC7wM7zLfCq+z2RevqRiWL7cJIi96WsgPbNfvDzv8aW9MHSeve29lzxTTUC96fwePZ9dY70VDqg8rEm7PF8KqjxCUXQ8fwscPYEnYjyScX07xEsSvimZKj1Z8JC8k1+2vH7ZnD0syDo8TmtCvULdkLxo8gW93brhPHBbzbyVWUc967dXu7uVND3n2gG9IeQHupEdrjvTxa+8/qWFO8cHpbwjOrM7ElLuPH15Obxcp9E9CmbmPRyG6T0bdL081c0iO3JerrvY5A890eZ0OzJhMrqYnda7YIdXO2HCebwajjE8SBLquuU5HTysyhi77kGYu1iZ0zzreZ48ohJPOMEfhzsDBME7bgR7u0sa3DypUfg7g+GhPMx8crzm7ZQ8BtowOm0OIr1/GVG8P28UvDyHIrx+FAc9JsbTu2NsgTwr/Sk7gZ8tPMDlYzwjEJm6jP2zPZZXo73b77w9OQRHPlRi9b3ihL478B/4u/LzkD2zhDW9hPgSPWgJBj04c0K6PFg4PZn8+by8wXC8INdcvX+jcrw5d6K8c2SpPddIgr0rw+a66scqPUhJ6DxViOQ8z6wmvc1i1zxOVEO8TM5ivGDQu7vlJno7uqgzvldLiDuszNo7sAW3uxdLeLzOCy69FNcdvVN+9DuOZZU8gtgUPZ41wbxOBqC8GVgEul5jaTlw+LO8Sqy8PLMoD71pBKg7oLkrPBAJLr1jO0I9JAjLOfV/s7xGU5E8VB7bu+TuR7spPfC7ZxSEvFt+Z73kkIw8AViUPKNOnTuIqZS74Z1DPMDHar2p+gE9",
                "m9ciO1estjxTyp86Lc4LO8xbNbx203q7JWB7vOJCnjzFYYI8B/lyumczS7zy/YQ8GD4HO6NMXzwnk569QoS2vLlxrr2P4LC+xyUIPnRz/bxwSjW+CS/wvCYDzD3CshQ9332DPeuC8TzTmTO8AhgLPBT6bj3z+IC9dk2iOoOUELuk7cU8hdYqPYDyk73/Im47RWtNvZ7dprtFohO7ZTMqvcPkWz1ej9i8nq3XPHKaLLyaioY9B6EuPZveoDs/6yk88vEzPfYLJT3a0Iu6bRMVPS+zlr0Rd9K8kVpEvXbx0LxVrqG9hkJ9vd1gajxgSB68/Ar3vJQRpTu5/6c9e+haPTgjxLuKSg+9B4EGvGTKUL1V9rs78yHVvCkrbLwOTGI9oZW2u154bLn6XoC7ss04va7ZM73xvrw7RoGOPMsJLjyAFwW9jrrqu5NAmLxGF1o7ExkpvNxY47uHy/e5zR+RO7CCvTwzw4U7DIR3OlYKi7qbkxy7Bv8fvB62xbtn+xk9gpCNvLCd5TvyqFs7Mte6uzMKYLxVTNC+F8ajPHvzoDyAw5y+BUlhPbVKPL7DHC28lXmjuvQ5Kztxu6A7aa2MPTUA47ss4iW8Ea5KPEZeqrvXOrO7xnFyuyZPPz5dS5o7BsiXPQu4IrxfKMe7yLu5uyDrHLtet5U9oTINvOhIqzuKuqQ70YsRvBJbbrowRBQ7Y3R1OKi0Lj19DAE9n/FDPSMQuj0sjsm8UJaVu2c9Xbi+92k6Wwqyu5XKIDo9pFQ+1FIivV397rttLrC7LDAbPFZwd723Mu+7BbI+vNVtkb27bFs7ypl2O/EvHjtp4Ks7LUKtu3wen7rwq/y7zHTIuhIXSLoHZsq6pXxVOe9Qcrs9N1s7SBSlu9+Zibv2rcG7G8RfO6/s4bqtids8wcWoupmwdru+4de717IIO+1cKTvE3Fc/V1orvV1GDr5B7dc8wDZ4PrL7FD47ijc9982nPdkEfj19Q2S9HiOzO4QpJ71okhG97gGpvLzSpb3m3gM8",
                "y69lO0TFlL06+Mo9rZQGPfknljyNKgg9JgxOPfaOWDyiMG+8GeEivCEFkr2ac9U8t8HYPGtTMTyMU5U80uUZvTWCszzqZA89yPC+PJHGBL1nU2Q8uiZou0ZhGT1n9/O86GlVvXniQDzeXEA9dllmPJOLDj2ftME7bPAzvWopqTwGMNC8PMyju751sDy3jBm94+xIvF/HqTsfo7E78t/SvDOZD7yRlBK8AL9IPKhxjrXXxqY8gDczPIDRMr0D3I+7a1z1vGRcCDutmFy86XcEu+xZBL1SCFe8ThbqPKOLvroaFcQ6+WCZvO7ZlLxtl7o8LhS8PAzYijwMoTs8kcEjPCkKJzxadOi93yM9PZwioD083jk+90oQvEX2qb1T37s9/+jwPU7dGz4tyO09k89ivSiyzT2bixg+hWnRvfMe/rySarW9thbLuYJ9Hzyi8E48G50qPjoVfz3Gftq8AI7Eu8RUDb69gY27UNnSu4N4Azw24Aq8Z2Y7PAV+aDwic9q86raQvHkFCT0b+mY9kubIO0CMkbwsCAy8ZeubvLv8HD2QyBk8LCMoPHDfpjxyYUy9uAtzPKIvuDy4KaS8QFYcvYdP2Lue5888Igw1POZae7z3+Ny8i86CvE25p7yvTdy8PFRsvJ3gaztPRZK8/JCivHAm3rseY4S89eo6vFZTnjpzpKq8D+8cPFRpprvzT6e7fl/gO+aIHrxRtAs701f6PF1nIby41h69krG2vH3zaDxhFR08+bUuu9ZGuzy07GC8ILPqu7NmtzwoLI2+ii1jvf0HwD0zirm+sBIOvEl2DDwusA++eHzjO1w+NT2w0p49ZPiQvCMUEj61JtS8+ilFvJSRiT0+iz+9mYo3PDFx9rtuWMw8PuwzPPs2Oj6K24m89iQ+PSG4gr1au1i7iDbGPdFBo7zqlTW6gdh6u2OzkjxtzSi9JzyMvb6gyTtZ5BC8qUMrPWForrtFVgW80upgvNQiVTySxDQ7ANITux75y7zfdqO9CB/SvBDkdTugRrs8",
                "OX8bvXg8wjx4z5Q9oJyuudC1nztkKjc8NS8rPJZRuzxRVNk8uMySvIE2iL0SUs67bn4OPD8xLbs10o07ciddvG3/krxsu8a73Z+1uj4n/DtrWqU7juM7PJgVozsITEa8hpsFPUsYDzxLyR696f6NOzfMZTtygyG9gxKfO1L7rjxEPdW84WCMPP7YXjl9maU+1d9Xviz1KT1CFM68d77VPeyklb7704c936/0PYz5rD3HGAU87Y2XPWmNQz0IPwk9dnq7vMp+PDxxK5A9SZiQvc5KTjz5gKq9QElMPtNu9z37BAi9b33BOp8UJDxbHYO7pOocPJpBIjs8wya9X43Ku+akgLwvocc8qzPyvPoP9j2w6Jw84IfyPPz0ybqS3nG82LyRuymZmTtcgPY7oAxrvBnEyDyDrDA9H0rTOzb2lb35uwu9hK7lvNn+rjzswZI8UP0Qu4tTXzzuIRa7U31ZPNuBPDzg/Z+8FW3NvG/05TwKU5+7eiZ7PKy0EjwLDRe7XcmcO+WorbtzXU67YV2MOjwjd7y9kEG9rgfHPHk2mDqxjWM8a1wFPcA3JDtj7rU7+odruxS2RbobXE889hnCu9WdNbyXcMq8Txb9OtT2wroixaO9vmmfPKU9erwjEXw9YEFlvbjFP7tIZJK8rSbuPP7Ad72GLuM9fpU7vV53Fjx9/xe996omPuAx5r1jqkq943ClvTkQEryjHiI8UpQtPgzPur4CYcc7uGhdPNlTjrrWhMC6ZNSMuxGfo7u5pLA8EM2uPHbqETx7uZc8MaIbPcVORDx84hC7EBIsPeVHBrwSr647vxRaPeisKr1OWbm9HWhbvWypmr04PpK88mEhPN1jUrxOzW+87XPcPSjdb7wULQU8HzYQPXm62zp195q8hH58PNV6ArwiDae7iXq2OzggVzxvr/G7+v2duzuIhzqpvWy7vCK8vMgLH72Hy1g8/2cbObc0hTwsCkq84GU9vZfGy7xATJ27gYybvIQjKDw+hJ89lNyBPGOXhTxWuzS8",
                "B+lkvP8UV7vSu4m82X15vMSPFTtczuu+/2C8OxTitzxT9Wm9NDFzvQ/Frj0Q5Uu9kCksvD31ezxAXL6841yOvaraf72N3jQ9R10OukqW2TmVZA6+xn+Eu9jB0Lv6VmW8RyxnPkM9/j0J3Gw9SGdKPMHv2D3nDbq8ySDcvd+AvbzUzkU9LFYBva7Z8LzAuLo8qXWMPCCQOb4MYIu8EP3Bu1O8nby0ykM8yA6APHFoj7wsoaq8Q5nMO3w7/TvTFEm9yUAiPdg2Ar6/ZUG97ZNivAZc2zzWRrS82X+vu1oYwTxDL868+rDxPKCRPr0QojM8gVsBPdi+vTzdzZS8+QfKPAroSzzg8sy7Gyqnu7fkubtrJBS8Kjafu8hqa7z+KGO8tnwyO9LHTrxNCBs9+AmOPO/y6rzBCtS8OkDmOnvFuTuTGmQ854wtvJ0XNbq7Ng+9+UKuPGylvjxtQWi9RRnxuU8BsTsHwta/4tijOymZ1jslFh8+EyH5O97DCjvC3a4+IryRPJx+yD3FFG47c/7fu7sXqTzmbqa8q57YvedHATu3uzI9pNMUvFwqXjx5PI88go4FPIhnLb7krq47ANJiPTdXZzt9tYi5Hid2OzsZjDtokeu5phvGOuazyjuiC4u7d5cYO9X31bujGXK7Mp6KuhmzvL0t4h29CyFwvXUU8r0h98C8tXO6OvZ+DDyx0zk8+UfYua5b4jlT35s9fzqVPZ43CLtKjpo7/CS9uvetyrxuCis7r/sxu2eC5rw4XIc660REO2F2UjutHx07F1fhOwlOBruXSjI774jPOq2SkjuU4qM7hMiuvIMqvDp+qMo5uVCsO98WYrpGKvI6wVUVOvTK+DpXmLs7k7iIul/DQTu+Cm06WMaXuxzGyznijg8+04OevegKWLx2niq9a95XvbudH7xBU5A94BurvdEgqr23pAo9KBjJvWrkMDwXp4G926i6O1dGGL10Vjs+ozASPVY0Rrz/Ho695DXovCUurbwCtCW9kgGZPGJqdbw37rk8",
                "ePYkOULXpjyB0Qo8g8UhvRxeDL2Ytva8XGJLOsiBl71/pho8OA+wPEKc67zEDzu9dB2cPKjjmTzzogg90vUzPFPEiDyVOOK8h50TPICWjLyiMKS8bwNJvJRqurvPlDq9PP8Jvkw3o7xDDKQ8ZGfwvN9PuLxt7IE7Pkm+PGm2CDzUr9Y7tsh6O62a5DuLAhU7/1M1vI1FF7xHgja9EwRevGvI1zpDwjS9VGmMOyQsvbs6ngs9O60dPOTjL7y1AKW8W0rQOtHPlrzkVJ48QJXhOXl5Jb0Xnzq9aI6sO+pUQru5L629HfqAPAjIWb07R3y9xsjFPIprKDwNWwc9H7F/vJJm+LrNKY29RH0Rvq2+YL2OkTS9tPS4vMraObxWrEK9Ao8xPDW3k7wmvok9NU4HPjtovb1dcRo9bHXKPE6u8z3wGX48GTa4vWsfgDzUHZi8xyAVvSSlJDxp+jY9aJIFvt64hL0VbaQ8eScdPT9ljTvv3UM8KWvBOr/xR73iFIU8J8JRvHLkSb08u8W9iIKYvfKPzjvsr8C8L854PHyKMrv95B69vp0GvdNBlruOECM93QUzPdhYOr09gAQ8FzDUuoRiaT28HHG8IlP2vHDgJToDGMW7zAJ9vK/OgjxSV0e8SZWRu4eMHT0LFlY8Qh91PCzZLTxNSiG8lKV1vRVkAD0CZ1g8rjq2u9R1FrxSRlQ8DvqkPOEhI70M14U7GI0NvI6HlLzK1Zw8AqVyPVqsmj2QCN89miuFPThsKD7pfQu7GLrNvTf1/jzYRxK85MkrPVDVGr2iXxy9hYCRvdNxmb200tO8F7zBvblz1bzhO9O85EgNvvzKYj20rXW9fewBvZISiT1ryY68eUVLPCIke72K5ee8hp+gPM4UnDuM2Hi8b/gqPVzZjD2BTOg9inyxu8Kbbzw5GTw8UAYqvcTZxrwVRIA9TtKsvBg+6bygYM26AtvNvHRMjLySNn89X6DsvDyLmzymR+a7TuqfvKdtRjulO1k992tVPcIRXzz5hGO9",
                "JnJQvJs9urxfhFG8eOaCO6wASTzynYu8qnlqvYBQrz2fog69S+TivIlk6LwygPC7dJfOvFPdnzw2ckU9tMLQvHFXXD3sfRy9QMQ5PDBGLDuM+Oo7nSgTvdDUj7wfSka5HofDPIQNl7v+ygu+THiPPadwTb4oLiu+k2+qvnKtPDwgCNE9N2/9O9rF7L1nr6w9cIyEPat1KD0cJsS6FE8GvVprYLyMI8O8hImFvRnBIrxE2d28iVvLuww4jr7LVYa7n6iWvfbbnjwT0208fi92PXjFcLpCH167Zqs5u2bE1bziZWg8W3JOPYLrjzzXl7Y804tCvdmJiTsfdVG6g1qkPItsBL2E3WQ8YZq5u+gBdr1TY0g9wyFlvUoxxbrkKYO8GTFyPSKWgbxiUXI7ZI2HPL6kDzw+A1G8oDAfPCMXCz3RxDS9XsIsPXRUojxMpsE8pgJVvGGkkDpvfqA5Cbktu1db6TkP6Bi8Hy9ZPO4UI7vckp+7cegCO/hCs7wNaEI8b9jFvCzOYbziQN48A/GBPOQONDx8mNI8to2yO244Hr3rxRU92FKnvKDPQTwnA7O+4SN1ve+Kl72UTT0+DxEEPUlh0T2djSo+0zY3vZMlHTxZPf28aYPAPWY+njyNISC9AWhhvfCMvr0t3XK9zI48PQKhcTzT3sg8491kPs0Yur30ytS8noFdvCREXbsgvXk8r+EBPcJezLxoKuO8WpxIPYyg8LwVmGg8VpkvPb59Ez3U0DQ9ksa/u+dbjjxGJZ67s0FKvNW8Cj2NDhI9YWcWvd7TdrzLHUm8lj4jPQy4Lj1nIFe9GbZBPJT1BTsM5QA97nMNve/KUbreu448mFBUPOKbHTuwSYy7UfjLO8JsJTzJnPu7NiRLvKvh7jrAy/+7vem7vIr+Fz13llA8J9/dO5/LvLzPIv07mvULPWcTzDvYLye8P8bxO3AjDr2hEXg7/zL+OGV/DzlYvpc8yAWbOy4Zcj3+At07k33UvA6EVTx7Fwe9wB3cPbzYxjwPlWW8",
                "B99pvLr4OjsMmTa8mc6FvR6eG7w4LHe916U8PRNdwLx655a7NkNyPb1LDLwTLAa9CTghvL0/SjwWJfa8ah2SvdXie7zrHWg+7hmcPOWJpD2dp7U8nyu5PMO8O7nVeEg9K32TvUzbaLw2II47spQ2O1jVgD1NljM8TwQvvN1+GDwAcgI9XxMwvFSlijitWiA8Xaovvdje1DxcRbq8vkMPPHV3h7zIGcC8JvBDvfAPNzv0MbG7B5vNvFojjbzBdPa8t9d4PYgNI7xBzS49h/ytPEliGbwDmru7mdEXPWTRLbw0KzK73WPQvDBEvrvZXF68MRi6ukeI9LwdakG9wmosvKJ8mbwmrjo9YDUbPfxWsbuEEJc8s7GXvMws0rv5I7U85MaMuqMyBj2s/t48IVw3vGQKaDxmR/S9IP9OvnfgTD1U+nC+BswPPXTaSrpiUv697QQAvKik2rzlsks8T/eEPDv2Gz0qKXU8oZNGvPVpSb2QSLY9ew0GvZhqiDt5LbM8CQINPooQ5T0x+z+9DysPPcXZuLwm8Dm5ER/vvdKs2zwUtoM9zvuQu67fHDviKEA9rPYOvGR9YT0d75g5kZbRPIGbJrz/+XE6asRXvODys7xGTxE9Zr8OvPfZLD2Tt1E92VbkOz5Jsjwf09E8PKA6PYRDdTvnGSw8AgmKO+6GTLuNqD48Dyf3vBU89Lz1Lq67KKqcus3sEL1NnaG8aetqPbCLGTtZr547D9oQPObPCrxtFfW8qXzuvMaRSjz8JrU9Z/0dO0XhCj31gDq9JzDBvBvy+TzwIoc8Eg12vIdSozp1QAy8PtPbuwttDL1QMSq9evatuyP7pDto/lu+uGmpPSfO/Lwj+yS+VvP/PbArib4Mngg+Nn2kvW36HL1AOXU7d4AovUUreD28n7C9K7t+Pc1OQbukd309wPsnPIgAbryU+Iy7PCFLvlvzF76uVIc9TbiDvDWLar1s5yS8liyWPZ1HGDz0IKw8ykcTvQAWtbxoZOu81TLvPO/vG74eYoy7",
                "fBI6PZqGqDyepgg9dh6wPMsZBj2Icpa7fYecvb4vPz1mqAG9wDF1u2BiRb0L81U96fFPPaXSwTtBr52847WcOHf1EzqSXKI7AZsjPN9Q6Tz84C48e0+CPHO+ZTxq06o8LJSYvE0N6TsYYis7A+i/vJ205rv2g6I8TfSROx+0+7sTZe07eOqIvB7egTw6pPW7EU2kPFU0Pz1cUlM9I+MZvQhNxLs2fq67hxRpu1rlOLsI//o5PkcWvGLwzrz/D8a9oV8tPeBFOz5upSC9a/hDvdo8Wr6oBUy9TgQCPld49jtA+qw7avHVvYMSTDw8RpE81W1yvHXcC77pSqm8bOonvdAov7wEiYS8R/8Vvmyb9z32kqc8FzQ0vNRk9jxFDkc8rDwSPT1Vj7x+JsA8scWKu/V/Y7oOmNG8o+cdPbxBJj0Onwe9RFoAu8GQmzriQes8Cx0mvWkpeTzR/Em9pJzDPIrExjzMT1e82AguvcbXlb2aVCa9pYU0vMRT9ruQk8m8FFNlukE4A7ykb9K5DHaVvKFu1jqs7Rm8CKZCvMkaGTzEy6e6BT7APE9Jj7yIjII8YAVHvProGztWmiE8CpseuzFtH7zslJe89nLQPAFE6zpY7Jm8CGHXO25vJb3uOga8/0l7vAcIpju9Ko48zu6iuvCutLvBLqA6uBpnPCuChTvK1xO9wmgWPTW9Mz0KtGs9TPcZvubSqT2Be8s86RHuPcYuCT3TDB28D+oKPIAoTb2wip49X6TmO6iNNzwk0qw9h8I4vRy1/T3YN5m9/c7KPfRbjL2ez1q9r5dtvVCCgT12vbi8RjJLPcVC2jxPB4W8TYFxPHOG5bzr2c+7dejkPZku1T3PNFe9sKT1vOKH7LurWRO4CbjWPGwrc7xvy1s7vVA9PGRI+DtRHfM8chUAPuQZVzwQoq69JZHDPE5z9DvWG+A7CF8qO+5HgrxcfhA8LeZmvP/WBz2ymny82ouGOxeALzzMUu47oSp7PDrq57wD2x+9EfmAPCLlo7zgmi48",
                "w00gvMiP0DptZ8S8zpxfPHsBdDyAm5E836jEPNgc8LxnXz49d8MdPIrVQDxvhg48Pr+wvGrmtTsAnwq9D9r5vNxfQbprJLi6L5QDvYOU2TwjTFm9vaFoO0jg9z2M2v+80suQPeFpwjyDo4y9EDsvPG6kNL3i3e08/Y2JPT0VHbtUlAI9GPfhvDNi4bw4uh+978AMPhjRuz0Afc29JnKFPR7CUD1NhcI83T1ePTpOCT0ZUIW9JF5NvT1KIT0lJ0M8GgBnPIwQLL168oM88T+1uk1QGj1XPSK8EuaTujWYurtdfes7vugcOxL0MzuOUk282QjMuwhOn71+sgY9AvGBPPt8Wr36lSq9VWnAuoIUhrw4JrG8WXpCvaaxsbyDw5U8K7WTvfyvDDxNaOI8Gy9YvRMjBDyNOIw71tXZvDQrrzsVV/Q8+QOnPM5YhjvxqQE9qYz6O7xeZDy/1ja7mph+vO+9yLzVdRI938NfPCEPojuNTKW6+z7COfdcabzGUI69/VTHPHLmJz2VN9297pxVvmEFaz3YKzq74/vAvXWZTL1rlgi+yKjSPZJ9CD3j4BY8Z069O2cKJTzZEJu9G8mjPGfNqDyHacU9noMnPYMlDzxu0Da9XWKtvkagPL6WqmW9B+LvPDxVN70vkVq8+swovbzsDjvUTqG8YwxyPHWTObw7tGo9Wx+aOxfTID5Jmm29XnxpvaP9tDyS+ww89FaIPIoEQj1fRZs7g7BbPO+OtzyJ0Gw9KLGhPOjGsTyeAaU9CJhwPXAOwrrVNdg8r7fuPDk4rbtmdV67brgpPY8MJb0kpBS8d5dpOxsCXzvTKfO8c2NcPVyjhrztNhq8eSdNPeR9jzx3rn68x26Ju8dXCzx9A0M9U/RcvDf4CLzMKBk8ZZU+PdMvHD1XyV089KMkPabuj7txwx49ZU6ruyVw1LvSUpK8baMQPH/kHb3fgj6+uHH6PQsZDDvn2w891lylvF2xIT27SoC6dMJ7vWQzl70cTQ++UxssPbjeVL1i3TI9",
                "HncXuoTlRTzcjAS+s/sLPU0+RTzGmIE9ZifXvTvWrr1Hngs9qGuWOrSInj1MHDC86mMCPXyyCj0AKKq9nfRjO8l41jyJ4a29tXAHvThImz08x9K7XFadugZUv7ouu328QhaQPGfHlD3K1SE4pSpSPSNDDD1WJG+8iLCsvPw41Dw1H5S8u1CKO54qhrovs0Q5y+BLvQZ9gDycGoy8EgTLO9WDHr1qY/Y73rFtuy78aTwlgJy7tySZPBtYXTxyhCI8HCrnvGaImLwjVqo7mhKmPFfpgTvv7rC8W9rePDxBMTsosL87wLHiO/Xf2zuffRQ93HE9O0jc6ztqhsm8fpeUPL2WvbvZE+I8p9MXvR9IILvjE7A7lAuXvO8iOr6tCQW9Pz6dvqASe717+8G9vWwnu3HIGr4dzri8xCh2OlxiLzygwuG8ydpYvP+LN7riwqK8AZggvVrvpr1+Yym9/VKOPYPS6TsO1ww9wteRvVVljjxkYcG7ZDmyPOKQTj1sZOE8iTDWO6uTxLqxjYu8tUAlPuU6ib07w7M8gUo1uqRsTTz+Ol08vTCWO1wLFL01/wo9enpeuyGiVrxP/he9DambvEaQ+7yZteY77/ASu1c4ZLv81MU8h1aQPDmxtzvRHqo8oWpuu0is5boSF+681KQCPe3p1bs68Kk8IeoSvEIiuzugCso8xzHbPIa66zuD9gG7caepO/sIjLz3heG7EgRKPJQyazpji1i8CwKbPMohRTwkesG7IdTSu8dMfjvssky7XJsqOki9OTxg31G8dfh1uEVgk7wVjy2+TjOrPUF8TTy0cFm+ch7MvKupUL6rzBy+MAyhPGOL/L0o3Tq7g2JEPIPbvjzceme9CN0Ou9DZ/7zDAN69cwH+uxdmirweyXE8HjoivX6CyDzDuLA9KQmyPO8VJ71Lm/k7yJTzvfDx7rueAAw9i7IfvF4z8TuDQ1s9fSNJOv/69LxjGHs9ktl0PWLewDpSsB+6JSm3vEKUE7tBmRA9DTSUvEHlhT2B55K8",
                "wv0xPa1uhT3hRZM8su3Zuwv1MLxERr88/EBgPQOLWLzXJjg90llIPOphVb2tD427vycLPXy0Fb0UUwW9OvjJOsHzObvx6JY7UkWovfqxXzwH15E8V7psvHqEvLrfK6i8UJGuvLPt2juR4rs8n9ipPDNYMz18HBC8F8s4PETQWbxtVPC8SXQ+vETd4TyEgEY97GZuPDUJ8jyiNPy9m+qdvTpKlzsFGTg9egWSu68Ymr1Beak89Tg/PGLGSbwwGiI9UeBMPaKi4L2OvRk9sx+AvFpdDDxLXec8Wc/hvSQB1zzxsDa8WIs8Pomcuz0+X4u9G89dPLJUgD5S6fq8jS2bPcMyGri3eac8wRIxPKNJQzz9tg88T11EvIgR07zTo4i98oMLvUIFtLw5Ppy8ikZZPO47Kr63KcO8A3CQvc5zzr2afS29ZYuCvKiDvToW/lK9hko8vY86qTtH+aW8DXNBvLTEMLwjyNC7stssvIYmUj2ffKm8YUoxuihMEj12VkG7OmLIOw1U87vb9km7FLwAPQn4EDoEoAs80nb7vBumLT34buQ8eKOOvfh8ujuWywW9uSipvXky37yd6IS7FI1Uu0tfuzwcKIu7scrausG/6ru8okw8w33Vu07Nyrzf8xS/KjkYv8XNgj697d47CdWYPF1lfbspxVg80RDDO39nSzokNw49xCgKPKVSlb1Drug81v4MvaD+GD1vaBC+vbPcPK4GYztDO+S8FqvwvTyw9b1RJtW5endbOgTZbz0P2ju8Yo1Qu8RFiLwCVeq7kEpLPMFzlrzUldW7w3SSvNCrkzwVaMk7A2D6u7NKPjzZXAm87lCsO2l2OD2J1bk8bvshPcQGiD3qHuE5cu+SPKHTiDzWAqk8uXhwuzN+8Dvn+Ia7ARvXvMlbFDv50w29tWE7PVFIDrsSIga8MLKrO8CdYTvfFIW7QjUhu1An5LqznpQ7wvY/vIZgVbw5SRq8qwL4uzmLHrtlFeS8Qwd0O3CGpbzV7aw8SdkMPVbxtDwGNRs5",
                "j7K/OzevBTvenFW6WXziOzFD/7pX9DA8ypnEOuu5nDtKdA0+g7yHvfucTr4Q+gI8tTH/PYTlT7pIVNQ79lOBvSiclD2rqE68dOHRvFrthr06i269E3w7PY/TXz33W1K9hGWqvALRKTzZBRu8t4lQPlZvhL5ZiLm7CCtWPAD6wj1eyNE6EHc0vIWPz7xJHzS82Ok/ujzKwDvtWAy8rbbyvPFBUbwjZYs8ZVY/PL8fEjwuHXQ82NQxPU2tJb04aCQ8mKMkvQwJ4rsKVs08oTefPVe1GLwP2ku94PN8PaaKzjv/sQg65V3ovGizDjz8FQM8FVO3PEsgMjzmM8C7q2WCvNtE0rtqKPm7tixau6cor7rr/4O8iYUEvbUT07wHKVi7zuOUOwgstLtHGGq8G2BQvCBRw7xnlMM6Xd5vvX6Tirms+7I8EhMTvO3YiLtXKh682wDdvCdTy7pptcu8NCPfubkEmjt6ji2+/gEjvB/IqzyxUpw8jWTrvYsxKz0qqy29dIhkPNvaiLzgJaW8/LLOPGbutr3744G88G0lvfDqVj02iD2963EzPWO3iDzsrHu9/S/4O4Aao70bfoq6f+YeOqylEz4rJdU737nWvZlMZL0I3zK7u8wVu8lETD16a2k9jsewOtJf8zvBVcE8zjjnu+iJpLyIPmq8ub05vd9zADzeE3c8Bko9PDd26DukkGq9F82HPaqh87oygKm8ZIg/PcqQCrtjeT89w3IQvnR4+Luphg092Tc5vM6GXTv87Ug9RgYxvdoqYLwexjS8CYT0O8wVY7t1m8y7KSCAO0/bhTyAyVm8KDdzPUB4srzOYto81r+0PKrQgTo+HQE7i8g0vbHsOrwHUqW7OcWBvHOjcLxlXS89dXxbOh7XKrxemAg9go8cPc1vHTyvI8G8igXxvI09oT1PBRm9k2t5vZ5GgrqeIJg8Sal8PR2/5L2liqa9zwKhvHLGP70hpA49b65QPCdqfj25L5O66eRYvPYU2Dx2+NU8p14BvZmMJz7TcjK9",
                "hSwMvteLiz1oksw8kJggvaIGvrxdbn08pUphPGbJGDwn1C09JuJxO31O/rzLb3m92b8OPVPtzryN0Cm9FXbFvBF3f70WTSS9Wu8kPJwhzzo2tgg9FVgAPYeUpLtC84q7klJAvJHQnzyz6QM9dX0jPSXZrDzZtjo9FED8vGa7BryuJ7O8L3u3O8Y5czzwexa8/juavP84LDwA9Jw8LbfMu9dQmzzns1m8Vr8ROpsFkbxHlFY8A6WQvAw0uD2/kxq9R+hVO6R0orvJoUY9dJJAOpUjE70IQP88EKLSPHXSK719jTc8xbuEPDS9qDzPyK290P+NvADB2Tvj7h2//ypkvHbEETyj6jQ/LW/Wu0zoiDwKliY99wuWvXQtkz1+Tv47Kk+LOwgViztMvVU8W6BKusT2yLupC0M98TDfun1z6jvndIU7I2ezOQdBwb3FRxE8qHizPDWwHDyOdW26Y4ckuyYNqjoR8AE9jgm+O5txt7sx9Ta6VDPru+MTDjsbwPu7ChDZOm0yXLy0qoE6Bb55OwREmLvldxi7R844uxa83Ts41j87AkKxOzI6s7kP/cA9YUfWPBqefjq7L2O7X0jquj2PT71By/I6BJ+Tu2MvUr2w9q268iymun9XCjtUAkQ6FjH8Owa83rrWSom66lkCOiJ/Gztn6Xc6ClZEPGiYEbsHXKe4Jh2KO1tK7zpg4pC64l5qu5c8jDtFdGc6PalFO7CQVLogogM7LSyaOhVht7rVTWU+jFpgvHAVDTlM2yk9MoalvKlHcD0QNaA9vIYZvRI6a70SuF29nNhHvZqoYbxSZb49CSWtvVurNDwhYwY+uAETvCOB/ztkGAg9e4zEPYvHyT3I8Rg7MqSsu58eSD3+82k8s8v5vKQN77t4SwY9ezewvBhgXLxM6he8WhHLPeZzW76Wmje9y51DvbPlDL2Ceda8z90bvMIkeTzdTz48M0JZPYUN+TvINZ+8E7fKu/+L3TyNOce89tMvvZO6LbsIoiW9/wUzuxP4CbrV1q28",
                "Ve25PXYb0rxt09E6mI0MPXU6qzzaXQM8/RuLvU8PL7w5w5Q7ICx6PY11bjxx2Ns8/N2aOxK56rzQvDq98B/CvLccVbzttoc93TBDPdzBE73giRq9VJNBvQo9/btZyqK8io1ZPPpxzTv4noo50mbsO5z4+Tywfym9dhhnvRiPzT2lCES9XoUzPNM/gz1/hX29alzBuxMUdz28RNS9UiSZvR6xR716buK8NJy9PIlW/7wOM2E97plxPXpJPDySVy28dAo0vVCif76UqIO9cdBpPVd+AT40M5M7NyHhvUHwJj1XVTe9EXjJPFtAMD2tUlk9exDvvcVkCz7BDJq8BigtvNfCQbzZKxI8NLkfvNtf0ry4mpE81a9Cu+fI7DyaQ9G8Wt3QvcIPVT2e/8e7KONPPTPO5jttm3+7yZKUvD+LW7wWT5O8a28KPIR1nb1z3TU8/i9UvP0glD3RpVQ8RYVqPDiuiDw2gHM8ZfvlO0MUoTu8U6Q8HkKLvOEc2Dub6L08zHE5u0UVJbswl4k84Z3BvHMyiLgfdQQ89674PIr6Szxcvq49EYWCOkVlULyTxNM8/quoum9uxzxbI4A+BK8LvL0PbjxTmBs6PYo7vaRGRbybi0S72FwDPWkgOL0djDy9jVrEO884iL2SxOK6pm1ou5/QX72Mo6+8NBYWPUUt4rxZbdI8mIvevU0aoD3vKgY8Y34pvSrinDyXKvq8LUcPvU5Ye71FdAi92tBVvJzyCryBskw8z7nlvHDxET24SHG8CdFQvAeyubrmzes8P05ovCVw9jxjw0U9vFUXO47QJDyX2so8KJ/0u6cpXb3flgS+CYQjPYQsjLx7nq88vsjdvP/jF73iW4k94FaOPYxeQztDPy29iu44vGDGADz2hMu8R87YvEyPIryGECi8M7TYu92AND1xwLs81/2fvAInXb0qo+G8SBfVPFn+VzwYXJA8/+fcu1h8cz1aP8i8PzlFvJPdwzswTpa7krqoPIWBWLzvceM73b7sPHvs7byYIra9",
                "OB54vHOAfT26Mj+8LDRKPGH1ILuGABO8Ts4BOzqUqTzx/4w9SqOvuyEj1j1uCTO8Cf8bPeL/KDzt8w6+MfyIvPM6Gj2jwyu9oA5wPecOhD0jLCE8/gjKO3FVIL1wyJ+8whQYPVL6RTzI3ju9Ig/9vIMEl7z5AzK8X/20vMoTIr2swAW9bKnPvBgZBL1ZYhe9mbaFvPjjyjyF8a88463QPHHvjj3BTfq8FGngPFbxW7tVO9e9iM3pvY/1H70ocQm89hpfPbsOZLxXzrm5VVgyPU3MYbwrk2w7j2/AvFdb9zw4cV+82NhHu1D6irvrgn88XzAfPZfgyzt+rxM7cqUvu9CuOrzmtaa9pQQevfSTvLxuUSg905pcPa3RsL2GSCK97fEuPNri9rrqa3I7wEnxuxCxwTzyx3G9hA5GPe/erD0ycdC+OHk/vfVQpb3XDm286MqBvXLu+b3fLjc9oWUUPpntLz3jUwy9Ak78u2CLv7wIwh2+juU4vS7l57xav9y8EGmDPKN+XLyAeUe80VXFPYsW0b3G2xM8BAzqO8iOnj3ZOKC8FMymPRX7n7zGBL+8Y1mRPerQujzYkaW91edPPS2qdz2+7IA8u42lPAi2vzj+t5w9WKfVvOGSGbx+T548B8peu5Fmlrxcjm69hpwnveck5Lz+3RW7/zxAO9EtJLwEKem8C0SFvaidZDyeqgS9BTPCPKw9WTvyb4y9iN05vc+bKz2oxnQ970AUPMUkHbt4H2s8FJ4rvRPOOT3bFue8gAMeu0MYJzzWq4K7DafPvMvzIb0KJO28cUl/PIAy8jwzc1q8CBaQu2ZpiTuHXHK87dMbOo5Pg73HW1m7BdXIO5THVrwOdVi+REYdPU3kjz3eoLO5MDRGPsAryz2yqgE91xufPLJ9oz1tKjY8BeUMPZPmPrxwomq9ObOePdRHEL0ZPhi7NAvQPBRvQby6kxm9DWyZvcV1IjgfQX29J4PFvacDSj3BC/w950F8PXbLiT2IXyE9qdsBPS5EdT0Om3S7",
                "fzMlu33bs7zljy49GnqVOxHzhD0/6A69GSfoO38hgz3iH889jFQDvBFSCD21Qug7TsgQO56csrvupGq7Ut7vvNR207tfiDO8JiG7vCxNHbxaaz+8BF/YPMJQ1DzxRIc8YBEXvU9Gqbsxbyq8f9nGPJCL7LxjfTo8hpa1vCjJKTwX+SG89zqDO+oEKL2hpOi8tmoYuzazAz2pEP+7p49EPDpbpztJ7IO8tkFEvLJtVbv9m5c8EgO2PJclgLzNwLA8hQwAO1DcwbyNrPu9K8iDvYDRbj3Gq789kH7NvKsngTw3t6Q9zMX7vaiGkTrTTVK9C7AuPREcaz3VfLi9N9ZePTBJyLy1OC68v8KkO2VMyLwfgB89C3Uru2xyhbxcaRO9a8QwvXzzh7xoTzO8QufLPXxej7wV22M8KGa3O/3hqzsKA0m9VwLzPDH7db26sri8t7rpvKGGJr0Cl4U6MC1QvLqK07zlYFG7XTxvPU0+mT2dEK09Jg0mvWWRVT0mO5i7gY+DOL3MXDxeQ+87p6/vPeBfdDzS5ZE7auqZPIEcoL2KdNk83njMPLCqQzwaR0c8b7xYvT+AD7s5DSm8hICIvICVh7ws2+Q7rpu+PA6G67x1JT48YzjkvLXoBLjgf8y8RTKcPZFAJr1nXuw7TjiqOM2jvbuyijc9S5GVOsC3uztjRMI8ZJuxvIRwsjygon2+hp71Pf6LQT67p/i7VYc9PvaHfD4pa7E9OZ3svPB9AD3Yaqu8/YzqPY/VTD0z9e08+cCDPP7Sqr089429uAPBvVtKl7ySZ5q9J20AvnNIkD2S9Xc8V2NaPLIiJD11Mbu8SXogvdSRejvR77Q79a8DPGYic7veZJA8rJalvcfIh72Ae9W7nfFtPA4ktDplaB46/xUfO/vGFzxx2RO9oraIPL3FEz3Wp5M9b1igPdwh0z1n2OC7tjOfO2zFYzs7Exc9nbdlusGjaTt1WFq7S9k1PH6XoLpmeGY8Ipu9O/fBjTzWW428VtXNvLcpwDopwwI6",
                "sRfgOu6hWzxwnr88D4kkvD8c7jwhV088oVIyPW6RS7pGDve7amFdvLHGmrtossE7IicDPBhcXrt6KBk9MGqIOvXF0zy7ogq6GXcUO22PjjtbKCS9WbGdvWpK9zwuzve7TlshvckmRrwduOm8IdxOPPwbab2iesM9/P+Du/b3YT3UJfA8LMbfvZqPUj4O0pC9kQfJPH3nyrxEaqY7JCILPbMfDz9B1V08ZoyBvIOTKL7WlbU81hqJvFCC5DxukS07jybqO5tq9ju0I6g8rXD7PPGhk7yX5Ye9TkHTPVfRkrxSSpY6mQpevEXDxjvN2p+8JqTrvFDIiLxqbSk8nKUtOm6MhTt07287sJo1vnuaPDtA13C8j6uUPR8N8LtOgou70lfKOuXES7z54My8eViIPAXDzTw2W0c7Ba7rujDYrzo5ejC4ZbPRuZGBlbyhatE69INyPNGjqzyVgOa8psOeO72glDw8zLq7zrqdPNltlDxCt4W9D5MAu1sdDTyxGTg86GygufhS/Dr1eBE8g9wNPdacULwqXtW97mzhva3tV74Hg8S9tGfsPb+GY73g4hA6qo5xPSo0ADwmP8Q8x73YvLl4hD1ALuw87cLKvT7YDb4ii1u8rpqxvXqkarwBWLS9Z8p/vGZ8ID2n9la9vA6hO1qQLrsIKTi8m3vjPAw4M7wfbCA8ooROO1pYibxSq6s71dmFvXqlUD33INq8AHrTvGITQbqmZ6+7jbUxuwtiD7yGovk7CAk9PAwac7y5RoC8BvYxPVoDCb24OYO8EkQDvbAdazt1cV08Z0HZO1yxwzzotZ673t/mPEXSoDsTJ4480HkLve8cZjxfrBa8uqVlPL1mNDu2JwA9s6NyPEmn1zz2ZAs83q4xvAxAVjytJiK9UY4FPa40abx+gqA848GNvCLrBL18TwK9wNQUPNKxQbw3LF07ihXOPJ9EC7tIOde7lgF8PJaGnjwtABu+UTmOPbrKDb5VJYQ7slt3PYjzfrzoIh+9t0wZvIOXQbzdLXG+",
                "0aaQvCWEi73Zzpu88XORPJBb3rt4IW06PdEQPZNxeTxYjiy+s+mPO+06GD4acuo8AOrJu/GhGD6ZPNe8CLeMvX4QpTkqIgK8wvsuu6vMuLvhUPA8ZieRPdOBo7yTRfG7UDIVPYa+eDs25jI6j+3Xu06VULyYVz+8K/ilvGpgBD3ykyU9RkZcvMdQQTu2cSo8+3aSvAtA8jvdTtQ8EfWAO9PQvjuJ8CM9fTMbvJV5Db0S1TE8YV0HvINNFrx/fwM9ecagu1oDzzl3KXM7/xVOvO0ElLwLZpe5X5VOO7LGjrwXmSa8hnuuvMc+2TwKqB68iHInvbXSgzybdIs8IjEQvK87SbzvzV087+8IvFMu0bo8K7a7pkfpvJY8BrnLLrw+IBpGvXdYRT131o+9jNDzvSKKjDxbXBW+BTNRPO6LZD2WutQ8o6uLPShcOb3Ur668qB4EPZk0tb3XHGs9Qf8cPbFWZjwcay27060EPJTZLTyqo/+8Kxs7Pa/+Hz0KrN288fQTPn9ktjrYmrO6gLO9O6R4ZDzcdJA8p1dbvBSMJjxCj0M9TP85venOfDvTZVQ7i/ycu43qQzt9l4c8B+9PvZq8gb3sa9i7QngIPYekNzxHDj88H7SnvZvgAj1msX891UhdvU4BkDtH04e86HMgPLzKor260Tw80dULvSHZ7jzCpT08zoeHvHixP7zVC+S7K22HvE6ahzyR3pi8gdEZvG4aH7zWG78892UQPeGxgLtj11y8198vvP6NWjxlxIu8zDw7OzECSbs5I3A9IegePJSkFDslRwW9c/P9vLqh9rwOFKI9OumWPfak0T15ugk+wasnvgwJzr0LSMg9OOJEvFYrFz3uwBm99AQqPabLmT3k/8g92VyxPfEyrT2hqAU9nndePbYc+bzKlM88tCjIvcAydDs+Yz48YXbpvOkZbb069R49ph0HvBKAtbzvQkq8ZjI0PdH3Cr1vozg94UfSu08MiT10RIM8JTNkPFivtzvFjO07W+iqPKXlKD0DYti8",
                "ZWwKPNja9Tx/mlI9qRsvva+iVb29M9M8qGgrvdxWFTwoH+27Sk4cvSrlnzwjPlQ80jeEO6ZXrLwjwFO87k4rO9/n4Dv5EgU9NeluPZiogTxw9pW7XcfMPMx09bxdD+Q6aYGsvKGd/7xSsL88aLdEPOxnqjwcf3A7g0GDPdrCUzy7Rbs704l8PCu8QTry4pM97GAuvNXlEbydT0+8dwy+uS3inbwT9Di+AynjPJTHCb7JJU09A7B/vdP+DL2EHw89uVSyPHd4Tz3ecwW+w/vsPdAS37z4S4K9NpvJPOKiJT1udVK9A7cfveBYtzuLREE9tiWwvCEqqjzJIoW7JHx5vDxC1DwL0r27esvlPLjsprxSDdg8VpCZPBcVrLwnEgC9Rc//vdfcLj3rgqm8vQRDPTo+HDtqMwm9Xq7YPI2LMb30cCy9MMjMuVgICD3+ZZG9XC1+PXDxsDwNwcO6Jjy4PK6BV7suhbg8xJMSPcm7WTsmscq8CcN9u54vNjtiuA897nvlvPNAd7zIkgs8DHE6OsCNALsFeJI8VwWsu9Wiybw/HxM8Q/X4vG4EIz2kL0e9waw0vbSrprzgO+K7rWeQPQseK7xljE493zGJPLBUEDseKrk7H1DkPJWViTwMVga9qxiOvP3o1LxszmU88/53uxtN4rxUiza+5A4cPisYiD6ndiG+nqtJPSL5Ob0/gq0817FnPJT/qzxwxi096nM7POSusT0PX3w9nl4zvCEFGT3LNVw8Y0JQvOhzWTx/p4q8x6F+uevvMbrAcKo7USwvvYL82rtI47E8mBQ7vZ73sjxXRDQ9kjVEPfEsaz3TZdO9gHOjvPs+rTxtZpC7BsRmvA63hLwyU5S9PGmwPbtJHrx4Eli8rgiRvYojo71P1ju8zjC6vD7fSjzDKCk9SNzuO5mIEjz0ORc9MIIhO7+Hg70z9yi9Y9n1OzlYCrz60rq83L1Yu4bMnDt8tyw8P86lPVeLe725oR68sgSpO9CPvruTrvu7xFA4vNY7+DuG/KS5",
                "ScO/PF9XTb1mEn86WUzuOvyqnbv3A708+f3zO6ixHL2aiSo66OztPBL6ZzxJWc29FhkiPvYXhL2KJr29xjnqvcZ9Pz515E29+e0PPYveyzz+gJ69Z9LgvfeLlD3ncg89I4dzvZUM7zqNn6m8QVUMPZBnFz22u4E9u+VovRHfc72SPs08K1EWPZzh7Lyoe1A7o4tTPXgZjzt5u4A8usszu7A4a7zTXSK7+x8XPSKS6TxhbE46YYMdPJ52LTxqgjU8t/F8O3HW4DwwYgY9ZeXevJjkdroKDyO9CD0evY/vuT269IW8VpQtu8h9TzxNTIO7UEQcvUnUkjuDafY8wPOnO19YSDz2QIC8ZFijPCtRSrwLb+A817sHvVfzYLmbOqS8QbW1vMMgI7y0BZw6hOJHvP5Y6LvEF4U8K/aVPGpH+rtJf+Y85rSWPW1IEj2U9og81ajhu7vBrDybGUK91yO/uykzuTyLSSE98AP+Owvq9zzDHE27MwPbPqCd3D64Qrq8tUUBPZJ8QDtHxLU9N4OGPEEOk7wpu0O9aW4aPFXeOb067bC89pIAvdkQtz1lvYU9aZOlO+ko2byqkze96m9QPovekr26wPC7v6i4vIpVdD19sLM6SOhlOqnWFjuyF8O7n8kcuwauLLvUFXq8uHb7PD7fOj3V07086gZuu65qlbxKlbm7ODCWPDLwxzxNe7Q8ZrbZPH97HD3PUSa8lpQ7O86V9rxvmcO8ZwbLuw6dEbnDAsM7LH8svD+o8Tolkim9r1cqvbOlo7thGV65qE4ZukPQt7qVN3w8cdO3PKC5jjvU7FO5i56UO1UqhLvwer270zSuOxxwoDxByio7h1YZuffc8rxg2uO8/HCCPGmi6ztlRY07Wk0JPB6BB7ydA8I6ox5SO9pvHLvDztw7mvLGu+OoWLzpTGk+FNkCPiTmY72pSM49EwKIPCBZDz6TZoU8fFTqu1w6/jurZ6e8gP2mvRQnO72E53q9LeFuPab+Hj1n8M88ooSvvKlEB71cLm09",
                "BUQJOiluA7y9R4K9RxDQOwjcgT17lAQ936q9PDHduzxEuCm7IJCnO9BsFT0X+qW8wCsbvuuH6D3t7Li8qLGLu8xJST2rkas86VcKPRuzJ7xjPPi7hUo+vKvEhTwEWUm9ra22PFuwjz284SY8us4RvDq+MTxCCaG84vALvQmBnzucjfg8EiGEvFMznTyIT4w8n+a6vC1Qazz5jSa9el37PASwcDwDX8I8T2dmvL7yD72GoJC84PSgvKLUHbzhVpU8mfrBvBo1RDxLaTi9RmzCO7P8Uz1j4NM8iW01PfAt2Tw8qSm9AhZ5u3U0hry6o348YQvWPGIq7bxC+ZC9rfeUPeSOhDxhxxm+XV45PD68TT1s+MG9zUDEPVFvDr2xQGa9JTKmuloGjzwmBZQ8S84jPVmn+LzLMhK8ccoZvDQtu7xH1tK8JZCnvQA0Xz0B3Xe9esbOveBZvLs8IGU9QT74PEmB0715Ipg9N5FfvHhHgDc2ISG8NVF/vb7PCb1bdtu8rOD7vGH6Tb1npis9Grz0PHlBrDxbWiC9lSx1PeXNxjxIpiK9d+hOvS6aVz2tMjW96d6vPHp+tLxHToi8RrylPPZx4LucUie9IKtOvBq9IL0udRy982A7O7JBAD3vAMS7k3qPvFccr7r+ake9e5wgvDYFZjv/9Mu7geVrvEtzEbyGnSY9AeUwvdnmnjuJd4U8OgXaO1A5Db1gylI8SLT9PPHUmrzS2S88LYHavH0/Dr1Tpds8Amb5PFqXL7zTXnm+x+P5PUsKTT32TE29hpAKPgcKdjshSka9H6UnvgJTjD3DS8i8EvsavR/rDzwzlWK95YlCvak9i73V4iO9ax7uvCJRyj3c6jm8ljqFvZy8Mz3nylA9GIhmOx/+ED3j6Y49YCeYuwILJLx7Av083qqDPIWOrzt1+po8pxPRvWwKjL2ZzAs9MHPOPINpBTsE3TS8br4IvOKJE71LnwY8Rjq4vEa1tDvCM6y6KJsiPYKPy7zkPRk9qjIgu0ThobwVUa87",
                "T68dvFTkZTvj45K9FeHkvGRNxDp8rdm5o1D4u03XdLwUvnu88V42vJQki7y8sGG9cQoOuzuvrztXOjs882AMPFbHCj3jNCy8dbPwvK7z7Lz0IjO8hlAGOrI6pDueHeQ8HoUXvG56Kj3b/2U82jvkvI4M6LtZk6Q74plSvUWuBj0qhjy+fQTMvOal9D2HyYc92AFGPgDGUb16ZCw96lANvHtE1D1vWp+94uAcvZBTXr0Yej686PWDOpzt3L0DBQs9jjxbPBi1qbuaj5o9ZXsAvXDkuT1lBdm8SGDNvDd4rT0rkJs7SGLHPIiLV73T+wI9GI5iOdHsx7yf1nK9OP/0PeKnVj32LL87qhmRPFbusLzOANE7FkNxvfkwpDu4+zU9LXVKvNQvP7xDMle93mHePfKPtLz36F65TPkIPOiScTw7ALg8VX8EvZvhaLwUFYg8FFiDvI5x/bvpagC8NY04PMUp3TziQqQ8LGEIvAavKLzovH88Bc/xu7TLlTws6+67j0QBPdqshDut8M88NbRpPA5FNLxVMUO7XtK2OxHc0zwNdqO96MCNPMu9SryWjdG8N954PI3cwTx3u6C88IuEPTU7DDyV9WW+t2dsPVHy8D3xuo89MTiYvbAwTr0kGi094O2suwC58by19qU783VgvPTp0L1s0K69ZHbVPH8V9rzXbra94PC/u6mdrjqJWCY9h7ujvhDmgT4yCjK71EcSO6cLKD4Ziwc7FwwdPJmqaDylio0814GOvC6vRLxU95c8Zr15vFYn3Lzyn6Y8wSf9PKicJzwsub48AlkIvR8Epb0xVR29zWGMvbj/nL3PS8M8YLfcvFNLVLth5Zw9DNfuvGTeBDxpnoI8DP5DvbgTEryNXtu8jTqZPIKPybz+J/s7Vt+bPD98QLwbTPY8cYN5uiNffzq8Frg8uO3rvHSabDuFQZA7jdTMO7NDC7z3wYY8qL63vNhTRD1maQU964abvdX9LDyd9I67+zoPuwp/BjxDQ8i88FZWPGIZjjtV5Ym7",
                "ZosVO84ICzszFWe+/yspvNUh0zyhvhy+sd06PPPKhzyq+909cwd6vO6MED2H6Ji9MKSlvaWwnr1htaE8xHQPPXSY8bz4BcE8IM0WPdAFFLwcb0Q9e1nEvKXLOzyUK9y8uk04vG+8SD3M4yS8NpBbvtH8MbystEc8G23JPHqsDLyia4G9OVDlPJzXjzyhwfE7LlNdt8eQLzzDoqm7tAQdvFQGs7wlQDy7DHC2PK+gIj1yXcC9JjT2PEAceDvUeu886fqcvPdrZ7xwBvC9c7ogvUs63LsM+wq9lKZEvFXWu7yOTme8liCcu7dNdz0ybOI7U9TdO6HG+7tUb2+6kXI2vNE6sDpas/i6CX6Cuw8tS73X0y281Zw7PCJ+ebwqr0e8V2KevCL7irxiDQc8g9LUOuPQabu/P8e6P8lquq2lkTzu+o+8HCY0vJ3ubLnAWQw+6bhAvRWmQr012Oo6N9GBvYL04bynMx+9ipabvbrv2jxrLjY91NGAPJu/BTy8XKw9EB2LPXjYTTye24E8m3RBvLTpuz3Hf1+9qQEMvoKcpb1EDwC9/WToPGxep7wybMK8kQ84PIexQD3q5QE8aSFHvHW2tjxhOzO9nJvdvJITJb3fDsM6dsfkvI1jDzvANq477qsUveqErrpJC5O7saAwPGtzWT0CNTO94eIiOz1TkD0yCBk7iMD4PEFqtTz14Ji8/UaEPBmW2DynIxQ8PuqNvEfeAD2ZsoI9kjhpO1FeRjyFEs488H+KvZ6ygjwROPS8/NOtPNhddT2cRrY8+bfxOzA2ujyAthM9MgSMPChkDT2Oloc83LgHvFw5FD0OajY9tiyrvBcANbxs3lQ8TIn1PBy4Gz35a4M86EvpvDDyMr3cHjC+G15dvII3ubvXiXu/4TOFPFATtrzxi0C/saNzu+dPXzw35WM+9HDbPUR+Nz5Rd4s7oN+aPDupQzxhUhM8m1dpPA5b67teKSA97XmTOjvXDrybpA67pNmOvD/Idb6djb07/Se2vIddJLtJcCG8",
                "hJ8pPMCOH7zJ9148nok2vIozGLtAr9e7y0RbOoYsbzsLE+e6uYvyOqSrtT3hcpc8REoWPUwBmj0OLC278jhoO8qfmTuJXw28amQcPJSbgzr5A1q9dKOhO93aYjufsX68Z3E+OwPT1jzresU6wRy3OiftIDz9GLI7N21Auo745btPEfa6KhH7OpTSprsx7Kw6jSw1Oy3/hLpdI445BrXnPNkVn7v21Jy7pASpPCzYkbvYCPM75Y2MuoyBnLuivlO8lskoO1r7ITx3bjg7ixRQO0uIgbtY0Gm+wt+DvMcbg71NgCC+0+dTvIEKkT18Ws28TsgGvvwx0b1dpKg9mqIBPBR1vD2MB6E8I07MvHeWrD0Fw0a8IRw4PV30szt41i+9k513PDw9LrybpL687PmzPKZlpb2LTB+8qUNYvSHdWTw/ZP27B9whvAZzRTxeV0+8zdtlPZ5nyTuMFxi90hx3PYZGS71+3wC92qUAveMQvDze4cq7j9RIPV4btD2wEYs9J7/BPEyjx7sr89i8s0XivKgFIj1N0Z69wujyPAxlcrzTiQi90dwWvUaLeT3hVxE8+GKhPCsBtLx5RRK9XaUZPbCF/ru5YzU8uTCSulOKJbxRttY8wRjlPGp+5rhExPA7fr0vPE40q7uMz6w73ymqPXhbSLwzSqK8uD+DPFkIIzxGU/y8NYFuOxZxBT0JDaq7zlOZPBUMVLyN5K6+QkWiPTI6Nb53yxm93k1hvaYbvbwfVdW8XgoHvdpUDT21Usm9zPOpPSxb2b3IVLS85AhyPJQRhLy0LEE8SN2DPBO927ytVoc92dXju4TMD72bnJ08HCFJvfClKT4ctsI64D2aOw4ZH70O8bg8Bl3rN+GWerwSfTY9HUNPPuxSmr15+4e8/IgVPY4jYTwVzgs5AhTyPCGOwbwds+K8jDzsuxROPj37oes9oUAoPfkGYbznRig8XT9NPK79I7zyvRQ9RqoDvc0sMrwYQoU9fgbGvMjUkzzbUcG8IIaPPDCPBLwB8ze8",
                "D9enu6lsn7s2gVE6eibeu7TwK70Tz2A8fXGDPJmXGLz96LY8OVWTO06oWz2IQSe8ucLMPCWwmTunE5E9eGe7u9MJIbze4W097gwzPHCZ2TuxCqm8XPeqvCTWe7x+CFg9KonBPmZhnbwwMm09CXuKvOk1nL3pQ1E8ndMhvfIQgTzsAaQ6QrEeu5wwB71wpYk7L5LUPMHK4zx8fl89gx2cvNCT7LzgYLQ74+DCPaj1iD1KUcK8Vobiu/2KFj2kh2M8ggCfvJ3hHDy7ypE9O6YPvdhbvLyBygM93sI0PHgeVLx2bda8teYGOn/6Erystxi8WxFvvAJDrDytvxQ5309bPK0YrztJp2Y9NRL1PGGM970Yz/27/B5bu6NaVDzm84o7GamJvNQscLt1wcq7WOJjvO20VTsr9xS6Y3eZO95kzDyz51U8U9YDPV0Kg7vHbGM8ronMPAVPz7q0rJC8Uh4cvI6bgDzfGqs6DlKMPK9JpjrhCnm8vBulPJN/crwjvm68wrpUvP5jkruY+qo8wJ69PCDcvTvfkcK8GCcaPDmSDj2C2IC9ca8uvpmkhz0eVBg+25QAvhCN6DzMRYG99+H1PLVg8Dzp3w+8dVuGvU6FObsK+r+7CY1fPf1niT25g3I97EYgvLz7/bztfSG9xxDCPTlCpj1z55a8cLHMPCortjzzDWK9QQ/lvXau1jzrimg9/T1su8/AA72v+828+zjzuwsx2rwSt3C9cKcMPaG5vL3T2gS6WX29PA4rdjxEkL68qAw3vSGj6DwrxE+8Und/PSW6Cz0i1IG9Br4BPQuEMj18zDg8HSaBvSqwzTxnDi+8emjLu5F7/7ziCu88gyzUuwllYzqGabI8ODoIvcjnGD1X06u8DGaCPDdjObxiHFS8+J8lOxHjkjwUyQo9gGE/PbWg6zyq6nm84mmGPEj987yQx988aDmWO9/QlDthBJO87438vDua4Tw1lz+54ns4vMWBjjsSbZe+MYnCvDT2Fr0nKV+9ji33PXNuBT5aOH4+",
                "f2DGPdhB/LyGNOI4xJaFvQ7jVT1Kyfs9GhAcPcyi/b33xYy9iIsePURxAj3xSf+8U0K0Pjfevb3LMy+98wdavS+SJr1fTx+8UA5TPXdOrrtxANu85VQJPcr0eLz5RjS9WHzNPfpNOj5r8ys88WDbu1EVT7uGCtO8T26DPLBLMD2Z6OK8f6NRPX3W1jyH4Ae93ZlVPdSXpj0AE+S9R2w0O1NBQDxnwOy7C6tFO9bprzvI2l88TwpBvA8ZoTy7E4O7uR/XO4l7jbzJU5886rMCPb62mbsYGL87w+SXOhKdPjxi/Ma6vWuuuzfh5ryM91+81gMevADVcDxddY88m8pJPTzefL3aiZs8pscBPc3wNb3HcKG8tHamOSsNuzxB9kO7/VcQvdtykTzzALm+AfOkvHbVZTvqKQk/g/+tO9lJEb3UGo4+IpiWvBXrFr0mCmw9K0jOveL3ujwgiGQ76QFYu9LuGbyfZE87c44cvcJ1RzsVweG8TSpaPDOzojtI7gw8xKCbu+3c0DxdRnQ6RKwfvuSMLbxx8mE7MVhVOwhGMbxrKE+9Cz5Au1rEvjvDEd06XN1HvOl6ELuoJUo7zMTiOjZ+jL0CyS69Ml5Yva/tB74+2EI9eqCxu4rlADwjq4S7BQnBvI+B0bvEWWK+scGAu+ecSbo/HYG6EAlAus4LDD5CmjC8qRB/PJcv77taLdi7jeQoO9yejLoTiZi6wVjOOyHv2brUqng6WiNMu1SaIbs26J670kR0u60xLzvzVUC6FlGFPOaAUbzeSjm81bCZu3SHMbvpyoS9QaCKuHu0SDspUmk84qgMuqBbkzxH7io/USCRvblXKD5J3Pe7SvdJvsIMkb2v6AM8MSVavEOGkD0xlJG9nvaDPWA7Xb02mxe86Nt4PPQkNz2H7My8X9c6PX4KIz7NdhY9t4aSPYYjwz2U2DM7z1nNPL7gHD2vh168eDGAPANkgj2tqju8A1rrPAMtLTxa1rM8BIa+vK4Vuz290oG6RzoNvByxvby4oKo8",
                "K8AyvPmsHzyjh8o8XfHTu8Q7Hjry9LE90iuyvRwCfT0xbty83lPOu0jGTzqxGBc8amefOT90Q7ypqpK7Y32+PBoeKjwgmGS8MYHMvAhBGLzsSqO8CQDOu3ko3bw8oo29rd7jOw4vzjzVc3g7eXIyvKfFTDrkG9K7z4e7Otmzprsq/RQ8f9VlO+SZwDsoqV+8MnUbvEen4ruUHQS79sQMvWB/SDzX6588fB5Fu1dsTjyeySe9z3+BPYJiJD01HSI9y7swvX8d2b1Igvu997wlvtCGoD1cH7M9zkr0PZ7DmDzPfMg9Zb0PPev9jr3iemO9EurDPbenVDtqUaa9NKYYPmmLS701xeA81XbIulcqnr1Iawq84EGbPOxHhrxPbIa81Tf/uyaf+zl/FU68RgmUvRfQk72Th0W9uY8PvHDo7DyFYy880PAfPC/aSz2UMYW7UqKAPEgY1TwRJsY942WTvHOyK71ffH28aR5qO0jTJDw5mws9PsAFvddEgDvzsQI9rnqHPHHZwLtvXyq8x18bvCAAOrsuIhQ8GUWwvMl7OTtQKu27tDmFPNkbc7zJWtO7zny7PGlqJz2H4p87Sq9PuuOaBzzi0Y08quINPJ6wh7x1hYK6bSZTPAmuvDqDvLi4xu5dvO5IUb1dLN68im2kuTsoRzw1+vW95+yZu+20PzymIOa7jSm6u6zyRjx/2h49j4FKPMKbeTx5pNk9a9YtPGXmOr191Rs7d1FRPFyiObxhUyO8TZzXuIDKA7w/JAu+mqu2PDGfJL3kqYK49OTfu3hyJ74GriG7PN0RvUXVsburaDe7BVGCPE9xfTupdxI+TdNyOwgEL7vxQfw7bmhBPOlXnLuGBLw68+bHOoMMTz2QpiG84Po0vM7fkLwpcqo5dpIwvEgZbTxmMke70F72O6SQ9DuizDu9nORqvUOTXjycXKe7k5vTO4Zdvb309wI8euwqPLUJDD6vNWQ7blDeu90VyjpMHdA7XIrdu1a6wzu25iY8I/5tvMelnjumrSc8",
                "A2SCPETJ1DtTRj27iBDHvWP4Frygm+e6aYg7O87FOjz8gGA9Y7KQO67KjDuatQC8hwVeu2mhcrvn9dK8NVE3PofsOr7dw7I8P4UUPvIOY72AXFw9bMsFvXaDer3ZdxG98TsTvf7xYjxoV4Q9z8n0vYr/azvyqYM9sMBSuyO2Zz0n7iA8OYA6O5EGGD0rGAa9TGySPdqHMz0JzEq8f0YOPZKLEL2jFIs9N7gPPWUMAD2q68u8VXWrvZo8GDwhBRA9JPO1vELaEzs9qrg7dr55PEZF6LxQGLI8NcAcPS5g07y6knw8uHowPRfTn73dFbS7n3Ihvd1oYL00K2i7WnJqvey27Lw9uwA9K161ulwgabx9Mrw8xLVevXy7Cj20sVC8v11LPENoyrxryw69W7OLvBqPa7zooOA6clkpvf81cjznMA07jQjhPKvlxjyK4/C8xnVvPBPbO7yu8b48BAUyvKwGZ7x16pS7k7xQvesiOTxbDL27asM6uxUB67yR/DW+puzdvAMMmTwVaEy9iGoTvsnOrD0LdIa9dJb8PLSrpDuSBT698pnNvaBVer2NtMm8MpsMvXLV+LpGhnk7nGsNvKcsBzuikCW8fdnEu7sq270Y58A8EtqnPKIdKD2hfTC8eEmyvSOuBr1e3rA8P9/RvLfT5rtMauA8PQzvvRUPBT0KtLu8FF2rPbYPbTtoztA7G5TPupnSUTwTC6W8Hc6DvUdWGjrY7s26b8c/vAb+Lb2V5mW8A0OJPKH13DsUQuq8YcHLvOv1A7woqbo9R6szvRDngr15DJK5+WK7O6wv2Lz2UyO9tAkqPRXv6Dt07yk7YnqJvSENbL18KmY8eu+MvOCPKLzsRy88QiDePDCCID1dZQ46EwTCPGPiY7xw9lk8uydnPIa64zuUJz28yF6ru7a+iby/a7k8lYu7uskRALu/RLO9EvSbO6n8cztDDJk/98VYOog4SL2X3WU88znNvDRfAL06vJw+ALqLvcT7RD5oWAK7A0GwvMD7Gbwm/Q89",
                "htulvTGaITvvhMK7LQozvaenWL399s88LP1Tu65Lgr5Ptzk7PwbZvVT/ADu9yRM5glcBPO7DKDxbAqg9deqpPJDqFrwxwUW8TMidvArA4bsZXMm7zBY0O2G5MDxDn8W8EGSjvCrFG70TTq08zzXguKnLaTsqMGk8KUB7PNgujrtqWSq8Q3YHulgLJDoY9AE8FbIwOUbXgL0bkpo6iAB/PLUz7zyTjA+7FaaBPPguEzs8w5s7/JcePCylA7zgvto6Gv01uvET2TrqPcM712P6PEg+ajt+Cja7oSYIPaTN6zlMNJU8fAgkO9D/wDuN0GA8513hOuvSW7u6BgI8PWZPvBDpprvtARM+wdEbPlO3mL1RyDo84aiKPZZ0+TyrWTQ8Vso5PRbEbLtRWSY8hd4CvYxvpb3DxtE9Hf6HPXSvxzwBM6495Z1HvbpRrDsYTXA8Hr4fvmVR3r43AjS8ZO8hvEKkzD1bvmi88M6RvFJthryKKgy85TnAu+1FXTtPTR88r1Y6vQ5pJDwCp828Mp3SOxqMcTrMwv08CIVHPTmWEr11qUi9unO7vBjLK71jE3q7iGRQOwSC0jkwa6K8jQTUPSZ/JTu68UQ75DrCvNzUWbzujaK8vJ8ivD8xN7pw8xY8z3bLutqNobtZOo68/ABDPNVllDuBGgY84KaROlJZ3bynnew7DArfO/g9jjsc6wk8kAunvIjRCb1rhiI9gqAgvddhKL2Rovs8uyvCOfxFwbu5mIy7Q53mPFTreru2aEE7D1H+ut+hEjvdjyO+yAr5up8qDjuLLgy/TZK3OrteGDwtOR6/3hNIuxp7BTzADZi9FEIfPfwLHbs/kkk8PKKwO+2SJLuOJAU7UgwUvJ734zq3rs48/xvXPGcoiry2OPe6oaU5ut1ZRT3HYLC7FG6PuwYXUroop5o5IXU8u2yYtrlWuj69ZKgaO0SYnLtH0Dk76Aj9u8tw/zd4Tgu6u+7KO7kdJr351MS7d0pEu8sylrsFPMK8dNqkOtSzvLtQJDm7",
                "Y8Z0O1d3szr9lfi8TzfNO4vSODui0ru7jnC9N5OOgT0Q11Y7of84u3OnI73aUQC8MgaSuibjP7vIPz67mGqzO6Mw0DrwJ8G7Vn9pOmZc7DoZ44w717+AvG+ShTs/Wye6SDtAurTjOrv0JkM5bp20uw5fCLuuqlG9lftuN0rfEbtSLdM65USHu+yNpjsRIGc/1n84vkURu72191e96no7PaD/gL5ojkC8Ut0JvUIXcD0GHxK9ygvKvHDjG7wp/rS8ocuwupNnUL0woc28o4eLvanGID4WfYK8D+u0vAoFjL1HBg+96eKRPLeuSD0wuQY9MgApvDDg9Dy3bls95p/fOyqn7rvNqci7uDtcvIIRqD1cLUg7eQ0CPPGHTrzBSCQ9JnCHPNUyrLzIdjO8HD8DvbAQJLxXI069DJaVO0t5GL3NOAE8VGfZu/074bpZZly7ZiegPFN+ijwcCZo7EdkgvRtVPrx6B+O8oxsovQlJkzxnZxI8zYWlvLMKwzwJwbe9p58pvBCf9bt/c7O7Qjh8PKHjjDx6tiC8ZxOKu37W1TsgPQS8tLfSO9B/cbxDLqs60rl9OxRXvLrrvk28764OvXjHDL34CwW86zjjO778N7siFAm+pC4uvc2dCjuHx4O9j9ctPYuCmL1sVru8uZ4NvhIQxL0A+nG9pC2Pvee6z73D4IC675zgvBB8BL23Tcs8o4RHPfK3qrywrJ+8g3QwvrTkFr5+sws9swQtu25DkD2B/JO7Ab1qvQz6p7ztvee8s/zAunIMGDzV8j28jQyJPBZmzb0WEIi8juJfvRZM5rxWFgW8Twy8u73yk7xKFEK8zu01PO7xDL0RuOC9JXIAu4FHajx9nQY8Dzj7POntkzu+vAC9ueCQPGLeeTpnWb48TvVzvbghqLuwXq28E9vNvJ28lbzeVYo7EzYgvfZSm7qOpTE8ZPPfPP08obvlBgI8CAHMPPI2cLyaA8O7FldIvHFqKLzHJn88J4SkOxVGDL2B7qO8LQeevD3m8rrsENu8",
                "arkoPGhnYTx10oM8mSp9u5VHpjxNKZU9WqYWvdiys7zBxT0+dZghvg86Dj7Nz+0972gwPMRRmr0xDrC7oylpu3X4FD3pBJG9tYwRPnGCRDzhLMK9WJaqvM/RDD0SJg+83A+cPV9Kir3r8rS8K0LiO3zqHr1FoTM7Q04LvZ/INL3B+3M9uNqHO6sjRrvfVNA8W5wJPeX9/LwOEyw8jdCKvONEcjk0Q448mHCYPILvPj1hwtM8zmkTPQOOT7vXBII6pwGDvakVmj1Rm4M6pS2mOyQIo7z52OA8UBQMvIsJCbwZPjU8/bgMO9SDQbwLk5y7/d+/PAN0NDyak4480d8evSG1rrz9n6k7LEWpvILzY7xUNaQ8ovO/uxjCprzFaFc822SXuXyuTT2zk5m7D6lJumP5ijoSKkm8TU55O7KCR7wDU5E8UmeFu8T+0zytwVK8NSw0vDLQXTueT+e9kUUXO4CYILt6eyc/EQBXubpL5beYfgu/uycEuNr+6Dp1ZBi8dUeOPZuxxTyaMva6LEnOui1bMzq2eHc7kQMUO6ZZkrkQCXU8I68KO37FLrunrYu6kH+SujZ7Ab0gjHE6UBjQOyZvBLsMBW87czBQOIhaPzu2n108Xc+Rur4UPzux3qK6QAbgOiOv0Dl+9xc6CacVOl0lMrp0JY06s5lMO7RfnDvQT/y7szOxOhl7dzuf58Q58lUTO/Xxyjob7pq9NTFZPObP3bpQPC66JqBhu6w0sztuV6i6FfihO9Wovj1TnZ+7rsicOgJpB7pEIWC73Iucut2zbrrukki6YWwIu9q/LTvtrau5yrdoOwKHsbo9c167wUcqPNLzRzoa9FA6ANF1O5yOiTjvMSU9kiVbun5fAzjK0ra6CcCkOu1YtTo+W+U9G+AXvV41xDzTRjg84KFMvZ04PD4mBNC9LekpPr7LgT1iBUg9OI0NPnJpBj2DHo+9GkFrPTpFIb3uXJM9RXi6Pc/kBrwM3Jm9sWUSvjpQ470p4UW883uIOnPu6L2Qbgq7",
                "AaA8PfOxI7vehnc8pR4KPNIKeTwnlxE7KQ0rvSM6sT3HfEc9LsskPfutGjzJzWG7xEawO9EEwjwUlXI6DkMevXuh9Tz9E/g95pjZvJyK+Dzovg894CqjPLqx2TroGws73QdXvPJVKTzu3iy8W+PlvJxNVzzz3R087DKXvD8cWbs/lzU8ON5pPMQ3mbsHL0i752HsvCA8ZrsRzqo63LT3O3UzE7zSlPS8iJO5u02UULw0ugy8gVdePM9arDwcydU8RKMavOI9PLuPPZU8Zt1JPGj/8jsvk0Q9ehdFvKOQ7TvAw5S9pyo5PqrSDD1Ckpk9R8SovZVhg73PYRm9yysnPdvYGrugoS688O3TvNvcAT3sRN685Sf/PKgSnT2dbXC9XibKvNSKBz5MKDK9wOc3PO0azT1Jda+8G4gdvfPOIT2kZHk8eEmsO1I9OD1HLVu8GOisvGEtRrw52ps8opM6PpwyTz1sEDW9+eJDPcjKX7wWEjY8k1mCO3bliLxvWwa9sUatOlyYGLw2iQq9Ycx4vfblZr1deH09hA66PK4UNLyxT428zX5uvM+m1DzXzz88cG7eO4N32LsrFiu8uAwIPel7kzyumjM9ZsUfPHJMZj35azC9DNjoOyHgXr1+u5W86sc0PcsKajwmXeW75UShPCsqBjz8Xsg7S+QOPDdcHL2DFrg8mUi5vDa57rzQJ6+7xrG6vN7XiDrJj1a8v5bwOlCusjzvs4K+dMlTPmKvTD5t6Eu9EdxNOxRucD3pBS2+Pt9XvS2/tzuj5q87FZUVOvEiPLwzjDk90nRyuzOx5rt6mMU7hfW5PA1LjTwsSQK912d3PslFjr2BMUs9ANqYPY1AMrotb4c8drbiu1B0bLvAjRQ8nOvau+W1F7xVUzw94EKSvTyfy73M+tg8Uxq1O2rNqLyH4qm8/Y5jPCMXBT3AVHM8bubuO2CdPT3pgFk9pqMtPdQfqby0OVm9h0+eu09mezzm5kA8wNWYPDpDUzwFE5o808hVvKK8HbylatE6",
                "agCXO4ismjxFona9XD0RvXrZfTzSzgc8mYmFvD2VAD2DAUM8c4MIvEzRdr11DWi8NFFIO2yt47u5gHM8IKFGPQCP5rwlh1W8hocQvKzV6TwQ7zs9FXBSPJ53jjxjx1K8wUxKvJgurDxh+vS92/g+PplHg727EGs8Kq/+vFw7O76Kw6O8ppL/Pdvroz24PwK8+AmGO3R1nTrRsBi9ZMPFvIeS9zz9Co684PNtukQEhD2zEyE8EegPvs/l8L3iChu9fNnyPdp86TrYm/y7WncUvZlwEr3435w8vyk+PMpbojtsvmC8YEOdPOsgRrwDwTS9K3KWveNDED10Eoq8uZLTO8eX8ry/IgU9nC6NPS5747yJrjg9YNIaPS11Gj2c5Ak7b1eyPJA62btHPzO7axu3u+jPGLwfURg8TZxQPSumiTtzMvw8hrSavBrNubxX4Ts6EjbNuxvSf7uhv2M8dcrUPDx1mroVnkU7XPqzvNLMYjxLemq92BgKPAOLOjteFM48GlThvLpkALyr3aa8ZDWXPBeHoDvg1LA7Ef2OPMOECbwnySi9Vn6muxA9Nb04RZ+8+ym8va19iryB1Ma8ybQ4PobChDxKVcg6zikKPc1myr3kAS+9AQcZPYT2PzzYAhW7Ji4qPa1WjrtCh4q7bEpFvIFFgT3fxio7I3xsPckdT7yyAYW9uBkqvjqObTxZkdM8+JuvPUHNYr1nU1O9rMsBPYUB1TweVCO9UaqavbXfdLyYics8E7Jxu9e6j7k3QdG8xPduOzK3VbxZLJc7JU0NvFzVdbsCDTe9mRLgvK9CTbxMaYY8CunBOxEwPL04O3E8/WjGvEwFC7z8vZw7g2N1vCMDD7s4/Ri9EYa4PEdoCD0at3i9VaoCPVUfeDzhszA8Y2zLOye+Jb15xag8ej5JPBHwCT2I8M475seqOxPtvjqi5428wmf3PGmcuzxK8a07NxgTu+FkqjqCQTg8zMeAvH1cdL1fIVQ8YXkRvKR0Dz0h9aa94ql4OzDduDtjnrq9",
                "K0ewO0VAC73yXhg98B9qPCPdBjyvq0O+ZowJviuvf7y8nBa8mw+kvGD0tTyKI3S85sCJvYhYQzymwhU+GM4/u2DTLrkLf7A86EaDuw8ozr1NH/W7falHvs7diTyz4t+8gg0yPLxURDy/IoM9b9fCvLqqPLyWnn28dTxQPCRvX7vmxhC65nMePIAxlz2bFZg8qOAmPW2HLD3U3xQ97XQAu2555bxiHlK82c+OPFc+hTu7BQi+DcCWPXoyWjs83kc8roqMuwhyWz1bt5c7enMGvOmSDDsm4ms82FopOyy7vzukAnq7aRP6O3+rijqk+Uo7IFvPO66iuTuKFoo77p0OvGW7qTx90Rg80GPVvDbwybs0dZA74oiEuj1JJTyNDOm8a5XhuhPYz7vSqFK7CupVuwodDjyr4yc9gCHtPEUMEDtIJKK8KunJve39173L2SO9SLgJPYqW2rtUHR289JRnvVf8nLyL+aG9cX2EvV24kT0eMFw99bA6vGcnnLoMiE89DMp5vt/P4z0+UIa8iEgpvdFCmz0VmZe8X82mvV0qfb2Rn0e9Tm4GPc/zPbzqwZg7gYsdPk7pHz4NSsk8e8JIPFb6hzzsF308VNuhvKMe17xIG5U7NiqdvAPHqLxvJ5S9JaWHPYYRqz1eoaM9kmTQvA2LxDo1YQC9jzdguRw/3ju1rCe9/YFQvQKxOb0giHm9VS0avIc56jxECfC7UdYxO66VT7uxDYC8H8mOu5YiGjxwPk28cS9Ou/LttT17Z+U8mNisu5Hm5Lwa+VK9GPg0vMVwXD2yO8a8tEvxuvGSIzzDwl27smjguiTl/zwrmTs8ayWzPJwBZL1o+GO872mtvMOytTz9UoO+sEOjvqmFFD2zIBe+3FYWvR5jBbzlnAg91zBqPH66RT0PdwQ8zf4xvcyG2b1QCak9k0ztvOP8FL0oHtU6+U7NPI9A0jy5lGS7Kt/rvGiY47o7Y6O8PAC9vFfZIryjsMS87VOZPDYpRr3cWO88A4GbvQSpDj1UwoU9",
                "AAbIvc3qybt4/6S77B1qunEKFr1Sy5I9ZnYpPdSkhb3K4QK9z4qhPXRBg7zibEs7Qb1qvLQuTruPRww9bIT3PFvz2ztiW5y8giDWu0ULubxZVo48oJTRvPLzpjyuVNQ8bdyAu2ixGrly21O8UpsVPeavtj1K/E05CzCTugTNdjlQzL47MJiJvL81abwHP3c7TxPjPDD+yztyXx+9z5H6u7nUkjsuYLI7RAwVuzur+DzHz5m8xduaPFzooLqhnOi9YKIFvBQ+V7vSvp4/LP/3vNZzJD2+CBk/XX6GPH1luTw3Mn4+qkOJvRvxHT61/b48vJtCPJTK3Tylwwu9B3x9vVgh/ToEGbQ9ExPzO9t1Iz0bZU07YJCzOltIEb5SrAw8AcAIPqpOpTwmZLw5MMhlOyjFRrsl91+9ZPctvHyeLDvqt8A7qzZ0PNO5AzwZIuY7cIiPOgpFVr3CQk+8zWKAvAQYnbz8Pus8I+mYu9qPY7xtDN+7hfgQvJzsSjo8SBa9sLKsPYX+7jriuHa7+w4jvLLKZT2XR/Y6Z/MivGvdBT0zpRU8K5dYO7LwrruOJI+7b4AfvAMrkbugoiO88WA0Oy34FTwZCha67H2jvEVIEryYwQm7tKcTvLVhjjvraYq5uQUFO/QxcrsCNoM8wMwhOX0yLrtJXi28lCLRO+joU7sRmR2+vSZEvajRTj0ggzy9RDWZPT9hgDwUYUa9LRBKO7hzCD0ODES9uYbmvZidgr1oAh48vvlLvDNML71NSYY9wyAEPe3fqDzk8cM9HQdGPT5yODvQaHq8CIytPd2eQD3VH0A70Cf1PXwDFj1lt2+9OKoyvUEjyjmjaq68je+aPUz0B70/8AC8zbnFvOyp7TwzLxy73P6svMGPWT1vJpg8O2NdPSC4UzsWXIg9u+XJPAv9R73yz1i8gIdxPVXdvzvvzpa8cm4Xu+swjbvTIYC8Glv4vKaHCr1kWNW8jVzCOyhLXDwRU1Y7gu0aveHjljydTU67wl+aPP6HPz3AJgo8",
                "55ETPYzzS7eA0w48/EWCvWqzt7tIKBA8OXAgvCbWK7wbw/48O7TJux3xMzypoSA8BoPHuvt7mTtAdgw84vT0vACMMLwZhB++O/6yvLSKP7sVW4C8F7D6vd9/MT20Xk48AJGQPLIZMD10mYy944GgvMjfqbw1noI8hGnMPKLCFj4ekt28R6oIvRyCJ71mdvy8TxvsvB8UuD2bL2E9SZH3vNsljD3i6hs9CwqIPGMBlrofZcA8PRRDvL/oVTxzL7m8hwchPm9n3L3/Hmg8EPrvO6VdAz11U/e8j61APMz9ubwsAYI8FCOKvE2FsDxHAUa7y2tPvV05pLzKTQu8Rkb8vJ8YF70l7Sa76pmpvBaDO73jcw+7VK/SO1kg1LwwI/G8c1FUO+r/ozwEhjg9OtCKvO62Yb3K52Y9P+AWvDnH+LzysbM7lxwyPLU1NLyDaAG9EqwZPOo78DvZTzg8xFq0vGX6ZTx4rsg8biBLvJy46bsY0z28sqUfPcg5Cbw7QbI8PuyaO5Jn3LxEMaE8RoRwPnwIBr/Pqcc86hdEvTuwyjsmORq94dIaO37zbLsKzDI9hdoTOy9+br1QjFu7EkorPeBnCL4aAJ893xeZPCgJqzxnQcO8J8slvBqrQz4Rs6Q8rSrAvG7t2zxYEX47m63yujCxJLxnuXe7KbwsO0+P6DqS+7o86sxSPHRSbzt62Uu7ePwEPRRpHLy8vHU8bT5NvIwPRz1kI7E3HZ8VPTzAlz2ZCvE8NPaQOkrPBTzxnzM8eqLgvODisjtQCDK834gAvdR1rjtDbsg8WxxGu+7zrjtRJF27UE99PHiAoDkM1/W697jCuzlcvjs70De7WGPOu8C0CbrGWJi6xwYQOr96UTzV6jm7ICmlPK4qyzqsqb+7UQQ9PZUeYDzp77m8bSOKPElf0zp9Jra5YpABvGWVuztmEQW8ftLRPCiypbvqSBQ9GRV4vCs+rj0K6lY9B4m8PVK9E761ch68BtWQPQjxOT2Z/bQ9e3BkPueNhL1IhbE7",
                "tZGQvA5Dir3TsG49n0GQPchjjbxoCgW9K4UAvehEEz2ggYw9gNK0vWpS4zw6jNK7twkxPEpnILslstO8DMImPG2wJbzHnlE9xRanvNfISbxEika8gyh/vRqo8Lym0cA8ee6nvJpoDjwkTom6b0FyPWCVWb1LsFi9bZKuvEcJvDyAm4a8qU5zvJlx7zlJ8xC740CDPKvKkzyoJt0881XRvMpJ8jz6pok8WA9xuiPYVzyuJlM7yrnLuqZebjvyjfG7cdEjPQkprzwPYcS73UgcPNQTAb3AXuM8rq+PvFrRojxSd6Q8Nbu7vBwr0roIxAg5hyJjPIVDIbw06om8AWQZOhwmfzz1DaI8/R5GO2CrRTzAKDK+UXVqu9JVM7pIEzo+c1sLPM8wB7xMOnc+elhcPJ6TB7uQtCm+lY4wvXjsjDxiDkM8/mJNuyZuq7tWU4i8wvYgPZfICLxJEyg9XMQBvfSozjzpoq48/NJau+k/oD38aa661uWyvd2xwrt0RNo75rCPui0dprvDrOg9zA8OPUIDKjw8jQ28ovYHO3/oGTkR9Tk8GhShu2+UFrwZVA28OvLrO+VIqDzAzEo87OaSPIynHDxfkIw8UmZAO589mbnXWXY8dBO5PBD1XDl2o+67SY5BuqXuKL5/12I7uxdDO5rWHz4k3+w7qQTtO+tisbq4gbu7HwcLOq+MXTuIx0C8mec9PN0WnDvR3QM8u92vvBFzSrlXZoW7XqajPJGhozxRBBq8jtMWu/hErjvFutY9UHCFO/OeELtU08i71lZiPKoT/bzMXtM+ZG4NPkaX3D0lxFq8qCarPGUV7D1pkRq+Dd5RPQ4tvjx8TUQ9yP7BvV6nJDzDUCw94U+NuyKPzT0uwp89jJhXvYrRkbzVXbK97ZxWPdh5Zrqbxj893/+hPQoT5LvXYQW9RQ0wvEQhrLxFDpO8mPLzPJ37TDyPaxi7yG3bvcl4sb3IMXy9EAR1vKuFprslTMU6jXeVuxT2grx38BE9uaYbPQ/axDwOiT+9",
                "GkfevAANyDxzzkC9CfasPCb8Dbz7oNW8ZbIzPRVqdbzA0MC89xSgvCym7zxVQ049Gxcyunq9oLskZ4m7blzpOyI9jrzcSJA7x2GGPGhVOr2aufM7+k8ZvGIdDrzaWBm7fxCYPPzCFbxb74w7dDXZPDIeRb1XkRA8Ed6Xu/MxnLxIE8G8rXkVPFb3qbvDbLI7q5W5vCI0ojzdDmC+RoCBPDnQ0ryJ0gE9qh0fPvZ76rsGeAm+vH/FPL41Sb4kPYQ8an3sPd8FtTzjxwi8kpaxvTf3ej3onh69vSvmPQyqw7uQkqO9I5ZJvaW5jj7gKbg6EuKevNIG9b0mw9o77FfgOyKUlzw2CC+7O66Vu+juA7yh/Ik8D5wRPjw1S7xHcUM8gv+yvMg17zpeVoW75n2NuyhCHj0BM8c8s8LhPMuyCj1n38Y9fQxIPYDanbxa0JI8y5NKvT72X7saxeM8HMLDuTXK/Tv/PiW9eJisO82tprsnKgE87bvmu4I2orymVoY875uqOvtdz7sd2Hw8L0cXusIsjru/vYW71Pc4uuJBrLuRUbw7dqxIvBiMebz08Sm8Nz8pPfcVVjtZxe280J4lvO8aGLwCEtQ867zDO8IkEz0KRjm9BApIPDLFRbweqDO+8R++vC+mEz3L0O49zdBqvtLU6Lxd9jA9AyIrvbH9iD0dYoO9w3Nuu7+NX7xnd+C8ey6xPHtH5DxN7Qw9b/lvPLw1jb0yHh87X02vvJqmI7nssNe85ovOPW/utT1/uDQ9xkAuvYpoLj2vU8A7P6EyPcZZ1LzJt2G8uB0pvM1DvbywCMO9sn+cPT1mb7vCFsm8JVjcPMD3MDxBwYW9CZjBvHHEBDxl5jU6CtfdPYBIDL3oisS850ddPVMP+LuGGEk8o9cRvc2efLxYbki76IARPXMoSjz/dik97KTvu4RCWrww93M9QM0ku8Nnc7yPe+U7p2qAuyCRu726Mk88DOg9PPwCfrxAhLk67xnZu2yLrLzAFl88mIKDOmkeNTyGDLs8",
                "D8uZvL16ET2HGXa8KGiBvL38JT3/9/K8gUIqOmVNPb2YwHW+KjaYvEnGIjz1gV4/fMSoO+KKOTw08pO+Ot8kvPdx37oRMns+UIQYPVJQWrtu82I8bgvNO3cxvDyyLwm9rAS2vYivqrnsLzY9uOwoPKCf0Txzo287LamUO6QVV72ezco6aif5vD45BrypBWE613KYO8nn1bzefb+8nYEFvINhzrpXPHA7bcJ1PHYP5js9n0I62Y3+ulzgEb7EZjy9ZdSsvSk+Mr6vJvu7L0AnPLaEYjyWL8Y6C8UnvMdRpzvQLDA8gnWzPewoFLrwuSW7NbaeO0qkaDyfQpU6kQuOu1NBj71a2QQ8/wTru4J2FrqxEyw6RAtbu6u1ATrb25w7YL+FOjHUTTvYCqk7brhOvQVE/zotQhs89/3BvMJus7udS3W8xQ+Gu6TQ6btNb/i8400LuzNOtDvk6RO8d4xIOz4+lrqQMDy+kiX8vX3ryT4Rebg8i0U9vDz5j7sxUmK9cfglvAugN70BUZS8w0Q8u5hvTLx+vOg71oZXO7bKyjzJz4C82m8dvEEEl7rWCLE6shDzPB0LCr6gg0Q8msCCvMy4KD2R5ru81R/3vNjWhT3jkGO8FD7gu7nIJj20/mg9frPXvLKJKTxfB0a7ytQIPCSwF7sO1hy8+b6su5Z76bpG1MS79meWPLtJvDxpaIM9RrsHvsgITT3XL1O8A32FPJghFTyEkPQ7JWa1vO5U7TtBeC29Ilz4Og+jEz2rNpw8gQZOvCzWZjzHuVA9xF+MvA+jlbxu5Ck8g2aMvDQG3bwZlTA7NU+8PA7voTt4Eay78yOsPMyEA7zxfjA5okqbuzuUjrzdOXg8Aq66O8sqfTrRseI8X/ZiO4jGbrzpr0W79IYDvW0N6jsAy/O9lMPSvdLQGL1G3NO8MTT7u5npAz0mAk+8UZGOvY0FDL0P4xg9xTaru3LyML3HHtA9jLykvQDVY73FNCi9FihAvZYJarwYEew8a3D6PpSXYT5M7p88",
                "1g9UO8oTyT2B8Ag8t0DGvEg8Krz2KRG83t/rOdDnj7syWkg8k0uhu+sYd7z7o8g8gxVsvXveH70s7iK9jeVvvEjnXL3EaMc7I9bXPG+5lL1/eiW8AxDZvG4+ArtQ+9K90BWzvSwumrzF4qk7G6L9uvoWebyoM587HjXTO1O0B739qQo73Wf1OwePJryZszg74raoOxIKFrxJm4c6ebDWPDbBBjwygp07bYg5PMC6FbpvnTo8cKWtvF37MbvG3MS8ZHNsvYkGdb2iGIi9KWqpusse1bt8L8U7o7x0PB3EHzwxsCK8zbpXPMlwIT17lRW+Ca+/PYV42L1Kl5I7C2LDPYRXxL1EU329ELEYOzBGcD2/M9O8OX7cvb3aBL0C2WU8OppVPISO3DyloOw62a6gPAzqjbrt/Je9tqFdO2IPOL1Q2XK9/gsWPke2RT0aT/Q8xdjQvVFBkj1XwhC9nAOHvAMEuj23b/Y8BvOgPYJ1SL2shBo90WxXvWvRvbvu9rM8djoNvZkqhTwT1fY8cv+8O/CYV72tWAE9Ibg1vOWF2jwU2U29xqbdvJhLeLwvFqc8/QowvbhUozuQIQC8kOqlPHnveL3Fh5Y8us7aOgagB73+4O+8i2qmPLBzWbsPEqO8azaYvPQJVzzk5C884DQPuji7JD3cqUq9Ef+mPPI9Fr0ZZOg7QiaFPGeo4Dr1uNe8Ci21OzvSSrsdw5m8LmPYuTB5zjyYbfK8TssRvVGeiLzlPTC+vxGNvVc3ZjtvKOM9RpgQvEuZkT0rRCE++dPtve83xL2iRJi9zE66PVaE4z1xNBI8D2bgvLXtkLzIrug8urGnuVA1u7vEcYg9pay4Pdye9jzU66I8ZSuSuxnpgb3MckI8yI8nvSXesDxD3dS8b75HvRbxN70cDSw90v0GvSg3RjyW9Kc8XHw6PUI6Pjs/fas8nCj1O7zMNDzZoUo9p6J8vCbHBj1n4q49ZP9JPdt7nL2+kvW8Zuh3vH9pMDzXvK88cgstvRhfB7x2K/U7",
                "7RniPOSRkrzMoBE89uNRPViJAD3rZau8ihYuPAeZwzm2PJC6vTtJvTs8wDlLQ1q7zPwNvPD1RrztNT+9DEI3POG5sLtAdLc8408KPH+Ejjwz4bQ8e8BQO0LbZbvbsKw9RUVVvKpl4DyiUKE8ajwevEUSIzxiB928KvJpPewCYD1oH1Q7leDKO41nlT3dROi7c7l/PeSk8jzWQMe88x7XvJXtmbxHAgq8DQftPEQpFr393DC9E76PvHtF073ty+u8nFkpvSi9qbtL54C+EvMCvb+DvjwrmjS9yjZSvVbvNbxPK7e9suo8PUnwJDxGfBC6jv2juw8Qj72Nxlc75bqPPM/RGbxmmF894+GzPDgmtDxduhq8xITNO7f1yzxSIbA8/HsBvaKjh7yjY2k9lyhSPcvZ3DxtXqk7E44pO1V2oDx2QaI8Rhs9PQ/oGzx8PSm8AtsGvKBQQ7yY0wo8tPw/vR6QdTw5gnc8vuWePFzefbyGWq48kjkLPBMEg7xTYuG8Xa7PvAwAZzwLUZy6/SWHPGRv8rtHVkM7xBeRPM/Qm7zhKLG6tDWsuyd6C73KRHC9TA7HO/dXWDzgNbC94mhEvr3HQz2ntoU9iNA+vY4vpT7KL5i8eaCgvcM+QbyDZwE9oieTvYwS9jyyHhy8KHakvNIkHL159kw9a0eXvZ4Anj0G+eu873DwPfX9+z2d4YI9Q/kSvdRJ0DwHng29mtR+vCrREjzmCwi98sd2vI5xY7xEwok6WNYvPATYl732Btc8i+wbPczSI7t6RwK9v74Rvf8EjLyAs0o8lcMHvdsjJLuCN4+8qPFQPBFUhz2hEic8BtH/vKA+urxrHVq8jHSRPANntLxIBwk8nrIcvOnYgbts94I8Gj+MPE1+ILztdfm7V2g4vS1nwbwmqO28wawYvNE5qrtsWks80TWAvO6YlrydxUu8le1mPMJm77vorz+8hVD8vJYNtjyz6Kq8wsuTu1fQTjzW4cQ7kaRmuzdyqDykFpY8huEIvOxJdrvCAVO+",
                "Kkyhuy98wjqFlyu+MfZzPGe2Pry6ZrY+Pn4yuo9SSjmPRqC+EG1Pvb2VZr4eYLC8xWyQvKmRuboOTq87hf2aPdsxd7tAEE69sJ/Vu/ET5TvWhAi8oiS8OiSWSD5LyWy7gC+NvRjB5rku/AE81uttuixT6Lq2sT29NhWSPG2rqzt1jCc8DGZguwLCpTpjk907ixTlu5WHZD2IGNU8B4XmPGE+nz2TfDc9ueaqO37qVbqFU4g7VDGLu7OS9jpwxUy+NzaevZPSjjuh6ka8A2i3O3OAsT0LkMM6zaQpPOCwnD0atze7/Cn2ObYskjmTfsg71iGku/owjzqe6km6UjoNO9Q5NzzY/Sw7KZ4Auz513Luo0/C6WbjvvI70pjpFdw+8ovMau6Vaaruv1/C8vlBru1ENLTvYv7w54k5YuyTEDbtiBWA/Y5I7vhgh9r4Jgwe9i+wmu9a+tLyIuha8sauku/QPBDwkZ4y9HGw4PHpGpbx5A249R1lfPSzbab2D8++8j/MiOoj/YzwPFeO81DAIvpmDnj1/oF084VY0PEMc3Tzk+yo7OFNNvCSp1Dw63ow8hcC2uqtzVzzJSVu8T+WNu/ESrbwB+zS87TIxu/J/KTy0E0a8fUWDvBp1jLuPWOo6SGyHO466iDvh/oa8dwwTvQ4rgrypbw+8BjAiPB+B5rute8y7qb8uPI7OY7w84Wo9zUCfPFHxSrw4Pls8DfMwvD9in7xRVMA8vSJkPDJOz7wVQhW7owXfOoqfrrv20Q68gBgkO+Fl27tmvCk8+U1YvDzCsTzBn5C6Zligu6Fj9jvOQQE8NtwsvOvmMzx2hg86b4EeOy0QozoQ9k88fIMlPGf+dbxJA4+9vwrDuYp4QDxq6WE9GlVDPajNUD6rzC09JfsdPReD/TxUPQ+9SJSiu+vncr2FrDS9R3PaPP6CczwhXxK9XAJ5PcPoQ73g2+o8GexlvF7+nLuR96U8cgUEvAxlJD3Gsmk8YTPsvRuy7zqRRPC8mQqRvd0t+Lwa+Qq8",
                "tY/CPL5I/D1uZS48Ih4zPGFKtLuFB428KO+MPODHvDx5Uxw9yEVPvBhFQT0lPHG7nWw8vXLwuLw3OwQ9uM1uPVsOd7x8zim7NpmpPDzox7wJEAg6Os/Xu2eqWbwk9xi9rOi8vdDmIbzRS2I9c0OevTDjRbt39hi8m0WSvQyrgrzU6E6999COPFECArwcU088mmSqu4JWJju8TYk5GyciPRao/jy7Dwo8yZq3u+/loDxYIFi9KALCOvhRG70weX+9MSNxPLmvX7w2D+m9KQ8BO2l5KbvyfMA7LuWnPEXpULvYKLO99rc2vAk7H7x62Qe+sFs8PiOuE70q/h47KZD+O+LGFzx+pDK8tE2ZvHf3nbl427Y9STmAvIiPFbxd5I+8JZ1nvOnTkT7AHtO7Hp0YPlG8kbu+Bg28vKdkPJ99E7qvC5e8SwSUO9ft+jus/B28E4yBulncwLvE49w7t0AzPFz3OL2jagy94Qb+vGVmTb3j1h8+aCViPK81sbkRJs27EfNCPOdRG7wzuqM9ScvBu8QLnDqaWyA81FyZN40Wfz2shJC7ECOhulLnGL4iF9i7LgBdPOPbAzzJKMu6POSiO40hv7u4MSM8lQoluzcDE7ytChy86dLPPBe6MjzgLjY8K360vGX3HLwAjwA7iSHwuqlorrvplAS9OFIUO0dUjbhuQRQ7QhTWuhyRnztVua8+NMJyPaYKAz6qUWk8mcRLPRhsw70h/1E93B5bu1Gbcb1wEJa9YHbcPSJ5m71aIh29sYZIvQ4DibzZ4II9YF52PDJKfz3RXhE+7VyEvVqTKj0cGqC6jWKOvMe8dDwvnLC7HhGGvOlcHjrQqig9aHLVO8knJLyu8bu7YFc9vVf/Kb3MhLo7o5gnugj8BjyEJE+8kFs8PIGa6TyRlbk8e2N0vO9A7ruqKb09bhi3u57INDz34am8r8GavAichDtaAQu7h1XTvD2UI7we/Qm8NT+QvMgMX7wRdVU6rHD7PLHnCDujiMM5psXPOxBsXDzpLJS8",
                "rbP6vCw52jv9Ifm7xJm6ul8+HzxpT0G7GKGGu4OJgbzJ2588OoE5Pd9fKryzFtq8uimXO/TmgDwC88M8dlObvJhK27wD6io8cWy0PHgqaj3R4h4+o2b9vaJFNr6LdHI7Z7hmPBhxF7psgKi8R+gTvLnvvTzaEsK9OP8fvP7Uc7wJeZE9f2gMPcGvNT60es09/w8TPRlpUjxW5Qu7mls7Pt7vtb0+/8M7Tv/FPOK8jTw4b/A8zHqmvObTxLuYG2O71wQ8vCiibTvqvHI8fH+CvLiKubyYdJK8qVKdOxgQp7uOQwe9eX6HPMEeoz1oS6u8QleNPcjBxT0Jlcy5oxtcOypfzjqmxNE9gjMtvR8yLTvHKBK8LZ5HuuM2m7jGO0e9ZMZxvWAeYzw7XIw8oUpEuww1krukaNo6odxevJ0VpbqJJoE8qBCwPGA+8bxnUlu6gDFRO0QczT0POAk8DXV3uuL0JL1oHl69880kPYLhQT0VSja8cEdcu2mVlrzgvXm8MvQTPDrpnDvUHCo8nWkAvIbU2zvzVxK+Dw2HvGV0nzxAEfW8llLTPevoJL5U8569JZWqPIbjGb2oYjq9o+6hO9sBJr3dMx89KNKCPOqfYTzh4Ay7YWMiPSRa6b3eeQ89sg/+PZIfPLxbHgC8f5DjvNk6YT05Kqc7AXi7Pe4VxDw2udo8BZcCPc/TZT1eE8M8bRePPWb+DT4so1Y8k3+tPM6/Bb34XaM7/uinvJGyHTzozrS7eDLCvCHOBruRt/08AyotvdiQFD7V3cy8YzmqPKryu7yxttw8uoLivB61wLrXsDa846DfPGznxTzLazS8zYCbO/4EcTyT4+s8EkKwPKCZ1rodwWc8UlrRu+NYzTuNKs68/0C5PKyWnzwyew282406PEVY3jvhg0m8TYAjPK3YyLyNn428kNgFPPUiGjwo3Ts8PIo9uwapyTywsS49U9qBPE3LQjtt02m9APxlveZJnL1dIrk9uJFhPBX9BjyEdBG875wKPgJHsb1E4bG8",
                "IiUAu1rLh7sbkVI8TMg9PFxYAD3qiYw8f4alO1iMPbwQ3Jo9TdL+PfU90L0DVTm9lj3IvBYIHT1M7HY7C1wLO70plD3kqXk95PsRvT6xCTwF5E29aBqevcTjTr2Tkeg9wXw8u0Qh+ztSFDo2UfbGOlhlGb3XvkY9xeULvQdC6zwtCwG96pknvU0PI72WD9i88YAUPShxwjtdJ3c8mkwOvLd72ztH8Tq9tpXCvBCNqLxhPYI8nFKKvFzyMjxxnt87JueavLiaxLxxGp47ywHoOkazKjt1Hg29NQMIPcMiRbzsIrA5JXaQPKND87wQg2274gqDOIl4lrzkneg8SKVkPOR7nbw9b288B5WhOAhqO72ap5e8BkAfvR21Zz3mjeq9Xi2lvMwYGb3MPy2+2wjevBx1BTzv8bm9p5eTvSb0tDw1mEA9Vn6ZvD2guD24MQI9C5cPPOPNK76F2Pa9b1zMPI/ZWrzXNE081yTZPjAWNr6YEj48h7nfPMujL74zsy88cUaFvHMItroWjQA8c7vkvMIpODyzbV88eauZvP2IH70eaQM+hBhgOxY/zrva1hE8fw1du6n5dzwDbS49ZnOcvA/QTLsHOCU9tfkXvZ1V7ryWhhi+9NfCPItmSrxQshu9VXdzPT5uM7wtDSG8aEQhO0L3hzxmhi66zyyOO9xsmzu5KUo8w5RVPO/Zkjx/wuy7AIbavFEfEz1n2Yw6TnCyO/gknbzKiQ+8i24EPNwhWLzM76q8X0SMPO3Q+ryEEKU8hr6hO94OXzsYXcG78sA8vB9C7byB4DI7oNAjvFuOzzys+Oe9JpfMPcILOL0lkDa+fh3dPLT3hzv7gsy9GXoavePP77ypXyA8DXGYvDQ93T1/8He92tkIPYJZfbzFF1k+/zuJvBYMrLmend482eWdvlk2ab5sQvG5m8C0vFswHb5PgyM8+TLaO8GuE7vi1vE81TbhO+KSpTunXFm8FnEvvIklSzpIB4K9gJnOvZSoJrssqx+8ThLDu1uNhTvrEgC8",
                "zwB8PdCRerx80my8C4FxPGtfHTyV+MI9uPS1PftAe7xkVlS8XkOEPWQ8TbvvxO67itkGPawi4TyGDNa7nuv5u4AKq7yJNoQ8ByDhvFhl6bkRoxE77z6jPAsWJrnxHMe82b0avNsC2TumouA8xeUIOBzO37tg16g8dy2OPD1k0TzYfNk8YJOKvHNKezv4Wie9Ak6su3C0Bzu7GhI9uBmivNmCBb1Jh+q95XXYPFrzyjwB9aw8mAV4PY+7CDxyl4U9je5fPWGI/zwE6jy9vTVRvAQS/LxHFd28rGrgvNcDqD3LBqq8A1BdvIl9P73hpBM67TpXvVwg3ry66+08CTFcvbF75z38s4a8cPt8vAAb+TwRxTA9j7/YPBgH3ruUeYu9Ozm3vMsgG72LD1C8/W8DPVZ7zjws4Ge8KAnevBD8Wr26U/28ARxzPFnxD703mIc9WYiqPHpQCj1yshy8CgWDPcbM6Lsa5rW7owsuvqj4wrs0fYg8O0URvax+Urtcf2G9SYVBPTTYeTw+urq5w2QMOiGaCbzDVuw80VzyPNiqkjx1Ca47rj2YPGidrbyjrfG8YMAtPVCHibwg9ZA8g7HGvAN4Fb3i/Yu8YfiDPGA1FjiU1y283gM4OoHD3zxXHLe8aikrPCyblrnlTUe9ydTNPOjzETyR/Gk+MiW+PbmqsD12lJc+JMkMvjbfuD2uYf091gwuvvFcDj1WHgK+NvWovQFk77oAlqO8jltsPTFYeTr1Ida92LHyvSTMIT1HwUK6P6HcvBTU571n9ws8JtJ0PAfUl7trBb88CQLnvKcQjzq1S4W8FBJ0vUpNSr2O+D68ONOWuzkpozzi5ro8C7Hau2mOnz2vwq48BdsKPfBjTz3ay4O9BiUoPGUcXDyOuSY9WuGLvPwXOjt4KTk9/rXyuyb4Xjz18hy88ETvO47gFr03IRa5vsUWuk1gfjwejIK8dzm9vCuzw7vUkN27OFLjOifLtjwwnSQ8wWJMPN2bbTw6Ke473U+XO0rsZbuZIUO7",
                "hdIXOr+cQ7tcGGe7KY4yvFmqCrqWBUo89fnFu0QBVbyjfLS6qi6LPDo7qLukfvq9"
            ]
        },
        {
            "shape": [
                140,
                141
            ],
            "weights": [
                "zqIlvQbpJr0bg+A8lDGHvbZCRjtnwLO7Db6NOxhxhTwzzNy7LYcPPcs5pr1QZXs94d0CvdHwLj39ilq8mcUUvJtcNrzJHlI9iEUdPYyMDD2qRqE7jZdgPd6K4rm7dKg8EQUJPSJOfzwhFpE8dmTbPIASCL3cM3G8lDwFPJL6Br3x0Nq9WJDiO2UOoTw5K6k9TmKcuhQtjjztzDg99h+XvBHGAj3JJEo7cT41vEgepzyNGQw8fDMtvRlgZbwQGmY9vNA/Pea/f7xMJdm8rE7sPEmRAjz8iiA97lZxvTc/PjylkMC7/RiFPJV+HDzdnkq8DFu3vQZzsTyEyJQ9sGUxvBMCYz1z1+k8kAGmOl4C/zzv/EO6/tbEPCGb5jxL+xE9klvRvASpPj0bNQu9jXhGvfnl5TxjDLO8OvXKPJzcezy/1wK8RZAJPJWTwjsNJ5K8x5ZiPPqtS76mY8I8GpriPOhY6Lvcc+28dCq+PDPxnr0JkVW7nNlSPXlorLwRLjc9THEtvYe5VLsIOd268MbOvWJ0xTutLsC7rBgBPdzxu7wERPg8i6/OO8yT8Dx/8Co8CwcAvTs7Kr3PDos93pxIveEHF74IxSi7p9nuPPEWTbzgYw29t7SIvVIMN7w2cDA9rBeBvDlAIL3Qmgw7Mt2XPJjLcr3XlUQ8Pg8mvdDtbjxLpBu+YleWujzssru2nN881JXFvE5DnTzQmTa7UvIOPeHHJD314AI9IkQaPcbMBjy3AzY/TvoEvDbwwrz6+Jq8AoFcvIRdOj1e2sI8ZftAPasTEL14woU933wlPRXDGr1Vn4u9JKODOoQ7zzu7JT+6gFEiPHZkID1UjgY8F66KugPmNTwW21q8kfUrPXxRYr1KjYY9SBSCPIpvh7xCD5K9DJGaPCF2zLpRaLM9NLl1Pca9nzzK1wA92FpFPbrW8D3x4x682RhZPqrzF70nPwO9shJcPcBXTrwF+dy7FAfWPGmAg70V4Wg90nunvOc9rrw/l+O9Y2WXPD3P8bw26hc8",
                "2eLXvMqktj0Xs5C9QTTSvJ4VtTxrAJ676pT1PGTvHDxZbca8I8gAvFcMTTw49Su8mvW8PHTMHjwSE+c7Kw1yPJcdYTvgIo29NagcPGgdkD39dps8RpIcPcKF6bq/WCs8WdZTPIWQfDxgXKE8IACdPV84MD3kOZy9NT0mvI/vOrtFTho7tYOUu7QreL2gG4m83KFJvEZ0B70Snqy80pITPSfSIj0E2e89WXfavCROCb0P/pk7hYjIvPzFKbtLI+e8gHtPPQ90ubyYfFW9mQkvvRBaNL29v+i814kjPb661rzf1Eq80+xIvObVOrwiXmm8KQYLvR5inDwwVj89DmyYvCTQgjykyHY8tuiUvIP67DznjhC8vdvPO3DW5jt4AnU9apGdPeKtWzw4F+Y8MNAGPaqqjr31mZw6ZJTavFKkmbxaf0u8EjejPI2K8TsSjN09qfECvQnjh715E469mDoZPQTJlL1LGHW+Oa8dPfxJcbyCQxI7LcEUPXeKoLvZxFS87BS5vCUL8Dxkc5a9P3S2PBsbVjvWM/a7wsiHPEmUrrwgd1W99yD0O9LppjwOXuM8PHiRu8IgwbygG7w9NjhCvTtuFzy+11m82eAgu77DDD0kyX69RZG4PZoTmDvQ+TC9DWPJPEPpsLx5RWY8mpPzvZKhEL3I2gS7jI4BvNsxNryzFjE950BLPEyrF71BxyM9xc64O8cfyjpOp/I7HUe4u60OIr3zZII7PtJXvJXDir1mZkS7s+irvIPv27uTDmk8W+1kvVEq7zvDWjo9ox+oPDZTtzk0hYG82O0gPOflTL33xUw9HDccPB9wxLoXBNk7cGHpvIuRYT0VGGs8Aq+fOxNj3jsPp4M9DBKLvQ+hpzvxnJk6vYgyPWeWxr3GgZQ84Us0vXAbCjz20Ms8nMgwvMug+zzLE2o7CeVxvaiPTjsgFhG9UOBwPA5PsrwvWCY9hTemuhkVADyt/428m1jNO/0CEDuGOFQ9S9+PPM8SsTwqxlE8fahGPZmwZb2bsB69",
                "NO9MvYf+DL3OhGI8N7p3vZ0jiD3aYca9aIKCPVu5W7yydY28o13evYRQ0Dxrc2u9EECvPdKrgjw+bwi8CKyaOXStYz2urCm9HMZRPe/b8DoTyW46IkdcvWIcejzCTog9NeipvI/sIT1DTVu7eAKHO9A0ITz4jt68WEk6vYFvybzWaXm9+0XuvH1WkDztdC080hKyvMtEhTutVRi+JYQHD5o7CA/4gwePrtgIj0GxCI9G/AePhVIJj0tcCI/cLAkPeTsJj6RsCY8LagkPevkIj0bfCI8FLAkPs+UJD4DcBw+OEwmPMKYJj3TiCA9GegeP2vUHjw/LCI/UFwkPvQYJj4/DCI+R2wgP4KMHj6uoCA9jywiPVkcID9QHCI88YgkPUT0Jj9p0CY+4CggPbDIJj5/3CI9+MQiP8wcJDwsTCQ/ryQiPregID7HtBw9LDwiPaoIJj8QCCA+5uwiPEKAHDzHXB4/NRgmPwOMID23kCA8SfgmP3OUID3hJCI+9/QiPmB4IDwFZCI8IywcPNBsJD9SIBw/c/gePjWAJD7u9CA84jwePhG4JD+oFCI9ULQgPjDcID2VvBw/HbwkPJp4IDwRjCQ+sewiP9TsIDzkOCY9tHgkPbcgID8hZCI9zEAiPg3sHj64qCY9Z5gePZrMID+LsBw8zZgkP5DcIjwUsCY/uCAmPTGkIj3+cBw9YRgmPNpsJj7KYB49OIAkPo5MHDzC/CI/43QcPbTUJDyd2CI9QZAmPxaIIj8oCCY+lOAiPJSQJj4TUCA+gCAkPqvAID09FCI/3mQkPvz0ID1GPCI9aZAcPn/0HD23RCA+ggAkPmg0Ij1RCCI/88QePGdQIj5d/CI+khgkPkqIHj0YqCY+TVQmP2EkJj+9fCI+R5QcPWDUIj1n3CI+0ugiPfNwIj+i7CI9MUwmPWSMJj+BbCY+rLAiPrqkIjzh9B483Lka/M4E3vY2KZ71FkKu82wadPX4pGbyq7Ua8pSfxOw+L4Dymhrs7In7JvG8cO7u6f7O8",
                "GNfwPCMdc7zJlTQ9lG6tPMkHoL2Gla47IB0DPXMY9Ly8LFY8eyDnu6+nMr26Lb28/168vMm5fLqL7xc9c1RGPPZeuT3MBIe8e82HvBgXwD1w4N67HINcPUGmaD0mGdG8hZLBum8FvTtkcye9+zqIPXvskLxKEpo6llMhvTyRxb0fy2U8vTFxPFL+9zvQE4m8oMrKPNK7Or29hgG99ch4PVb21rxaSIO89p4GO5IjfTzCFj+80sVTvCaEITzFVf28COEDvJFjiDyjTmM9UvC+O4SWw7xkrkO950obvSk+PD38dGG801UvvEE/hj1Ejhc9zcI7vTKQkjxn+la9f0oHPP70CjyMqlE9Gf5qPLusTD3XjEA9s/uMPMVXxb0CTYW8PBxFvTEW2rrck+Y8+VSXvCbslrylbsk7/XmWvMe9QryxVzi82uWSPA2mI737hp68OvTdvFZl97zPY+G8RoVVPaqbVzxJZsC887B/PNdqErw/bAw8dMYivVzwnT27nMQ9VHYSvQE2HTwVNhw9wYn5vPJhYTwpPvU8wLEDvf+yrbvcbla9Tec/PcYljrva1Dm8mIwcvSNAhbx3Gwk9zz0CvQ74YDvk1uS844AUPUuERT1c98E8D5MiPZkIgDx5FGU86zKxvNrPAz7Z4tS8BQkqvW9Y/zwwuC89XSwcO5g0kzzOx+y+WeRTPOnwZ70fQ4C7l460vDmtAbke6oq8Llz+PDXy+LyxHi88N+Idu+x/djxvkRU82P4Yu6jRCDzm6Z08pzoPu1d85bxQ0+q8l2wQveCtNzwAuqI8T0GxO6e5Fj1c+bk97OzkPG0gBz3yGCW8QFAavSAqYzsXZRC9fkM8u0IgaL3juce8BWQRO0Fopzw2chM9HHyQvGtCiryzuoO8uX1Lu1QW5Tz7HRC7WdsaPO4q87o9Gpi8L3/GPMwBFj06ko286NvYPFFstzx9f488KJnLvMKKYrs20x29IxzRO2ROAT0qt3E+HLuYPE5EGT0+Efq8uWCPve79YLygrFg7",
                "3H85vORQArzswEg9un5uPM5qkzyiMiY9/gyevG4sQr3zi6C8fX+Bu2t0FDz3r907loHfvF9eajxZ4iA+uw4AOWa2F7xbADW9W2CqPPkLjDxQBM88czkHvQKYIz0yIhi8D7savC1xgLyFYXG8kEEWvSSUuLxvHA88NJOuu7HjgrtKzSA9G8sHPepNWTzdsEG9kiYBPZMIwrxPS4Q89IiouzHBAD3jbfW8jLGnu+lSPT2lS4e8kllXPUnYUDzgP8W8tResPGnfxTsZ8OK7lSOeu2n/jj0ijWq7dbjFPP/Z5TzNKLc7eq6/PHomkjylIEM9EjKfuyhbRj2VjwA9XP7EPEt0fLwx0tu6WqKyvPEvFr02HoC7IhgZvFWLSDyTWAY9VVdQO2wVqLuLcRw9rzWzPPLv+rvWi5C+eNUju6U6UbujnFq76FakvF69hLzmYoa9SOLdPeSAJTynZwo+MpynvOKoIj0lLvI8x21/vQ2BVb0P6Je9lxpnvb3aaz0Spey8LBpNuzIQJT00VQC9ZhdDO9EIFDx49JI8uiz2PAMc2byTAME7VMMtva896Dux9+A8HFcUvfC3LLtFJA47udAsPXqFmrzVfnE8blBlvKvVnrrvUSY713yHO58YGL2NqU48hYxnvaImxDw0mhS9xfDwO1X6J73ud3o8eDJxPRJDvjxzDlE9IW1LPaGKqTwAl/27wmU6PDij0jwpK408dPMXvIMVWLyTceg8NoabPLT+WLxlDok8q31VPVBWYby3j1+9BKY6vRsu5bt3Vki9t7utPNa4BDztjXg8zvunvGl8Dr1xI9O8gz/3PI90J73hyy49/vMaPdBULz0s7mY8wKQmPDF8YDtQ0co8dI1avbu6Pbzic/+8RdphPNggGT1QIGO87gXAOxg3Fz3BRU48fLFdPc77RrwnMlC9XHQbvf/npD36xUK9EQBvPJZln71dRmK70d01PMGvdLxGYD69ct8evV81gL0uNTi63JAvuyLwiL12Jtu8ozB0PHNDgr2n9JY8",
                "YQtyvSWU97yz118916K5PAMAAr1Ddru8M1kYvWlW47zYVbE7meSpvOnTxrx2Hli8I8+GvIxcv7yXRM88+IdJvJagqr0Eu168CH4HvPh/Ib3Fjek8+9MovQ4QFz0GCV88yr44PM1j9TnXJji+dI1NPC0rZLyz2ZO9GiiBvL2SPrwbuxw93FPQPH/gkr3kfTc9YyzpPOTf2LyNM4S81VbhPFdB3bzP7Uw9LUTvvF9eijuOoTi9dV3IunJWIr08RKI887BZPY4ow7zjGZm9IPWmu7pwMjvTxyM8JEshPTGj6Tutb+Q8zacfO7I4crtIckC8wHSYulnSvTxkSu47cdQKvZl31jwU3vE7h88oPBNV17w8KeE8fy5yPecXEzxWfW08uW9tPKJh9LwDG+u75+MxPRcwyTwBIic8HhVWve8/V72cRWC9d/B4u3tMZLzJ3XI8XiuXvbewkzxKtHA9Nh5pvCU7w7wxZIK9vjCCvQ7zCb1Wgi27LWnsvGnzuz2AhSa9GaOZPHQFvjuqNmg7sndYPAnIjDy3tzY9PyQLPBdHYDwey8E7omkkPGR8QL00GRa9ouPSO8DJArzIo3e89YCsvO7JJjsDjCu969SWu6tJSTsyS489Yq6XvNEFbT2CfY68hhyePEk27juNsYK8DNdCvZpNBj1puc66RMPSvEoQcL3m0mM9rO44PSSvcbuXSLQ8+SN3PL0w9jw7bfy70i8pPd4r4jxQZc8818ipvJHzrL3iCRa99jo0vWg0lLwuUmG9PxuFPPx9wrsbvX68haUUvdBjubwJ86e8F3uEO5PmNb02/kS7Ism9u+4EkLyMb+68oq/WusDdHTyeWZ88igVCPNVZ9LxfTKi6q+gnvI1lirtIVtS6doxOvKAp7jtGdFM9nn2au7xqTr3j3zo8dh0AvF/TtjxgTsq6HWFovJGhLLzW8xK8ucDNvLBL8znuq4Q9AEI2vWaRRjyuUfM8QqBMOh5W5zxLNki9Aea3OzqllT3Jal49Znc2PSZa2znDsWu6",
                "gwA8PGs+Bjy+JTG97bunvAt+ibyZ73m8ENEPvewaPj28n3A7yR5YPRAmurzA7MS7a1FKPbnQ/DuL5Ke5a8YpvG45OD3Gaus8uquwOyJWzTtbWjc9thn0PCydfLzze5089VvcPKF6HLxEGik7+8aOPIyUVz0h5q87XMqnPBH8cDpzfIS8LgaMvEBcxrzyS9O79pFbOtmIxryxF5+8LME0vWmXMr0Y6aC81bZBPdm0pjzPJAU9+0JSvVOAaTkhXA6906wVvVOLir1QqCY9aQgxPeuDBr1yhSE8rrefvGx2o7xnPQ+93XVavT32G7tkWGA8AzEpvaEm1zzKIAe9W8ETPbZQ+TsTHLw5ebOLOSTbTDyUWXO8azGrvLPxubsaBQQ9Y0pUvejqCj64/uY8YaMBPbFFPj1eKQ695vW+uliRtjvak9C8VPg6vSC+Nz1L7sK8MyxjPTV0WbwKdCW8LkD1vIUzmL0iFsS7KzoLvZpfEDyHzTm8Qi2qPEapmLyI85g9pO/pvL7eRr0IQA6952mgvJvZvj2IThy8phaTvcWR0zvJ4uM8GCntPKjr9Tvmn2m70BiVvH44DTwxWOm67cEXvU2VUrxTmNK8yDdtPN0lmDxPqY++nUVfPURIdbx3D8Y9JpdvvMKWUjw7o/g8Op/uvIi1mLyDpb6971rgvCylmDwrfN29E6hYPfDcAj2TGtW85m4XPUPqVr3iohU9IaPiPNr0rz3ub+O8ZbI4vS5WTbutkVM9ljfoPP/CorshGoq8yLHvPHkXgz3KQxg83Du6PdPuAL2LgEG878Y5vEcEprxe98y8w+YpO+wgpTwmR+G7Dyg3O3M7qjxcgBk9QhmkPT2vi7xkFhW9qaKQPAOiGbzxMwQ9jl3xvHQB8bzdjqo9Iv77uzbJJD1JXws9cIYYvS3sfrzeCiG8YbaaPU77OLvbXv68mxAPvB18SLwRym896wGCvEAHA7xUQYG8X29YPWjNxrrxGSU9iaHEusx+lj1YnMS818GVPOJoGzutYVo7",
                "+qwNvWJAKTxipeE7KNTaPOEaYDwebFu9k1L1vXIsa72Spja9FJuLPPsUZ7tk44G78NMvvSWQ0ryvRHi9oc5RPA8jDr3QDjU9slNrvfw2/7xij3c9Dcu/PMyfHLugA7Y8bpoIvJOnBT6egrU8EpcXvUJczzzMv8S8Hx6XvT64nLwXDsI8FBOVvA/qwDzkW388u14jvY3ZB7zp42e9bskOPai21LtamKi8LTeNvPCcVTz8uZ29FzwmvVWUyrzSRQk9qcQUvGQuhjyz7iu8zp8zPasT2L2dw+K8VHOHvKvpoTvhFTy8/G7MvI+0Ej2Dspe9ufI5PS4yADwOJo47mehnPenVqrwGFYk9saZ7PXltFr2kRmC72PZovdISJDt3i149whkFPJBLtjyUOsS89peXu8WeOb3YVO46aZxhvSUrxjw4D5S8EW6nvcAJZjxEKc879jrIvGjsAz2Q50k94Aq2u1ZzoTxiunC6lzvcPNyNoTwnZua8hOWwvLZLxLyQ/ds5fLhtPNXTzL1KEnk8Jck9veMsubwf4DU9kfWePM+/nzyjfNC8n8S1u9dBxDwlHoQ7W4sdPYZ+8zwcfTC9G8CkPKH3/TzQ/w68ksqVPZa6d7ywbem8NqVPvExuOTwylJI98eKEPQwiWTyTtuq6v4icvOLh0TyKRYg8WMcLPOvpwLvNcO87BLFfOhh4mjvySFg92HMEvJ1wJb3cOZY8Usneu7aXhzzPX7I7uoHfvCS0Ib0DO4287GdAvcwBST2iZsI8yjlGPWYdsj3DWIw8fkYAPYZVG70HMEG8eplUPfDWUz2N1gW9VAHrvBduWTvl2ja9JAGRuzmuCD3pu7U9Vfa7PLvd1byyJ/E7zsj4un7qBb2GUcI7x2YlPei+bTwFxhS9QwsUPFDhHDz33xQ8vtsRPCSxQLxQ2bM8AxPjvAPBujxFkAu9b5sBvZZfHDzP+Sg9O32APUKQ5jw5sRo9g48LPachBr3CwPI8Sq5eOxEB1DvzKgU8aXY3uwPsCT0gaDY9",
                "fIRRPKwvGT3XGmG7Wr6QvIn34Lu7agM9nFetPdoPC73LY8e84EuTuyNMwbxgvba8uDyAvPhlnLzYrXG+4DwdvAw9ED2w8Ai9yPWavTLPCrxvIDO8PjXZPBSTOTo87Au8B2EYvdYSPT2xRSI9YyANPZJNkT2TZAQ8Vgp2vIk0sDssWnA8F80VPNkTAb2XCke9QnGOvFf6Dz1r7V48pezlvKfMVjz/8Q48XgVuu8PahzuGNyi8IcR6uxIn4LvC01u81e+svIb6HLyYmWK8r/wHvdE8F7ycxIY8FitzOtvGK7xnWlq9TtqDPdTWtryJ6u+8ZTpPPTJ0azzOt4Q7wXEavSLVpjxJWg49EQYbvQF5pDwgOkU8h5KZvCYIBDyOTa07KFPUuoS3B72DjxE8w1FhvfCS6DsyHEQ4kyDyO40rcDwqgIQ96clLPTuh07zujjG9Txr1vGM2n73b0rA8LXGGvVPvdb2WZLe5EBzOvKB/Qrx795e8HkkBvcaXgjyY4gK7I/AbPTl5YjwqXpE89/a+PIaae73Arjc7B/l0PJWTpby4yE28QJM1Pb7nFbzt37Y8PVcXPcl+AL2eF5W9aH88vFdUSL1OQjU9kMUWPPk3fb1WYDo9w4tBvIiB+zyPnca8dZwMvaRBabtqrLM8Z/FzPSOqAz2Z3Bq7ppi+O08Pj73dMAe7t1LMvXdqjDyjBNE9UmWWPP+fKTsrL7C65r0EPv1neT3J6FM8I+mdPGIcgj2hpE68GXuVO0OUnjxL8Xw914xYvQkxAz00sTY95K4yvJKMSD3qwTM8Y4aWPY/el7xouse6wEjPvKgsBb1vXJo8lqLiPG6jgj0cfhg8wXQcPqZWRD2fwOc78KuPvAUAkjyV5Ve8vOgwu8RAY72wJmQ7xB1TO4okgbzLY049dhuOPf/lFDrrfIE8EYG5vMSaQr29Yi88gQ3nPGAIID3Q/y+7smLHO9f+lTy9owW958yIvAOpJz1Hl1K7GyZEva93Ez5KJpQ9jpR0vOEGWzwx3OQ9",
                "G7TjPKG3o7uhdZO6SCKvPqqTqzwP1Yc6eObYu91yDz3L5dQ60NKDPQohhT3uA708VFQtu4M66Dsy7WQ8hc4IvEfNnDzFmOs7JorRPdzd7rgKtS+9NYsXveYUND2b3XY8DYWEO3g6hLznNHy8lcAWPUf81DpoAa48/mrpPJXzmLw1daA8BX3TvDORKzzc1KC7s/LhPRY0m7sbE+g8otAUPoE0Tz3PQfa8QIUFvVSSOT0AaZQ9h2Q5PIhgPL24i1e83sOFPNrGET7yM1G8TqZbPC8Y8LyZ/I28Ql77vJUYgDvh9SC8ZKBqvYWf1rw5QZs8GUKKvNPhDz3hPgm99iLrPV95ZzvPzUk8Yh/PvHukjr1Z0U29U1aLvBFahjyyuwm8sUaDPcj8O7tF89w73k0NPphgp70fh1Y9g4DTvH7rh7wuh9u73wfUvOOG2Dzygl29r3AnOw7cJLxKojS9dUAevbdgGT3/zjO8qG9HPe2hJL3/uwS9jI0FvXAksDwZyA09FrvFvBtyxjzhyGQ9w2NgPGIhrbvH83G8tuoLvBuTxLznE4e8ypXqPN+vV7uSALk8F6oyvO/Ykbt6XDI9j8gXu4Bn/jrmgX88xAgJPUOR5TzPt+W8lpMVvLZBjbwQM2K8pq2VOxx4czz+CAU9SlbsPCYH9jxRlfY8R84yvaOlzLx5dJq8rqcsvE0P3juuNDG9ZlpUOTC9Ar3t3qg8PpjtvL8WBLy+3Zq8f8x+PEV10bx1t6q7JMiru3yXFj3MFy69A28nPDX/6LyNb+k8+1hnPNhdZzuBj9o7W6POOxjgp7znPWE7ls/5PHqdzTzE3dE6uTzbPE5beDw/PlI7zYazvFIanDxHqo8+z0VlPP3u4byt7M88Xv6IvGt2Njs2ARq8eE5qPWV5sb0WoO27Ob8gOnsesrx38nY8Aw21PLVFND10XiY78I+7uzwmsDzI9my8abUZPe1ndzwBRwm+1VQ6vf712Tu0r+S8uh42ulSj1rxJsBi86yHaPHLUnD1WyKe7",
                "aPjCvGBC6jwG4lC7o3hCPQQFNT2Pz4W73YEFPKzI4LwzRwi8P4vrvHcsFj0cO0q9iZKDPcw64Dzu7kU8n7cMvUQZgrwmop47b0bEPDVKJL3B9HY8pH05vMgHtTsOZK27rh7hO7FMIj17Z4g8iCtUu0EAGL39iCs7Wtd/PHSf1bw+OQe83efIu6N9Hb0HIxy7Xi0QvaFi1jxg5rw9hiQBPfAz5rwP8b+7MM+UPIypEbx8rB88pztfvSKdkrvYlc27s5DDOxSWebuZ1D+8GuJMPFugQD3B/LC+cnqKvAGGLj3vjgI9pxG/vCwhgzwYBY68ur8Numk9d72ZCzO96PZrPPiTCj0PVjm8FleOvDZDajwwG5w8nR20PCfSI73hNzg8jHxAPTJrgb13S9G79RAdPUdZ/LyWMUo8RTdWPbjWWD2jyBo872+1vKzyqbyzTs489eiBO/9ScT2F3ic73K5BO3wrer1kLge9PzxTPc9S+7wDRcU8TUBLvCUypDyEXRC9pbPmPYiAlzz43xg9YqXzPP6/Jr1CnIQ895oxPOs4ab06ZhO90D/gPJm9mzyb3Pm8hm8jPHR5Zj00AhO9PvUFvMcFiLyHJp87pvShvf8giTwewMY77EuAvB5GITyuhLk7WJ+jPf7bDb0JF9y8k1/mPIqgSj1hIUE8yYLPvCQZzD0y+e68+20dvVs0zzz+Qx49GVTpvDd9D711R/a7NCCZu+F46DsETL49uPoWPXQowjyUeGi8tAkqPUJulzwKltw6wwyXPK5ElTxJ7Qu9CsRRPZg7CT0NyvC7LgowvBAYcj2s/Tq9NmunPfN/cbx0KjK8YMw5PVetCzxv4fy8G0RyPQeaE71xDJa8wipNPZDx87y/ljc8AYR3u70jibxYDsS8026pPMaxX71WOaI88thpPR9IMrvevzu9K2AOu3Z1tTwLjGY8bSFsvKjlsjtuqSC95I4EPaJygL05Jv46cl8HvVdglzu+cfw8dhfjPMj0pry0J169n12fve0Eb7315cK8",
                "oIIQvRReujyfy6G+wYeZPZWu+Lw5+S08XJg4PfvQqL06O/684Vc0PWx18LyQlmu9QDAePEBxO73qV4A5MuA/PSAlCbzK7NE88xizvEnPATtJ6YS9z+OhuylXxTsdFSk9rpQSvFZ9vry/PYi7+g0lvZ9ATDw5jU48+0rZPdsVj7wPvku8kc93vFpepbzw9/A7xJA9vWX8yzvwYFG8KYcuPGZvr7zcwz68UReuOWBAnTw36Bu9BUIBvJqh/T3N0Eo96vuBPGX/ib0QEVS98tnCPIg04rv20Ug7t2MLPILCdju06ho+NHAZvPbuBzxyjwI9jb66u7rB3Lz+LIi8XUKjPFmK/LxXJbM82v+xvK6Xz7w+kHG8WyhSvEfSer3Cig0+KQYxvDIPODxJrFQ8M5WRvJgThbpulDw8pT2MPJg+IbxeGG89QIWKvHjXGL0DnhQ9mrVpPNGy8bxQhUQ8ahg/O1YlGzwj6rK8Q/glvHEyXj16FLC7E7epvHvLIz1nJae9CuG2PLyEfzwzU7m7IUrBvEixnjwi8Te8fPwPPcwG4bxB5NY75yKsPGHkl7zJ7PK7ueagPPmQ6jskKTs8yvzhvHqMQT21U+q8yTIwu3qJFzxACMs8BVhHPVo4PT1usCs9ahAkvWkVfT3wFpE5I6nNO63edTw5bxK8JDC4vClVxrxyZf28F7tIPHISlrxuKWm6qILNPKMNnb1JLaU91QhnvM2jWr1IQAK9+ti9PDH6KLsYOZg8e/V4vJYRdr3qnW2+IvhKPHfhbLtYC1I9DBS7u8CzKrzVvTs9ppaePMUkPzxAmnA8bnA8PWFahbxSORa83zoGPeUYhTwJDlw8uw+3u3udvrzkwv68Y/8GvYK4i7yBXcI8Y6z1vKZdhDyzgVo7rNEFvaD26bxSUVs9UVOPvOASNr0DMbC7g6yCPMXtiLzqzUO9dWodvdp87jw2OEg9OC6Ru2piXjy+4eM8OEgCvVwl9jyZw6c828VWvPY9Urw5SrQ7fu0wPPqSybvWQ8o6",
                "Aj09vW6bAb0Wc0m8zVWyPGzXnDxIczo9Sj8qvXfKAr0x0608kfD+uoIG8Lte2oG8+pjDvbAOGz3DOYc9FtnTvFa7zrzc+GA7cpI3PGvK2zsSM5I8o00svMFW5bzkyEA91DwmvT7UjrzMBhI9PrhuvYBFsT23mc26E5SlO/7nSzwzVSa9NiqRPEoMK70zZho+QWkRPUOMWDwvLwM6x+EIPMOw7TyQ67e8t9jeOwGwSj1dxIM8ARc5vPLXoj3pydS5kJzPvCs5cDx+Lb07Sv4yPVEkfT1rAsS8slIGvfyCeL3JIq47xU0Bu0mXazzpGIy8q9Owu8n6XT1b0hs866rDvF+ZQD3Gpw48QyHEOnp1Fj018xK9Xei8PNFi9jwcMHI9fnUjO955jbxQxEi7Q2zSvCR1kr3YebA8JWsDvcHeFb0viVK8M34YPS6/rbymldC8G6e3PCOoE72PqPI8VYyJvGiIAT0+Wuo78zy/O7bVK73F0Qi+M2ZVPEwDnruFZAM9lo4+Paaq9jyWZBg+CwjivLGBk7yIwPK9+5ulvT4unjyWwgS9TNA7PY3cuzwoBk48d5Q0PSfOlzo+4I09ShMTPZlClbzQyWM9ctQtPBNXBTyc0ga9zE4dPTeeTbuwOPi8l9q7PZdfnjwsHka9yDMTPW4qDT3z1fa7aXDgvT1tWDysXIy7hRfMukroaTwiAiE9qPgJvBciObtzaBA9a2sjvf0HfLzu/tC85sUWPd8vk7qoBVS8Qsk+vVDym70p7UG8IRVUvQINTr1INLQ992O5PBJbEb3pJ5K8BoPOPPpfFTzp6qO798ArvKFZ+zx7/J+8Vog6vRGXADuBJBo9Ug0iPB18Az35etA8wvjXvJL0FTwWwiS9cH31u/1L7TyQvoQ9WBuDvFooQ71u0zu9gNZ7vez3fL2gBqW8y/66vGPhvrybpUm9dhYaPKmyQ70ktSW93PyTPPjLAj3R5Qw9djeWvaHbxTogAM67h2rgPCeFcbyvCtU9g64QvWHCSTyYUwW9",
                "d/QSvVhcxj3CvCm8A8UovZpsXzzlDXu9J/ykvZ5a3z3qcFm65hTvOPxQJz1Nv0y9prGtu2z8Ir10CpK8DRJBOu/5Rrw4lN47zJYpuxyXIbxoboG8ucywPTV+sjlErh49Y664PJZJaTpnwRQ711c/PPj0SL3xM+E8W3vru5S3jrzAZcA6Tz0RPABolzwbFqG8fgZMPY1jID6bILa8+99RPVXxRzl39mK9KnDRPcvBKjt4iPm8NnPVvCij7LyDX7Q9P1BfPDbxrb3V1h29gSfyvFJugLwJLA+98hAxPUqmtDxBoPs7ToazPepFyjyC6BI9hw7CPFCAFDthkjg9/OqFvRgqCj1vh3S902rYvB+EZj4eopM9drv1PJJRojsA/Hi91vSovCJFq7on3vs8R1sTvcHGyL1B/bE84yStvWl+pLzRhMS8tKBFPCO837yu2CY9ZKx3u8qJcL3Qx7a8xlgEPVPUnbwsImA87968vflRTb3ImB89o3XcvBnC6LsdjyW98On1vLS3A726m5y7cFPwulYIEr0pCEe7VhJsu1avfTwxa6i8d33JOlW0V7wWlp+7ez4APVYXAj0OrT4+pQIqvMNIi722DkA87sQkO3/DsDzwtI48cXG7vLKvO71zcwm940BWPF8HZ7wwPbs9yg5GPT/lOD1kGqy8x3/LvMlfTDwWWL47LL1SvN+M2Dx6ZDM99OibvdpJorwJYo69o0MNvEk6WL0rpfc9QQ4yPaU2yLs5GhG8xpFFPQH+aD3HBmu8WwO0vfC16DuqWh8849HHvDjDszyCWow8dcy3PCmcRzvEtrC8lNy+vLDKnTsO0wY9qMuZPF+YB73dugs9IrDPuj9QKz2/B+a7qTEbvD+mnTq2ep89UoprvHr1JTtPnT+9PSKBPCV2gLzLaqg88fuBPHU8qzwL3EQ6TWuAPcxOzbza0Rq99eHsu/HiIL3X/ui87XbEPH00hT1chh2+qj2+u+ez5Tuk1ve8k5ZvvEmunbzSfqk8R82SvCrbArzFPqE7",
                "5iquPRAY8jwkkLi8XY4MvPN8Fzwo9JI9bp61uydzmz3MG+u7UMpPPYu1Mrweejy8ccxovLvCa7shzv88TF0lPcskjb3BWtI9V9CouyUGGz25wYC7NcACOh6zizzvUhi92OoSO7k4Zb2XmDa8rGdyPKbmMz1duvg8pUtNPmiU0DzeDTc9fSefPKEofD3fd6q8WP1oPLY0yj2dIba8GOFqPR2uSLxjMBu8BQYBPZN8gjxahaW7oFMePZcAejxeo6I9HlokPH2ay7qBlXQ8MvacPWAsqbwaQYw9mJkzO8FVubxhj5Q8B9/rPJ2/szzOEBg9Bc/IPB6iTL2Hp3e70b87vcYCob2yJT29FA4DPUNegLy7Jjw9UCYDPVTipDtBI5k78/TSuza9qjzju2s9d6igPD5P4j0f2hs91bvIPLeA7zy75qm86zVJvS3xrz3ZDz+7kTERPQoyp732PtS6wNYZPWDCZryOYIs8lcGFPRq17zxgiAu8Vm/RvIP9vz0oVI084Ph+vOuHUD2Bgb89hN/guumEMryqMgC9tTivPPSLEjxLxY49UneZO5hWhj2FVJc9kooRPnIBNzzxZfe8oPF7POAx+j2XAdw8djNtPcGcLjxN45y8uI2wPBv9szx4PtM9VdinPXveQL0h+Kw8j65MvIttXj1x/EO806RIPXMIqju1S/a7OIraPGCSEL0GWJC/gvLMPGpnHDumURu9ds/zO3+/xjuMkpi8rimlvL04Rjw31YG8SBkrPcr3vbwIFkI6uKq1vMjiSr1btIq7bDLCOzmYBrxCoNM8GitaPYlaDbtOyMY9GNLxuzHB+bxo+Wi99CUjvZ+FmbvTyPg7x2H/u6Fjuzx4mB49xJBPPVamBbzIJKy8/+DNPCCczTw8tBc9ZUYqPZJ+obyPNW29Lmggvbb9QjwPo7s76dQPPNpdjLo9itS8cLHRuYm4LjxnzDW9s7Waug3l1Lr37Hk9diXyuzTXFT2e9r08Vik/u8XsLL2jZQI+MTSIuz8kU71fCQC9",
                "t1TTvc6lWD1X/gG98pugOz/7Er1VPqs84dm4PKpbxju3Kcu8Y3x9PGQKeD2Lb8e939EEvbskEz2oxi88wKYcvW2KDrzhGIw9JxNGO8JHAT0fraa82tx+OxHMujp49bE7pEXEPPGluz0Khno7KKipPIPAg734WC48e88kvXH7pLwD1Be7W702PN7fgDxUkXu8XwBWPBccOT3UN1C8+LcRva+TxDwrgfI8sKASvY6QjDwBikC9T7jLujMMrryodFY8zFcpvECbCT22UCu9fpBWu6/Gkb3S0cI7vzelPM9EMbzPUTW9y/wFPK5r47oP+HW8q8sHPfxaubgDHIs8PD1ovHKuobyrWa27ATgTvfiy9DzE2ge9gVH3PZ/J8LtsinM76gjLvMeIOzzU6tS6eWTNPCTrDLsdW9a883nFPL8YpruPwCg9ERcQPfAR0zqWVwW6ZjaNvandoj3cMI48+pHKu80ZJT2/SZO8HgzrPE4fgb14hDS9MVLCvHupjrzgg6i8GJKCPKT8Mz1DtRY72VWCu6OuWz1YlVg9UjmDvAAqgLzA/vO76ZMVPDt2kj0NCXk9X91MO+3sSDtSvZ08fMWluht5s70YsB09NbUdPfUqV730/Be7dJyhPFohhzuZNOU8GIPjOyV0JTszrjo8d5uqvFDkYTuFB149FRbEPHCwWT0sR5y8zqg2vaqRXz0Vwzo8Djl1O4ZFgTycp9i6ibP2vQORWDycDSo9dGmxvSoccLwhB7M8fm0juI0qWr2nHHM7zeUHu9hNFz2PpAW6Ju+zPBdo4D0tJWy9aHPRO4FyYj3NP2c8ORveOz7F0LxuwXc9c2X3PPrJE71LNlY8Gr3ZPA+DOb1kdt27eU6wvGisUjzbKDy9CGpxvAe/Ab351cK8SRO1vLN587zFlDe9iMo7vFUYNL1RcS29O02bPK0Ecbwmxp09aemrun3h4rqNWh09rzj8PH9VJb10pRm9mEPQPH0xJDuWvxe9gqOzulbd97ttNZ+8NG3dPEidLjzbV/w6",
                "TLESPcCfHLxQVXK7uGg6PM8U6zz7mZm8tEz6PIdZJ71lQ8U7npyKO12WPbi+2BC86v4yvD/U1zv1X7s7DrAfPOt1OrtFWwc8HP28vC6wv7wqD307gfk1PYeNB7ocDsC8zbuPPOdoqzu+ACK8PFQ1vZtlkTzDoG29lxZ5uo2kGjzwtOm8GoTkvFBefT0zeYE7SSjbO/ftRz3U88A7xEkiPbfZFDsoGkk86FpEvPXbA73nOYw81JMlO6i4CbxjTQ07/fk/PZB6PDwm8zK9j8sZPXITA7292548lpsdPTF0PLsfKQY87zvBvK8bL7sgFZi9F72svMo3xrutzKc7VOKUO0Shd7z6DL68cDU1PJTc7Tz3KAk90pGFPCUhhb1ejze86uaavKMI17zn5DE86hprPI1vBDshHAC8YuMHPYH2Xb1Tn2w8A+TfPCBUH7118J27WCXBulaLk7y2HGI9YUSVvLki1zxChNy6yIyyPCIoHb3WGju97og9PJZgnrz5/oG9H9g2PGj7UrynZbe8djckvb7zPz0sdZG88nk+PNiZ27xDiRM90Th9PFxm7DvaOYA90EIQPNGWr7zaUKA7CXN6PAce/LqJ3KQ99iKGPMjN4zwldHU8umeWvTBi3zvlfig80uSuvSP/Qjx/n7K8mdawvAtEE71OYw87gtdKPSngIz2hbD89uVDvPEK2rryzwBM931UjPPHDy7z8oTG9ii4PvVm6m7xMGSA8SBPlPPE7ML37a+8875UhPFSaxzxoAOq8SZhTujYJQD7Z5u26gp+wPLsqBbxv5248LjGju1mgB71sH1M8dAbGPHc58rtFW648YEjFvDMfjjwoap68irXpPdT2rLwVTLy841DXPNY4njw3qUM8lUKMu0hMkbynOwO9XAPVvK5AKj3hh16+oqpUurj1Pzzmh7I8MoCsPYNlH7wM3bg75XzBvD67tDtcN1s8OZJlu7bhPD6jn6E9+xJRPKDzgT39vY47LXmIu4T8krwT8Ts9U594ParYgjoCugA9",
                "mMXdPLT6TT01o889bTgJPVfRvD19res8jbMJPbEGq7yLwgE9UiZnvDR0oD37tyU+ZXydO8zb8DxWtJY9NYU7vFESHjzrMBw8+W4Zvj58ZTleDOq7mWvSuz6E2jzYXMu6jhtfPSaWrDzRn7U9rMfuvJHZ+Tw2fdu7BhtoPPvl+7xECzC9Dw8IPbfaHzz70Cc91jvKvK9oIjzZxrK7qoAaPUTVajuin7g8sj+zPLU/BT3/8Vc8PuTyvPToobzYSNG8lvIpPcEh9rveNQk9L28wPa+bAL3VLWo8SXGqPcqBLzp0mSA9j9HqvFZcmjzs6VY9aBI9vauyBj22yBi8Xs6suyXDP75GWSE8Fi8tPWmiHT0SRZQ7J9nJPfWdpb2vud48AWuxvJDRUzzC+V28O8+Puzp3Gb3xDZ48Qf93va3fzbrxRT491r7Du61tUL4Jsiy8umrMuaKhDjy+dGY763JJPP+8Hbxil488xY3DPZK5OL3MLzq8LXAfvDc9ET0RnY46cwvlvJjRCru+/Yq8zu+LvK6nN72+pV09JAcwPa53rjwsVRq7wn6XO2AKurz3m/y7NWRAPcDumjy5g2Q9SzEUOw4xMjwIaA89wl4bu4TA0jwjNMo8cO4zvNntmbvLJ3E+z9LyvKPnmT1BV2a8MhSHvOKZu7xYpL88YEh1PQrUlD2m9Hq8bc0QPbacJ7wFzOs9KuyIPbqOw7wQs9q8jfhCvDmI9by2UbQ7GVUFPZ/MDbx2AtQ8JZgmPYQSvj2bORG9SR8gvRY9M7wG3li9MS2NPC7DfTyRqEq7cgH5u9KOJj0NrtC7YdqiOydDZDyxzQq9ehanvWzRoDyneaQ7UtLivKOlyrzyium8JTCAODE0uD3SocA5okg4PBhzbb1fNS29ZuB0u48oBD0My2U6+t9APU+tCDwJZ688C4UAvXrDQDxV7Jk8ebklvKt+JD0F86u8n46Vu1G1Izv6dYI8kpl5uydNVTx74iu96U1FvLKAybr5aJq9TTXMvBWEG70IlOO8",
                "ef8du9S3GT1LAR68Z/+0u63aTb3GRnc9D/0GvD6itrzd2uA8iFVnPFyx1Tyy0wg8DzkMPL+Q0TzxQs88VYIPPltgcrvNgC87YionvSEeO7tvuiq8H40fPBGWpDxRWUC9ZrH5PBRhLD3vVpu772eCPWDXwT3EdUo9x8SoPV4dibyo7N672cKKvBGgtjzcQwo7An7FOu5dGj2ZPoW8k5n8O6JYBrtcEAe8nFdXPJ2B47zoXFy2qkuzPEFmRj33GtO86sETPLCXljxVxwW9FCYQvD+1NT10Vka88CwBPJuWrzt82Y08WRJXvY84lDyOeL87nNmIvb2QIDztwjO94NdwuX5d9byjihW9lE8KPVXCkLtJvoG+DSr5PMN+QT2OS2s8h5I6Pb23wTtRmnM8YuPHvNUflzyVaQ68s3KqPUG+S72WqDq9JfYKPL1e+7x2jNK8HIp2OvAXdrxV5Ay8Mqm0vB67I73ZXBa7CyssPEMdF7tZRZq7C2PXu9Pi37zqa248pCIKvcHw1jqVwUK9nOcqvY24/raexRO9gBdIvf9HKjyVKv4568czPaMEmTzia249XwIdvl9xEzxJpWg8cjHDvPpn3Tytv+e85k0NPVtrOzw5YIa8iUhovTL5NDyNGIK7Ut+CO1NRj7ymcuq7U9Z9PDy+zjlmj669v5cNvdoOnjsjgqi7hGMJvjd1Fb3YPcQ9BTkIvFc+f7xJNRG98OypPK/p6juwMsg8j2OaOg9NbbyPL088LDFTPU6lzbushQA9h+xyPJIwnbyxMbq9RugHvRqLNbyE6GC8y3oKvRyPk7wmVaU6iJ2FvKGWhD09Zd06MtH+u08wEL2D5o+9aN9+vB71tz2A7nu9QwBavLnN0TuxbUm9My5LvIoEv726owG8gBTlOwB+erwvQpo8OYrQOnyJAL2FPr06BhqKvAOO2TpcVf277ZH3PBPyvjxOScY8KI3gO+3CAT0Bfgm8+PoivMmg67xXRYG8oAaXPdFrEz1/KfG7xkORPH+eE7471PS8",
                "62hLPPh9Kr2MDB+8hUzLvCWkzL12EX29e2EVvbfNTTw7j2A8pCpdO7Hny7xC/Je7/iwLPQ+GiTysAHM88R9OvOmkiLlL0KU+yZpyvPVqg7wfLp27Qpm+PI5L77wXoi29Pglju4kjcD3QW8k8vrHdu8WKBTxi8c28jWWvO64VAT4qnpo7m6qjO7aFvLwyeH09J5KevESIWTx6J3M8Pl7LPPsYDzsFv0W87+kPvKhYjbtTrJo83m2sPPw5rrsBld+8B4QYPURZNb0qplI9xrDlPKRqvDuMqr68jaA4PSMuKL3NbZi8RfuTPKbegrzNgyk9sFAKvRgIiTtEoNg8bMIpvQKfkTylQAk6Pcwnu0i3gr2qE5U8/4nfvJTLfzxfM6S9JLuoPEiMhjx582a9/7QEOyRO9LnSfUM9H1uEvP0kAb05fuM8qqXSPF+3PL3B2Do95w5lPPfwZr0FmE89Jn3SuzM6xTxg8bw9ImguPPauA7yGoPG8R4cKvPJlrzxe74C9FOTLPCNNh7xHgTM9f2rzvJwQA73Aimy8JAAiveuKhryb98Y8aVEXvfi187yRzkg9bexCvGIzJT3CQoQ7u83ePJorLztGbhY9bLfsO9XZGL3r3Sk8MSWUPYpEPzz1Jyw91V2DuTnjVzy9LU+8CrhturQdSbwl5kM8VAZXvG0eCTyWohW9N+0MveTYMz2aUzg7RjtvPOrvmz10H887CPfmPGRADr1XQnq9u4gaPafmoLvFEbi826q4vJBM4byjMgo8780HPGvME7scXuY8mBTNPAtxWzwuqt+8MsWdu/6CGbxnsIO70iW3OxUsdLyRQXO8eUK6vNCNwDzOjFu+shD6u9KHYb3cz3W9/PoFvVjckDwhsr27kt4DvaM/p7w7jfg7M1nwuTQ7ib182fe8EARgOy/PFr3Jax09vsLoPB9inrwnJnW8CivGvMsRYLuH+uC8m5NAPSgM/7t66M28qBPwvP7S/bwCuSE7BYJ6PPZmAz0e2Aq9nY9OvTmDXDnZV4Y9",
                "nKzUO/SuWjwMmIC9nf/kvBycsDyXHQY9e+UtvOdNqzw4RaA9FtoyvKx5eTyZjGA9jz4NPRCO0z0Mxeq7dhQtPSV0VL2BIJw8f7SPPM3nEL24W8+8jnFEPdV5Pbyve2o88GK0PR9WVzyZuY86DbrOPG2xc7w8SF89rwHZuaG+e7zdCdy8PCGuPJcYA7xB7OS840QjvO4cz7uvEzU9eAE6PSWJMTzXnYI7WtekPMn+dbs35iK7YtQfPGFaVzy2mKo8KxsMvX3O5Tz8Sq+74TjTvBXFzbzgxgw9ciPIupXiCzsSWmE8kizWvKerkb1HE7G8njejPDgFCT3yEXO5eUrXO84HqjrP08Y9lITXuoD/I736+o07dP1IPMkMIb1j0Te9WKmdPIFRGrw3Fc492mqkO11SQb1GuJy8CEd3vF/vNz0IvqI82GeVuwwwF7vOzgA+HhnWvMxnhLulEeU7pTH7vH/u9LzcOdE8bteAvIBZpTy17BA8+i27u5IcMj2Pzy08ThloO2+ZAjynU9w7xy2bvFjTtj1uA5084hJYvGphNr2qOSG9setkPAi2DT391cq7QDzXPAPD+zx2duW8LG/7PB7EhToNjYi8YlDoPHR5yjo4t2c7lvcXvZt22jpqSk+982+sPDrIqDz1cGi70HeHPBilQrxMRfA8dlK4PEoo+bwyg7689RO/vHpWlLvOD3g93sgmvP78LLyHkic8kZpnum9MBTtk3sQ8eusyO0lJFjzUMxS8yYlSPX6lDj1zBde5EEffOmKjGL2UcYs9z6luvBk+MT2Qla+6cmY2PZ3QZb2NVY+7KiZ+u239UzzgbKY8lR8LPQsn4rxT5MU8s5byvHV9f7yUOaE8Xuv3uzM2Fr38XDO9mcIBvZNQI7xrjx69vREnPHKwNT3EcYC85fJMPOB7BD2tzY+7kCyBPGiU/jsKySu6L7tIvQXElDxLZXu7eePpPExTQTyYDBO8j8ekPLqCXD3TemU4fqpzvfh4szwjZqK8YTPgu8/kab3NKoE8",
                "Pp1lu2bUmz2dr808ho/GvB6ccTxCl+e8Hun5PNt2FLv6Ywe8HOmgvHe20bzafmK9i/F+PKBmjTwRwwC9ZJw1PSl6rjsIWey8xl4qu22CYbwneUm81aE0u5q2Nrw1D4M7FlfwO5Y6pTtZQqc8gc4tPHWGtD0wZ8k7S1T5PEldfD7BmDO8Ttk9PABlKb0Cs7O8qi8qPWF8ATxySP68dgFFvMLYXzuW7Rs8XYcRPaG8u7ylSKC80tkIvTzPB7qLXto8zjDLuUYgXjw5kE87c/cwvFzldjkTA507/QF8PAHCo7sMoK++wpmDPdsvsTygTwM9zRFzvVR5s7zAdxm8jWZuPWi2mD0+1q+7Z3xWPPYoSL3oV7C8eJgXPH3xwrzaeSA9sflHPRtTyD2krgM82CpUu81XsTw8dIa8ro9sugnuwLxGYo68FneyvPTgHL0Uxhg9VIcbPUQv8D1sDzg8y+TuPItrqTx3xGW9oYbPvJ52WLwHdbq9Y9xJPBo5CD23RkA9dnPiPqu4NLww9JA736lWPXa5tD2Z/as8jRfvPPexpj2o4u27ZpazPaely7uwqBk907eQOrsa6TyYJLG8N1sePRi71z2FpY29PySMPIrZkDz0WO88n5+6vdlGYz269RG7fYawPPtlGj0naqY9Qcp0Pa0ywzy5huq76YdAPfTtz7z/5im9h6M0vQUgkTudq108VOKxO9fgRrw7C2u94yMNPTlFDj19eVO9QiEcPadOcz0nwIQ8pShEPXWZXz7Ts7A8gkE7vTwPSb06I807Dn8pvR0rrz2SwpO8VZoNPUwxqjwj0Za69whyPQnGZ72WbOU8gggivf9tsryhEYG6IJrxOs7QgbyWeVA9HGkjvaLu1bwowBM9ia7FvOtQAD1Clm498qnvvEMi9z3XqaU8dGNIvYzZeL3kT+c9e6ONO2zw97zMdDs8oGIQPSvO0Tvr//O7/TcDPf0rZT0PkZs9Hh+0u8ExgT0JHGk9QV08vYUZiTwu8vG8e+OZuy27nz2vbxS9",
                "9eoRPYsLBD2GSj67mmpzPchfAT0vqX6/R0PSvOjanjwg4oK69lauPWfeizx4NlI9nOS3PCBDQr0gC5s8gkkmvV7EBb0d8SE9avBsvJD/Ubr4RBA9mVUAO+Gdgb1kkeW8+AzyvJ0/IrsKKju9zcRUvYTcl7vtbC28H2FmPPV41DpfuYy9O6aaO87z/7oc1Lw8YsBLOU/ciT1CSty79FEiPTRgtz3F99S96iz+PEtLZ72cnpA9LUM5vIuAW7zMaOM8UvkDvS+fz7ytYYw8s3VqPQ1GZD3Zr429fkPRPJ5lqzu4H5I8w94YvUjoUryouSO90wbtO9rLqz0co/a811SSPcg7bTz6Ycm8ghasPVOyG71/+TK99khYPBd8vzz5smA9iWBsPNhIrTsAR288iHidvd4gm7xsZbC8HExUPbm5vLy8rj27mVF7PHL4aDyD2Qu8XJ6Cu1FR3LyNpa68wZx7PQbio70ZeWu9gxQgvCfFO71LGjy9HH9NvQk4AD0jYtY67Yo8PpMQLDzJvBY8LndlvTAumDrWcPK8m75HPQHnHLycX6m9t8YxPE4p3zxVf3i7xq0VPAEQXj0LwPs51UsaPFepUT2nCmG8ICskPKWQUL1e2m+73mEoPb70Oj14kOi8TIfmPLfryLzzMT49LoNkvfQyCzz1jGM8968puxkjQTxAw427v1dRPoZeVj3AQzs8XMXkPCveb71pXvC6PYjwPPuYNjtswDW8b+TGO08TKr34FV29FENQPUpxRj5nswS9irbDvGihL7wBuYG+vjznPIIrAb3a7bK8t4S6vKJJIb01r0A8OH0APJcBgz2l0as83C16vXPYrDwhLQQ6dbetO4TIsDzRZjK70QnevD/4yrr9hME8V+x5PWQ5NrsT16c83VtGvPBSqDvo/ou924E7vbdlP7zaFSq9r4t5OgJcHTw+As89XXkEvejtiryjwSG80uUUPDw0DD1EArc8E5uWu6NWtjw0A5e88htLPSYCQjzCCiK9JmSAvBwi5Dttfy49",
                "3MsAPXPBDz2xcTw94joGPezqibxokZ+8nufxvN6PRj2Biw48Pt0GvdVnwDxtrxW9qkhzO6C6sbsYMlO8B4I/vVVqZT0e7SA9PPcFPYwAU7w/1Yk8VFIAO/w8wDuBrxm9nw/WvIDMvD0t5d486YyMvIPQU7x4s908cjzMvP+DaL3+ZBC+RnCEuxfjW7wLuGC9FLdUPG0GJLw0xwQ6w4xBPbaU8by6KA89IyvvPOTyC70KgBi8M1nsvFuMf735/YS8yw6lvC6bkTsBmCM6M6/du6QLx7saJUi8OaIYvaTX4Txzzy+86t3qu3k5lb1kAmO8XngGvC59A7211SO9Q5cNvSxhbDw1BkI9XhsNvTtkcLlpc/Y7WnNWPUqNLb3VM408XgUnvLdod73XQEA8i1e7vJ29j7xDmTa9rWVQPLJPXTxDKxw8Uco8vXoSCj2f8L48E+TAvOCBSTyPHI87njlIPHAQFDyFeik8e3tJvZbzMr3ByQ08sS6ZO/uxTTy6s9o9XKKVPHVGAb3dFeK8Bq2CO1W/Cbv3s/i7DrpYvNJfNDw3bmU9L/exu3C4CrzxC9o78zO2PH3JrLyC9308Po84vRxkbL0yVSK8UJk9vSQWub0gARe9mwtSPWYlwTqvppo8T0QMPMYg2rwt7oI9riPaPLGnqTrshZa8Jao3vQZt9jse4448C9V2PdnxnjsaZXA7kisaPfQiar0di968ojtovBiCDD0DFoK9efUUPLgU+zzCvXk8i+0RPXdUCT1bjh29xRL6PYpMuzxUlj69TybfuvcCvT1IoOu8EwUBPZYntzwjhC49L08tvUF+ET0AEfC7lHhwPJeB87wJvVW8O+fNvN6wi7xTVQq9hhotvP+oMztppoC9XJgxvaLOj7tuafs6UOt6u4oPDDtf0lW8iTqJvLZiKTwn4h46dhA2vb7puru4KoK75W2LPQziRT0KIow9kqarPZ0QP71pd6c9oiJKPVumWL0jvhe9dxaHvIFsg7x2LQI9qcjHve/XUr0t49y9",
                "ovFdPO/92jujuwu9+z0fvcONPL1/X7w80acyPcYDmjt2olC9aWecPPbaUb0v/Y28LWFXPGnKWD2BQm0+7mXOPOnPyDqdXyw8tvdqvGY6hz3YeqC8P8zSu5z6q7v1fmy9Tgg1PQPIdzw5A5m9u/8WvccA2jw2Zga9yCGkPKdXvL1Rnxo8SMigvCkjB70843o7FCGPvFdMEb2v/s46KXdAPAO1d7x7Pps83xEuPCtsXLy7prS9uDOkPOd1V7xGlA49ReZAvEaLRTxNzfK7By+vPIViuzvlH0Y97fALvcoxtD13hsA8UDO5vIm+mTw4U0A9bYATvMeb3rvDB6K8bp43u9Dh/zyhU429MEwJPbnxOLx1Ego7DhT9vNcWhjxdOho997Z8O3rBmbsjLF29K9CNvJuR37x2vrq7VJu/O6NnFzyMDfk83Nz4uneDMD0mkME6B6H4PTVRDj3a9l08RHcbvPri2zyYPYc7VSeOPLYOOzzdct25moSNunpbCjvY9eq8D+ILPO3OADz4Hdq8aq72vJGccT2e0Ty9NXY1PTkJ8zxRt2o9eE83vNm/RzwbjC08urmePPtQ9LycVHg8gwuFvPWRi7whHac79WKKPDc0Qz0uy3k8x9/8vCR/LT130Ua9OIJOvbrBQzyLf6y8YfG+vFG7Wz3IuJm8/ycWPXNcJLyKkMy7dKAHu3Dafr2Niik9Mj1IvcU18LzS2NU85Tl6PZCBYTlb/B89uB22vCdqED1N0GM9H0GgO5aSMz7rQD89/1rpvUHPljtSrQY8pkyYPb0U+Dy/zRS9yEthul4POr3ylYi8WIjyO/X4vLoRNYS8muYQvaH6gD7vTcW8ITodPAyllb0B5rQ8zZLwPFhDhbyA+ey8rNKXvGNrqj1eCuG8QgARPfFmizu5AT09ImbOPC1Cwjv3zAU9gWDJO+hplLwuTDu8vOANvWH8JD3f4Hu7gltLvGCuZDw4Xvo8kyXqPCNStD1VSYC/mpwTPdrlprt9t9Q7KjTWPNXBST3HQUw9",
                "bi8jO7d2vD0twhK935pauWKwtz3nPaw7ZGr/OxAJtjzqDzu8jF6vPNZ/gz0bVFE9Vr8wPJhqLD3KjPk8ICYrPfgBZLztpPi6BaekPHSiMr3T5zg9JZfnO7XUTD0+xK07W38+PKimoDw5UkK9hDd2OYlJhzyule+8vIfOur2dhD02FtW8YR5OPeB6VjzUraG8l1wTPfUhdj1i3ys9OtAzvTYUkj1Tj9M5hqPIPT5mCDsHxQO9S8mvPHO5hzzHmUK9eGmEPawfOD1rFqg8Lv9VPf1kujzl1Rk9WyEivV/ExbzAK+88/5sQvEtSAz1kLnC9673aPM/8tDuyMLG8w0FtPKQ4ITsc5Kc8ko5wvRKKsTwRc/M8RL5ku/nsBTyyqvc8OBC+PB+kBLr50Qg9XWFCPWOsjD1ghXe9S4WcvG4HebyTxzI96yVjuTSIZDxMTlc91wK3vCezb72RcPC7CU2lPDlRRr3zo/Q8XXTAvGk/GzkhgT89fHJZPRvZHjxE0Uc8h3zmPC/0grwuHhi88ye9vCCeJD33b5k86ks9vSIdTb0F9LO8kmBEPZVzoj33Eg48w2xGPGrYtTxymX88y85AvVfv5zwQMGe8fY2SPJJa/7wDwNy82NyLPHoPp7wIj5Y8wlmNPPBL/TwjOAo9SNsCPNMBSzwOM/m8hI6dPGlMgz2bkfU7uHTAvI/S9rwOnuC8ZPQqvA6V8Tu+pQG/GP43vRjv7rpJjQs6+FLbPMRceTzX2r+7ozetvHomuj3WtLW8klnBuwBQuLwO9Ga9v+VLPaMOCr19r7i88ItrPVzSKb01VBg85Ew9PHZP/b2v7RQ7UnNHPU3JnLnZMiM9hwzyPFFWOb357pO8NaBUPBJu/T2ACBW9bTEmvDFjXDxbBhg8T/ksPLkGTb0JnRe9G0QlPUOswDn99R+9gkGJPKxUuDzqfki68aktO3pGNDvsiYI81ix9PV0kZTywlvG8Ct1pPHaHIb1HXeY7qPhouxh3dT29z8U8RbYUPXCSx7x+ZvE8",
                "ZnwvPejp+Dyz1Z88hpdMvOcSs7xvJKM82OrRPO8lNj1+zXE8FLwZPZV7nD05ZhW990FJPCQfqzzhYQQ7rUQwvattaDzZzxa8YkYvOwAzbz0Cjgs9THe3Oq1Jhby8vkQ8VxK+PEGItzw5HQu9OZucPH9wfTsxXeq89dKuPO68vbwVhS+83+AsPRR4TD0kPu68JQAUvctLz7xz/zi9pI/mO8bbzzyJYo48KBwtPYmGgD1vyf68mg5cPLu4Er0LMik8VWhCvYyk9DwNoRs85osOvdrlMbzdHNE64vT+vKCKQj2jpms9OHZGvc5f9zw4z+G8wk0MvK8nLbzcROC765UFPKKkXT1ZDVW8I73NOtEbY7zZlDM9u4/kvEdPEj2owJ+7Xu60utpiRr3oIKM70hhjvBP95LtaA468dGVCPLy6xbyNXqc7jO5BPTZpyz0f2a++8AxDuzW8azyHHmS7YBKJPL4Up714yBe8LBavvNIyPL15V7s82jc9vbkmmz2PzYC98TKkPFTUbL2/1r48rCAivCpiC7yolL88KMUOvf6grjzHax+9eVE5vavwqzzngoO9Lb9JPLJvGjsAQYA67kGmPPuekDzPAdc8vY5uPMrShrs7j5i98Z8JPBacQ73fMz49eWMXO1j4zrzoBwy86LJxvAvuM73PlPq8eB00PeeWzLwAMSi8e3YPvIyT4blpbhW90nAZPVjmLbxU71i8kFLFvHkAjzu5X4u78kNdO2Kw6TzcRz293pHNOjsrI7zr1/y86cX2uik1Nbyzd727OMzfu3nFbLzQP0y8QNs7OpIjLzyzYvK8elkEvCMQpDg6wnG9nvgkvFd4tbr8lzs9hxiQO8mgHr0PG/m8r735O2HLhrz6dRC7YFbIu3Icz7wwv1C7AKB9vDU2lz13RYw7fe2AvHs5fDseMZ68hbaEu7+56jyLyjA9EnUOPSP0J7w77xi8alIUvSCJP70DVwO85mTiPO9yJjxGAfm8srtlvc08pD1WGjI9OtvDO/NXIb3oz0g8",
                "w9wKvSX0Nb1lzfO8ssI3PNV1Sb3vjXG8s1RwPCPtCLw5HPy7/0yeOux0yzzPsCQ9ivz2O80uzDwzOOC7IdHgPGcOEDzsoVY9jJzzOwkItDzRWDG84lZnvfae1jtIjuM9c9r5OmMs4DxHSWe8rJhyPPWTWDvTYlA8hYToOlDPjL18ap09Ge4nPRmJcDum/Rc9aSm7vJ6GeD0Fgoq8NWASvM6OX7yqGpo8LycJPA+Uaz33jZy8POrdPEj+3LxPwoA8nSuCvKOrE7zqh8q7u0XUvDQGFbywSOy7wr8XPaAPALxF/xa9TvmmuxaJZ72HSaE8kcOAvQ55y7y7iFq8KuRmvEoifD262TY8pVccPEYNC73AeEq7RSbIPDuY7Lt3dVg9HrTAPPjR1jwI92U960yYOkBLOj026CE6M+p9vJ+YFj2maBw8nmxVPDnLYLxBRAo8jyK0PK86CT3vbOk8GBRkPL2OaT1TF7+93G1BPR3Q0DyZ3As97eUJvZ374DjX81a7IdDIvKucUT04FJg8b/+TPMpiC70LeQi8s0i8O8CBWj0Rg9S7ZhnPPAtQhrxSicK8Z+H0u4dltjyI8Ua9zo2tvJf9pzuFqEA8D157vEsktjwUKQS9cB2wuyW+w73S5QY9xRMiPFls67wsPXQ7H7pPvQOmJD3AHLu71liqvIR/C7zGCIq7R8zLvLIyO73kHZs8I73YPcKcNLwSqZc8N+7+O5IlEz6xLBM8NQ2QPI1pUr0wYXo8WISbPFdfs7vJOKU8mb5zuYOxDD1kwvQ7NWKfPNgkq73T9C64tUvNO8WjWT35Jr+87YWEu43MD7zmAGu9P7cFuwze47z+M/w8Youeu1Fzsbqd5co8S2J4vR/xmTzt8g+9vZbQvIrCqjrKBbe8rCosvHcc5LxDQba8nzkvve0FkrwlvUG+zA+VvDUI2zkF4Iy8DP73O9/ofzhKjyu8EM2EPPLLqjysbl29m2hTvGsf/joqSie9RGcLPIF6Jbzec7Q8b0bRPGc/RLxmbkk9",
                "k0lUPatPxrxGJYE8zvQlPOv2Ez3X9RA+p3xHPSNWWb2PykQ8zEB+O2g82DwjGWE9AfgpPBelVr3pWYE7mVJ8vXAQLL0oODU7+oWfu2oIA7xs+oe7QOSCOnljybtxdDo86yOWPL8QvTz8lHu7EDQQu+jOBb0XAAS9N/0xu9LoXr23/+E86JqVu9NwBb0jE7+8WQnOvAM0tDwFHuA8abjWvBnVVb0txBE8+KYlveRuL71bnos79ov7PNemqbxFb0U8Z8kkPS6s3jq+6hS9I7owOzTuEzxN6Bo9lxAPPEGxDj3RWH48UEWNPHYZAzwpflA9YPLwPHPkrrwZt348xJRHvcIGsjp8lgA9A2D4PNpikz0TFl28aRV9PahDRj0lLVo7i6uTvOf/nrykIU2808u1u/Qu2rz2Xbo7XL2dPH8fGDw0OU47furhPObCHjxJk3W8WtAHPZyiz7skvjI8MxfxPH482rzLUrC8EAWqvPT0jjxfSCm9TOOAvUd1ojxaMKe6TALCPFUTrD0n5pY7GdyfPI2PULmUaCk9gHo4Ow3jqby3OAi+IvaBvNmMUTwIzZO8roa1PD6forqVPby8MMskPs/AAb0yDGG7Uy9yu/mTd7z3jSK7xqmQPd52qzx4x+C7BclBO5LIhrzHNAC+yAoNO/mqYDzsMJ28LnA6ve8r5LsfftM97iYyvDeXXb3MQ7e70Y6kvUvhAb3yRsK9vOV0PFjN2D1W6si9g7JaPYRWEzx2n5A9I7GLPH90AL3gShG94QkKPbjhhjxwdIA9pIkoPdlYQz1llAq95pkrvQAK2byECTi9ehWNvD+YFb0mdyg9RUKQvWjEwLy3xrM9hbmHvOqdEbwE4YU7Pe6TPBxtGr2bHju7u3ievLNyRL3JwIu9VtTWPCk4T7snJ46980UjvDSeXr2UQ1o9Ws3YPCEQvjvftmq9bRhZvXRl/LxbWL68ApkFPd8qG7p99Aw9T3nYupV8zjwBLCI9UyQbvCEIwbu9R708ABk/PPqLlDyM+BM9",
                "1eo9Pd7wJruPr8e8eNHfPI8CwDsmZ5U93R1NveInEj2gjfy8Xwc2PYNQNTw7tdu7Yk7lvIzVHD3SZaC8RB0Dvez1mrqvU1W7QzytvQndR70dhKI72PKyvUHXgzxHVPk9rsq7uxYrcbyIWyk9J8ZIPS8o07x9Yra8gpSHvKtXCz2/wAW7aJGivY9BlbqVBJs7exqfO3FX7zwbZ7k8Y6qjvIOFlry99Ks8aj2+PDVeGDwd0v+7b2mrOQN5FrzVni283skbvGPEfbuT0As80f6MuzVLHTw+tDQ9AtYgPBbDfj1VwBk8+q2DPcAm2LyN9hA8EuZ0PFWzvromQHO83yOAPZREvbz5doe8wJvqO+0lDL2HLZu80iXQPCRu2zzTq9u91+POvNbd4LyNVYY5IwylvR7gkTs8Zqg8H8iUOsH68bxKJXE8ohSDPNpLor1FQkc9Yp/Nu+diRj2rR0e8om6rPP0kbr02fkI9ycBQPCyAtzsP5qI8Xu8rPSgsWjzjXRk96aTtPJzPgj27foC80ixUPeimFDmDdlE9xrsVvAwZDT3RXAk+fdGXvPq+JjyJ5Ry9SInTu17sED3PSB88uYaEvDq2cjyRqPo8hgtaPK73Cr3Domc8VtB5u+baILwibKm8rtIEvakhtTxt0Om868caPQV1G7t5vbY8VLIkPRGM2jlVfN08txE1ver41jtVEga71SmDvUWVdTwZZUQ93RAwPT7vBD1THFG7WoBlvNYPYLwf0h08XJHXOz4rLLx4SLM9QPb6vLv0q7vUaQu7xDfYPFylATyWwZg8cR6iO+Xe2TzREXy8EwyuOmrWybwqfl89DiQ0PZ6xbL3N7mY7hhYGPQsl8Dzx+7q8ac6mvDf0eb0w7YA8lRg2vKIYCj06DvY6lPSfuyd6EDz9TQS9cOhwPQvoTDwUKoU9C9MsO2tfcz5tjpI7Ec7HPCDJSj1xRqk73JOnvCtBYjxHPH0807dCvHQ9M736IBQ9fewNO38w2zwQCdy8bkKfvZEoZDz40dA8",
                "QOSdul1WnT1oKRI99RTkO31R5bjUw/q7ZIADvBnaFr1Q66I9rNEKPVQpurz2Baq8dV73u5/mDL3jNfE8DZqwO+SaaDxFIQo7gfHUPDPJ1bxVuAq9TQppPd1MCbwY6P28+ZkVPeshNrwJ5tU8h06qOxb8kzyr+UW93Wbku2qSYr3l0QA8BBB9vVLMKDwUk1m8XozJvRtAi7oQwSY9rv+ZPWCZKTuNXBm7ggYVPX96e7283xy9mYFmvODIi7wjJ6s9PyrXvFpUSD0BlDY8FvZgunEPX7qKTwG9EZyuPK2gWL1SgKK9qIdQPBMXpbxqQwK8eiJtPAZ7GD0qaT29HXCUPYA0BL3GQAM7Inv2vFnNcj0Uh+A6gUeMOo1s2zstER89Ysc5vZ+9MTxerM+7O0N9vIlo1jw/tQ29R/gEPd6w47v3jU89yveSPJrRbzz7+k691+o0PEJklzyMglG9NHZZvUwSML3C6lU90itevQrrILzmvl88p3FuPN10rbv/dZM50n0uvCDgeDxKndc8refiPNny/rw4IUs8UFclvcZQhz49/yU9fsaePDKPnj0ClA89pA/kvBHbJD1sFDa8BKkSvIilbTvHKMA8FlvIvMCW8jukUwg8nTyYvC7FkL2ysQu9K5WMPNWt6LywtIk9l8cEPWlZYTvbtXk83Eypuw0mI73Z3gs9AUx6vEXFhL0ZjJq8HoiWvD6EqDxNSUM6rbIRPUZ3Nb0eycA8BlwOO8gpvLznuYS8f/iSvJnTvDztAbS6cRdsvQeyvjyxBbQ7Bveuu+XYDjt2TPk8sW61vI2wnbyRyNo8det0u6o3zboozRO8A7N1uzT0Or2fbIG9RAYCPDkvjL0kZQ6+CzOJO/gsIb2QauI9Rf8pPNOynrwI4jC9bbSVPRfCobpy8Lq7+6ipvUuXUD1K3Ay9BpJUPJz9nj0QPXs8vrapPEpVXbw29YM8LDmMPEC1Vz3MoZG8Mytpved2HT2jv2Y9skwhPXI2uDxa8E89oTCEvEqOcLzTIKk8",
                "b7czu2tkwztQ3xQ8201YPOLE97zL3bK8fqfPPeMZgTxhGVO9IF7TOxowb7068RC8HoD5vG+It7yjJgs8U8bTO1wzVruR/qW9l8ayPNNE3bu7WQG9wYtcPh+Nhj3N/2a87QdgPJE277xK04c9KYFfPQmNhbvtOqa8v7v1t806qr2HDg4+RUYvPZbygr3IH728R/a3vPpXzLoh/U693nCdvUj2rLoidxy8+7vFu6ugJb0bF2E7skITPNMoSjyva+W80A8XPZDE2jyUQ1U9ACiZvJIwP7ygFrU7WggVPTZ77D3YJ4K9jimNOxW+HL3Im5O9kSxKPQqE4Lxj1547/OwhvQGRfTyrkCc9qK2TvL7e3T2kNJo95c8iPVgVoDwVXkE9T7ttPIg6jjwd3w4+yVdBvYSAHr2OuVC9BNPyuuo1PzyXlwk9tzcgvMHl27yOhp48chqpveMiAb19awQ9y4qEvbpHhTwQW+u9rNxePKggbTxB9x49tsLQvU+EtDxDEo29lm1APLWcEr2rdkU8cioRvIAqhT3Wf7o8G7StPPqfejw11ZS9aH6CvemAhb0T8wI+rTIdO4GnzLxpweu+tuIdvRtkGr33yNq7Rjz6vK3QyLwHZSa85uTHvH0XNbzvjci7iBhvPKRFub0CG2K8tX2xvDyja7zJGA+99h0jvXKTjjw1J4o8+YMovVb1pruwB/m8Kt5lvGPlAL3SHj69aQLSvLEdg72tmOq8P/hovBujKzyV+0q82nuJukuv4bxDpje8ABQrvKfjQLzIoE49UvrkvP2LojjVohU8NbJZvS0KqLvQzua6F6e2vDK11jzR7Ia8K2USvXWo57zEKE69qhuEPAh8uLx7R6K8JBp0vE+iuTveLgg9dzMIvcWUnLuKdxa9TrlZvN8Z67xQFfq8/GnivCL1FD09NOy6zhyAvOGwjbvvLHQ8qF6qPLccF7y3SAu7uOd+vRsCcDv/xCS8OIGhvONyo7zjmII8YuOgvXfs6TxJuQm9IqIuOmR+4rxWoG+9",
                "z5JdPImz5bx0CCo72jkAPXjMzrzMf8G78DyMPFlxLr0XJho8KK6YvERBmL1rfwE7av7OO4ALVLyF7Es7SBUGuUXVyTxuEhG9mr6nPrnDjjyL2QG833NJOmYN770+u0W7/qyQuuGvmLwT+pG8eTrpO+I/KL1LWZM8TlWOvQxMiT1ujyq9fw8OvBCxubzll9A7epwLvfoE0DwYKIk85OGoujgJIT0RVSS9AfrlvCOQ9bwTuDC8UZXruwXrALz+Lry8hctKveBOAr0QZDg7VhU2uxU7v7xPZQq9odnCunwDDL1qkJ28D3UVPNfopTxJWWM+ecvrPI7t4jwoHWm8Y1oAvVfAnLxyjLo8RtKmvJ1R2zxD4Bu9h1vIOw6GNTxLtOO8tHXkPGKZU7yhc0q8k3brvFnvGTzTuHG8gMNcvXIBqrznNRK9Mkf0PJyK8DsGJX49j1ObvPhuCD00h0q8sM+xu1TICrveHIq8RUwYPRy1hzsO+vK8WhVYvMr3gbtXKkO9y0oQvX5ZW72rN3o85aiLu4qmADxa8y090W8SPBrBs7tRys48nU0lveLWPjxI2co8ab3HPB3DQT1EvtY7JyEqvQn++7tbKig9rWy9vCXfnby7JuG9F+UDPAGxBLzELR69oecqvDlfljsdbw294d9DvR8Cpzzs4FQ8lZ97vD3icDwUsGo8/wpDvLQwoLungwk9RuKzPOI4obyy/GU8NARDvIR31TrckPw9fWJcPWYYbrqdPPs8dNwqO2StljuRewO9AjuEuhWsoryLdig8PDyxu+81DD1/yki8VMH1vIAoA707HQK9O6a9OjnogDyeqpI84g3uO3yfGj2mBho97aZdPXKlgzt0WqO9Fiw4PawSv7yCsxS8aXceOp5vUjugp8S8yj1UvGZGiDzFq089MKW5uiPgG70Yx/M7dDCrvErJ3T1yDQq8xi6EvNj7uTygiTa94+FqPIkIK7xJ3Ky8hzVCvMLTv7sdO/k7jKv5OldktTqf9b+7gPJCvuzrDT1wovU6",
                "1jcePYFiDD2whlM8IiAIvFVLe70CoIY8Emguu1Wjj7rjGFu8h4XgvNEv3LwByIi94nHNvDearbxv9ce6XdgbPRGPdr2+R7o8DHLGPNRZBD0aFF+9pV2bPHV0mjlxGGO9C/xvPVX1zjw8YzQ89VmBvcYbgzzctAM9erpAvVvmproIazo94gqwu0vJEz2mgl47bTHxOdKMkzx0tXQ74t23vEfkkT11sne8ZCcTPXSW97xjzWy9y7YCvLRSnDxxWRG9heQFu4vCaT2V4jQ9LjM0PP7VJz70KbS9F/u8vOLYK72KBic8zAjcPJXXGz0P5iU8BDkxvTg+Pj39Uq28094CvdldtDyng2A78yHWPOFw1z3m4Cy9T6fsO45rUDwQzIc9ijEKOy2wDzu6y7U7Jt5IvTWAjDyOEWG8uLr5PF8fFTyvA9E8hSTYu2ZM3jy4Oo+9jVBgvDB1jj1y3187v3+1vOtC3bygDTe8xBYxO0uFJT2+7EO9J3wovLyFvjzyIbG8m1ClvLb51bykzyk98H0vPWMeCL0eGYk75si3PMvAorsBlz098pGdPHTE07y8hKc7qjvTPBV8KDwdhkU9CEeBu4d6QTsm0n88u9ZjvIhVc7whdng8LiYWvSVcrbyvISi98a9wvGPSCLoYhEq97wBTvLiZtDwMlQA9Q9ExvcNXvjyM9VE8IX4zOq49Ij0v9UM85ZW2vA3t/7z5d6K8CUDLPGi6SrxLwbm7/UgvPYgah73lvqU8Dik0u4eY3T285ZK9GQ3ivHWQ3zwjG2u8qae9vGPqDr3VQBK+6qQvPMlz3TwxoQ88RlhmPPyVszuIL6+7NU0CvZ5cJL2UST28rgIMvfY/3j2DTsw8wjeOPIC6bTxhqK27v7cDvAUNqDxCDYe8SRQ7vTsNG704W2s9jSPAO/ZqHL3hz1O8MRIjvfNMo7um3ya8GoW9PHWihbyeHCE8tzvqu9FeAzxE5WQ7TvH2PDfWjDuEjwG9icM9O6gX8TwinUQ9q1YgveNkubxxMEU9",
                "Y/fDPGTtubw62Vg8s7uqvB3rAbxrWYi8kULHvLL6Bby0RoK84NUFPD8sf7zUNOa7KKXDuxHBHzwbD5M8RE8GvaYjYbvmxKU84XvhvOrhjLuR5wA9iMyjvO9uUTzaEQ29F/cTvGmJWrwmTj29VFzpumDTM7yPeKY9l++qu7sNibx2Eja3TGe6O1xggrz0CiA9sA8gvbWU6LxwjJa85f2KvG6ojDzs7ge9rnT2vPZD/DwHZFe8xszwPHHfarx5W9A8jWi4O1gUnD24sui875dUvaHTbr1+uWo8O731u9mGqr3alh48SkCOvnFANrszYNM7xBJ8O0cunj1d8B+9S7mIO7f4hj1WYFe8hWobvL0jPb0DCaW6r1UyPd/JXL3ayka7kmfou1KvzjxTDFy8dmUSPvD3vTwOfJe9trfXvElDETwfymG8klbDOyG7H7yo9ja9wT4EPNSatLz/Ixg9ho2+O42gaDwInFE8DwMvPUE+zLxU3q67MAjTO3DlqbzMR427Abj1vCIkj7zNK+A9D34yPLyvN70o4P87lyKMPZJdETxbJyQ9oLAqPdlS9zv53qm6Fx7KvAgw97xnYkE9SUoju0p2mDxJI6y6GPg6vK+U9jyUp469g5nYvMKx1LsVowE9Efw2vY8IgLpNqsk8OV2jvdnJa7z+BAS9CYcavG/pW70dxyw88Qm6PEjh8jwPJ1s9QCylO6e1Ij3n7SE7gj+VPAjc8bsdzwI8PAqtvLFNMb3Y6Js8YeOqOlE/Sr0enYs9YvmFvOUAebqJKCy96NgTPJKvAL1ylXw8IuAWPfvqDL09f+O89vEfvN8nxTwT+4u8KHUPvZmxx7yCoNg8VsUEPns/87vk+WE9XEwYuYZkcrzbPjC81aCnOj1u/zzOTV28ka+DvMg49Dy0bdI9J7JbO/kBkj37LzQ7ypK5uwNIEL3MOzQ79E8DPXE1qDys0SC9RzJXOyqCjrz1Qeu8LHNdPEoBj7sOpB68YFMfvKeE7LybvzA80PjKvOYfNr1UfII8",
                "GEAhPbv0WLxx3TU93gMQPSBRjj0MKDE7WiurPVkKA73oosM7qvqAPY0Onb36D788kml4PXADtrwTkEi8wdI/vZhoIz3CgAS8l0ZRPVwzojyz9mm7amYEPd3fB71NPA48a8exPdNW97zZIZ87PXwUu+5gxbvywg+9EHkovcLNr7wJyRs9/B6WvDY6Lz2ee8o9hbDrvDhiE7wjRQk9mdapuoLfZLy5/Rq9rGovvPMEDLzefii9TNB1PCsk/7yRhr2+J9WOPK69OryOIoS9Cp7UPMScPDwn4Wa9OQ25vYEJWj2eVLI8zMR6vGbNcDzj2ks8S+2cvIyOQzze+Y49Az+vu+JaND0KKho83OjsPNaNBT1HeTc84aT+PN/p5bz9rse7b0R7Oqa9zbxdtdY730Lqu5OQj7zbpTU8dwh2PBcAfzwyYxQ7H1w+PVsa4LzQ/y+82T5yvT+bWTxmuA09TceCOk14ibzzbQ69LyuBvYKBujzi8hW9xIJvvRruEz0Ry9a8MBq6vPp2IrfFbrI9mmwLvOoANj3hBNi8PvbLOtPZVTsEy4i8IP51PDhi0zwXPN68dItxO5xSBj3xDVi8dDvqPDxa/jysQpU7hcRPvJjd07xBXUe8qxiPvAMrPzpH0Hk8gFStPGJ21j3HswQ69tVoPExPYTyJ0dO8WKQyu+/8Gj1UqiO839pLPPfRlj0jUBO7Exf/u/zsur3YpIE8HsCpvAnBmTxIaHK9lEKxvI1FUz1GRgk96TEnPdxx1Txin8S7s3QQvJi/cD2E8129G/rBPNwHwzw7Zpc8VapNOzMiqrxfU3k8K5fMPX/N3TsBtDU80nUjPfGoWzqK8Q29/UQUPTtwXL3XGW+84BiQu6D41LwWa488jM3tPOMhljtMHXO8XsQGPYvrMTvFRHg9kLefO1kLOT23pIY84xOtuns9tLwWCkE7X0sQvaDggL1pCsS6hb1oOyqXSb15f1E9BUqHvHjjAbw6S188Cf/uO3gXgjyWRyK+O53+vNb8vjzV3wk9",
